{
  "version": "1.0",
  "truncation": null,
  "padding": null,
  "added_tokens": [
    {
      "id": 0,
      "content": "<|endoftext|>",
      "single_word": false,
      "lstrip": false,
      "rstrip": false,
      "normalized": false,
      "special": true
    },
    {
      "id": 1,
      "content": "<|im_start|>",
      "single_word": false,
      "lstrip": false,
      "rstrip": false,
      "normalized": false,
      "special": true
    },
    {
      "id": 2,
      "content": "<|im_end|>",
      "single_word": false,
      "lstrip": false,
      "rstrip": false,
      "normalized": false,
      "special": true
    }
  ],
  "normalizer": {
    "type": "NFC"
  },
  "pre_tokenizer": {
    "type": "Sequence",
    "pretokenizers": [
      {
        "type": "Split",
        "pattern": {
          "String": "(?i:'s|'t|'re|'ve|'m|'ll|'d)|[^\\r\\n\\p{L}\\p{N}]?\\p{L}+|\\p{N}| ?[^\\s\\p{L}\\p{N}]+[\\r\\n]*|\\s*[\\r\\n]+|\\s+(?!\\S)|\\s+"
        },
        "behavior": "Isolated",
        "invert": false
      },
      {
        "type": "ByteLevel",
        "add_prefix_space": false,
        "trim_offsets": true,
        "use_regex": false
      }
    ]
  },
  "post_processor": {
    "type": "ByteLevel",
    "add_prefix_space": false,
    "trim_offsets": true,
    "use_regex": false
  },
  "decoder": {
    "type": "ByteLevel",
    "add_prefix_space": true,
    "trim_offsets": true,
    "use_regex": true
  },
  "model": {
    "type": "BPE",
    "dropout": null,
    "unk_token": null,
    "continuing_subword_prefix": "",
    "end_of_word_suffix": null,
    "fuse_unk": false,
    "byte_fallback": false,
    "ignore_merges": false,
    "vocab": {
      "<|endoftext|>": 0,
      "<|im_start|>": 1,
      "<|im_end|>": 2,
      "!": 3,
      "\"": 4,
      "#": 5,
      "$": 6,
      "%": 7,
      "&": 8,
      "'": 9,
      "(": 10,
      ")": 11,
      "*": 12,
      "+": 13,
      ",": 14,
      "-": 15,
      ".": 16,
      "/": 17,
      "0": 18,
      "1": 19,
      "2": 20,
      "3": 21,
      "4": 22,
      "5": 23,
      "6": 24,
      "7": 25,
      "8": 26,
      "9": 27,
      ":": 28,
      ";": 29,
      "<": 30,
      "=": 31,
      ">": 32,
      "?": 33,
      "@": 34,
      "A": 35,
      "B": 36,
      "C": 37,
      "D": 38,
      "E": 39,
      "F": 40,
      "G": 41,
      "H": 42,
      "I": 43,
      "J": 44,
      "K": 45,
      "L": 46,
      "M": 47,
      "N": 48,
      "O": 49,
      "P": 50,
      "Q": 51,
      "R": 52,
      "S": 53,
      "T": 54,
      "U": 55,
      "V": 56,
      "W": 57,
      "X": 58,
      "Y": 59,
      "Z": 60,
      "[": 61,
      "\\": 62,
      "]": 63,
      "^": 64,
      "_": 65,
      "`": 66,
      "a": 67,
      "b": 68,
      "c": 69,
      "d": 70,
      "e": 71,
      "f": 72,
      "g": 73,
      "h": 74,
      "i": 75,
      "j": 76,
      "k": 77,
      "l": 78,
      "m": 79,
      "n": 80,
      "o": 81,
      "p": 82,
      "q": 83,
      "r": 84,
      "s": 85,
      "t": 86,
      "u": 87,
      "v": 88,
      "w": 89,
      "x": 90,
      "y": 91,
      "z": 92,
      "{": 93,
      "|": 94,
      "}": 95,
      "~": 96,
      "¡": 97,
      "¢": 98,
      "£": 99,
      "¤": 100,
      "¥": 101,
      "¦": 102,
      "§": 103,
      "¨": 104,
      "©": 105,
      "ª": 106,
      "«": 107,
      "¬": 108,
      "®": 109,
      "¯": 110,
      "°": 111,
      "±": 112,
      "²": 113,
      "³": 114,
      "´": 115,
      "µ": 116,
      "¶": 117,
      "·": 118,
      "¸": 119,
      "¹": 120,
      "º": 121,
      "»": 122,
      "¼": 123,
      "½": 124,
      "¾": 125,
      "¿": 126,
      "À": 127,
      "Á": 128,
      "Â": 129,
      "Ã": 130,
      "Ä": 131,
      "Å": 132,
      "Æ": 133,
      "Ç": 134,
      "È": 135,
      "É": 136,
      "Ê": 137,
      "Ë": 138,
      "Ì": 139,
      "Í": 140,
      "Î": 141,
      "Ï": 142,
      "Ð": 143,
      "Ñ": 144,
      "Ò": 145,
      "Ó": 146,
      "Ô": 147,
      "Õ": 148,
      "Ö": 149,
      "×": 150,
      "Ø": 151,
      "Ù": 152,
      "Ú": 153,
      "Û": 154,
      "Ü": 155,
      "Ý": 156,
      "Þ": 157,
      "ß": 158,
      "à": 159,
      "á": 160,
      "â": 161,
      "ã": 162,
      "ä": 163,
      "å": 164,
      "æ": 165,
      "ç": 166,
      "è": 167,
      "é": 168,
      "ê": 169,
      "ë": 170,
      "ì": 171,
      "í": 172,
      "î": 173,
      "ï": 174,
      "ð": 175,
      "ñ": 176,
      "ò": 177,
      "ó": 178,
      "ô": 179,
      "õ": 180,
      "ö": 181,
      "÷": 182,
      "ø": 183,
      "ù": 184,
      "ú": 185,
      "û": 186,
      "ü": 187,
      "ý": 188,
      "þ": 189,
      "ÿ": 190,
      "Ā": 191,
      "ā": 192,
      "Ă": 193,
      "ă": 194,
      "Ą": 195,
      "ą": 196,
      "Ć": 197,
      "ć": 198,
      "Ĉ": 199,
      "ĉ": 200,
      "Ċ": 201,
      "ċ": 202,
      "Č": 203,
      "č": 204,
      "Ď": 205,
      "ď": 206,
      "Đ": 207,
      "đ": 208,
      "Ē": 209,
      "ē": 210,
      "Ĕ": 211,
      "ĕ": 212,
      "Ė": 213,
      "ė": 214,
      "Ę": 215,
      "ę": 216,
      "Ě": 217,
      "ě": 218,
      "Ĝ": 219,
      "ĝ": 220,
      "Ğ": 221,
      "ğ": 222,
      "Ġ": 223,
      "ġ": 224,
      "Ģ": 225,
      "ģ": 226,
      "Ĥ": 227,
      "ĥ": 228,
      "Ħ": 229,
      "ħ": 230,
      "Ĩ": 231,
      "ĩ": 232,
      "Ī": 233,
      "ī": 234,
      "Ĭ": 235,
      "ĭ": 236,
      "Į": 237,
      "į": 238,
      "İ": 239,
      "ı": 240,
      "Ĳ": 241,
      "ĳ": 242,
      "Ĵ": 243,
      "ĵ": 244,
      "Ķ": 245,
      "ķ": 246,
      "ĸ": 247,
      "Ĺ": 248,
      "ĺ": 249,
      "Ļ": 250,
      "ļ": 251,
      "Ľ": 252,
      "ľ": 253,
      "Ŀ": 254,
      "ŀ": 255,
      "Ł": 256,
      "ł": 257,
      "Ń": 258,
      "ä¸": 259,
      "ï¼": 260,
      "ï¼Į": 261,
      "çļ": 262,
      "çļĦ": 263,
      "ãĢ": 264,
      "äº": 265,
      "ãĢĤ": 266,
      "čĊ": 267,
      "ä»": 268,
      "åı": 269,
      "æľ": 270,
      "è¿": 271,
      "åħ": 272,
      "æĺ": 273,
      "åĪ": 274,
      "å¤": 275,
      "æĪ": 276,
      "ä½": 277,
      "å®": 278,
      "çĶ": 279,
      "åľ": 280,
      "åĲ": 281,
      "è¯": 282,
      "æĺ¯": 283,
      "ä¸Ģ": 284,
      "æĸ": 285,
      "åĴ": 286,
      "ãĢĤčĊ": 287,
      "ä¹": 288,
      "åĴĮ": 289,
      "ç»": 290,
      "åĬ": 291,
      "å°": 292,
      "åŃ": 293,
      "è®": 294,
      "ãĢģ": 295,
      "å¹": 296,
      "ä¸ª": 297,
      "ï¼ļ": 298,
      "ä»¥": 299,
      "åľ¨": 300,
      "åĽ": 301,
      "æĹ": 302,
      "åº": 303,
      "éĢ": 304,
      "æķ": 305,
      "æĿ": 306,
      "ä¼": 307,
      "éĩ": 308,
      "æľī": 309,
      "ĥ½": 310,
      "è¡": 311,
      "ä¸į": 312,
      "äºĨ": 313,
      "äºº": 314,
      "å¸": 315,
      "ä¸Ń": 316,
      "åı¯": 317,
      "âĢ": 318,
      "åĩ": 319,
      "è¿Ļ": 320,
      "æĪĳ": 321,
      "åĨ": 322,
      "ä¸º": 323,
      "åĮ": 324,
      "åį": 325,
      "å·": 326,
      "å¯": 327,
      "å¾": 328,
      "æī": 329,
      "å¼": 330,
      "çī": 331,
      "è§": 332,
      "çĶ¨": 333,
      "æĢ": 334,
      "ç§": 335,
      "èĢ": 336,
      "è¦": 337,
      "æł": 338,
      "è¦ģ": 339,
      "çİ": 340,
      "çŃ": 341,
      "èĥ½": 342,
      "å¥": 343,
      "éĹ": 344,
      "çĽ": 345,
      "ä»¬": 346,
      "é¢": 347,
      "æŀ": 348,
      "éĿ": 349,
      "æ³": 350,
      "å½": 351,
      "æŃ": 352,
      "æĬ": 353,
      "èĩ": 354,
      "è´": 355,
      "åı¯ä»¥": 356,
      "åĵ": 357,
      "çĲ": 358,
      "çĶŁ": 359,
      "ĠĠ": 360,
      "å¤§": 361,
      "æķ°": 362,
      "æĹ¶": 363,
      "ä¸ĭ": 364,
      "æĿ¥": 365,
      "çļĦæ": 366,
      "æĪĲ": 367,
      "ä¿": 368,
      "åĳ": 369,
      "å¦": 370,
      "è¡Į": 371,
      "åŃ¦": 372,
      "äºİ": 373,
      "æĭ": 374,
      "å¯¹": 375,
      "åİ": 376,
      "æ°": 377,
      "åĪ°": 378,
      "æĸĩ": 379,
      "æĶ": 380,
      "ä¸Ĭ": 381,
      "æİ": 382,
      "æĸ¹": 383,
      "ä¸Ģä¸ª": 384,
      "èµ": 385,
      ".Ġ": 386,
      "å¿": 387,
      "è¾": 388,
      "å±": 389,
      "åĪĨ": 390,
      "åĩº": 391,
      "ä¼ļ": 392,
      "å¦Ĥ": 393,
      "æĦ": 394,
      "æ¯": 395,
      "æµ": 396,
      "çº": 397,
      "å¹´": 398,
      "åľ°": 399,
      "æĽ": 400,
      "æı": 401,
      "ä¾": 402,
      "éĻ": 403,
      "æĥ": 404,
      "ç®": 405,
      "ä½ľ": 406,
      "èĩª": 407,
      "ä»ĸ": 408,
      "æį": 409,
      "çŃī": 410,
      "éĿ¢": 411,
      "ï¼Ł": 412,
      "å¤ļ": 413,
      "è½": 414,
      "æĮ": 415,
      "çľ": 416,
      "æ²": 417,
      "åŃĲ": 418,
      "éľ": 419,
      "è¿ĩ": 420,
      "ï¼ļčĊ": 421,
      "å¥½": 422,
      "çĲĨ": 423,
      "âĢľ": 424,
      "âĢĿ": 425,
      "åŁ": 426,
      "åĬ¨": 427,
      "å®ļ": 428,
      "ä½ł": 429,
      "åıĳ": 430,
      "ä¹Ł": 431,
      "æ³ķ": 432,
      "çİ°": 433,
      "å¹¶": 434,
      "çī©": 435,
      "æ¸": 436,
      "åĽ½": 437,
      "åĲĮ": 438,
      "ç±": 439,
      "ä½ĵ": 440,
      "æĪĳä»¬": 441,
      "åħ¶": 442,
      "ç§į": 443,
      "æľĢ": 444,
      "éľĢ": 445,
      "éĺ": 446,
      "åĮĸ": 447,
      "æĢ§": 448,
      "è¿Ľ": 449,
      "ç«": 450,
      "æĽ´": 451,
      "é¢ĺ": 452,
      "ç¨": 453,
      "æ´": 454,
      "æıĲ": 455,
      "äºĽ": 456,
      "å°Ĩ": 457,
      "åĲİ": 458,
      "æ¬": 459,
      "é«": 460,
      "é«ĺ": 461,
      "å°ı": 462,
      "éĢļ": 463,
      "ä½¿": 464,
      "åģ": 465,
      "åº¦": 466,
      "åħ³": 467,
      "å·¥": 468,
      "å®¶": 469,
      "éģ": 470,
      "è¡¨": 471,
      "èĤ": 472,
      "åĬł": 473,
      "èī": 474,
      "åĬĽ": 475,
      "æľ¬": 476,
      "æ±": 477,
      "åī": 478,
      "æĪĸ": 479,
      "çĤ": 480,
      "åºĶ": 481,
      "æĻ": 482,
      "æį®": 483,
      "åĢ": 484,
      "æŀľ": 485,
      "ï¼ī": 486,
      "ä¹ĭ": 487,
      "ï¼Ī": 488,
      "åĽł": 489,
      "éĩı": 490,
      "éĹ®": 491,
      "æľº": 492,
      "åĵģ": 493,
      "çŁ": 494,
      "é£": 495,
      "å¾Ĺ": 496,
      "åĲĪ": 497,
      "æĸ°": 498,
      "ç½": 499,
      "ç¬": 500,
      "éľĢè¦ģ": 501,
      "çĦ": 502,
      "èĢĮ": 503,
      "ç±»": 504,
      "å¸¸": 505,
      "éĹ´": 506,
      "ç³": 507,
      "è®¡": 508,
      "å®ĥ": 509,
      "å®ŀ": 510,
      "è°": 511,
      "éĩį": 512,
      "è§£": 513,
      "ç»ı": 514,
      "é¡": 515,
      "æ¡": 516,
      "æīĢ": 517,
      "è¶": 518,
      "ç¨ĭ": 519,
      "åħ¬": 520,
      "å°±": 521,
      "ä¸ļ": 522,
      "ä¹Ī": 523,
      "éķ": 524,
      "ç¤": 525,
      "èĬ": 526,
      "çĦ¶": 527,
      "éĢī": 528,
      "éĶ": 529,
      "éĥ½": 530,
      "ç¡": 531,
      "ä¿Ŀ": 532,
      "ä¸»": 533,
      "ç¾": 534,
      "çĽ¸": 535,
      "ç©": 536,
      "ä¸İ": 537,
      "00": 538,
      "å»": 539,
      "å¤©": 540,
      "|Ġ": 541,
      "ï¼ŁčĊ": 542,
      "çĤ¹": 543,
      "åħ¥": 544,
      "éĥ": 545,
      "è¯Ń": 546,
      "ãĢĤĠ": 547,
      "çł": 548,
      "è·": 549,
      "å¢": 550,
      "çĶµ": 551,
      "ç´": 552,
      "å¼ı": 553,
      "äº§": 554,
      "è¿ĺ": 555,
      "çĿ": 556,
      "è¯´": 557,
      "ä½¿çĶ¨": 558,
      "éĤ": 559,
      "å¼Ģ": 560,
      "çī¹": 561,
      "éĹ®é¢ĺ": 562,
      "æĹ¥": 563,
      "æĤ": 564,
      "æĦŁ": 565,
      "ç³»": 566,
      "æĬĢ": 567,
      "èĢħ": 568,
      "ä»£": 569,
      "åĪ¶": 570,
      "äºĭ": 571,
      "åĿ": 572,
      "å»º": 573,
      "æŃ¤": 574,
      "æĦı": 575,
      "éĥ¨": 576,
      "æ¯Ķ": 577,
      "è¿Ļä¸ª": 578,
      "ç®Ĺ": 579,
      "å¿ĥ": 580,
      "åĨħ": 581,
      "ï¼Įå¹¶": 582,
      "çŃĶ": 583,
      "åŃĹ": 584,
      "å¾Ī": 585,
      "éķ¿": 586,
      "ç»ĵ": 587,
      "æĥħ": 588,
      "ä½Ĩ": 589,
      "éļ": 590,
      "æ¡Ī": 591,
      "æģ": 592,
      "èī²": 593,
      "æĺİ": 594,
      "çķ": 595,
      "ç»Ļ": 596,
      "åīį": 597,
      "å½ĵ": 598,
      "éħ": 599,
      "å¸Ĥ": 600,
      "åĲį": 601,
      "è¯¥": 602,
      "è¢": 603,
      "åħ¨": 604,
      "æŁ": 605,
      "ç¼": 606,
      "èģ": 607,
      "è®¾": 608,
      "éĽ": 609,
      "éĩĮ": 610,
      "ç¾İ": 611,
      "ä¿¡": 612,
      "è¿Ľè¡Į": 613,
      "åŀ": 614,
      "æľĪ": 615,
      "é¦": 616,
      "ç¡®": 617,
      "ä»İ": 618,
      "å½±": 619,
      "æ°´": 620,
      "å§": 621,
      "éª": 622,
      "çĥ": 623,
      "çĿĢ": 624,
      "ä»¥ä¸ĭ": 625,
      "å¹³": 626,
      "éģĵ": 627,
      "åħ·": 628,
      "å·±": 629,
      "å¤ĸ": 630,
      "æľ¯": 631,
      "çľĭ": 632,
      "åıĺ": 633,
      "ĠĠĠĠ": 634,
      "åĬ¡": 635,
      "èĭ": 636,
      "èĩªå·±": 637,
      "ä½į": 638,
      "è¢«": 639,
      "æ·": 640,
      "åĮħ": 641,
      "çĽ®": 642,
      "åıĬ": 643,
      "èĲ": 644,
      "éĤ£": 645,
      "æŃ£": 646,
      "åľº": 647,
      "ä¹ł": 648,
      "ä¸¤": 649,
      "ç§ĳ": 650,
      "è´¨": 651,
      "æľŁ": 652,
      "æ´»": 653,
      "åŁº": 654,
      "åĪ©": 655,
      "åķ": 656,
      "åįķ": 657,
      "æĤ¨": 658,
      "åŀĭ": 659,
      "æ°Ķ": 660,
      "çĲĥ": 661,
      "-Ġ": 662,
      "æ²¡": 663,
      "æłĩ": 664,
      "æĮģ": 665,
      "æīĭ": 666,
      "åĮº": 667,
      "åĸ": 668,
      "æĥ³": 669,
      "æł¹": 670,
      "äº¤": 671,
      "çŁ¥": 672,
      "åĽŀ": 673,
      "å±ķ": 674,
      "èĢĥ": 675,
      "æ¶": 676,
      "éĢĤ": 677,
      "è®©": 678,
      "åĻ": 679,
      "çļĦï¼Į": 680,
      "èµ·": 681,
      "ä¾ĭ": 682,
      "åĪĹ": 683,
      "è½¦": 684,
      "åı¯èĥ½": 685,
      "ç¬¬": 686,
      "åĳĺ": 687,
      "æł·": 688,
      "çĪ": 689,
      "æķ°æį®": 690,
      "éĿŀ": 691,
      "è®º": 692,
      "ç¥": 693,
      "ä¾Ľ": 694,
      "ä»Ģ": 695,
      "æł¼": 696,
      "åĪ«": 697,
      "20": 698,
      "æĹł": 699,
      "ä¸Ńï¼Į": 700,
      "åİ»": 701,
      "è¯į": 702,
      "ç»Ħ": 703,
      "çİ¯": 704,
      "éĢļè¿ĩ": 705,
      "ç»Ł": 706,
      "æĺ¯ä¸Ģ": 707,
      "åĻ¨": 708,
      "èº": 709,
      "é¡¹": 710,
      "æĢ»": 711,
      "ä»Ģä¹Ī": 712,
      "ä»»": 713,
      "æ®": 714,
      "æĪ·": 715,
      "åı¥": 716,
      "èĪ": 717,
      "ä»¶": 718,
      "æ¸¸": 719,
      "ä¸ī": 720,
      "éĴ": 721,
      "å¦Ĥæŀľ": 722,
      "èĥ": 723,
      "ï¼Įè¿Ļ": 724,
      "çŃĶæ¡Ī": 725,
      "æ¬¡": 726,
      "èº«": 727,
      "çģ": 728,
      "æ¯ı": 729,
      "å¤Ħ": 730,
      "èį": 731,
      "åĬ©": 732,
      "è¿Ĳ": 733,
      "å£": 734,
      "åħĥ": 735,
      "åºı": 736,
      "åĨĻ": 737,
      "çĸ": 738,
      "è¯·": 739,
      "å½¢": 740,
      "èµĦ": 741,
      "èĻ": 742,
      "åı¸": 743,
      "éŁ": 744,
      "ç²": 745,
      "åıĹ": 746,
      "ä½ķ": 747,
      "æĺŁ": 748,
      "è¿°": 749,
      "ï¼Įä½Ĩ": 750,
      "çĭ": 751,
      "ä¸įåĲĮ": 752,
      "çĻ": 753,
      "æİ¥": 754,
      "å®ī": 755,
      "æıĲä¾Ľ": 756,
      "è¯Ŀ": 757,
      "19": 758,
      "æł¹æį®": 759,
      "å°ĳ": 760,
      "ä¹Ĳ": 761,
      "æķĪ": 762,
      "æ¨": 763,
      "æ±Ĥ": 764,
      "åıĸ": 765,
      "ä¸ĢäºĽ": 766,
      "åıĤ": 767,
      "çĶ±": 768,
      "ï¼Įä»¥": 769,
      "åĢ¼": 770,
      "æ³¨": 771,
      "æķĻ": 772,
      "ä¸įæĺ¯": 773,
      "é£Ł": 774,
      "æ»": 775,
      "æģ¯": 776,
      "ãĢĭ": 777,
      "ãĢĬ": 778,
      "åıª": 779,
      "çº¿": 780,
      "ç´ł": 781,
      "çľŁ": 782,
      "å¼º": 783,
      "é©": 784,
      "å®¹": 785,
      "åĨ³": 786,
      "éĵ": 787,
      "é£İ": 788,
      "æµģ": 789,
      "åŃ¦ä¹ł": 790,
      "æĭ©": 791,
      "é»": 792,
      "æ¨¡": 793,
      "ä»·": 794,
      "éĢīæĭ©": 795,
      "æĻº": 796,
      "ä»ĸä»¬": 797,
      "éĩĳ": 798,
      "è°ĥ": 799,
      "èĦ": 800,
      "æĶ¾": 801,
      "åħ¬åı¸": 802,
      "æŃ¥": 803,
      ",Ġ": 804,
      "ç¤¾": 805,
      "åİŁ": 806,
      "åĲĳ": 807,
      "æº": 808,
      "æĬĢæľ¯": 809,
      "èİ": 810,
      "å¯¼": 811,
      "æĸĻ": 812,
      "è¾¾": 813,
      "ç©º": 814,
      "ç¤º": 815,
      "ç½ĳ": 816,
      "æĹ¶éĹ´": 817,
      "å¤Ł": 818,
      "éŁ³": 819,
      "ä¸ŃçļĦ": 820,
      "å¸®": 821,
      "æĭ¬": 822,
      "åĵį": 823,
      "åģļ": 824,
      "è®¡ç®Ĺ": 825,
      "ç¦": 826,
      "ãĢĤè¿Ļ": 827,
      "çŃĶæ¡Īï¼ļčĊ": 828,
      "æķ´": 829,
      "è±": 830,
      "åĪĽ": 831,
      "ä¼ł": 832,
      "èĬ±": 833,
      "æ®µ": 834,
      "æ²¡æľī": 835,
      "ä¸ĸ": 836,
      "æµĭ": 837,
      "åı£": 838,
      "éĿŀå¸¸": 839,
      "éĩįè¦ģ": 840,
      "¥¿": 841,
      "æĮĩ": 842,
      "è£": 843,
      "èĬĤ": 844,
      "in": 845,
      "æľį": 846,
      "æĸ¯": 847,
      "ï¼ĮæĪĳä»¬": 848,
      "è¥¿": 849,
      "ç®¡": 850,
      "è¾ĵ": 851,
      "é¥": 852,
      "æµ·": 853,
      "ç¿": 854,
      "åĮħæĭ¬": 855,
      "è¯ķ": 856,
      "ç«ĭ": 857,
      "è§Ĥ": 858,
      "ç¯": 859,
      "ä¹ī": 860,
      "å¢ĥ": 861,
      "éªĮ": 862,
      "çĹ": 863,
      "åĲĦ": 864,
      "è¨": 865,
      "è¨Ģ": 866,
      "çłĶ": 867,
      "è®®": 868,
      "æĢĿ": 869,
      "åŃĺ": 870,
      "åħĪ": 871,
      "è®¸": 872,
      "å¤ª": 873,
      "å®Į": 874,
      "è¾ĥ": 875,
      "è®¤": 876,
      "åĪĻ": 877,
      "æ¼": 878,
      "on": 879,
      "ä¼ĺ": 880,
      "è§Ĩ": 881,
      "ï¼ĮæĪĳ": 882,
      "ï¼Ľ": 883,
      "æĸ¹æ³ķ": 884,
      "å½±åĵį": 885,
      "æĻºèĥ½": 886,
      "åıį": 887,
      "ï¼Įåı¯ä»¥": 888,
      "çĮ": 889,
      "æĸŃ": 890,
      "çĽ´": 891,
      "è·¯": 892,
      "åĬŁ": 893,
      "å¢ŀ": 894,
      "åĽłæŃ¤": 895,
      "çķĮ": 896,
      "Ġ|Ġ": 897,
      "çİĩ": 898,
      "äºĮ": 899,
      "å·²": 900,
      "10": 901,
      "èĤ²": 902,
      "æİ¨": 903,
      "è¯Ĩ": 904,
      "çĬ": 905,
      "1.Ġ": 906,
      "é¢Ĩ": 907,
      "éĢł": 908,
      "2.Ġ": 909,
      "åİĨ": 910,
      "æĶ¹": 911,
      "åħī": 912,
      "é¦ĸ": 913,
      "å¤ĩ": 914,
      "åıĳå±ķ": 915,
      "ä¸ŃåĽ½": 916,
      "Ġ|": 917,
      "é¢Ħ": 918,
      "å®¢": 919,
      "åĽłä¸º": 920,
      "èĩ³": 921,
      "æĹ¶ï¼Į": 922,
      "æľª": 923,
      "åŁİ": 924,
      "åķĨ": 925,
      "å·¥ä½ľ": 926,
      "ç¯ĩ": 927,
      "å¸¦": 928,
      "å®ĥä»¬": 929,
      "èĭ±": 930,
      "åĵª": 931,
      "ä¿¡æģ¯": 932,
      "âĢĶ": 933,
      "æĶ¿": 934,
      "ç©¶": 935,
      "å¤į": 936,
      "ä¸Ķ": 937,
      "æºĲ": 938,
      "åħĭ": 939,
      "åĶ": 940,
      "æĢģ": 941,
      "æ¸ħ": 942,
      "åħ±": 943,
      "å§ĭ": 944,
      "æĸĩæľ¬": 945,
      "èı": 946,
      "æīĵ": 947,
      "å°Ķ": 948,
      "è§Ħ": 949,
      "æĪĺ": 950,
      "åĩĨ": 951,
      "3.Ġ": 952,
      "å¸®åĬ©": 953,
      "åģ¥": 954,
      "æĪı": 955,
      "åĢĻ": 956,
      "èĥ½å¤Ł": 957,
      "åºĶçĶ¨": 958,
      "çłģ": 959,
      "æī¾": 960,
      "æĸ¹éĿ¢": 961,
      "ç®Ģ": 962,
      "è½¬": 963,
      "æŀĦ": 964,
      "ç«ł": 965,
      "ï¼ĮèĢĮ": 966,
      "æ£": 967,
      "æĶ¯": 968,
      "åħ¶ä»ĸ": 969,
      "æ·±": 970,
      "æ°ĳ": 971,
      "æĶ¶": 972,
      "å¹¿": 973,
      "æİĴ": 974,
      "åŁŁ": 975,
      "ãĢĤåľ¨": 976,
      "æĸ¹å¼ı": 977,
      "çħ": 978,
      "åĪĴ": 979,
      "åĨµ": 980,
      "ç¼ĸ": 981,
      "ä¾ĭå¦Ĥ": 982,
      "èĮ": 983,
      "æĳ": 984,
      "çłĶç©¶": 985,
      "ï¼ģ": 986,
      "éĢŁ": 987,
      "åĩł": 988,
      "éĺŁ": 989,
      "çĪ±": 990,
      "ç³»ç»Ł": 991,
      "å¿«": 992,
      "å¼ķ": 993,
      "èģĶ": 994,
      "å¦Ĥä½ķ": 995,
      "æŀĲ": 996,
      "åºĶè¯¥": 997,
      "äº§åĵģ": 998,
      "è®¾è®¡": 999,
      "éĽĨ": 1000,
      "åĲĹ": 1001,
      "er": 1002,
      "æĺ¯ä¸Ģä¸ª": 1003,
      "å²": 1004,
      "æĬ¤": 1005,
      "ç»Ĩ": 1006,
      "ç¬¦": 1007,
      "çİ¯å¢ĥ": 1008,
      "æŀģ": 1009,
      "ï¼Įåľ¨": 1010,
      "èĩªå·±çļĦ": 1011,
      "éħį": 1012,
      "æıĲé«ĺ": 1013,
      "åĲ¦": 1014,
      "çĶŁæ´»": 1015,
      "åĸľ": 1016,
      "æ¬¢": 1017,
      "åı·": 1018,
      "ç»´": 1019,
      "ç¿»": 1020,
      "å±±": 1021,
      "ä¹¦": 1022,
      "éĻħ": 1023,
      "ç§¯": 1024,
      "å¸ĥ": 1025,
      "å¥¹": 1026,
      "è¿ĳ": 1027,
      "æĪ¿": 1028,
      "è´¹": 1029,
      "æĿ¡": 1030,
      "åĪĨæŀĲ": 1031,
      "eĠ": 1032,
      "åĩı": 1033,
      "çļĦäºº": 1034,
      "ç½®": 1035,
      "è®°": 1036,
      "å¤´": 1037,
      "åĽ¾": 1038,
      "åįĹ": 1039,
      "å¥³": 1040,
      "è¶³": 1041,
      "åĮ»": 1042,
      "ç¥ŀ": 1043,
      "çĶ¨æĪ·": 1044,
      "è¯»": 1045,
      "åı¥åŃĲ": 1046,
      "ä¸¤ä¸ª": 1047,
      "ç»ĵæŀľ": 1048,
      "æĸĩç«ł": 1049,
      "éĹ¨": 1050,
      "åĨĽ": 1051,
      "è¯Ħ": 1052,
      "æĸĩåĮĸ": 1053,
      "ä¸ľ": 1054,
      "è§ī": 1055,
      "è±¡": 1056,
      "200": 1057,
      "è§Ĵ": 1058,
      "æŁ¥": 1059,
      "å¥½çļĦ": 1060,
      "è¶Ĭ": 1061,
      "æĺĵ": 1062,
      "Â·": 1063,
      "è§ģ": 1064,
      "åº·": 1065,
      "èĩ´": 1066,
      "çĥŃ": 1067,
      "æĻ¯": 1068,
      "è£ħ": 1069,
      "æ¸¸æĪı": 1070,
      "è¯ģ": 1071,
      "åĳ³": 1072,
      "æķ°åŃĹ": 1073,
      "åĨį": 1074,
      "è¿ĻäºĽ": 1075,
      "åĲİï¼Į": 1076,
      "å±ŀ": 1077,
      "çĻ½": 1078,
      "è¯ĳ": 1079,
      "å¡": 1080,
      "æĿĲ": 1081,
      "th": 1082,
      "éļı": 1083,
      "å¨": 1084,
      "ä¸ĵ": 1085,
      "æķħ": 1086,
      "çº¦": 1087,
      "éĶ®": 1088,
      "åĩ½": 1089,
      "æ¬¾": 1090,
      "ä½İ": 1091,
      "èĢģ": 1092,
      "å¾·": 1093,
      "å°±æĺ¯": 1094,
      "ıè¿°": 1095,
      "æ¤": 1096,
      "åĳĬ": 1097,
      "åı°": 1098,
      "è¯Ńè¨Ģ": 1099,
      "åĮĹ": 1100,
      "çĬ¶": 1101,
      "åĩ½æķ°": 1102,
      "å¸Ī": 1103,
      "å¤ĦçĲĨ": 1104,
      "ä»½": 1105,
      "é©¬": 1106,
      "æ¸©": 1107,
      "ç±³": 1108,
      "é¸": 1109,
      "ä¸»è¦ģ": 1110,
      "ç²¾": 1111,
      "ç¨ĭåºı": 1112,
      "æĲ": 1113,
      "èİ·": 1114,
      "--": 1115,
      "__": 1116,
      "æľįåĬ¡": 1117,
      "ä¸ĸçķĮ": 1118,
      "å¿ħ": 1119,
      "æĭī": 1120,
      "ç»ĥ": 1121,
      "4.Ġ": 1122,
      "äººå·¥": 1123,
      "çº§": 1124,
      "èĲ¥": 1125,
      "æĬĬ": 1126,
      "an": 1127,
      "çİ°åľ¨": 1128,
      "èĳ": 1129,
      "æĬ¥": 1130,
      "ä¾¿": 1131,
      "åį³": 1132,
      "éĺ³": 1133,
      "èµĽ": 1134,
      "å¯¹äºİ": 1135,
      "èĩªçĦ¶": 1136,
      "æ»¡": 1137,
      "åĥ": 1138,
      "ï¼Įä¹Ł": 1139,
      "åģ¥åº·": 1140,
      "ç¿»è¯ĳ": 1141,
      "éļ¾": 1142,
      "ç»Ń": 1143,
      "åħ³äºİ": 1144,
      "åı²": 1145,
      "æīĢæľī": 1146,
      "ä¸ªäºº": 1147,
      "åįģ": 1148,
      "éĢīé¡¹": 1149,
      "å®ŀçİ°": 1150,
      "åĨħå®¹": 1151,
      "ç§°": 1152,
      "çīĩ": 1153,
      "åĳ½": 1154,
      "è¿ĩç¨ĭ": 1155,
      "å¼Ģå§ĭ": 1156,
      "ï¼Įä¸į": 1157,
      "åĽ¢": 1158,
      "åĲ«": 1159,
      "å»ºè®®": 1160,
      "éĶĢ": 1161,
      "æĽ´åĬł": 1162,
      "ä¹ĭéĹ´": 1163,
      "éĻ¤": 1164,
      "çŃĸ": 1165,
      ":Ġ": 1166,
      "æĹħ": 1167,
      "éĩĩ": 1168,
      "æīį": 1169,
      "ç¦»": 1170,
      "æĴ": 1171,
      "æļ": 1172,
      "çĹħ": 1173,
      "ç¢": 1174,
      "è½»": 1175,
      "çĶŁæĪĲ": 1176,
      "äºĨè§£": 1177,
      "äººç±»": 1178,
      "æį¢": 1179,
      "å·²ç»ı": 1180,
      "åĥı": 1181,
      "æŀĹ": 1182,
      "ç«Ļ": 1183,
      "äºĴ": 1184,
      "åĳ¨": 1185,
      "æĺ¯åĲ¦": 1186,
      "äººå·¥æĻºèĥ½": 1187,
      "ç¤¾ä¼ļ": 1188,
      "åħ»": 1189,
      "åĽĽ": 1190,
      "äºļ": 1191,
      "æ²»": 1192,
      "çº¢": 1193,
      "è¿ĲåĬ¨": 1194,
      "æ¼Ķ": 1195,
      "èĥ½åĬĽ": 1196,
      "åıĭ": 1197,
      "éĻ©": 1198,
      "ç´¢": 1199,
      "çļĦæĥ": 1200,
      "æ¶Ī": 1201,
      "èıľ": 1202,
      "è§£åĨ³": 1203,
      "ä¹°": 1204,
      "äººä»¬": 1205,
      "ç»Ļå®ļ": 1206,
      "èĻĳ": 1207,
      "æİ§": 1208,
      "è´Ń": 1209,
      "ï¼Įå®ĥ": 1210,
      "åħį": 1211,
      "ä¸Ģç§į": 1212,
      "èħ": 1213,
      "çīĮ": 1214,
      "çħ§": 1215,
      "åħ³éĶ®": 1216,
      "or": 1217,
      "é¢ĨåŁŁ": 1218,
      "ç®¡çĲĨ": 1219,
      "å®īåħ¨": 1220,
      "æ¢": 1221,
      "åĪ°äºĨ": 1222,
      "åĪĨç±»": 1223,
      "æĪĲä¸º": 1224,
      "ä»ħ": 1225,
      "çĶµå½±": 1226,
      "åĲĮæĹ¶": 1227,
      "æĺ¯ä¸Ģç§į": 1228,
      "åŁİå¸Ĥ": 1229,
      "æľĽ": 1230,
      "æĬķ": 1231,
      "éĶĻ": 1232,
      "æķĻèĤ²": 1233,
      "åĪĹè¡¨": 1234,
      "å¼ł": 1235,
      "çļĦæĦ": 1236,
      "èĲ½": 1237,
      "ä¸ĩ": 1238,
      "çļĦ,": 1239,
      "åŃ©": 1240,
      "ä¹ĭä¸Ģ": 1241,
      "åĸľæ¬¢": 1242,
      "åĦ": 1243,
      "åħ·æľī": 1244,
      "åįİ": 1245,
      "âĢĶâĢĶ": 1246,
      "çĸĹ": 1247,
      "åĿĩ": 1248,
      "ä»£çłģ": 1249,
      "åħ³ç³»": 1250,
      "å¸Ĥåľº": 1251,
      "ï¼Įå¦Ĥ": 1252,
      "éĥ¨åĪĨ": 1253,
      "çĭ¬": 1254,
      "åĲ¬": 1255,
      "æĪĸèĢħ": 1256,
      "äºĨï¼Į": 1257,
      "åįĩ": 1258,
      "éĤ£ä¹Ī": 1259,
      "æħ": 1260,
      "éĻ¢": 1261,
      "æŃĮ": 1262,
      "è´¢": 1263,
      "12": 1264,
      "å¯Ĩ": 1265,
      "ï¼īčĊ": 1266,
      "ä¿®": 1267,
      "åĦ¿": 1268,
      "å¤±": 1269,
      "åħħ": 1270,
      "æľºåĻ¨": 1271,
      "èģĮ": 1272,
      "çª": 1273,
      "å¾Īå¤ļ": 1274,
      "æĸ½": 1275,
      "é²": 1276,
      "åĽŀçŃĶ": 1277,
      "æ¨¡åŀĭ": 1278,
      "çİĭ": 1279,
      "çļĦæĺ¯": 1280,
      "çĦ¶åĲİ": 1281,
      "åģĩ": 1282,
      "èĽ": 1283,
      "åĬ¿": 1284,
      "çŁŃ": 1285,
      "å¤§çļĦ": 1286,
      "æĺ¾": 1287,
      "çı": 1288,
      "ar": 1289,
      "å±Ĥ": 1290,
      "è¾¹": 1291,
      "æķħäºĭ": 1292,
      "ä¿ĿæĮģ": 1293,
      "ç½Ĺ": 1294,
      "ä½ľä¸º": 1295,
      "ä»Ĭ": 1296,
      "éĢļå¸¸": 1297,
      "ä¸ĭéĿ¢": 1298,
      "ï¼Įä½ł": 1299,
      "èīº": 1300,
      "ï¼Įè®©": 1301,
      "åĲ¸": 1302,
      "é»ĳ": 1303,
      "æ³¨æĦı": 1304,
      "æĵ": 1305,
      "åį¡": 1306,
      "çİ©": 1307,
      "çľģ": 1308,
      "å¹²": 1309,
      "æīĢä»¥": 1310,
      "åĽ´": 1311,
      "æĮī": 1312,
      "åİĭ": 1313,
      "å£«": 1314,
      "è®Ń": 1315,
      "åĭ": 1316,
      "åĬŁèĥ½": 1317,
      "éĢīé¡¹ï¼ļ": 1318,
      "ï¼Įåħ¶": 1319,
      "è¡ĮæĺŁ": 1320,
      "æĽ´å¤ļ": 1321,
      "ĠĠĠĠĠĠĠĠ": 1322,
      "éŁ³ä¹Ĳ": 1323,
      "å®Ŀ": 1324,
      "æ´»åĬ¨": 1325,
      "æĹ¶åĢĻ": 1326,
      "éĥ½æĺ¯": 1327,
      "æł¡": 1328,
      "¤Ĳ": 1329,
      "ï¼Įä»İ": 1330,
      "æııè¿°": 1331,
      "çģ«": 1332,
      "æ²¹": 1333,
      "ç»Ī": 1334,
      "è¶ħ": 1335,
      "æĥħåĨµ": 1336,
      "è¾ĵåħ¥": 1337,
      "èĤī": 1338,
      "en": 1339,
      "å·®": 1340,
      "éĩĬ": 1341,
      "çĶ¨äºİ": 1342,
      "ï¼ĮåĮħæĭ¬": 1343,
      "åı¤": 1344,
      "è®¸å¤ļ": 1345,
      "ç§ĳæĬĢ": 1346,
      "æĢİ": 1347,
      "åŃĺåľ¨": 1348,
      "ä½łçļĦ": 1349,
      "è´¨éĩı": 1350,
      "éĹ»": 1351,
      "å°½": 1352,
      "äºĶ": 1353,
      "é¾": 1354,
      "æ¯Ķè¾ĥ": 1355,
      "çŃīãĢĤčĊ": 1356,
      "é¤Ĳ": 1357,
      "å·ŀ": 1358,
      "çĽ®æłĩ": 1359,
      "è®¤ä¸º": 1360,
      "å¤ĸï¼Į": 1361,
      "åıĳçİ°": 1362,
      "èĢĥèĻĳ": 1363,
      "ä¸įåĲĮçļĦ": 1364,
      "æ³¢": 1365,
      "æĿĥ": 1366,
      "åıĤèĢĥ": 1367,
      "ï¼ļâĢľ": 1368,
      "ä¼ģ": 1369,
      "5.Ġ": 1370,
      "ç®Ĺæ³ķ": 1371,
      "å£°": 1372,
      "åĲĦç§į": 1373,
      "åıĪ": 1374,
      "æµİ": 1375,
      "çļĦæĥħ": 1376,
      "éĻĲ": 1377,
      "ä¸Ģä¸ĭ": 1378,
      "è°¢": 1379,
      "åĨľ": 1380,
      "çļĦä¸Ģ": 1381,
      "æ¯į": 1382,
      "ï¼Įæľī": 1383,
      "ä¿ĿæĬ¤": 1384,
      "å¾ĭ": 1385,
      "éĻį": 1386,
      "åºŃ": 1387,
      "ç§ĳåŃ¦": 1388,
      "èº«ä½ĵ": 1389,
      "çĶ»": 1390,
      "at": 1391,
      "äº«": 1392,
      "åĪĩ": 1393,
      "æ¹": 1394,
      "çŁ¥éģĵ": 1395,
      "æľªæĿ¥": 1396,
      "é¦Ļ": 1397,
      "ï¼Įä¾ĭå¦Ĥ": 1398,
      "éľĢæ±Ĥ": 1399,
      "åĶ®": 1400,
      "=Ġ": 1401,
      "äººçļĦ": 1402,
      "å¾ģ": 1403,
      "çĲĨè§£": 1404,
      "åıĺåĮĸ": 1405,
      "æİ¢": 1406,
      "éĺ²": 1407,
      "ä»»åĬ¡": 1408,
      "é¦ĸåħĪ": 1409,
      "åİĨåı²": 1410,
      "å¯Į": 1411,
      "åħĥç´ł": 1412,
      "å¢ŀåĬł": 1413,
      "åŃĹç¬¦": 1414,
      "15": 1415,
      "åł": 1416,
      "å¯¼èĩ´": 1417,
      "åı¦": 1418,
      "å·´": 1419,
      "ä»¥åıĬ": 1420,
      "çĽ¸åħ³": 1421,
      "æ±½": 1422,
      "ä¼Ĺ": 1423,
      "ç¾İåĽ½": 1424,
      "å¾®": 1425,
      "ç¡®ä¿Ŀ": 1426,
      "è¿ĺæĺ¯": 1427,
      "åħ´": 1428,
      "18": 1429,
      "ï¼Įæĺ¯": 1430,
      "è®ºæĸĩ": 1431,
      "äºī": 1432,
      "æĸ°çļĦ": 1433,
      "æ¦": 1434,
      "åŃ£": 1435,
      "å¸Į": 1436,
      "ç®Ģåįķ": 1437,
      "å¾Ģ": 1438,
      "æ¯ıä¸ª": 1439,
      "åĩıå°ĳ": 1440,
      "ä»ĭ": 1441,
      "åŃ©åŃĲ": 1442,
      "è¿ŀ": 1443,
      "æ¤į": 1444,
      "è¶£": 1445,
      "st": 1446,
      "èĤ¡": 1447,
      "çĶ·": 1448,
      "sĠ": 1449,
      "æĪĳä»¬çļĦ": 1450,
      "ä¼ģä¸ļ": 1451,
      "éĢĤåĲĪ": 1452,
      "ãĢĤå¦Ĥæŀľ": 1453,
      "åĬ¨çī©": 1454,
      "è¿ľ": 1455,
      "è¾ĵåĩº": 1456,
      "ç»ıæµİ": 1457,
      "ï¼Įä»ĸ": 1458,
      "1.": 1459,
      "ï¼ļĠ": 1460,
      "æĽ²": 1461,
      "ï¼ĮåĽłä¸º": 1462,
      "èĴ": 1463,
      "yth": 1464,
      "ython": 1465,
      "åĪ¤": 1466,
      "å®¢æĪ·": 1467,
      "è¡¨è¾¾": 1468,
      "åĲĥ": 1469,
      "è®¡åĪĴ": 1470,
      "äº§çĶŁ": 1471,
      "åĩºçİ°": 1472,
      "åĿĹ": 1473,
      "èµ°": 1474,
      "ç¥¨": 1475,
      "al": 1476,
      "èŀ": 1477,
      "çŁ³": 1478,
      "å®¤": 1479,
      "ç¿»è¯ĳæĪĲ": 1480,
      "Ġ||Ġ": 1481,
      "å»ºç«ĭ": 1482,
      "æĸ°éĹ»": 1483,
      "çĨ": 1484,
      "ç»ľ": 1485,
      "è´Ł": 1486,
      "è¯¯": 1487,
      "èİ·å¾Ĺ": 1488,
      "çķ¥": 1489,
      "Python": 1490,
      "åĳĹ": 1491,
      "#Ġ": 1492,
      "æŃ£ç¡®": 1493,
      "é»Ħ": 1494,
      "å¿µ": 1495,
      "æĶ¯æĮģ": 1496,
      "éģ¿": 1497,
      "åĤ": 1498,
      "ç»ĵæŀĦ": 1499,
      "å®¶åºŃ": 1500,
      "æŁĲ": 1501,
      "ä¼¼": 1502,
      "ä¸ĬçļĦ": 1503,
      "æĿĲæĸĻ": 1504,
      "è®²": 1505,
      "ï¼Įä½Ĩæĺ¯": 1506,
      "æĢİä¹Ī": 1507,
      "éĺħ": 1508,
      "æ£Ģ": 1509,
      "èĽĭ": 1510,
      "æİ§åĪ¶": 1511,
      "æ±½è½¦": 1512,
      "çĽĬ": 1513,
      "é¢Ŀ": 1514,
      "åĩ»": 1515,
      "ç¬¬ä¸Ģ": 1516,
      "å½ķ": 1517,
      "å©": 1518,
      "åĪĿ": 1519,
      "çĵ": 1520,
      "ä¸Ģç¯ĩ": 1521,
      "åľŁ": 1522,
      "æĽ´å¥½": 1523,
      "è¡¨ç¤º": 1524,
      "çĭĹ": 1525,
      "ç½ĳç»ľ": 1526,
      "æĿ¾": 1527,
      "çļĦãĢĤ": 1528,
      "å¥½çļĦï¼Į": 1529,
      "åĪ¶ä½ľ": 1530,
      "è½¯": 1531,
      "è¯´ï¼Į": 1532,
      "èī¯": 1533,
      "åĵģçīĮ": 1534,
      "åįı": 1535,
      "é¥®": 1536,
      "èĮĥ": 1537,
      "å±ħ": 1538,
      "Ġ=Ġ": 1539,
      "å¾ĹåĪ°": 1540,
      "ä½ľçĶ¨": 1541,
      "åħ·ä½ĵ": 1542,
      "çļĦéĹ®é¢ĺ": 1543,
      "ä¸įæĸŃ": 1544,
      "æĿĤ": 1545,
      "éħĴ": 1546,
      "è¡Įä¸º": 1547,
      "ä¸²": 1548,
      "äº¬": 1549,
      "åĸĦ": 1550,
      "ä¹Łè®¸": 1551,
      "çļĦæ°": 1552,
      "å®ĮæĪĲ": 1553,
      "ä¸»é¢ĺ": 1554,
      "å°¼": 1555,
      "æĻ®": 1556,
      "é¢ĳ": 1557,
      "æ¯Ķå¦Ĥ": 1558,
      "åĪ©çĶ¨": 1559,
      "ç¼º": 1560,
      "åľ°çĲĥ": 1561,
      "ï¼Įä¸Ģ": 1562,
      "åŁºæľ¬": 1563,
      "éª¤": 1564,
      "è¿Ļç¯ĩ": 1565,
      "åŃ¦çĶŁ": 1566,
      "éĴ±": 1567,
      "è¿ĺæľī": 1568,
      "äº¤éĢļ": 1569,
      "å¼Ĥ": 1570,
      "æŃ¥éª¤": 1571,
      "âĢĿï¼Į": 1572,
      "éĺ¿": 1573,
      "é±": 1574,
      "çŃīãĢĤ": 1575,
      "åĲĹï¼ŁčĊ": 1576,
      "2.": 1577,
      "å±Ģ": 1578,
      "é±¼": 1579,
      "åī§": 1580,
      "å·§": 1581,
      "åĽŃ": 1582,
      "âĢ¦": 1583,
      "çĽ¸åĲĮ": 1584,
      "æľĢåĲİ": 1585,
      "å¥ĩ": 1586,
      "é¼": 1587,
      "éķĩ": 1588,
      "ä¸ºäºĨ": 1589,
      "èĥĮ": 1590,
      "çĮ®": 1591,
      "æ¿": 1592,
      "è®Ńç»ĥ": 1593,
      "ç¾¤": 1594,
      "11": 1595,
      "åĬłåħ¥": 1596,
      "åħ¸": 1597,
      "ä»·æł¼": 1598,
      "äº²": 1599,
      "ä½ı": 1600,
      "æĸ¹æ¡Ī": 1601,
      "ï¼Įå¹¶ä¸Ķ": 1602,
      "çļĦå½±åĵį": 1603,
      "åĲ§": 1604,
      "çĽĳ": 1605,
      "éĺħè¯»": 1606,
      "ç¡®å®ļ": 1607,
      "åĽ½éĻħ": 1608,
      "ï¼īï¼Į": 1609,
      "çĳ": 1610,
      "ä»¥ä¸Ĭ": 1611,
      "åĬŀ": 1612,
      "åºľ": 1613,
      "æĹħæ¸¸": 1614,
      "ç¦ı": 1615,
      "åĳ¢": 1616,
      "åºĹ": 1617,
      "åį°": 1618,
      "æĹ©": 1619,
      "æĪĳçļĦ": 1620,
      "è¿Ļç§į": 1621,
      "ï¼Įå°Ĩ": 1622,
      "æĿ¿": 1623,
      "çļĦæĦı": 1624,
      "30": 1625,
      "éĵģ": 1626,
      "è®¡ç®Ĺæľº": 1627,
      "çīĽ": 1628,
      "å¤ªéĺ³": 1629,
      "é¢Ħæµĭ": 1630,
      "åı¯èĥ½ä¼ļ": 1631,
      "é£ŀ": 1632,
      "å¯»": 1633,
      "çīĪ": 1634,
      "è¦ģæ±Ĥ": 1635,
      "å¸¦æĿ¥": 1636,
      "ä¸Ģå®ļ": 1637,
      "èŀį": 1638,
      "æĵį": 1639,
      "çŁ¥è¯Ĩ": 1640,
      "åįķè¯į": 1641,
      "100": 1642,
      "æ¿Ģ": 1643,
      "é¢ľ": 1644,
      "æĪĲåĬŁ": 1645,
      "å°ıè¡ĮæĺŁ": 1646,
      "çĶ±äºİ": 1647,
      "ç»ĩ": 1648,
      "åĽłæŃ¤ï¼Į": 1649,
      "åıĳçĶŁ": 1650,
      "ä¸ĵä¸ļ": 1651,
      "åıĮ": 1652,
      "ç»į": 1653,
      "ä½ĵéªĮ": 1654,
      "å®³": 1655,
      "è¯ī": 1656,
      "ä»·åĢ¼": 1657,
      "ï¼ĮçĦ¶åĲİ": 1658,
      "ä¸Ģèµ·": 1659,
      "ï¼ĮåĲĮæĹ¶": 1660,
      "å¤§åŃ¦": 1661,
      "éģ¿åħį": 1662,
      "ãĢĤâĢĿ": 1663,
      ")čĊ": 1664,
      "è§£éĩĬ": 1665,
      "ä¸½": 1666,
      "le": 1667,
      "Ġ|čĊ": 1668,
      "Ġ-Ġ": 1669,
      "æł¸": 1670,
      "ä¸ºä»Ģä¹Ī": 1671,
      "ç±»åŀĭ": 1672,
      "æĭ¥": 1673,
      "èĳĹ": 1674,
      "èĦĳ": 1675,
      "çľŁçļĦ": 1676,
      "åºķ": 1677,
      "ç¼ĸåĨĻ": 1678,
      "æłĳ": 1679,
      "ä¹ĭéĹ´çļĦ": 1680,
      "æĿİ": 1681,
      "çľ¼": 1682,
      "ä½Ĩæĺ¯": 1683,
      "æ²³": 1684,
      "åĽłç´ł": 1685,
      "åŃĹç¬¦ä¸²": 1686,
      "æī¾åĪ°": 1687,
      "æĸĩãĢĤčĊ": 1688,
      "å¤ı": 1689,
      "çŃĳ": 1690,
      "re": 1691,
      "è®¨": 1692,
      "åŁºç¡": 1693,
      "om": 1694,
      "ç¬¬äºĮ": 1695,
      "èį¯": 1696,
      "å½Ĵ": 1697,
      "å¹´ï¼Į": 1698,
      "ä¹Łæĺ¯": 1699,
      "ä»£è¡¨": 1700,
      "åŁºç¡Ģ": 1701,
      "åħ°": 1702,
      "äºĨä¸Ģ": 1703,
      "ä»ĭç»į": 1704,
      "3.": 1705,
      "å·¥åħ·": 1706,
      "èįī": 1707,
      "åħ¨çĲĥ": 1708,
      "è¡¨çİ°": 1709,
      "è¿Ļæł·": 1710,
      "ä¸įèĥ½": 1711,
      "èµ·æĿ¥": 1712,
      "ç§»": 1713,
      "ä»»ä½ķ": 1714,
      "èįĲ": 1715,
      "æĽ´å¥½åľ°": 1716,
      "éĶĢåĶ®": 1717,
      "çī¹å¾ģ": 1718,
      "å°Ħ": 1719,
      "æľīæķĪ": 1720,
      "è¯Ĺ": 1721,
      "çļ®": 1722,
      "å¼Ģåıĳ": 1723,
      "ç²ī": 1724,
      "ï¼ĮåĽłæŃ¤": 1725,
      "ä»ĺ": 1726,
      "èīºæľ¯": 1727,
      "ç¨³": 1728,
      "é¡¹çĽ®": 1729,
      "çļĦåľ°": 1730,
      "èµĦæºĲ": 1731,
      "å»ºçŃĳ": 1732,
      "æĬķèµĦ": 1733,
      "ic": 1734,
      "è´£": 1735,
      "çĶµåŃĲ": 1736,
      "ï¼ĮéľĢè¦ģ": 1737,
      "å¾ħ": 1738,
      ".čĊ": 1739,
      "åįĬ": 1740,
      "ï¼Įä½¿": 1741,
      "çºª": 1742,
      "æĹłæ³ķ": 1743,
      "±ä¹Ĳ": 1744,
      "åĵĪ": 1745,
      "å¥¥": 1746,
      "æľĭ": 1747,
      "çķĻ": 1748,
      "çªģ": 1749,
      "å¸ĮæľĽ": 1750,
      "å®ĺ": 1751,
      "çĮ«": 1752,
      "æľ¨": 1753,
      "å¾ª": 1754,
      "ãĢĤæŃ¤": 1755,
      "è¿½": 1756,
      "æŁĵ": 1757,
      "çº³": 1758,
      "æ³Ľ": 1759,
      "çĻ¾": 1760,
      "ĺè¦ģ": 1761,
      "um": 1762,
      "ä»¤": 1763,
      "åĽ¢éĺŁ": 1764,
      "ä¼łç»Ł": 1765,
      "æĤ¨çļĦ": 1766,
      "é¸¡": 1767,
      "----": 1768,
      "æ¥": 1769,
      "è·Ł": 1770,
      ",æĪĸ": 1771,
      "æİ¨èįĲ": 1772,
      "æĹı": 1773,
      "æ¦Ĥ": 1774,
      "ac": 1775,
      "å³": 1776,
      "ï¼Įå¦Ĥæŀľ": 1777,
      "æıĲåıĸ": 1778,
      "ä½ľåĵģ": 1779,
      "ä¸¾": 1780,
      "éĩĩçĶ¨": 1781,
      "åı¥è¯Ŀ": 1782,
      "çİ°ä»£": 1783,
      "t(": 1784,
      "éĿĴ": 1785,
      "åĮħåĲ«": 1786,
      "é¢ľèī²": 1787,
      "ç³ĸ": 1788,
      "æłĩé¢ĺ": 1789,
      "ä½įç½®": 1790,
      "ï¼Įä»İèĢĮ": 1791,
      "ä»ĸçļĦ": 1792,
      "åĪ»": 1793,
      "16": 1794,
      "éŃ": 1795,
      "åºĵ": 1796,
      "åħ³éĶ®è¯į": 1797,
      "æĿ¡ä»¶": 1798,
      "çĥ¤": 1799,
      "50": 1800,
      "çļĦæı": 1801,
      "æīĭæľº": 1802,
      "æľĭåıĭ": 1803,
      "æŃ»": 1804,
      "è¯¾": 1805,
      "æ¤įçī©": 1806,
      "æŃ¢": 1807,
      "çģµ": 1808,
      "åı¶": 1809,
      "æĢ§åĴĮ": 1810,
      "ä¸Ĭï¼Į": 1811,
      "æ´²": 1812,
      "ç«ŀ": 1813,
      "å°Ŀ": 1814,
      "åħ³æ³¨": 1815,
      "åĵªä¸ª": 1816,
      "å½ĵçĦ¶": 1817,
      "ç§¯æŀģ": 1818,
      "ä¾Ŀ": 1819,
      "ãĢĤå®ĥ": 1820,
      "èĵ": 1821,
      "çļĦæĶ": 1822,
      "èĩªåĬ¨": 1823,
      "åŁºäºİ": 1824,
      "åľ°åĮº": 1825,
      "åĢŁ": 1826,
      "åĳĺå·¥": 1827,
      "é£İæł¼": 1828,
      "çļĦæİ": 1829,
      "é¡»": 1830,
      "åĲĹï¼Ł": 1831,
      "æĻļ": 1832,
      "äºĳ": 1833,
      "ç»¿": 1834,
      "el": 1835,
      "ä½ĵèĤ²": 1836,
      "èĪ¬": 1837,
      "è´Ńä¹°": 1838,
      "å¥¶": 1839,
      "åį«": 1840,
      "éĴŁ": 1841,
      "èĻ½": 1842,
      "çļĦæĹ¶åĢĻ": 1843,
      "æĵįä½ľ": 1844,
      "æĥħæĦŁ": 1845,
      "å¿Ĺ": 1846,
      "å§Ķ": 1847,
      "èĬ±åĳĹ": 1848,
      "çĶŁçī©": 1849,
      "è¿Ķ": 1850,
      "ç»Ħç»ĩ": 1851,
      "éħ¸": 1852,
      "ä¸¥": 1853,
      "è®¾å¤ĩ": 1854,
      "ç©ºéĹ´": 1855,
      "å®ŀéĻħ": 1856,
      "æ½": 1857,
      "æ´ģ": 1858,
      "éĴĪ": 1859,
      "éĩįè¦ģçļĦ": 1860,
      "ãĢĤä¾ĭå¦Ĥ": 1861,
      "å¤«": 1862,
      "æķ£": 1863,
      "çł´": 1864,
      "ĠĠ|": 1865,
      "æİĴåºı": 1866,
      "åĤ¨": 1867,
      "æĶ¿åºľ": 1868,
      "çĶŁäº§": 1869,
      "æľºåĻ¨åŃ¦ä¹ł": 1870,
      "æķĪæŀľ": 1871,
      "éĵ¶": 1872,
      "å¨±ä¹Ĳ": 1873,
      "åı¯ä»¥éĢļè¿ĩ": 1874,
      "éģĩ": 1875,
      "ä¸Ģä»½": 1876,
      "å½¢æĪĲ": 1877,
      "ä¸įä¼ļ": 1878,
      "ï¼Įä»¥åıĬ": 1879,
      "é¾Ļ": 1880,
      "ä¸°": 1881,
      "åıĹåĪ°": 1882,
      "ç¤¾äº¤": 1883,
      "åª": 1884,
      "è¡Ģ": 1885,
      "è¯¦": 1886,
      "ĳæĪĺ": 1887,
      "åº§": 1888,
      "æ±Ł": 1889,
      "å¥ĸ": 1890,
      "çī¹çĤ¹": 1891,
      "éĩıçļĦ": 1892,
      "æĢ»ä¹ĭ": 1893,
      "åįļ": 1894,
      "ç«¯": 1895,
      "åį´": 1896,
      "èĹ": 1897,
      "å¹¿æ³Ľ": 1898,
      "ç»§": 1899,
      "è§īå¾Ĺ": 1900,
      "éĶĻè¯¯": 1901,
      "éĨ": 1902,
      "æ²Ļ": 1903,
      "pr": 1904,
      "æī§": 1905,
      "é²ľ": 1906,
      "éļıçĿĢ": 1907,
      "æľĢç»Ī": 1908,
      "æĴŃ": 1909,
      "éĵ¾": 1910,
      "ãĢĤæĪĳ": 1911,
      "ä»¥ä¸ĭæĺ¯": 1912,
      "ä¼°": 1913,
      "ä»ĸä»¬çļĦ": 1914,
      "ãĢĤè¿ĻäºĽ": 1915,
      "it": 1916,
      "åĪ¤æĸŃ": 1917,
      "åĴĸ": 1918,
      "èĻ½çĦ¶": 1919,
      "åĩĨå¤ĩ": 1920,
      "å¿ħé¡»": 1921,
      "æħ¢": 1922,
      "æĸ¹éĿ¢çļĦ": 1923,
      "åĩºäºĨ": 1924,
      "14": 1925,
      "å½©": 1926,
      "éĢĲ": 1927,
      "æķĪçİĩ": 1928,
      "æ´ĭ": 1929,
      "å·¦": 1930,
      "æµĭè¯ķ": 1931,
      "17": 1932,
      "æľĿ": 1933,
      "æĽ¾": 1934,
      "éº": 1935,
      "199": 1936,
      "ou": 1937,
      "ä¸´": 1938,
      "åİħ": 1939,
      "çĶŁåĳ½": 1940,
      "åİ¿": 1941,
      "åŁ¹": 1942,
      "éĢŁåº¦": 1943,
      "é£İéĻ©": 1944,
      "æĭ¥æľī": 1945,
      "åı³": 1946,
      "ï¼Įä¸º": 1947,
      "ç»¼": 1948,
      "å¯Ł": 1949,
      "åĽ½å®¶": 1950,
      "å¿ĥçĲĨ": 1951,
      "æĮģç»Ń": 1952,
      "å®¹æĺĵ": 1953,
      "çļĦ,ä¸įæĺ¯": 1954,
      "æĺ¯çļĦ,ä¸įæĺ¯": 1955,
      "ä¹Łè®¸ï¼ŁčĊ": 1956,
      ",æĪĸä¹Łè®¸ï¼ŁčĊ": 1957,
      "å¤įæĿĤ": 1958,
      "åıįåºĶ": 1959,
      "åĮ»çĸĹ": 1960,
      "é¡º": 1961,
      "äººæ°ĳ": 1962,
      "ä¸Ńå¿ĥ": 1963,
      "åĬ±": 1964,
      "èľ": 1965,
      "ç£": 1966,
      "æĽ´å¤ļçļĦ": 1967,
      "ç±»åĪ«": 1968,
      "æĳĺè¦ģ": 1969,
      "æ°§": 1970,
      "åķ¡": 1971,
      "ç´§": 1972,
      "åĩłä¸ª": 1973,
      "æĢ§çļĦ": 1974,
      "æĮīçħ§": 1975,
      "æĭŁ": 1976,
      "è¡¡": 1977,
      "åİŁåĽł": 1978,
      "ï¼ĮæīĢä»¥": 1979,
      "èĪĴ": 1980,
      "è·Ŀ": 1981,
      "çĽ´æİ¥": 1982,
      "åĲĮæĹ¶ï¼Į": 1983,
      "ï¼Įåħ¶ä¸Ń": 1984,
      "åĴĸåķ¡": 1985,
      "è¿ĶåĽŀ": 1986,
      "çļĦæ¯": 1987,
      "éĿĻ": 1988,
      "äºĨä¸Ģä¸ª": 1989,
      "æīįèĥ½": 1990,
      "æī¿": 1991,
      "ãĢĤĠĠ": 1992,
      "æĿĳ": 1993,
      "ä¼¤": 1994,
      "ä¹ĺ": 1995,
      "çıŃ": 1996,
      "çĩ": 1997,
      "åı¯ä»¥ä½¿çĶ¨": 1998,
      "ç¤¼": 1999,
      "000": 2000,
      "èĪŀ": 2001,
      "å°ıè¯´": 2002,
      "å¤§å®¶": 2003,
      "åĩºæĿ¥": 2004,
      "å¹³åı°": 2005,
      "åįĥ": 2006,
      "åĨľä¸ļ": 2007,
      "ä¹ĭåīį": 2008,
      "ãĢĤæĪĳä»¬": 2009,
      "åĿļ": 2010,
      "é¦Ĩ": 2011,
      "è¾ĳ": 2012,
      "å¤©æ°Ķ": 2013,
      "ä¸įä»ħ": 2014,
      "å·¥ç¨ĭ": 2015,
      "ä¼ĺåĮĸ": 2016,
      "åı¯ä»¥å¸®åĬ©": 2017,
      "ï¼Įå°±": 2018,
      "çļĦéĩįè¦ģ": 2019,
      "è¡£": 2020,
      "ç»ıéªĮ": 2021,
      "åıªæľī": 2022,
      "çľĭåĪ°": 2023,
      "____": 2024,
      "13": 2025,
      "æĦŁåĪ°": 2026,
      "çļĦåıĳå±ķ": 2027,
      "ç¨³å®ļ": 2028,
      "åªĴ": 2029,
      "dĠ": 2030,
      "è¯¦ç»Ĩ": 2031,
      "æ··": 2032,
      "æĬĢèĥ½": 2033,
      "çļĦæ¸": 2034,
      "åĪĽéĢł": 2035,
      "202": 2036,
      "å®ļä¹ī": 2037,
      "è´§": 2038,
      "äººï¼Į": 2039,
      "èĪª": 2040,
      "çī©è´¨": 2041,
      "ä¸ĭï¼Į": 2042,
      "ä¸īä¸ª": 2043,
      "éĿł": 2044,
      "ç»Ŀ": 2045,
      "æľĪ2": 2046,
      "ï¼Įè¿ĻäºĽ": 2047,
      "æ·»": 2048,
      "æ¸Ĳ": 2049,
      "å±ŀäºİ": 2050,
      "æĬĢå·§": 2051,
      "æķ°éĩı": 2052,
      "æĭħ": 2053,
      "æķ´ä¸ª": 2054,
      "çİ¯ä¿Ŀ": 2055,
      "è¿Ļæĺ¯": 2056,
      "ï¼Įåį³": 2057,
      "Ġ(": 2058,
      "åĲĪä½ľ": 2059,
      "å¨ģ": 2060,
      "ä¿ĥ": 2061,
      "çļĦä¸Ģä¸ª": 2062,
      "é£Łçī©": 2063,
      "æĭ¿": 2064,
      "å¯¹è¯Ŀ": 2065,
      "èĭı": 2066,
      "åİĭåĬĽ": 2067,
      "ä½³": 2068,
      "èĤ¡ç¥¨": 2069,
      "çĬ¶æĢģ": 2070,
      "æ´Ĺ": 2071,
      "è¯ĨåĪ«": 2072,
      "ï¼ĮčĊ": 2073,
      "æ¬§": 2074,
      "å²ģ": 2075,
      "éĤ®": 2076,
      "å³°": 2077,
      "è½¯ä»¶": 2078,
      "å°Ŀè¯ķ": 2079,
      "åĳĬè¯ī": 2080,
      "åĨ°": 2081,
      "åĺ": 2082,
      "æ¯ĶèµĽ": 2083,
      "å¹³åĿĩ": 2084,
      "..": 2085,
      "å¿«éĢŁ": 2086,
      "èĸ": 2087,
      "åĪ¶å®ļ": 2088,
      "ï¼ĮéĤ£ä¹Ī": 2089,
      "å©ļ": 2090,
      "çī¹åĪ«": 2091,
      "ŁéĢļ": 2092,
      "âĢĿãĢĤ": 2093,
      "1å¹´": 2094,
      "éĺ¶": 2095,
      "æĢ§èĥ½": 2096,
      "ç©¿": 2097,
      "è¡Įä¸ļ": 2098,
      "äº®": 2099,
      "æłĩåĩĨ": 2100,
      "ç»Ļåĩº": 2101,
      "è¯¢": 2102,
      "æĿ¯": 2103,
      "åĽ°": 2104,
      "æĺ¯çļĦï¼Į": 2105,
      "åĩĨç¡®": 2106,
      "ï¼ĽčĊ": 2107,
      "çļĦæµ": 2108,
      "éĢģ": 2109,
      "æľºä¼ļ": 2110,
      "ç»ĦæĪĲ": 2111,
      "ä½Ļ": 2112,
      "æĺ¯ä»Ģä¹Ī": 2113,
      "ä»Ĭå¤©": 2114,
      "éĥ½æľī": 2115,
      "6.Ġ": 2116,
      "am": 2117,
      "yĠ": 2118,
      "åĬª": 2119,
      "lo": 2120,
      "èļ": 2121,
      "åĨĽäºĭ": 2122,
      "èĨ": 2123,
      "çĽĸ": 2124,
      "ä¸ĭæĿ¥": 2125,
      "èĲ¨": 2126,
      "ing": 2127,
      "ãĢĤä»ĸ": 2128,
      "å½¢å¼ı": 2129,
      "æĺ¥": 2130,
      "ï¼Įæ¯Ķå¦Ĥ": 2131,
      "åºĶçĶ¨ç¨ĭåºı": 2132,
      "**": 2133,
      "åħ¬åı¸çļĦ": 2134,
      "ç»ĻæĪĳ": 2135,
      "åģľ": 2136,
      "è§Ĵèī²": 2137,
      "å®ŀéªĮ": 2138,
      "è°ĥæķ´": 2139,
      "çĿ¡": 2140,
      "åĮĹäº¬": 2141,
      "å¤ľ": 2142,
      "æ¶Īè´¹": 2143,
      "èĩªçĶ±": 2144,
      "çĨŁ": 2145,
      "å¾Ħ": 2146,
      "å¤ļå°ĳ": 2147,
      "æĺ¯åľ¨": 2148,
      "æĿ¥è¯´ï¼Į": 2149,
      "å®ĥä»¬çļĦ": 2150,
      "4.": 2151,
      "çĶŁæĢģ": 2152,
      "æľªçŁ¥": 2153,
      "çĽ®åīį": 2154,
      "æĢ»ä¹ĭï¼Į": 2155,
      "åķĬ": 2156,
      "ï¼Įè¿ĺ": 2157,
      "ä¸įæĺ¯čĊ": 2158,
      "æŃ¦": 2159,
      "åĨ·": 2160,
      "äºĨãĢĤ": 2161,
      "é¥°": 2162,
      "2å¹´": 2163,
      "æ¨¡å¼ı": 2164,
      "åĢĴ": 2165,
      "èģļ": 2166,
      "ï¼Įè¯·": 2167,
      "æ±ī": 2168,
      "è¯´æĺİ": 2169,
      "ä¸ĢæŃ¥": 2170,
      "è·ĳ": 2171,
      "æĸĩçĮ®": 2172,
      "çļĦæĪĲ": 2173,
      "éģį": 2174,
      "çīĻ": 2175,
      "åĪĨéĴŁ": 2176,
      "ï¼ģčĊ": 2177,
      "éĽ¨": 2178,
      "åħ¶ä¸Ń": 2179,
      "èĵĿ": 2180,
      "ç»Ļå®ļçļĦ": 2181,
      "æľĢå¥½": 2182,
      "ä¹İ": 2183,
      "åªĴä½ĵ": 2184,
      "è½½": 2185,
      "Ġ`": 2186,
      "è¿Ļæ®µ": 2187,
      "AI": 2188,
      "ç¨İ": 2189,
      "ä¸°å¯Į": 2190,
      "åŃ¦æł¡": 2191,
      "aĠ": 2192,
      "åĲĪéĢĤ": 2193,
      "å²Ľ": 2194,
      "å¸¸è§ģ": 2195,
      "çĽĺ": 2196,
      "tĠ": 2197,
      "çļĦčĊ": 2198,
      "ä¸Ģæł·": 2199,
      "ç¼ĸç¨ĭ": 2200,
      "çļĦæĸ¹æ³ķ": 2201,
      "å·¨": 2202,
      "è¡¨æĺİ": 2203,
      "æ°´å¹³": 2204,
      "0.": 2205,
      "ä¸ĢçĽ´": 2206,
      "æĦ¿": 2207,
      "æĮĳæĪĺ": 2208,
      "åĨ²": 2209,
      "å¦Ĥä¸ĭ": 2210,
      "ç½ĳç«Ļ": 2211,
      "åķĨåĵģ": 2212,
      "è¿İ": 2213,
      "åĳ¼": 2214,
      "ªæĸ½": 2215,
      "çŃĸçķ¥": 2216,
      "æŀ¶": 2217,
      "æĢ»ç»ĵ": 2218,
      "åĵªäºĽ": 2219,
      "çĪ¶": 2220,
      "èĶ": 2221,
      "ä¸Ģæ¬¡": 2222,
      "ï¼ļåľ¨": 2223,
      "çĽĲ": 2224,
      "åı¯ä»¥åľ¨": 2225,
      "æľĢå¤§": 2226,
      "ä½įäºİ": 2227,
      "äººåĳĺ": 2228,
      "æĹ¥æľŁ": 2229,
      "åĬªåĬĽ": 2230,
      "è±Ĩ": 2231,
      "æ¯Ľ": 2232,
      "åĨ³å®ļ": 2233,
      "åħļ": 2234,
      "äºĭä»¶": 2235,
      "èµĦæĸĻ": 2236,
      "åĲİçļĦ": 2237,
      "éĿ©": 2238,
      "åľĨ": 2239,
      "å®£": 2240,
      "çĶµè§Ĩ": 2241,
      "ç§ģ": 2242,
      "èĮĥåĽ´": 2243,
      "çļĦæııè¿°": 2244,
      "ãĢĤæŃ¤å¤ĸï¼Į": 2245,
      "æĳĦ": 2246,
      "âĢĿæĺ¯": 2247,
      "åĪĨåĪ«": 2248,
      "åı«": 2249,
      "ç»§ç»Ń": 2250,
      "æ£ĢæŁ¥": 2251,
      "æľīåħ³": 2252,
      "æİĮ": 2253,
      "çļĦå¤§": 2254,
      "æ·»åĬł": 2255,
      "ä¼¦": 2256,
      "æ»¡è¶³": 2257,
      "æĩ": 2258,
      "æĹ¥æľ¬": 2259,
      "æľĢè¿ĳ": 2260,
      "åıĤæķ°": 2261,
      "å¾ªçİ¯": 2262,
      "æ²»çĸĹ": 2263,
      "çĸ¾": 2264,
      "æĹ¥ï¼Į": 2265,
      "èŃ": 2266,
      "å®Įåħ¨": 2267,
      "25": 2268,
      "èģĶç³»": 2269,
      "éĿ¢ç§¯": 2270,
      "èĥľ": 2271,
      "æŃ£åľ¨": 2272,
      "çļĦæĥħåĨµ": 2273,
      "èĤ¯": 2274,
      "ä¸ºâĢľ": 2275,
      "åıĤåĬł": 2276,
      "ï¼Įå¯¹": 2277,
      "æĿ¥è¶Ĭ": 2278,
      "åĮĸåŃ¦": 2279,
      "éĻĪ": 2280,
      "æ¶²": 2281,
      "ä¹ħ": 2282,
      "ç®±": 2283,
      "äºĭæĥħ": 2284,
      "ä»į": 2285,
      "èģĮä¸ļ": 2286,
      "åıĺå¾Ĺ": 2287,
      "ç¬Ķ": 2288,
      "åĪĽæĸ°": 2289,
      "çĶļ": 2290,
      "ï¼Įæ¯ı": 2291,
      "è¶ĬæĿ¥è¶Ĭ": 2292,
      "é¸Ł": 2293,
      "åĲ¸å¼ķ": 2294,
      "æķ°åŃ¦": 2295,
      "èŃ¦": 2296,
      "æĬĹ": 2297,
      "ç¼ĵ": 2298,
      "ï¼ĮæĪĳä»¬åı¯ä»¥": 2299,
      "æĶ»": 2300,
      "æĢĿèĢĥ": 2301,
      "é«ĺçļĦ": 2302,
      "prin": 2303,
      "éļľ": 2304,
      "åįł": 2305,
      "é¡¾": 2306,
      "æ´ŀ": 2307,
      "ç¬ĳ": 2308,
      "ä¸įè¦ģ": 2309,
      "è¶ĭ": 2310,
      "æļĸ": 2311,
      "åħŃ": 2312,
      "é£Łåĵģ": 2313,
      "èĹı": 2314,
      "æī§è¡Į": 2315,
      "æĸ¹åĲĳ": 2316,
      "éĢĴ": 2317,
      "çĲĨè®º": 2318,
      "çĻ»": 2319,
      "ç»ª": 2320,
      "æī©": 2321,
      "çļĦæ²": 2322,
      "èĭ±è¯Ń": 2323,
      "æĥ³è¦ģ": 2324,
      "è¿ĻéĩĮ": 2325,
      "çļĦãĢĤčĊ": 2326,
      "å°Ĭ": 2327,
      "æĹ¥Ġ||Ġ": 2328,
      "éĢłæĪĲ": 2329,
      "ï¼ĮåĪĻ": 2330,
      "åĪļ": 2331,
      "æµª": 2332,
      "è¿Ļä¸Ģ": 2333,
      "|Ġå°ıè¡ĮæĺŁ": 2334,
      "çĹĩ": 2335,
      "å®ĩ": 2336,
      "çĦ¶èĢĮ": 2337,
      "åĽº": 2338,
      "çº¸": 2339,
      "æĽ¿": 2340,
      "æįŁ": 2341,
      "äº¤æµģ": 2342,
      "è´µ": 2343,
      "éĴĪå¯¹": 2344,
      "åĲįç§°": 2345,
      "æĶ¹åıĺ": 2346,
      "è·³": 2347,
      "XX": 2348,
      "å¡Ķ": 2349,
      "éĻįä½İ": 2350,
      "æ¸©åº¦": 2351,
      "éĢĢ": 2352,
      "è®°å½ķ": 2353,
      "æĢ§ãĢĤčĊ": 2354,
      "åĬłå¼º": 2355,
      "|ĠĠ|": 2356,
      "ä¸ĢèĪ¬": 2357,
      "å°ļ": 2358,
      "åıĤä¸İ": 2359,
      "èĮ¶": 2360,
      "ro": 2361,
      "æĲŃ": 2362,
      "âĢĿçļĦ": 2363,
      "|ĠĠ||Ġ": 2364,
      "li": 2365,
      "åģı": 2366,
      "è½®": 2367,
      "åħ«": 2368,
      "å¥½ï¼Į": 2369,
      "åħ±åĲĮ": 2370,
      "æ¥¼": 2371,
      "pp": 2372,
      "å¹¸": 2373,
      "é¼ĵ": 2374,
      "èĪĴéĢĤ": 2375,
      "è´¢ç»ı": 2376,
      "éĩĳèŀį": 2377,
      "æĸĩåŃ¦": 2378,
      "éĿ¢çļĦ": 2379,
      "åħ´è¶£": 2380,
      "æ°ĶåĢĻ": 2381,
      "çļĦæĮ": 2382,
      "å¯»æī¾": 2383,
      "çģ¯": 2384,
      ")Ġ": 2385,
      "åĨ³çŃĸ": 2386,
      "çļĦæĦŁ": 2387,
      "éĩİ": 2388,
      "è¸": 2389,
      "çĽ¸å¯¹": 2390,
      "éĢı": 2391,
      "è¡¥": 2392,
      "0å¹´": 2393,
      "æĤ£": 2394,
      "ç¿»è¯ĳæĪĲä¸Ń": 2395,
      "æ¼«": 2396,
      "çĸĳ": 2397,
      "æ±¡": 2398,
      "æĿŁ": 2399,
      "æĲľ": 2400,
      "å¤ļç§į": 2401,
      "èĩªæĪĳ": 2402,
      "æı¡": 2403,
      "çĭ¬çī¹": 2404,
      "æĺ¯æĮĩ": 2405,
      "ç©ºæ°Ķ": 2406,
      "åľºæĻ¯": 2407,
      "æ¶ī": 2408,
      "æ¹ĸ": 2409,
      "éĩĩåıĸ": 2410,
      "è¾¾åĪ°": 2411,
      "8å¹´": 2412,
      "è·Ŀç¦»": 2413,
      "è¯Ħä»·": 2414,
      "ç«ŀäºī": 2415,
      "çĶļèĩ³": 2416,
      "åĿĲ": 2417,
      "å¡«": 2418,
      "éļĲ": 2419,
      "èĤ¤": 2420,
      "å¤ļä¸ª": 2421,
      "ç³»åĪĹ": 2422,
      "å°Ĩåħ¶": 2423,
      "æĬĺ": 2424,
      "èĥĮæĻ¯": 2425,
      "çĶ²": 2426,
      "åŃĹæ¯į": 2427,
      "åī¯": 2428,
      "çĶ¨çļĦ": 2429,
      "ä¸»ä¹ī": 2430,
      "`Ġ": 2431,
      "çļĦæĦıæĢĿ": 2432,
      "æĪ¿äº§": 2433,
      "åĲĪçĲĨ": 2434,
      "å®Ī": 2435,
      "è½¬æį¢": 2436,
      "èĻļ": 2437,
      "åĿı": 2438,
      "çļĦæĻ": 2439,
      "ï¼ĮèĢĮä¸Ķ": 2440,
      "äººåı£": 2441,
      "é¥®é£Ł": 2442,
      "ä¸Ģæ®µ": 2443,
      "çİ©å®¶": 2444,
      "âĢ¦âĢ¦": 2445,
      "æľĢåĲİï¼Į": 2446,
      "è¯Ħä¼°": 2447,
      "ç»ĥä¹ł": 2448,
      "èĥ½æºĲ": 2449,
      "ç§Ģ": 2450,
      "==": 2451,
      "å¥Ĺ": 2452,
      "æİªæĸ½": 2453,
      "ç»ıåİĨ": 2454,
      "éĹ®é¢ĺãĢĤčĊ": 2455,
      "ç§ĺ": 2456,
      "æİ¢ç´¢": 2457,
      "çĥĪ": 2458,
      "ä¸ľè¥¿": 2459,
      "æĪĲæľ¬": 2460,
      "æļ´": 2461,
      "æĦıä¹ī": 2462,
      "ç¥ŀç»ı": 2463,
      "ãĢĤçŃĶæ¡Īï¼ļčĊ": 2464,
      "ch": 2465,
      "çļĦè¯Ŀ": 2466,
      "å¢ŀå¼º": 2467,
      "æ£®": 2468,
      "9å¹´": 2469,
      "äººçī©": 2470,
      "es": 2471,
      "å¸ģ": 2472,
      "è¶ĭåĬ¿": 2473,
      "è°Ī": 2474,
      "åĪĽå»º": 2475,
      "åį±": 2476,
      "ãĢĤèĢĮ": 2477,
      "è¿Ľåħ¥": 2478,
      "ç¼©": 2479,
      "âĢĿï¼Ł": 2480,
      "ä¿ĥè¿Ľ": 2481,
      "åıĤèĢĥæĸĩçĮ®": 2482,
      "é©¶": 2483,
      "æĭį": 2484,
      "æİ¥åıĹ": 2485,
      "æī¹": 2486,
      "éĻĨ": 2487,
      "éĻĦ": 2488,
      "åīĤ": 2489,
      "èĢħçļĦ": 2490,
      "æ´¾": 2491,
      "ãĢĤåĽłæŃ¤ï¼Į": 2492,
      "çī©çĲĨ": 2493,
      "è§ĦåĪĴ": 2494,
      "åĵ¥": 2495,
      "ä¼ĳ": 2496,
      "çŃ¾": 2497,
      "æĿĢ": 2498,
      "æ±ĩ": 2499,
      "ãĢį": 2500,
      "åĬ©äºİ": 2501,
      "éĢĤåºĶ": 2502,
      "æ¯ķ": 2503,
      "æĥ¯": 2504,
      "ion": 2505,
      "åĮ»çĶŁ": 2506,
      "é¥Ń": 2507,
      "ãĢĤä½Ĩæĺ¯": 2508,
      "è¡Ĺ": 2509,
      "çĸ¾çĹħ": 2510,
      "ãĢĮ": 2511,
      "åĲ¯": 2512,
      "ä¸įåı¯": 2513,
      "çļĦæĹ¶éĹ´": 2514,
      "ç¨ĭåº¦": 2515,
      "éĢĶ": 2516,
      "as": 2517,
      "ï¼ĮæĪĳä»¬éľĢè¦ģ": 2518,
      "æ©": 2519,
      "åıĺéĩı": 2520,
      "å½ĵåľ°": 2521,
      "æıĲåĩº": 2522,
      "éĽ·": 2523,
      "åıĤèĢĥæĸĩçĮ®čĊ": 2524,
      "ä¸ĸçºª": 2525,
      "ç®ĢåįķçļĦ": 2526,
      "print(": 2527,
      "æĪĳæĥ³": 2528,
      ":čĊ": 2529,
      "çļĦæ°´": 2530,
      "åĮĸçļĦ": 2531,
      "æł·çļĦ": 2532,
      "å¹³è¡¡": 2533,
      "èĩªçĦ¶è¯Ńè¨Ģ": 2534,
      "ä¸Ŀ": 2535,
      "å®¡": 2536,
      "è§Ĩé¢ĳ": 2537,
      "èĲ¥åħ»": 2538,
      "ï¼ĮæıĲé«ĺ": 2539,
      "ç§ĭ": 2540,
      "é¤Ĳåİħ": 2541,
      "æ²ŁéĢļ": 2542,
      "åĪĨäº«": 2543,
      "æľ«": 2544,
      "ç¬¦åĲĪ": 2545,
      "èģĶç½ĳ": 2546,
      "å¹³æĸ¹": 2547,
      "æĬ¥åĳĬ": 2548,
      "å¤§åĪ©": 2549,
      "èĳĹåĲį": 2550,
      "æ³¡": 2551,
      "åķĨä¸ļ": 2552,
      "ç¹": 2553,
      "èī²çļĦ": 2554,
      "é¹": 2555,
      "éĢīé¡¹ï¼ļæĺ¯çļĦï¼Į": 2556,
      "æ´Ľ": 2557,
      "ç¹ģ": 2558,
      "ç¡¬": 2559,
      "è®¨è®º": 2560,
      "åĮºåŁŁ": 2561,
      "ä¼Ĭ": 2562,
      "éĩĮï¼Į": 2563,
      "ç¬¬ä¸ī": 2564,
      "èĭ±æĸĩ": 2565,
      "åĩĢ": 2566,
      "å¼¹": 2567,
      "ä¿Ŀè¯ģ": 2568,
      "ç»©": 2569,
      "å®ĥçļĦ": 2570,
      "ãĢĤåĲĮæĹ¶ï¼Į": 2571,
      "å®ł": 2572,
      "5å¹´": 2573,
      "èģĬ": 2574,
      "æķ´æķ°": 2575,
      "éģĹ": 2576,
      "æ¢¦": 2577,
      "æ³ķå¾ĭ": 2578,
      "åįĸ": 2579,
      "æ°¸": 2580,
      "é¡¶": 2581,
      "é¡µ": 2582,
      "éĤ®ä»¶": 2583,
      "èĦļ": 2584,
      "è¡ĮåĬ¨": 2585,
      "éĹ®é¢ĺï¼ļ": 2586,
      "éħ±": 2587,
      "ï¼ŁĠ": 2588,
      "åħħæ»¡": 2589,
      "åĳĪ": 2590,
      "5.": 2591,
      "åĪĨå¸ĥ": 2592,
      "è´Ŀ": 2593,
      "æľºæŀĦ": 2594,
      "åº¦åĴĮ": 2595,
      "ï¼Įä»ĸä»¬": 2596,
      "è¿Ľä¸ĢæŃ¥": 2597,
      "åĪĨä¸º": 2598,
      "èĥŀ": 2599,
      "éĵ¶è¡Į": 2600,
      "198": 2601,
      "æīĺ": 2602,
      "è§ĦåĪĻ": 2603,
      "è§ĤçĤ¹": 2604,
      "æĸĹ": 2605,
      "æľĢä½³": 2606,
      "æķ°æį®éĽĨ": 2607,
      "èĢģå¸Ī": 2608,
      "ï¼Įä»¥ä¾¿": 2609,
      "æĢ¥": 2610,
      "è®¾ç½®": 2611,
      "num": 2612,
      "æĽ´æĸ°": 2613,
      "ãĢĤä½ł": 2614,
      "åŃĺåĤ¨": 2615,
      "é¾Ħ": 2616,
      "æĦŁè§ī": 2617,
      "æľīè¶£": 2618,
      "åħ¬åħ±": 2619,
      "èĲ¥éĶĢ": 2620,
      "æ¯Ĵ": 2621,
      "è¾Ĩ": 2622,
      "id": 2623,
      "ä¼´": 2624,
      "åĬĽåĴĮ": 2625,
      "æ²ī": 2626,
      "æľĹ": 2627,
      "åıªæĺ¯": 2628,
      "é©¾": 2629,
      "éĶħ": 2630,
      "åĮ¹": 2631,
      "ä¹¡": 2632,
      "æĽ´å¥½çļĦ": 2633,
      "ï¼ĮéĤ£": 2634,
      "è´¦": 2635,
      "æĶ¹åĸĦ": 2636,
      "çĶŁéķ¿": 2637,
      "çļĦä¸»è¦ģ": 2638,
      "åĲī": 2639,
      "é¡¿": 2640,
      "ç¢³": 2641,
      "è°±": 2642,
      "æĹħè¡Į": 2643,
      "6å¹´": 2644,
      "çĪ±æĥħ": 2645,
      "çĤĴ": 2646,
      "|ĠĠ||Ġ200": 2647,
      "et": 2648,
      "åĬ³": 2649,
      "æĺ¾ç¤º": 2650,
      "ä¸Ĭæµ·": 2651,
      "3å¹´": 2652,
      "is": 2653,
      "è¶³å¤Ł": 2654,
      "èĤĮ": 2655,
      "æ±¡æŁĵ": 2656,
      "è°ģ": 2657,
      "ãĢĤè¿Ļä¸ª": 2658,
      "æıĲåįĩ": 2659,
      "åłĤ": 2660,
      "éĢĲæ¸Ĳ": 2661,
      "åºĬ": 2662,
      "èĭ¹": 2663,
      "æ¬¢è¿İ": 2664,
      "ãĢĤä¾ĭå¦Ĥï¼Į": 2665,
      "åįķä½į": 2666,
      "å®½": 2667,
      "éĩįæĸ°": 2668,
      "ç»ĵåĲĪ": 2669,
      "ä¹łæĥ¯": 2670,
      "èĭ¹æŀľ": 2671,
      "å¸Ĥéķĩ": 2672,
      "èĥ¡": 2673,
      "çĸ«": 2674,
      "çļĦè¿ĩç¨ĭ": 2675,
      "è¡¨æł¼": 2676,
      "å¿ħè¦ģ": 2677,
      "éĻ¤äºĨ": 2678,
      "çľŁæŃ£": 2679,
      "æĦıè¯Ĩ": 2680,
      "æĺİç¡®": 2681,
      "ãĢĤè¿Ļç§į": 2682,
      "è¯º": 2683,
      "çī¹å®ļ": 2684,
      "çĦ¦": 2685,
      "åĪĽä½ľ": 2686,
      "æĶ¯ä»ĺ": 2687,
      "çļĦæĸ¹å¼ı": 2688,
      "è´Ńçī©": 2689,
      "çľł": 2690,
      "ãĥ": 2691,
      "ä¸ļåĬ¡": 2692,
      "äº¿": 2693,
      "æĹ¶æľŁ": 2694,
      "é¢Ĩå¯¼": 2695,
      "å¢ŀéķ¿": 2696,
      "av": 2697,
      "é½": 2698,
      "å»¶": 2699,
      "åį·": 2700,
      "å®łçī©": 2701,
      "åĶ±": 2702,
      "çļĦæĥħæĦŁ": 2703,
      "æıĲä¾ĽäºĨ": 2704,
      "+Ġ": 2705,
      "æķ°ç»Ħ": 2706,
      "ä¹Łåı¯ä»¥": 2707,
      "éģµ": 2708,
      "40": 2709,
      "çĥ§": 2710,
      "æİī": 2711,
      "ç»ıå¸¸": 2712,
      "å»ºè®¾": 2713,
      "ä¹³": 2714,
      "æĮ¥": 2715,
      "ç²¾ç¥ŀ": 2716,
      "7.Ġ": 2717,
      "çĤ¼": 2718,
      "4å¹´": 2719,
      "æķı": 2720,
      "å®Ļ": 2721,
      "å§Ĩ": 2722,
      "è¿·": 2723,
      "å¹¿åĳĬ": 2724,
      "il": 2725,
      "åŃĲï¼Į": 2726,
      "ç¾İä¸½": 2727,
      "æµĵ": 2728,
      "åħµ": 2729,
      "æ·±åº¦": 2730,
      "æĪĲåĳĺ": 2731,
      "èĤ¥": 2732,
      "çļĦå°ı": 2733,
      "æĺ¯âĢľ": 2734,
      "æ¶¦": 2735,
      "ä¹Łæľī": 2736,
      "å°ģ": 2737,
      "60": 2738,
      "ä¾§": 2739,
      "åĨĻä¸Ģç¯ĩ": 2740,
      "éŃĶ": 2741,
      "æĿ¥è¯´": 2742,
      "æĶ¿çŃĸ": 2743,
      "te": 2744,
      "æĢĿæĥ³": 2745,
      "çļĦåľ°æĸ¹": 2746,
      "ï¼ĮæĤ¨": 2747,
      "éľ²": 2748,
      "è¿ŀæİ¥": 2749,
      "ä¸ĥ": 2750,
      "å°¾": 2751,
      "çĹĽ": 2752,
      "èĶ¬": 2753,
      "ç¼ĸåĨĻä¸Ģä¸ª": 2754,
      "å´": 2755,
      "7å¹´": 2756,
      "ç«¥": 2757,
      "è´£ä»»": 2758,
      "åħ¶å®ŀ": 2759,
      "åľ£": 2760,
      "ç»Ĩèĥŀ": 2761,
      "ï¼Įå¤§": 2762,
      "çŃīçŃī": 2763,
      "å¦Ī": 2764,
      "å¹´è½»": 2765,
      "æĭĽ": 2766,
      "èĢĲ": 2767,
      "åģļåĩº": 2768,
      "æĹłè®º": 2769,
      "è´¥": 2770,
      "æ¶īåıĬ": 2771,
      "è¡¨éĿ¢": 2772,
      "äº«åıĹ": 2773,
      "æ±ł": 2774,
      "æĺ¯çļĦčĊ": 2775,
      "éķ¿åº¦": 2776,
      "ï¼Įè¿Ļä¸ª": 2777,
      "å®ĩå®Ļ": 2778,
      "åŀĥ": 2779,
      "æ¤Ĵ": 2780,
      "åľ¾": 2781,
      "éĢĤå½ĵ": 2782,
      "æĶ¾åľ¨": 2783,
      "åŀĥåľ¾": 2784,
      "çĶ°": 2785,
      "å¥ı": 2786,
      "å¡ŀ": 2787,
      "è®¿": 2788,
      "ä»¥ä¸ĭæĺ¯ä¸Ģ": 2789,
      "çĶ³": 2790,
      "çĩĥ": 2791,
      "ç¤¾åĮº": 2792,
      "çļĦä¿¡æģ¯": 2793,
      "è¡ĮæĶ¿": 2794,
      "çİī": 2795,
      "oĠ": 2796,
      "ç»ĨèĬĤ": 2797,
      "ç§»åĬ¨": 2798,
      "ãĢĤå½ĵ": 2799,
      "è¿Ĳè¡Į": 2800,
      "å®Ĺ": 2801,
      "çĽ´åĪ°": 2802,
      "åģĩè®¾": 2803,
      "æĶ¹è¿Ľ": 2804,
      "è¯Ĭ": 2805,
      "éĺµ": 2806,
      "åĭĴ": 2807,
      "æ³ķåĽ½": 2808,
      "ol": 2809,
      "äºĨãĢĤĠ": 2810,
      "èī¯å¥½çļĦ": 2811,
      "çĬ¯": 2812,
      "éĹ®é¢ĺï¼Į": 2813,
      "æĸ¹ä¾¿": 2814,
      "åĨħéĥ¨": 2815,
      "æ··åĲĪ": 2816,
      "è®¢": 2817,
      "æĥĬ": 2818,
      "èĪ¹": 2819,
      "æľīäºĽ": 2820,
      "âĢĿãĢĤčĊ": 2821,
      "è¯Ħè®º": 2822,
      "æķĳ": 2823,
      "è§¦": 2824,
      "æ¹¿": 2825,
      "éľĩ": 2826,
      "æľĪï¼Į": 2827,
      "çİ°è±¡": 2828,
      "åĮĢ": 2829,
      "çħ®": 2830,
      "ãĢĤéĢļè¿ĩ": 2831,
      "ç»ıåħ¸": 2832,
      "å°ıæĹ¶": 2833,
      "çĽ¸äºĴ": 2834,
      "ï¼ĮéĢļè¿ĩ": 2835,
      "è§£åĨ³æĸ¹æ¡Ī": 2836,
      "å¿Ĩ": 2837,
      "å°¤": 2838,
      "èĭ±æĸĩãĢĤčĊ": 2839,
      "åĳ¢ï¼ŁčĊ": 2840,
      "çļĦåºĶçĶ¨": 2841,
      "æ¸¯": 2842,
      "å¦Ĥä¸ĭï¼ļčĊ": 2843,
      "åĪº": 2844,
      "äº¤æĺĵ": 2845,
      "éĺ¶æ®µ": 2846,
      "æł¸å¿ĥ": 2847,
      "å¸Ŀ": 2848,
      "èĶ¬èıľ": 2849,
      "åį³åı¯": 2850,
      "æĹ¶ä»£": 2851,
      "åı£æĦŁ": 2852,
      "ç¬¬ä¸Ģä¸ª": 2853,
      "âĢĿï¼Łæĺ¯çļĦ,ä¸įæĺ¯": 2854,
      "å¹´çļĦ": 2855,
      "éķľ": 2856,
      "çĭ¬ç«ĭ": 2857,
      "èµŀ": 2858,
      "çİ°å®ŀ": 2859,
      "æľīä¸Ģä¸ª": 2860,
      "éĽª": 2861,
      "è°ĥæŁ¥": 2862,
      "æĹ¥å¸¸": 2863,
      "äºĴèģĶç½ĳ": 2864,
      "å½ĵåīį": 2865,
      "åĿĢ": 2866,
      "ä¼ļè®®": 2867,
      "æĶ¶åħ¥": 2868,
      "ï¼Įè¯¥": 2869,
      "éª¨": 2870,
      "é¼ĵåĬ±": 2871,
      "åĬĽéĩı": 2872,
      "å®ģ": 2873,
      "--------": 2874,
      "æĺİæĺ¾": 2875,
      "æĹĭ": 2876,
      "æĶ¿æ²»": 2877,
      "çŁ¿": 2878,
      "ç»´æĬ¤": 2879,
      "ä¹Łä¼ļ": 2880,
      "èİ·åıĸ": 2881,
      "å²©": 2882,
      "ä¸įè¿ĩ": 2883,
      "æ®µèĲ½": 2884,
      "å±ķç¤º": 2885,
      "ç¾İé£Ł": 2886,
      "åĬ¨ä½ľ": 2887,
      "å·¦åı³": 2888,
      "å¹¶ä¸į": 2889,
      "çļĦæķ°æį®": 2890,
      "èĩªçĦ¶è¯Ńè¨Ģå¤ĦçĲĨ": 2891,
      "å®ļæľŁ": 2892,
      "æĬ½": 2893,
      "å¹ķ": 2894,
      "ç½ª": 2895,
      "ä¹ĭåĲİ": 2896,
      "ä¸Ńï¼ĮæĪĳä»¬": 2897,
      "æĲľç´¢": 2898,
      "åı¯æĮģç»Ń": 2899,
      "æİĮæı¡": 2900,
      "ä¼ĺåĬ¿": 2901,
      "é«ĺæķĪ": 2902,
      "ä¸¥éĩį": 2903,
      "å°ıæĺİ": 2904,
      "éĤ£äºĽ": 2905,
      "å¼ºè°ĥ": 2906,
      "ç»ıè¿ĩ": 2907,
      "åĲįåŃĹ": 2908,
      "å¤®": 2909,
      "ä¸ĬéĿ¢": 2910,
      "è¯·éĹ®": 2911,
      "å¡ĳ": 2912,
      "æ¯ıå¤©": 2913,
      "åľ°æĸ¹": 2914,
      "æ½ľ": 2915,
      "å¢Ļ": 2916,
      "çļĦå·¥ä½ľ": 2917,
      "æ»ĳ": 2918,
      "é«ĺåº¦": 2919,
      "è¿Ļä¸ªåı¥åŃĲ": 2920,
      "æį·": 2921,
      "åºĶçļĦ": 2922,
      "æļĹ": 2923,
      "å·Ŀ": 2924,
      "åĪ¶éĢł": 2925,
      "çļĦçĶŁæ´»": 2926,
      "å®ľ": 2927,
      "çĪĨ": 2928,
      "ä½ľèĢħ": 2929,
      "æĿ¥èĩª": 2930,
      "ãĢĤè¯¥": 2931,
      "å¹´é¾Ħ": 2932,
      "æ±¤": 2933,
      "çī©åĵģ": 2934,
      "çĽ¸ä¼¼": 2935,
      "å¼ķèµ·": 2936,
      "è¶ħè¿ĩ": 2937,
      "çģ¾": 2938,
      "æ¡¥": 2939,
      "ç¤ºä¾ĭ": 2940,
      "å±ĭ": 2941,
      "ãĢĤåħ¶": 2942,
      "2Ġ": 2943,
      "åįĪ": 2944,
      "ä½Ľ": 2945,
      "æİĪ": 2946,
      "éĽ¶": 2947,
      "è¿ĩåİ»": 2948,
      "èĥ½éĩı": 2949,
      "ï¼Įå®ĥä»¬": 2950,
      "æĪĲéķ¿": 2951,
      "çĬ¶åĨµ": 2952,
      "èĭ¦": 2953,
      "ä½ĵçļĦ": 2954,
      "å¯¹æĸ¹": 2955,
      "ç³ķ": 2956,
      "ä¸įéĶĻ": 2957,
      "æľīä¸Ģ": 2958,
      "å§Ķåĳĺ": 2959,
      "å°º": 2960,
      "è¿½æ±Ĥ": 2961,
      "ad": 2962,
      "çļĦâĢľ": 2963,
      "ç»¼åĲĪ": 2964,
      "å¹»": 2965,
      "ï¼īãĢĤčĊ": 2966,
      "æĺł": 2967,
      "èĢ³": 2968,
      "èĦ±": 2969,
      "éĹ®é¢ĺçļĦ": 2970,
      "åĳĬè¯īæĪĳ": 2971,
      "ç¾İåħĥ": 2972,
      "è¯ŃéŁ³": 2973,
      "å°Ĩä»¥ä¸ĭ": 2974,
      "ï¼ģĠ": 2975,
      "åĿ¦": 2976,
      "å¤§éĩı": 2977,
      "åĨł": 2978,
      "âĢĿæĪĳä»¬": 2979,
      "åŃ¦ç§ĳ": 2980,
      "æĢ§ï¼Į": 2981,
      "å¤ªç©º": 2982,
      "åĭĩ": 2983,
      "æĹ§": 2984,
      "ç±»ä¼¼": 2985,
      "åºĶå¯¹": 2986,
      "éĥ½ä¼ļ": 2987,
      "æ°§åĮĸ": 2988,
      "æľªçŁ¥ï¼ŁčĊ": 2989,
      "æĦıæĢĿ": 2990,
      "æĺ¯çĶ±": 2991,
      "æ³¨éĩį": 2992,
      "èİ±": 2993,
      "æĺ¯çľŁçļĦ": 2994,
      "ç¤¾äº¤åªĴä½ĵ": 2995,
      "ç»Ļå®ļâĢľ": 2996,
      "åıĬæĹ¶": 2997,
      "åĨĴ": 2998,
      "å½ĵæĹ¶": 2999,
      "çĽ¸ä¿¡": 3000,
      "åŃĲçļĦ": 3001,
      "é²ģ": 3002,
      "è´¢åĬ¡": 3003,
      "åĵªæĸ¹éĿ¢çļĦ": 3004,
      "éĢ»": 3005,
      "è´¡": 3006,
      "æľīä»Ģä¹Ī": 3007,
      "èĦĤ": 3008,
      "çĿ¡çľł": 3009,
      "éķ¿æľŁ": 3010,
      "ri": 3011,
      "åŁĥ": 3012,
      "ï¼Įåı¯": 3013,
      "å±ı": 3014,
      "åĳ¼åĲ¸": 3015,
      "oo": 3016,
      "è¯¾ç¨ĭ": 3017,
      "åĽ°éļ¾": 3018,
      "è¿Ļä¹Ī": 3019,
      "å®¶åħ·": 3020,
      "ä¾ĭåŃĲ": 3021,
      "âĢĶâĢĶâĢĶâĢĶ": 3022,
      "ï¼Įåıª": 3023,
      "æŃĮæĽ²": 3024,
      "åĮ»åŃ¦": 3025,
      "éĢĤéĩı": 3026,
      "æ¸ħæĻ": 3027,
      "è§Ĥå¯Ł": 3028,
      "çļĦæııè¿°äºĨ": 3029,
      "å¼±": 3030,
      "æľĢé«ĺ": 3031,
      "âĢĿï¼ĮâĢľ": 3032,
      "æĲŃéħį": 3033,
      "ï¼ļæĪĳ": 3034,
      "æľĢå¥½çļĦæııè¿°äºĨ": 3035,
      "åı¯ä»¥çĶ¨": 3036,
      "å·®å¼Ĥ": 3037,
      "èĽĭçĻ½": 3038,
      "éĹŃ": 3039,
      "åħ³äºİåĵªæĸ¹éĿ¢çļĦ": 3040,
      "çĶľ": 3041,
      "500": 3042,
      "èĭ±åĽ½": 3043,
      "åĲĪéĢĤçļĦ": 3044,
      "éĺ³åħī": 3045,
      "è¹": 3046,
      "æ³°": 3047,
      "éĽħ": 3048,
      "ul": 3049,
      "æĥł": 3050,
      "éĶ»": 3051,
      "ĠS": 3052,
      "éĿ¢å¯¹": 3053,
      "æ·±åħ¥": 3054,
      "è·µ": 3055,
      "æ°´æŀľ": 3056,
      "æŁĶ": 3057,
      "æĥħç»ª": 3058,
      "åĴĮåħ¶ä»ĸ": 3059,
      "ç»ĺ": 3060,
      "èĩ³å°ĳ": 3061,
      "å¹¸ç¦ı": 3062,
      "ç»ĵæĿŁ": 3063,
      "æµģè¡Į": 3064,
      "æĢĿç»´": 3065,
      "è°·": 3066,
      "çĶµèĦĳ": 3067,
      "åģ¶": 3068,
      "åıĸå¾Ĺ": 3069,
      "èĿ": 3070,
      "ä¸Ģä½į": 3071,
      "ä¸ºæĤ¨": 3072,
      "6.": 3073,
      "æĦıåĳ³": 3074,
      "èıĮ": 3075,
      "ï¼īĠ": 3076,
      "éĶ»çĤ¼": 3077,
      "è¿ĲåĬ¨åĳĺ": 3078,
      "ä¸Ńæĸĩ": 3079,
      "éĻĲåĪ¶": 3080,
      "åħ¨åĽ½": 3081,
      "æĶ¾æĿ¾": 3082,
      "è¿ĩç¨ĭä¸Ń": 3083,
      "çļĦæĸĩç«ł": 3084,
      "80": 3085,
      "æľīåĬ©äºİ": 3086,
      "åľĪ": 3087,
      "æĿ¥ï¼Į": 3088,
      "èª": 3089,
      "éĢ»è¾ĳ": 3090,
      "åĬĽçļĦ": 3091,
      "æ±ģ": 3092,
      "è¿Ļç¯ĩæĸĩç«ł": 3093,
      "ãĢĤâĢĿčĊ": 3094,
      "ä¸Ńåįİ": 3095,
      "æŁĲäºĽ": 3096,
      "é©¾é©¶": 3097,
      "ç§Ł": 3098,
      "åģ¥èº«": 3099,
      "éŀ": 3100,
      "çĽ¸åĲĮçļĦ": 3101,
      "äºĨãĢĤčĊ": 3102,
      "1Ġ": 3103,
      "ä½łä»¬": 3104,
      "å°½ç®¡": 3105,
      "ï¼ļ\"": 3106,
      "éĨĴ": 3107,
      "ä¼¯": 3108,
      "åĶĲ": 3109,
      "æģ¶": 3110,
      "æľŁéĹ´": 3111,
      "æŃ£å¸¸": 3112,
      "ä¼ĺç§Ģ": 3113,
      "äºĴåĬ¨": 3114,
      "éº¦": 3115,
      "åĢ¾": 3116,
      "24": 3117,
      "åħ¬åĽŃ": 3118,
      "åĸĿ": 3119,
      "è®¤è¯Ĩ": 3120,
      "æİ¥ä¸ĭæĿ¥": 3121,
      "èį£": 3122,
      "ä¹Ŀ": 3123,
      "æ¾": 3124,
      "æ¸ħæ´ģ": 3125,
      "ï¼ĮĠ": 3126,
      "è´·": 3127,
      "å®īè£ħ": 3128,
      "æģ©": 3129,
      "æĢĢ": 3130,
      "å®ŀè·µ": 3131,
      "ï¼Įè¦ģ": 3132,
      "æľºåĻ¨äºº": 3133,
      "é¦Ī": 3134,
      "ï¼īãĢģ": 3135,
      "ç»Łè®¡": 3136,
      "åħ¬å¼ı": 3137,
      "çĵ¦": 3138,
      "å«": 3139,
      "è°¢è°¢": 3140,
      "å¥¹çļĦ": 3141,
      "se": 3142,
      "å¤ĸéĥ¨": 3143,
      "æ¡£": 3144,
      "èµı": 3145,
      "çĶµè¯Ŀ": 3146,
      "èĴĻ": 3147,
      "æĦıåĳ³çĿĢ": 3148,
      "å¹ħ": 3149,
      "å±ŀçļĦ": 3150,
      "æĭĮ": 3151,
      "ç²Ĵ": 3152,
      "è¿ª": 3153,
      "åıĳå¸ĥ": 3154,
      "èķ": 3155,
      "åĢ¼å¾Ĺ": 3156,
      "è§Ĵåº¦": 3157,
      "ur": 3158,
      "æ°ĶåĢĻåıĺåĮĸ": 3159,
      "çĿ£": 3160,
      "ï¼Įå¹¶åľ¨": 3161,
      "éĴ¢": 3162,
      "æĸĩæľ¬ä¸Ń": 3163,
      "çĽ¸åħ³çļĦ": 3164,
      "éĩįå¤į": 3165,
      "ãĢĤä½Ĩ": 3166,
      "èĳ±": 3167,
      "im": 3168,
      "åı¯èĥ½æĺ¯": 3169,
      "çļĩ": 3170,
      "å¸¸è§ģçļĦ": 3171,
      "æİ¢è®¨": 3172,
      "è¶³çĲĥ": 3173,
      "æĿ°": 3174,
      "æĹ¶å°ļ": 3175,
      "æľĢå¤§çļĦ": 3176,
      "è§Ħå®ļ": 3177,
      "åľ¨çº¿": 3178,
      "erĠ": 3179,
      "é¢Ħç®Ĺ": 3180,
      "çļĦæ´": 3181,
      "ä¸ģ": 3182,
      "åĵ²": 3183,
      "è¯ļ": 3184,
      "èĢĹ": 3185,
      "è½»æĿ¾": 3186,
      "æĦŁè°¢": 3187,
      "ï¼Įèĥ½å¤Ł": 3188,
      "å°Ĭéĩį": 3189,
      "åľ¨è¿Ļä¸ª": 3190,
      "æĦŁåıĹ": 3191,
      "æŃ£ç¡®çļĦ": 3192,
      "ç±į": 3193,
      "äºĪ": 3194,
      "ï¼Įè¿Ļæł·": 3195,
      "åıĤèĢĥèµĦæĸĻ": 3196,
      "ãĢĤåĽłæŃ¤": 3197,
      "éº»": 3198,
      "ĠĠĠ|Ġ": 3199,
      "å¯¹è±¡": 3200,
      "å®«": 3201,
      "ä¸ºĠ": 3202,
      "çľŁå®ŀ": 3203,
      "ãģ": 3204,
      "æ°ı": 3205,
      "éļıæľº": 3206,
      "æĳ©": 3207,
      "ï¼ĮæĪĸèĢħ": 3208,
      "éļĶ": 3209,
      "æĢķ": 3210,
      "è¯ĹæŃĮ": 3211,
      "æİ¨å¹¿": 3212,
      "ç»¿èī²": 3213,
      "éĤ£ä¸ª": 3214,
      "åĩºçİ°åľ¨": 3215,
      "åİļ": 3216,
      "é¡ºåºı": 3217,
      "99": 3218,
      "è¿Ļåı¥è¯Ŀ": 3219,
      "æŃ¥éª¤ï¼ļčĊ": 3220,
      "ï¼ĮçĶ¨": 3221,
      "çŃīæĸ¹éĿ¢": 3222,
      "å¤ļæł·": 3223,
      "çº¯": 3224,
      "æ®Ĭ": 3225,
      "æ¸ħæĻ°": 3226,
      "æĿ¥æºĲ": 3227,
      "åİĤ": 3228,
      "åĿĩåĮĢ": 3229,
      "ä¸Ńå¤®": 3230,
      "åĪĨåŃĲ": 3231,
      "æµģç¨ĭ": 3232,
      "è´¡çĮ®": 3233,
      "äº¡": 3234,
      "åĢŁåĳĹ": 3235,
      "æĹ¢": 3236,
      "éĩĮçļĦ": 3237,
      "åħħåĪĨ": 3238,
      "æĩĤ": 3239,
      "çĶŁæĪĲä¸Ģä¸ª": 3240,
      "çİĽ": 3241,
      "å¤§å°ı": 3242,
      "æĦıå¤§åĪ©": 3243,
      "ç»ĦåĲĪ": 3244,
      "åĵģè´¨": 3245,
      "é»ĳæ´ŀ": 3246,
      "åıĤèĢĥèµĦæĸĻčĊ": 3247,
      "å¤©çļĦ": 3248,
      "é¢Ĺ": 3249,
      "åĽ½åĨħ": 3250,
      "å¼ĥ": 3251,
      "ä¹Łä¸į": 3252,
      "åºĨ": 3253,
      "è§Ĩè§ī": 3254,
      "åıįé¦Ī": 3255,
      "AP": 3256,
      "ag": 3257,
      "ä½¿å¾Ĺ": 3258,
      "è¿ĺåı¯ä»¥": 3259,
      "é»ĺ": 3260,
      "å·¥ä¸ļ": 3261,
      "åŃ¦čĊ": 3262,
      "å£¤": 3263,
      ",000": 3264,
      "å¤ļçļĦ": 3265,
      "æĽ¼": 3266,
      "xĠ": 3267,
      "ä¸ŃãĢĤčĊ": 3268,
      "å½¢è±¡": 3269,
      "çıł": 3270,
      "ä¸Ģé¦ĸ": 3271,
      "ä¸Ĭè¿°": 3272,
      "çªĹ": 3273,
      "ï¼ĮæĽ´": 3274,
      "åĬĽãĢĤčĊ": 3275,
      "éĿ¢ä¸´": 3276,
      "æ¨¡æĭŁ": 3277,
      "å±Ĭ": 3278,
      "è¯ģæĺİ": 3279,
      "èĻ«": 3280,
      "åŃ¦éĻ¢": 3281,
      "æłı": 3282,
      "è¿Ľè¡ĮäºĨ": 3283,
      "æĪ¿éĹ´": 3284,
      "å°ıç»Ħ": 3285,
      "è½¨": 3286,
      "è´ŁéĿ¢": 3287,
      "æĸ¹ç¨ĭ": 3288,
      "ç´¯": 3289,
      "åĪ·": 3290,
      "è¯Ńæ³ķ": 3291,
      "å£°éŁ³": 3292,
      "åŁ¹è®Ń": 3293,
      "ãĤ": 3294,
      "ä¼ĺçĤ¹": 3295,
      "ï¼ĮåĨį": 3296,
      "éĥ¨éĹ¨": 3297,
      "of": 3298,
      "çĽŁ": 3299,
      "å¥³æĢ§": 3300,
      "ç¼ºçĤ¹": 3301,
      "ä»įçĦ¶": 3302,
      "é¦ĸåħĪï¼Į": 3303,
      "å®īæİĴ": 3304,
      "åĹ": 3305,
      "è´¹çĶ¨": 3306,
      "æĶ¾åħ¥": 3307,
      "æ¶Īè´¹èĢħ": 3308,
      "èĦ¸": 3309,
      "çļĦæ®": 3310,
      "æģĴ": 3311,
      "è´´": 3312,
      "åĨĮ": 3313,
      "çļĦ,æĪĸ": 3314,
      "ä¼½": 3315,
      "197": 3316,
      "è¿Ļç¯ĩæĸ°éĹ»": 3317,
      "åĢº": 3318,
      "åĨ¬": 3319,
      "ï¼Įä»¥ç¡®ä¿Ŀ": 3320,
      "ĠĠĠĠĠĠĠĠĠĠĠĠĠĠĠĠ": 3321,
      "æ¯ıä¸ªäºº": 3322,
      "å¿ĺ": 3323,
      "å°¤åħ¶": 3324,
      "ä¸ĢçĤ¹": 3325,
      "ĠC": 3326,
      "\"Ġ": 3327,
      "Jo": 3328,
      "æĪĲè¯Ń": 3329,
      "æĺ¯çľŁçļĦâĢľ": 3330,
      "åĩºçļĦ": 3331,
      "ä¸ĭçļĦ": 3332,
      "for": 3333,
      "çŀ": 3334,
      "äººçĶŁ": 3335,
      "åĢį": 3336,
      "å¯¸": 3337,
      "çī¹æ®Ĭ": 3338,
      "åĿļæĮģ": 3339,
      "èªī": 3340,
      "å¼ĢæĶ¾": 3341,
      "è§Ħæ¨¡": 3342,
      "ç»ĵè®º": 3343,
      "åıĬåħ¶": 3344,
      "åĢĻéĢī": 3345,
      "æľīçĿĢ": 3346,
      "èĭ¥": 3347,
      "è®¾æĸ½": 3348,
      "åİŁçĲĨ": 3349,
      "è£ħé¥°": 3350,
      "çŃīï¼Į": 3351,
      "åĪĺ": 3352,
      "è½¦è¾Ĩ": 3353,
      "ä»¤äºº": 3354,
      "çļĦæ°Ķ": 3355,
      "è¿ĳåľ°": 3356,
      "print(\"": 3357,
      "çļĦæĥ³": 3358,
      "æ¦Ĥå¿µ": 3359,
      "åĶ¯": 3360,
      "è¾£": 3361,
      "éľĢè¦ģæ³¨æĦı": 3362,
      "å®£ä¼ł": 3363,
      "èİ«": 3364,
      "pu": 3365,
      "æģĲ": 3366,
      "è§Ĥä¼Ĺ": 3367,
      "åı¦ä¸Ģä¸ª": 3368,
      "åŁ¹åħ»": 3369,
      "åħ±åĴĮ": 3370,
      "åľ¨ä¸Ģèµ·": 3371,
      "äºĭå®ŀ": 3372,
      "ä¹±": 3373,
      "çļĦæ¦": 3374,
      "åĽ¾åĥı": 3375,
      "æĪĲç«ĭ": 3376,
      "çŃīäºİ": 3377,
      "åĳ¨åĽ´": 3378,
      "è¿Ĳç®Ĺ": 3379,
      "æķ°çļĦ": 3380,
      "åŃ¤": 3381,
      "ï½": 3382,
      "åºŁ": 3383,
      "ä¸¤ç§į": 3384,
      "éĽĦ": 3385,
      "ä»¿": 3386,
      "å¿«ä¹Ĳ": 3387,
      "ï¼Įä¸İ": 3388,
      "æĭ¼": 3389,
      "çĭ¬çī¹çļĦ": 3390,
      "è¿Ļæĺ¯ä¸Ģä¸ª": 3391,
      "ä¿ĿéĻ©": 3392,
      "com": 3393,
      "od": 3394,
      "åıĺæĪĲ": 3395,
      "éĩįçĤ¹": 3396,
      "åĲİæĿ¥": 3397,
      "ĠĠĠ": 3398,
      "ä¿Ħ": 3399,
      "åºıåĪĹ": 3400,
      "åŃ¦ä¼ļ": 3401,
      "åł¡": 3402,
      "è¿ĽæŃ¥": 3403,
      "å¤§éĩıçļĦ": 3404,
      "çļĦæ¯Ķ": 3405,
      "åı¯ä»¥è®©": 3406,
      "è®ºæĸĩçļĦ": 3407,
      "çļĦæĳ": 3408,
      "éģĩåĪ°": 3409,
      "æīĢæľīçļĦ": 3410,
      "NA": 3411,
      "è´Łè´£": 3412,
      "éĿŀå¸¸éĩįè¦ģ": 3413,
      "æķĻèĤ²,": 3414,
      "åıªèĥ½": 3415,
      "æıĴ": 3416,
      "è¿ĳåľ°å°ıè¡ĮæĺŁ": 3417,
      "çļĦåŁºç¡Ģ": 3418,
      "æ¯«": 3419,
      "çĳŀ": 3420,
      "å§ĵ": 3421,
      "æľºåĪ¶": 3422,
      "åħ¬éĩĮ": 3423,
      "éĵ¾æİ¥": 3424,
      "ä¸ĭéĿ¢çļĦ": 3425,
      "æľ¬æĸĩ": 3426,
      "ï¼Įè¿Ļæĺ¯": 3427,
      "æīĵåį°": 3428,
      "éĩıåŃĲ": 3429,
      "ä»ª": 3430,
      "è½¬æį¢ä¸º": 3431,
      "è¯»èĢħ": 3432,
      "ma": 3433,
      "çĶŁæĪĲä¸Ģç¯ĩ": 3434,
      "æĪĲä¸ºäºĨ": 3435,
      "äº§åĵģçļĦ": 3436,
      "Ġ||ĠĠ||Ġ200": 3437,
      "åŁºåĽł": 3438,
      "çº½": 3439,
      "æĮĩå¯¼": 3440,
      "ï¼īãĢĤ": 3441,
      "ç§ĳæĬĢ,": 3442,
      "ow": 3443,
      "æĬĢæľ¯çļĦ": 3444,
      "æĺ¯ï¼ļčĊ": 3445,
      "éģĵå¾·": 3446,
      "ï¼Įå¥¹": 3447,
      "çķħ": 3448,
      "çº¢èī²": 3449,
      "å¯¿": 3450,
      "å°Ĩä¼ļ": 3451,
      "è§Ī": 3452,
      "nĠ": 3453,
      "ä¸ĭåĪĹ": 3454,
      "æľīå¾Īå¤ļ": 3455,
      "æ±½è½¦,": 3456,
      "ä¸ĸçķĮä¸Ĭ": 3457,
      "çĳľ": 3458,
      "ä¸ªæĢ§": 3459,
      "æĸĩåĮĸ,": 3460,
      "ä½ĵèĤ²,": 3461,
      "å°±ä¼ļ": 3462,
      "çģ°": 3463,
      "è¸ª": 3464,
      "çıį": 3465,
      "ï¼Įéģ¿åħį": 3466,
      "å®¤åĨħ": 3467,
      "æ³³": 3468,
      "çĽĽ": 3469,
      "çļĦæ¦Ĥ": 3470,
      "éĺ»": 3471,
      "åĳĪçİ°": 3472,
      "ä¸ŃæľĢ": 3473,
      "æľīæīĢ": 3474,
      "ä¹ĭä¸ĢãĢĤ": 3475,
      "æ¬¡ï¼Į": 3476,
      "æķ¬": 3477,
      "çĽ®çļĦ": 3478,
      "èī¾": 3479,
      "ä¹ĭä¸ĢãĢĤčĊ": 3480,
      "å¤§ï¼Į": 3481,
      "ï¼Įä¹Łæĺ¯": 3482,
      "ä½ĵç³»": 3483,
      "åı¤ä»£": 3484,
      "åĳ³éģĵ": 3485,
      "èĽĭç³ķ": 3486,
      "æīĢéľĢ": 3487,
      "æīĢå±ŀçļĦ": 3488,
      "åįģåĪĨ": 3489,
      "åĦ¿ç«¥": 3490,
      "æ¬§æ´²": 3491,
      "1æĹ¥": 3492,
      "æĶ¶éĽĨ": 3493,
      "1,Ġ": 3494,
      "çī©ä½ĵ": 3495,
      "äººčĊ": 3496,
      "å¸Ń": 3497,
      "å¾·åĽ½": 3498,
      "åĨľä¸ļ,": 3499,
      "å¤ļæķ°": 3500,
      "æĪĺäºī": 3501,
      "åº¦çļĦ": 3502,
      "åĽ½éĻħ,": 3503,
      "è¯Ńåı¥": 3504,
      "èį·": 3505,
      "å¦Ĥæŀľä½ł": 3506,
      "å½¼": 3507,
      "ãĢĤçĦ¶èĢĮ": 3508,
      "æĻ®éĢļ": 3509,
      "çļĦæ®µ": 3510,
      "è´¢ç»ı,": 3511,
      "éĵģè·¯": 3512,
      "å®Įæķ´": 3513,
      "æĤ£èĢħ": 3514,
      "å®¶å±ħ": 3515,
      "ä¿®æĶ¹": 3516,
      "ç¾İåĳ³": 3517,
      "\"čĊ": 3518,
      "8.Ġ": 3519,
      "ãĢĭãĢģ": 3520,
      "åĬ¨åĬĽ": 3521,
      "23": 3522,
      "èĩªèº«": 3523,
      "éŀĭ": 3524,
      "æĦī": 3525,
      "çīĽå¥¶": 3526,
      "åıĳæĮ¥": 3527,
      "1æľĪ": 3528,
      "åĮ¹éħį": 3529,
      "çĳľä¼½": 3530,
      "æµ·æ´ĭ": 3531,
      "çĪ¶æ¯į": 3532,
      "åĲĦä¸ª": 3533,
      "çŁ©": 3534,
      "âĢľæĪĳ": 3535,
      "é¼ł": 3536,
      "çŃīçŃīãĢĤ": 3537,
      "åĨĻä½ľ": 3538,
      "ç¥Ŀ": 3539,
      "æĬ¥éģĵ": 3540,
      "æ£Ģæµĭ": 3541,
      "ç£ģ": 3542,
      "åĵ²åŃ¦": 3543,
      "ï¼Įç¡®ä¿Ŀ": 3544,
      "App": 3545,
      "çļĦæķħäºĭ": 3546,
      "ä¹ı": 3547,
      "ä»¥ä¸ĭæĺ¯ä¸ĢäºĽ": 3548,
      "//": 3549,
      "ç«Ł": 3550,
      "æıı": 3551,
      "if": 3552,
      "æ»¡æĦı": 3553,
      "å½¢çĬ¶": 3554,
      "æĹħæ¸¸,": 3555,
      "ent": 3556,
      "æīĢè¿°": 3557,
      "çķª": 3558,
      "åħ±åĴĮåĽ½": 3559,
      "æĲħ": 3560,
      "çļĦåħ³éĶ®": 3561,
      "åĪĢ": 3562,
      "ç¥ŀç§ĺ": 3563,
      "åŃ£èĬĤ": 3564,
      "ä¸Ģä¸ªäºº": 3565,
      "çļĦæ®µèĲ½": 3566,
      "çĥŁ": 3567,
      "åĪĽæĦı": 3568,
      "åį«çĶŁ": 3569,
      "ĠĠ|Ġ": 3570,
      "æķ°åĪĹ": 3571,
      "çĶŁåŃĺ": 3572,
      "å¤ıåŃ£": 3573,
      "çĺ": 3574,
      "èħ¿": 3575,
      "Th": 3576,
      "è¿¹": 3577,
      "åı£åĳ³": 3578,
      "çļĦç»ĵæŀľ": 3579,
      "è¾ħ": 3580,
      "ç§°ä¸º": 3581,
      "è¿Ļä¸ªéĹ®é¢ĺ": 3582,
      "Ġ\"": 3583,
      "æ¡Į": 3584,
      "æ¥ļ": 3585,
      "æĢ»çļĦ": 3586,
      "è·¨": 3587,
      "èĢĥè¯ķ": 3588,
      "çļĦéľĢæ±Ĥ": 3589,
      "åľ¨äºİ": 3590,
      "æİ¨åĬ¨": 3591,
      "ä¸įåĪ°": 3592,
      "çĤ¸": 3593,
      "èĩªè¡Į": 3594,
      "åº¦ï¼Į": 3595,
      "æĪĲåĪĨ": 3596,
      "196": 3597,
      "90": 3598,
      "æľīéĻĲ": 3599,
      "ç³»ç»ŁçļĦ": 3600,
      "åĳ¢ï¼Ł": 3601,
      "æķħäºĭ,": 3602,
      "è®¯": 3603,
      "Joh": 3604,
      "éģµå¾ª": 3605,
      "ï¼īæĺ¯": 3606,
      "åº¦ãĢĤčĊ": 3607,
      "ï¼ĮåĲĮæĹ¶ä¹Ł": 3608,
      "å¦ĤæŃ¤": 3609,
      "éªĮè¯ģ": 3610,
      "çļĦæ¸¸": 3611,
      "ï¼Įä½¿çĶ¨": 3612,
      "åĨĽäºĭčĊ": 3613,
      "å¸®æĪĳ": 3614,
      "åĪĨéħį": 3615,
      "éªĳ": 3616,
      "çĨĬ": 3617,
      "èĢĮè¨Ģ": 3618,
      "194": 3619,
      "ï½ŀ": 3620,
      "å¾Īå¥½": 3621,
      "æĸĩåŃĹ": 3622,
      "ä¸įçŁ¥éģĵ": 3623,
      "ä»Ģä¹Īæĺ¯": 3624,
      "æ²¿": 3625,
      "æ·±åĪ»": 3626,
      "ä¹Į": 3627,
      "ay": 3628,
      "è£ħä¿®": 3629,
      "èĦī": 3630,
      "æ¡Ĩ": 3631,
      "ä¿Ŀéļľ": 3632,
      "ï¼Įè¿Ļç§į": 3633,
      "çļĦæİ¨": 3634,
      "ãĢĭčĊ": 3635,
      "28": 3636,
      "çļĦãĢĤĠ": 3637,
      "è¿Ľè¡ĮåĪĨç±»": 3638,
      "é¢ĺçĽ®": 3639,
      "è§Ħå¾ĭ": 3640,
      "æĬ«": 3641,
      "ãĢĤä»ĸä»¬": 3642,
      "èµĦäº§": 3643,
      "ä¹ĭåĲİï¼Į": 3644,
      "åĬŀåħ¬": 3645,
      "è£Ĥ": 3646,
      "éģįåİĨ": 3647,
      "åĲĮæł·": 3648,
      "é¥¼": 3649,
      "ï¼Įå¹¶å°Ĩ": 3650,
      "å¯Ĩçłģ": 3651,
      "é»İ": 3652,
      "å£ģ": 3653,
      "è¦Ĩ": 3654,
      "æķ´ä½ĵ": 3655,
      "çī©ç§į": 3656,
      "èī²å½©": 3657,
      "åŃ¦ä¹łåĴĮ": 3658,
      "æ¢ħ": 3659,
      "é¸¡èĽĭ": 3660,
      "åĴ¨": 3661,
      "ï¼Įå¸®åĬ©": 3662,
      "ç»¼ä¸Ĭ": 3663,
      "çī¹èī²": 3664,
      "æĢª": 3665,
      "ä¸Ģå®ļçļĦ": 3666,
      "è®©æĪĳ": 3667,
      "çŁŃè¯Ń": 3668,
      "æī°": 3669,
      "åĸľæ¬¢çļĦ": 3670,
      "çļĦæĭ": 3671,
      "æī£": 3672,
      "è¢ĭ": 3673,
      "æł¼å¼ı": 3674,
      "æľīçļĦ": 3675,
      "ç»ķ": 3676,
      "ä¿¡ä»»": 3677,
      "è¯ĬæĸŃ": 3678,
      "å®Ŀå®Ŀ": 3679,
      "é£ŀè¡Į": 3680,
      "un": 3681,
      "åīª": 3682,
      "æ½®": 3683,
      "åı¦å¤ĸ": 3684,
      "æ¯ķä¸ļ": 3685,
      "çĤİ": 3686,
      "ç®Ģæ´ģ": 3687,
      "çľĭçľĭ": 3688,
      "us": 3689,
      "ï¼ĮçĽ´åĪ°": 3690,
      "çļĦçİ¯å¢ĥ": 3691,
      "ï¼ĮéĢļå¸¸": 3692,
      "æĹ¨": 3693,
      "()": 3694,
      "æĲħæĭĮ": 3695,
      "éĻĪè¿°": 3696,
      "æĢ»æĺ¯": 3697,
      "çļĦæĶ¯": 3698,
      "èµĦéĩĳ": 3699,
      "çĲ´": 3700,
      "æ»©": 3701,
      "èµĸ": 3702,
      "195": 3703,
      "é£ŁæĿĲ": 3704,
      "7.": 3705,
      "ãĢĤä»¥ä¸ĭæĺ¯": 3706,
      "æķ¢": 3707,
      "è¾ĸ": 3708,
      "çł´åĿı": 3709,
      "çĦ¦èĻĳ": 3710,
      "è°ĵ": 3711,
      "ĠP": 3712,
      "æ»¤": 3713,
      "é³": 3714,
      "éħĴåºĹ": 3715,
      "ç§įç±»": 3716,
      "çģŃ": 3717,
      "ï¼īï¼ļ": 3718,
      "å¼Ł": 3719,
      "çļĦæ¨": 3720,
      "çļ®èĤ¤": 3721,
      "è®²è¿°": 3722,
      "ç§ĳåŃ¦å®¶": 3723,
      "ç¯®": 3724,
      "åĴ¨è¯¢": 3725,
      "ç´«": 3726,
      "å±ħæ°ĳ": 3727,
      "èĳ¡": 3728,
      "45": 3729,
      "ç¢İ": 3730,
      "è¾ĵåĩºç»ĵæŀľ": 3731,
      "ï¼Įä½¿å¾Ĺ": 3732,
      "ç»¼ä¸ĬæīĢè¿°": 3733,
      "çļĦçłĶç©¶": 3734,
      "theĠ": 3735,
      "ĠA": 3736,
      "è¯įæ±ĩ": 3737,
      "çĶ³è¯·": 3738,
      "è®°å¿Ĩ": 3739,
      "ï¼Įè¢«": 3740,
      "ç±»åŀĭçļĦ": 3741,
      "ä¹Ļ": 3742,
      "ç¥ŀç»ıç½ĳç»ľ": 3743,
      "é½Ĳ": 3744,
      "èľľ": 3745,
      "ãĢĭãĢģãĢĬ": 3746,
      "æĪ¿äº§,": 3747,
      "è®©äºº": 3748,
      "åŁºéĩĳ": 3749,
      "ä¿¡åı·": 3750,
      "åĬĽï¼Į": 3751,
      "èĴ¸": 3752,
      "åı¯éĿł": 3753,
      "çļĦæĮĩ": 3754,
      "70": 3755,
      "æĺ¯ä»Ģä¹Īï¼ŁčĊ": 3756,
      "çļĦæĸ°": 3757,
      "åıĹæ¬¢è¿İ": 3758,
      "ä¼łæĴŃ": 3759,
      "çļĦæĪĲè¯Ń": 3760,
      "ot": 3761,
      "å°±åı¯ä»¥": 3762,
      "çļĦåĨħå®¹": 3763,
      "ä¹Łè®¸čĊ": 3764,
      "éĿ¢è¯ķ": 3765,
      "çļĦæ¯ı": 3766,
      "çĵľ": 3767,
      "åľŁå£¤": 3768,
      "ï¼ĮèĢĮæĺ¯": 3769,
      "ï¼Įå½ĵ": 3770,
      "æµ®": 3771,
      "çĽ¸åºĶçļĦ": 3772,
      "æ®ĸ": 3773,
      "èĳĹåĲįçļĦ": 3774,
      "ä¸įè¶³": 3775,
      "ä¸ĢåĲį": 3776,
      "éĺ´": 3777,
      "è®¤çŁ¥": 3778,
      "èµ¢": 3779,
      "éĢĥ": 3780,
      "å®ŀæĸ½": 3781,
      "æĽ¿æį¢": 3782,
      "èĲĦ": 3783,
      "èĳ¡èĲĦ": 3784,
      "ï¼į": 3785,
      "ç£¨": 3786,
      "æ·±åº¦åŃ¦ä¹ł": 3787,
      "ä¼łéĢĴ": 3788,
      "åĩī": 3789,
      "æľĢå°ı": 3790,
      "åľ°åĿĢ": 3791,
      "èĤ¯å®ļ": 3792,
      "åĨħçļĦ": 3793,
      "ä¼¸": 3794,
      "éĥģ": 3795,
      "èĴľ": 3796,
      "æľ¬èº«": 3797,
      "æīĵå¼Ģ": 3798,
      "åĪ«äºº": 3799,
      "________": 3800,
      "ä¸īè§Ĵ": 3801,
      "éĻ·": 3802,
      "çļĦåŁºæľ¬": 3803,
      "ä¾µ": 3804,
      "9æľĪ": 3805,
      "éĹ²": 3806,
      "éļıæĹ¶": 3807,
      "é«ĺï¼Į": 3808,
      "æŁ¥è¯¢": 3809,
      "å®¾": 3810,
      "å¿Ļ": 3811,
      "çļĦæ·": 3812,
      "å¤ªéĺ³ç³»": 3813,
      "æĮĤ": 3814,
      "åı¦ä¸Ģ": 3815,
      "å¯»æ±Ĥ": 3816,
      "çļĦäºĭæĥħ": 3817,
      "æ·¡": 3818,
      "å²¸": 3819,
      "åī²": 3820,
      "çļĦæ¶": 3821,
      "em": 3822,
      "çľŁçļĦ,": 3823,
      "èĮĦ": 3824,
      "æģĭ": 3825,
      "èĸĦ": 3826,
      "ç¬¬äºĮä¸ª": 3827,
      "çĵ¶": 3828,
      "äºİæĺ¯": 3829,
      "æĽ¾ç»ı": 3830,
      "çļĦæ±": 3831,
      "è¯ģæį®": 3832,
      "op": 3833,
      "ãĢĤæĤ¨": 3834,
      "èĨľ": 3835,
      "åŃĶ": 3836,
      "å¦Ļ": 3837,
      "æķ°æį®çļĦ": 3838,
      "çīĪæľ¬": 3839,
      "åģĩçļĦ,æĪĸ": 3840,
      "çľŁçļĦ,åģĩçļĦ,æĪĸ": 3841,
      "å©´": 3842,
      "ab": 3843,
      "çļĦæĥ³æ³ķ": 3844,
      "10æľĪ": 3845,
      "æ¹¾": 3846,
      "ä¿¡æģ¯ãĢĤčĊ": 3847,
      "ï¼Įéĥ½": 3848,
      "æĹ¶éĹ´åĴĮ": 3849,
      "åĪ¸": 3850,
      "å§¿": 3851,
      "ig": 3852,
      "æĺ¯åĽłä¸º": 3853,
      "éģĵè·¯": 3854,
      "ç¾İçļĦ": 3855,
      "è¿Ŀ": 3856,
      "å¨±ä¹Ĳ,": 3857,
      "å¾Ģå¾Ģ": 3858,
      "ï¼ļå°Ĩ": 3859,
      "éļĲç§ģ": 3860,
      "2,Ġ": 3861,
      "æĲŀ": 3862,
      "çļĦä¸»": 3863,
      "æ¬£": 3864,
      "å¹³åĿĩåĢ¼": 3865,
      "iv": 3866,
      "¢å¤į": 3867,
      "åī©": 3868,
      "èĴĤ": 3869,
      "äººç±»çļĦ": 3870,
      "ä¸ĭéĻį": 3871,
      "2021å¹´": 3872,
      "èį¯çī©": 3873,
      "èī¯å¥½": 3874,
      "åĩºçīĪ": 3875,
      "åı¯ä»¥æł¹æį®": 3876,
      "å¤§æ°Ķ": 3877,
      "qu": 3878,
      "æŃ£å¼ı": 3879,
      "ç¡®å®ŀ": 3880,
      "èĻļæĭŁ": 3881,
      "èģĺ": 3882,
      "ĽåĽ´": 3883,
      "åľ¨ä¸Ģä¸ª": 3884,
      "ä¸¹": 3885,
      "æĢ§ãĢģ": 3886,
      "ec": 3887,
      "åĮ»éĻ¢": 3888,
      "éļ¾ä»¥": 3889,
      "éī": 3890,
      "åĲĪçī©": 3891,
      "å¦Ĩ": 3892,
      "ÃĹ": 3893,
      "2019": 3894,
      "æľīäºº": 3895,
      "çļĦæ¼": 3896,
      "çĽ¸æ¯Ķ": 3897,
      "æ£Ĵ": 3898,
      "è¿ħ": 3899,
      "âĢĿãĢģ": 3900,
      "éī´": 3901,
      "éĤ¦": 3902,
      "çĴ": 3903,
      "ç¼ĸç¨ĭè¯Ńè¨Ģ": 3904,
      "çļĦæ¨¡": 3905,
      "ĠM": 3906,
      "åİ¨": 3907,
      "æĢ§ãĢĤ": 3908,
      "ç¦ģ": 3909,
      "12æľĪ": 3910,
      "-1": 3911,
      "âĢĿčĊ": 3912,
      "åĲįè¯į": 3913,
      "æī¬": 3914,
      "äººå·¥æĻºèĥ½æĬĢæľ¯": 3915,
      "çļĦæĬĢæľ¯": 3916,
      "åĲĪåĲĮ": 3917,
      "è½¦ç«Ļ": 3918,
      "ï¼Įæ²¡æľī": 3919,
      "æ¶Ĥ": 3920,
      "ä¸Ģç»Ħ": 3921,
      "æĶ»åĩ»": 3922,
      "ç§Ĵ": 3923,
      "äºĨä¸ĢäºĽ": 3924,
      "çļĦä¸»é¢ĺ": 3925,
      "åĪĴçº¿": 3926,
      "çļĦåİŁåĽł": 3927,
      "ht": 3928,
      "35": 3929,
      "æľ¬ä¹¦": 3930,
      "åĪĹåĩº": 3931,
      "çļĦè®¾è®¡": 3932,
      "çĶ¨æĿ¥": 3933,
      "ir": 3934,
      "éŁ©": 3935,
      "åıĮæĸ¹": 3936,
      "åĩıè½»": 3937,
      "çļĦæµ·": 3938,
      "çĶµæ±ł": 3939,
      "èı²": 3940,
      "ä»Ķ": 3941,
      "å§Ķåĳĺä¼ļ": 3942,
      "æ£®æŀĹ": 3943,
      "éĩĳå±ŀ": 3944,
      "äº§ä¸ļ": 3945,
      "è¯įè¯Ń": 3946,
      "çĶµåŃĲéĤ®ä»¶": 3947,
      "èº«ä»½": 3948,
      "åħ¼": 3949,
      "åĩºçĶŁ": 3950,
      "è°ĥçĶ¨": 3951,
      "ä¸°å¯ĮçļĦ": 3952,
      "æİĴåĪĹ": 3953,
      "ï¼ĮçĶ¨äºİ": 3954,
      "çŃīçŃīãĢĤčĊ": 3955,
      "æ°Ķä½ĵ": 3956,
      "å¤©ï¼Į": 3957,
      "åħ·å¤ĩ": 3958,
      "łéģĵ": 3959,
      "ç¾İå¥½": 3960,
      "ç»Ļä½ł": 3961,
      "éĥ¨çĶµå½±": 3962,
      "ä¸ĭåĪĴçº¿": 3963,
      "1ãĢģ": 3964,
      "åĪ©æ¶¦": 3965,
      "è½¬åĮĸ": 3966,
      "ed": 3967,
      "æŀĦå»º": 3968,
      "çļĦå¥½": 3969,
      "çĥ¹": 3970,
      "èĩªä¿¡": 3971,
      "éĢĤå½ĵçļĦ": 3972,
      "æīĢåľ¨": 3973,
      "1000": 3974,
      "ä¸Ĭä¸ĭ": 3975,
      "èĦı": 3976,
      "ç¼ĵè§£": 3977,
      "ï¼Įå¯¼èĩ´": 3978,
      "çĲĥåĳĺ": 3979,
      "å±ķçİ°": 3980,
      "====": 3981,
      "eb": 3982,
      "çĮª": 3983,
      "ä»¥ä¸ĭåı¥åŃĲ": 3984,
      "å¼Ĺ": 3985,
      "è®©æĪĳä»¬": 3986,
      "åľ°çĲĨ": 3987,
      "Jav": 3988,
      "åı¦å¤ĸï¼Į": 3989,
      "éĶĢåĶ®é¢Ŀ": 3990,
      "ç¼ºä¹ı": 3991,
      "æ¸¸æ³³": 3992,
      "ĠB": 3993,
      "ç¬¦åı·": 3994,
      "è¿ĲèĲ¥": 3995,
      "John": 3996,
      "åĲ«æľī": 3997,
      "çļĦå»ºè®®": 3998,
      "è¡¨æ¼Ķ": 3999,
      "èħĲ": 4000,
      "åºĶçĶ¨äºİ": 4001,
      "æģ¢å¤į": 4002,
      "å¼ºçĥĪ": 4003,
      "å¿½": 4004,
      "ç¼ĺ": 4005,
      "çļĦåı¥åŃĲ": 4006,
      "æįķ": 4007,
      "æ¶µ": 4008,
      "è¿ĩç¨ĭä¸Ńï¼Į": 4009,
      "è¿ĲçĶ¨": 4010,
      "1/": 4011,
      "å§Ĳ": 4012,
      "éĺ²æŃ¢": 4013,
      "å¥ĭ": 4014,
      "20å¹´": 4015,
      "çļĦæ´»": 4016,
      "2ãĢģ": 4017,
      "ãĢĭï¼Ī": 4018,
      "å·§åħĭ": 4019,
      "ä¼Ļ": 4020,
      "å½ĵçĦ¶åı¯ä»¥": 4021,
      "çļĦæĦŁè§ī": 4022,
      "æĭĶ": 4023,
      "è¶³å¤ŁçļĦ": 4024,
      "ï¼ĮçĶļèĩ³": 4025,
      "ä»ĸäºº": 4026,
      "å°½åı¯èĥ½": 4027,
      "æĮĩæłĩ": 4028,
      "åĩłä¹İ": 4029,
      "ob": 4030,
      "ç»ıèĲ¥": 4031,
      "æĪĲç»©": 4032,
      "è¡£æľį": 4033,
      "ï¼ĮæľĢç»Ī": 4034,
      "inpu": 4035,
      "è£ģ": 4036,
      "3æľĪ": 4037,
      "ä¸ŃãĢĤ": 4038,
      "åīįéĿ¢": 4039,
      "åħ¨éĿ¢": 4040,
      "éĻĦè¿ĳ": 4041,
      "æĪ´": 4042,
      "ä¸Ģæ¬¾": 4043,
      "çľĭèµ·æĿ¥": 4044,
      "çĪ±å¥½": 4045,
      "ä¸Ĭåįĩ": 4046,
      "æĦŁåıĹåĪ°": 4047,
      "æĢ§è´¨": 4048,
      "çģµæ´»": 4049,
      "èĽĭçĻ½è´¨": 4050,
      "æķ°ãĢĤčĊ": 4051,
      "èļģ": 4052,
      "Ġ+Ġ": 4053,
      "æĺ¯æľĢ": 4054,
      "ä¿®å¤į": 4055,
      "æµĭéĩı": 4056,
      "Ġ$": 4057,
      "æĿ¨": 4058,
      "æķĻåŃ¦": 4059,
      "çļĦäº§åĵģ": 4060,
      "ers": 4061,
      "åĵªéĩĮ": 4062,
      "æĿ¥çľĭ": 4063,
      "éĩĮéĿ¢": 4064,
      "åĳ¨æľŁ": 4065,
      "isĠ": 4066,
      "å¥ĳ": 4067,
      ",å¹¶": 4068,
      "å·¥èīº": 4069,
      "æĸ¹éĿ¢ï¼Į": 4070,
      "æĦ¿æĦı": 4071,
      "å¾ĹåĪ°äºĨ": 4072,
      "èģĶåĲĪ": 4073,
      "åįıè®®": 4074,
      "èĵĿèī²": 4075,
      "æŁ¥æī¾": 4076,
      "éľĢè¦ģèĢĥèĻĳ": 4077,
      "ä¸¤åı¥è¯Ŀ": 4078,
      "è¿ĩåº¦": 4079,
      "çĤ¹ï¼Į": 4080,
      "è¿Ļæł·çļĦ": 4081,
      "çļĦæ£": 4082,
      "çĶŁç´ł": 4083,
      "æłĩå¿Ĺ": 4084,
      "æĺ¾èĳĹ": 4085,
      "ĠçļĦ": 4086,
      "å¦»": 4087,
      "æĳĨ": 4088,
      "36": 4089,
      "âĦ": 4090,
      "çº¤": 4091,
      "åĨħå¿ĥ": 4092,
      "çļĦæ¸©": 4093,
      "ä¸ºä¸»": 4094,
      "åĪ©çĽĬ": 4095,
      "åĲįï¼ļ": 4096,
      "é¢Ħéĺ²": 4097,
      "çļĦéĹ®é¢ĺãĢĤčĊ": 4098,
      "æłıçĽ®": 4099,
      "åŃĻ": 4100,
      "ind": 4101,
      "åľ¨å®¶": 4102,
      "çļĦéĢīæĭ©": 4103,
      "è¿ĺæ¬¾": 4104,
      "æŀĹèĤ¯": 4105,
      "ç§ĳç½Ĺ": 4106,
      "æĪ¿å±ĭ": 4107,
      "çļĦçĽ®æłĩ": 4108,
      "åĬłä¸Ĭ": 4109,
      "æīĭæ®µ": 4110,
      "æŃ¤å¤ĸï¼Į": 4111,
      "âĢĿãĢģâĢľ": 4112,
      "åĲĳéĩı": 4113,
      "åĶ¯ä¸Ģ": 4114,
      "çĿĽ": 4115,
      "æħ§": 4116,
      "æľµ": 4117,
      "ï¼ļä½ł": 4118,
      "çĶŁæĢģç³»ç»Ł": 4119,
      "ç¦»å¼Ģ": 4120,
      "åĲĮåŃ¦": 4121,
      "alĠ": 4122,
      "æľªæĿ¥çļĦ": 4123,
      "æĹ¦": 4124,
      "é¡¾å®¢": 4125,
      "æĬ±": 4126,
      "åĪ¤æĸŃè®ºæĸĩ": 4127,
      "ãĢĤå¥¹": 4128,
      "äººæ°ĳåħ±åĴĮåĽ½": 4129,
      "çļĦæĺ¯ï¼Į": 4130,
      "æĬĳ": 4131,
      "ä¹ĭä¸Ģï¼Į": 4132,
      "åį°åº¦": 4133,
      "å§ľ": 4134,
      "çļĦæ¸¸æĪı": 4135,
      "ï¼Įä¸įè¦ģ": 4136,
      "éģŃ": 4137,
      "æĬµ": 4138,
      "çķĮéĿ¢": 4139,
      "âĢĿĠ": 4140,
      "åĨįæ¬¡": 4141,
      "âĦĥ": 4142,
      "çļĦä¸Ģç§į": 4143,
      "ä»°": 4144,
      "ran": 4145,
      "æĥħèĬĤ": 4146,
      "æķĮ": 4147,
      "çļĦæĻº": 4148,
      "å£®": 4149,
      "ç¢į": 4150,
      "ä¹¦ç±į": 4151,
      "é¦Ļæ¸¯": 4152,
      "åį±éĻ©": 4153,
      "åı¯ä»¥éĢīæĭ©": 4154,
      "è¹Ī": 4155,
      "èĤĮèĤī": 4156,
      "æĪª": 4157,
      "è±ª": 4158,
      "æ¼Ķåĳĺ": 4159,
      "leĠ": 4160,
      "è®¿éĹ®": 4161,
      "å®ĺæĸ¹": 4162,
      "éĹª": 4163,
      "æİĴæĶ¾": 4164,
      "ç¥ĸ": 4165,
      "éĵ¾æİ¥čĊ": 4166,
      "22": 4167,
      "ç§įæ¤į": 4168,
      "åĪ°çļĦ": 4169,
      "çº½çº¦": 4170,
      "åħįè´¹": 4171,
      "çº¹": 4172,
      "å±ıå¹ķ": 4173,
      "æĤ¦": 4174,
      "æĻļä¸Ĭ": 4175,
      "å¹¶æ²¡æľī": 4176,
      "çŃīé¢ĨåŁŁ": 4177,
      "çļĦåİĨåı²": 4178,
      "èĥģ": 4179,
      "çĽĳçĿ£": 4180,
      "å¿ł": 4181,
      "äº¤æį¢": 4182,
      "çļĦæ¬": 4183,
      "æĢģåº¦": 4184,
      "8.": 4185,
      "çĽ¾": 4186,
      "å¯Ĵ": 4187,
      "çŁ¥åĲį": 4188,
      "ä¼ļåĩºçİ°åľ¨": 4189,
      "é©±": 4190,
      "æ¢ģ": 4191,
      "è¿Ļä¸¤ä¸ª": 4192,
      "æĸ°é²ľ": 4193,
      "ãĢĤå¯¹äºİ": 4194,
      "èĥ¶": 4195,
      "èļĤ": 4196,
      "åı¯ä»¥è¢«": 4197,
      "ç½Ĺæĸ¯": 4198,
      "åĮºåĪ«": 4199,
      "ç»´æĮģ": 4200,
      "æ³½": 4201,
      "5æľĪ": 4202,
      "åĲįä¸º": 4203,
      "éĽĨä¸Ń": 4204,
      "çłĶç©¶å°ıç»Ħ": 4205,
      "æľīåĵªäºĽ": 4206,
      "æ£ĭ": 4207,
      "|čĊ": 4208,
      "é¥®æĸĻ": 4209,
      "3,Ġ": 4210,
      "åİ»äºĨ": 4211,
      "è²": 4212,
      "åĵģç§į": 4213,
      "ï¼īçļĦ": 4214,
      "å¯¹æ¯Ķ": 4215,
      "å¸ķ": 4216,
      "æŁĲä¸ª": 4217,
      "çŁŃæĸĩ": 4218,
      "åħ¨éĥ¨": 4219,
      "çĽ¸å½ĵ": 4220,
      "å®ŀä½ĵ": 4221,
      "ï¼ĮâĢľ": 4222,
      "è´¸": 4223,
      "ä¼ĺæĥł": 4224,
      "æ©Ļ": 4225,
      "Java": 4226,
      "ç±³ï¼Į": 4227,
      "æıĲåĩºäºĨ": 4228,
      "ï¼ĮåĽłä¸ºå®ĥ": 4229,
      "kĠ": 4230,
      ":00": 4231,
      "æĹĹ": 4232,
      "åĪ¶åº¦": 4233,
      "éĤ»": 4234,
      "èĬĤçĤ¹": 4235,
      "ï¼Įè¿ĺæľī": 4236,
      "æĢ»çļĦæĿ¥è¯´ï¼Į": 4237,
      "æĹ¥Ġ||Ġç´¢": 4238,
      "çłĶç©¶å°ıç»ĦčĊ": 4239,
      "æĴ°": 4240,
      "æŀĦæĪĲ": 4241,
      "Ġ||ĠæŀĹèĤ¯": 4242,
      "åĵº": 4243,
      "ç§ĳç½ĹĠ||ĠæŀĹèĤ¯": 4244,
      "åĵªä¸ªæłıçĽ®": 4245,
      "åĽºå®ļ": 4246,
      "åĵªä¸ªæłıçĽ®ï¼Ł": 4247,
      "çº·": 4248,
      "éķ¿çļĦ": 4249,
      "ä»Ļ": 4250,
      "å¯Ĩåº¦": 4251,
      "é»Ħèī²": 4252,
      "ãĢĤãĢĤ": 4253,
      "ä»·åĢ¼è§Ĥ": 4254,
      "ï¼Įå¯¹äºİ": 4255,
      "èľĤ": 4256,
      "è·ĥ": 4257,
      "è®ºæĸĩæĳĺè¦ģ": 4258,
      "è¯·è¾ĵåħ¥": 4259,
      "çĻ½èī²": 4260,
      "å¸¦æĿ¥äºĨ": 4261,
      "æĿ¥å®ŀçİ°": 4262,
      "ä¸Ģåıª": 4263,
      "åĪĹè¡¨čĊ": 4264,
      "åĪĽå»ºä¸Ģä¸ª": 4265,
      "åİŁåĪĻ": 4266,
      "2022å¹´": 4267,
      "èļĤèļģ": 4268,
      "æ°Ķæ¸©": 4269,
      "Ġ3": 4270,
      "æĸĩä»¶": 4271,
      "å¤ĸéĥ¨éĵ¾æİ¥čĊ": 4272,
      "å¼Ĥå¸¸": 4273,
      "ä¸įåı¯èĥ½": 4274,
      "å¾Ĺåĩº": 4275,
      "ï¼ħ": 4276,
      "åģĩå®ļ": 4277,
      "ï¼Įåĩıå°ĳ": 4278,
      "æİ¨æĸŃ": 4279,
      "æº¶": 4280,
      "äººãĢĤčĊ": 4281,
      "os": 4282,
      "ä¼ĳæģ¯": 4283,
      "æĬ«èĲ¨": 4284,
      "éĹ®é¢ĺãĢĤ": 4285,
      "æ¢°": 4286,
      "çļĦä½¿çĶ¨": 4287,
      "èĪŀè¹Ī": 4288,
      "çľ¼çĿĽ": 4289,
      "åĴĮæĸĩåĮĸ": 4290,
      "ç¼ĸçłģ": 4291,
      "å¯¹æīĭ": 4292,
      "çĹĩçĬ¶": 4293,
      "å®ĮåĸĦ": 4294,
      "ç¬¬åĽĽ": 4295,
      "åĢĴåħ¥": 4296,
      "éĵº": 4297,
      "çī©çĲĨåŃ¦": 4298,
      "ç»ıçĲĨ": 4299,
      "ï¼Įäººä»¬": 4300,
      "26": 4301,
      "æķ°æį®åĪĨæŀĲ": 4302,
      "çļĦèĥ½åĬĽ": 4303,
      "ç¾Ĭ": 4304,
      "èµĭ": 4305,
      "æī©å±ķ": 4306,
      "æĭĵ": 4307,
      "èĩªè¡Įè½¦": 4308,
      "æĳĩ": 4309,
      "27": 4310,
      "æŁ¥çľĭ": 4311,
      "å¤§åŀĭ": 4312,
      "ä¸Ģå¹´": 4313,
      "ç¼ĸè¾ĳ": 4314,
      "äºĭé¡¹": 4315,
      "ä½łå¯¹": 4316,
      "éĩįè§Ĩ": 4317,
      "ingĠ": 4318,
      "çļĦé«ĺ": 4319,
      "çĮľ": 4320,
      "å®¶äºº": 4321,
      "å®ļä½į": 4322,
      "å®¿": 4323,
      "çļĦåĢ¼": 4324,
      "é¢ĳçİĩ": 4325,
      "ä¿Ĺ": 4326,
      "çªģçĦ¶": 4327,
      "ãĢĤçĶ±äºİ": 4328,
      "ä»¥ä¸ĭæĺ¯ä¸Ģä¸ª": 4329,
      "çļĦæĢ»": 4330,
      "7æľĪ": 4331,
      "ï¼ĮèĢĮä¸įæĺ¯": 4332,
      "ï¼Įä¸Ģä¸ª": 4333,
      "è§ĦèĮĥ": 4334,
      "åĪĹè¡¨ä¸Ń": 4335,
      "è¯¸": 4336,
      "ç¡®è®¤": 4337,
      "åĲ¦åĪĻ": 4338,
      "åİĺ": 4339,
      "æ¸ħæ¥ļ": 4340,
      "å°½éĩı": 4341,
      "æ³¥": 4342,
      "æľīæľº": 4343,
      "ä¹Ķ": 4344,
      "æıĲä¾ĽçļĦ": 4345,
      "å·¨å¤§çļĦ": 4346,
      "ç¿°": 4347,
      "åħīçº¿": 4348,
      "å¨ģèĥģ": 4349,
      "ä¿¡çĶ¨": 4350,
      "çĲĥéĺŁ": 4351,
      "res": 4352,
      "æĥ³æ³ķ": 4353,
      "åĪºæ¿Ģ": 4354,
      "è¿«": 4355,
      "æ¸©æļĸ": 4356,
      "ç»ĵæŀľè¡¨æĺİ": 4357,
      "ä¸¤åı¥è¯ĿçļĦæĦıæĢĿ": 4358,
      "ï¼ĮåıĪ": 4359,
      "âĢĿåĴĮ": 4360,
      "4æľĪ": 4361,
      "å°ıçļĦ": 4362,
      "èĩªåĬ¨åĮĸ": 4363,
      "å¦ĩ": 4364,
      "å½¼æŃ¤": 4365,
      "å¸¸å¸¸": 4366,
      "9.Ġ": 4367,
      "è°ĥèĬĤ": 4368,
      "çĽ¸åĲĮçļĦåĲĹï¼Ł": 4369,
      "åºĦ": 4370,
      "åĲ¹": 4371,
      "æłĩçŃ¾": 4372,
      "å½¢çļĦ": 4373,
      "ï¼Įåı¯ä»¥ä½¿çĶ¨": 4374,
      "ä¼Ł": 4375,
      "è²Į": 4376,
      "çĪ¸": 4377,
      "å¾Īéļ¾": 4378,
      "åŃ¦èĢħ": 4379,
      "æ®ĭ": 4380,
      "8æľĪ": 4381,
      "å¹¶ä¸įæĺ¯": 4382,
      "ç»´çĶŁç´ł": 4383,
      "çļĦãĢĬ": 4384,
      "æľīçĤ¹": 4385,
      "é£ŁçĶ¨": 4386,
      "æķ°åĢ¼": 4387,
      "æ¸¸æĪıï¼Į": 4388,
      "APP": 4389,
      "æĬĵ": 4390,
      "ap": 4391,
      "äºĭçī©": 4392,
      "10å¹´": 4393,
      "ä»¥ä¸ĭåĩłä¸ª": 4394,
      "èĭĹ": 4395,
      "In": 4396,
      "å·§åħĭåĬĽ": 4397,
      "æ´¥": 4398,
      "èĬĤçĽ®": 4399,
      "ov": 4400,
      "çĻĮ": 4401,
      "è¦ĨçĽĸ": 4402,
      "æ°ĳæĹı": 4403,
      "äº¤äºĴ": 4404,
      "åºĶè¯¥æĺ¯": 4405,
      "äºĴçĽ¸": 4406,
      "ãĢĤå¦Ĥæŀľä½ł": 4407,
      "å¤©ç©º": 4408,
      "åĸ·": 4409,
      "ãĢĤæīĢä»¥": 4410,
      "èµļ": 4411,
      "ter": 4412,
      "å¢¨": 4413,
      "çļĦä½įç½®": 4414,
      "çĲĨè§£åĴĮ": 4415,
      "çļĦåīį": 4416,
      "å¤§å¤ļæķ°": 4417,
      "åĽŀå½Ĵ": 4418,
      "åĵºä¹³": 4419,
      "åĪ°è¾¾": 4420,
      "åĪł": 4421,
      "æħ¢æħ¢": 4422,
      "èĤª": 4423,
      "èĦĤèĤª": 4424,
      "ï¼Įä¸»è¦ģ": 4425,
      "æİ¥è§¦": 4426,
      "åĲ¸æĶ¶": 4427,
      ",åĨľä¸ļ,": 4428,
      "9.": 4429,
      "åħ¬ä¼Ĺ": 4430,
      "çĬ¬": 4431,
      "åľ°çĤ¹": 4432,
      "åİŁå§ĭ": 4433,
      "æıĲç¤º": 4434,
      "éģĵçĲĨ": 4435,
      "åĲ«ä¹ī": 4436,
      "æĺĵäºİ": 4437,
      "ï¼īåĴĮ": 4438,
      "ä¼ļæľī": 4439,
      "çĶŁæ´»ä¸Ń": 4440,
      "çļĦæıĲ": 4441,
      "ation": 4442,
      "æĪĳä»¬åı¯ä»¥": 4443,
      "èĬĤå¥ı": 4444,
      "uc": 4445,
      "éĥ½ä¸į": 4446,
      "çºł": 4447,
      "æĮ¯": 4448,
      "åīįå¾Ģ": 4449,
      "éĿ¢åĮħ": 4450,
      "èĬĿ": 4451,
      "è¡¨è¾¾å¼ı": 4452,
      "ï¼ĮçĶ±": 4453,
      "é«ĺåħ´": 4454,
      "å¡ĳæĸĻ": 4455,
      "æī®": 4456,
      "åłĨ": 4457,
      "å¦¹": 4458,
      "æł¹æį®ä»¥ä¸ĭ": 4459,
      "éĢĬ": 4460,
      "çķªèĮĦ": 4461,
      "åį¢": 4462,
      "åĩĿ": 4463,
      "åħįçĸ«": 4464,
      "æīİ": 4465,
      "æĺİçĻ½": 4466,
      "åĴĮç¤¾ä¼ļ": 4467,
      "éĥ½åľ¨": 4468,
      "åįļçī©": 4469,
      "å®¶éķ¿": 4470,
      "çĪ¬": 4471,
      "åĪĻæĺ¯": 4472,
      "å¥½çļĦï¼ĮæĪĳ": 4473,
      "5ä¸ª": 4474,
      "å¹¶ä¸Ķ": 4475,
      "åħĪçĶŁ": 4476,
      "2018": 4477,
      "å¼¦": 4478,
      "å¯¹è¯ĿåĨħå®¹": 4479,
      "åĴĮåıĳå±ķ": 4480,
      "å²Ĺ": 4481,
      "æľĢå¥½çļĦ": 4482,
      "ä½¿çĶ¨çļĦ": 4483,
      "æĢ»ç»Ł": 4484,
      "11æľĪ": 4485,
      ".com": 4486,
      "æŃ£éĿ¢": 4487,
      "çļĦæ¼Ķ": 4488,
      "è½¨éģĵ": 4489,
      "çº¤ç»´": 4490,
      "çļĦæĶ¶": 4491,
      "ï¼Įå°ı": 4492,
      "ä¸Ģå®¶": 4493,
      "ï¼Įä½¿åħ¶": 4494,
      "6æľĪ": 4495,
      "é¥ª": 4496,
      "çĥ¹é¥ª": 4497,
      "193": 4498,
      "è¯ķéªĮ": 4499,
      "åĲ§ãĢĤčĊ": 4500,
      "ä»ģ": 4501,
      "ï¼Įçİ°åľ¨": 4502,
      "çļĦæĦıä¹ī": 4503,
      "å·´é»İ": 4504,
      "åĨ²çªģ": 4505,
      "å¤§éĥ¨åĪĨ": 4506,
      "çĽĨ": 4507,
      "è°Ĳ": 4508,
      "æĺŁæľŁ": 4509,
      "ä¿Ŀåģ¥": 4510,
      "æŃ»äº¡": 4511,
      "ãĢĤåľ¨è¿Ļä¸ª": 4512,
      "wor": 4513,
      "ãĢĤè¿Ļæł·": 4514,
      "æĤī": 4515,
      "æĹ¶åĪ»": 4516,
      "æ°¢": 4517,
      "æĺ¯æĪĳ": 4518,
      "éĶģ": 4519,
      "æĶ¹éĿ©": 4520,
      "DNA": 4521,
      "åįģå¹´": 4522,
      "å®¶çļĦ": 4523,
      "æĺ¯ä¸ŃåĽ½": 4524,
      "âĢĿåĽłæŃ¤": 4525,
      "çĥ¤ç®±": 4526,
      "æĿ¥è®¡ç®Ĺ": 4527,
      "æ¸łéģĵ": 4528,
      "ãĢĤä»İ": 4529,
      "è¿Ļæ®µè¯Ŀ": 4530,
      "ä¹Łå¾Ī": 4531,
      "è´§å¸ģ": 4532,
      "çĸ²": 4533,
      "éĺĲ": 4534,
      "5,Ġ": 4535,
      "åĮºåĿĹ": 4536,
      "input(": 4537,
      "åĪĩæĪĲ": 4538,
      "åħħè¶³": 4539,
      "ä¸ĭåĪĴçº¿å¤Ħ": 4540,
      "èĩªä¸»": 4541,
      "èĤ¡ç¥¨čĊ": 4542,
      "æĸľ": 4543,
      "ç³Ĭ": 4544,
      "åį«æĺŁ": 4545,
      "300": 4546,
      "å¹¼": 4547,
      "è¿ħéĢŁ": 4548,
      "éĩįéĩı": 4549,
      "å¤±è´¥": 4550,
      "è®©ä½ł": 4551,
      "çļĦçī¹çĤ¹": 4552,
      "ç¢Ĺ": 4553,
      "è¥¿çıŃ": 4554,
      "è½´": 4555,
      "æĬķåħ¥": 4556,
      "åħģ": 4557,
      "è¥¿çıŃçīĻ": 4558,
      "åĩºï¼Į": 4559,
      "ç©Ĩ": 4560,
      "æ§": 4561,
      "åĬ¨æĢģ": 4562,
      "ç¨į": 4563,
      "åĨłåĨĽ": 4564,
      "åĴĮæľįåĬ¡": 4565,
      "çļĦæ¶Ī": 4566,
      "ï¼Īå¦Ĥ": 4567,
      "æī«": 4568,
      "äººä½ĵ": 4569,
      "å°¿": 4570,
      "å©ļç¤¼": 4571,
      "æĽ´ä¸º": 4572,
      "çĽĳè§Ĩ": 4573,
      "å¤§äºİ": 4574,
      "åģ¥åº·çļĦ": 4575,
      "ç½ļ": 4576,
      "äººåľ¨": 4577,
      "æķĻæİĪ": 4578,
      "æĺ¯ä¸ª": 4579,
      "èĻİ": 4580,
      "å¤įæĿĤçļĦ": 4581,
      "å©´åĦ¿": 4582,
      "çĹħæ¯Ĵ": 4583,
      "å¼ķåĬĽ": 4584,
      "å°¼äºļ": 4585,
      "æĿ¥çļĦ": 4586,
      "æĭħä»»": 4587,
      "5Ġ": 4588,
      "åıĳæĺİ": 4589,
      "str": 4590,
      "éļĨ": 4591,
      "æĮĩåįĹ": 4592,
      "å¤Ħäºİ": 4593,
      "çļĦåıĺåĮĸ": 4594,
      "å¤ĸè§Ĥ": 4595,
      "çº¿æĢ§": 4596,
      "æĭľ": 4597,
      "ãĢĤèĻ½çĦ¶": 4598,
      "ä¸Ģèĩ´": 4599,
      "og": 4600,
      "éĢīæĭ©ä¸Ģä¸ª": 4601,
      "éĿ©åĳ½": 4602,
      "èİī": 4603,
      "åĬĽåŃ¦": 4604,
      "æĮĩå®ļ": 4605,
      "çĶ·åŃĲ": 4606,
      "èģĬå¤©": 4607,
      "ï¼ĮæıĲä¾Ľ": 4608,
      "çļĦä¸Ģéĥ¨åĪĨ": 4609,
      "æĴĴ": 4610,
      "ä¸ĢæĿ¡": 4611,
      "çļĦä¸į": 4612,
      "æıĲéĨĴ": 4613,
      "äºĶä¸ª": 4614,
      "éĩĬæĶ¾": 4615,
      "ç´§å¼ł": 4616,
      "è¿ĲåĬ¨ä¼ļ": 4617,
      "',Ġ": 4618,
      "å®ĭ": 4619,
      "æĢ§æł¼": 4620,
      "æĽ´å®¹æĺĵ": 4621,
      "æ¼Ĥ": 4622,
      "é£ŀæľº": 4623,
      "è´·æ¬¾": 4624,
      "å®ŀçĶ¨": 4625,
      "åĵªä¸ªç±»åĪ«": 4626,
      "é¡µéĿ¢": 4627,
      "åįıè°ĥ": 4628,
      "ä¹ĭå¤Ħ": 4629,
      "èĢĮä¸Ķ": 4630,
      "çĮİ": 4631,
      "çĪ½": 4632,
      "21": 4633,
      "åľ°éľĩ": 4634,
      "çļĦå¿ĥ": 4635,
      "åķ¥": 4636,
      "æ»ļ": 4637,
      "ä¸Ģå¤©": 4638,
      "æľīæķĪçļĦ": 4639,
      "åĪĳ": 4640,
      "ä¸ºï¼ļčĊ": 4641,
      "æĮº": 4642,
      "çļĦæµģ": 4643,
      "èµ«": 4644,
      "åĨĻä¸Ģç¯ĩåħ³äºİ": 4645,
      "Ph": 4646,
      "çļĦæ²ŁéĢļ": 4647,
      "çĽĳæµĭ": 4648,
      "ä¼ļåľ¨": 4649,
      "åģļå¥½": 4650,
      "åĿ¡": 4651,
      "å§»": 4652,
      "èĤº": 4653,
      "ç¬¬ä¸Ģæ¬¡": 4654,
      "èĪ°": 4655,
      "è¯·ä½ł": 4656,
      "ä¾ĽåºĶ": 4657,
      "åıĺå¾ĹæĽ´åĬł": 4658,
      "æĦŁæŁĵ": 4659,
      "åħ·ä½ĵçļĦ": 4660,
      "è¿Ļç¯ĩè®ºæĸĩçļĦ": 4661,
      "åįļçī©é¦Ĩ": 4662,
      "æ°¸è¿ľ": 4663,
      "çļĦæĹ¶åĢĻï¼Į": 4664,
      "çŁĽ": 4665,
      "å¾Īå¤§": 4666,
      "æĹ¨åľ¨": 4667,
      "Tom": 4668,
      "åŃ¤çĭ¬": 4669,
      "æļĤ": 4670,
      "çļĦè¡Įä¸º": 4671,
      "èĸª": 4672,
      "éĹ®é¢ĺï¼ļčĊ": 4673,
      "å°±ä¸ļ": 4674,
      "çĭĲ": 4675,
      "ç»ĻäºĪ": 4676,
      "åıįæĺł": 4677,
      "ä¼¼ä¹İ": 4678,
      "ex": 4679,
      "æŀª": 4680,
      "çļĦæĽ": 4681,
      "éĢīåĩº": 4682,
      "æĪĺæĸĹ": 4683,
      "åĮĸåĲĪçī©": 4684,
      "å¯º": 4685,
      "æľīæķĪåľ°": 4686,
      "ä¸įçĶ¨": 4687,
      "3ä¸ª": 4688,
      "æİĺ": 4689,
      "åĽĽä¸ª": 4690,
      "çļĦæ´»åĬ¨": 4691,
      "ï¼ĽĠ": 4692,
      "]čĊ": 4693,
      "çĶĺ": 4694,
      "çļĦæģ": 4695,
      "æĥħåĨµä¸ĭ": 4696,
      "åį°è±¡": 4697,
      "æķ°æį®åºĵ": 4698,
      "?čĊ": 4699,
      "çļĦæİĴ": 4700,
      "åŃĲãĢģ": 4701,
      "åĵ¦": 4702,
      "ï¼Įå®ŀçİ°": 4703,
      "çļĦåħ³ç³»": 4704,
      "çŃĽ": 4705,
      "åĪĨæĪĲ": 4706,
      "è®ºæĸĩæłĩé¢ĺ": 4707,
      "åĩ¯": 4708,
      "çº¦ç¿°": 4709,
      "ä¸ŃéĹ´": 4710,
      "å¡«åĨĻ": 4711,
      "éĢĨ": 4712,
      "èĮ¨": 4713,
      "å¾Ĵ": 4714,
      "åĬ¨æľº": 4715,
      "è¿ĲåĬ¨åĳĺčĊ": 4716,
      "çļĦå®īåħ¨": 4717,
      "åłµ": 4718,
      "éĤĢ": 4719,
      "è´¾": 4720,
      "æıĲåīį": 4721,
      "æł¹æľ¬": 4722,
      "æ¨¡åŀĭçļĦ": 4723,
      "çļĦé£İéĻ©": 4724,
      "ç»Ŀå¯¹": 4725,
      "çļĦåĴĮ": 4726,
      "ï¼Įæ¯ıä¸ª": 4727,
      "å¥³åŃ©": 4728,
      "çļĦå¤©æ°Ķ": 4729,
      "èħ¾": 4730,
      "xx": 4731,
      "é½¿": 4732,
      "29": 4733,
      "è¯Ńä¹ī": 4734,
      "ä½ĵçİ°": 4735,
      "æĸĲ": 4736,
      "éĢĤçĶ¨äºİ": 4737,
      "ç¾İå¥½çļĦ": 4738,
      "åľ°ï¼Į": 4739,
      "æĦŁãĢĤčĊ": 4740,
      "ä¸İåħ¶ä»ĸ": 4741,
      "éĹ¨ç±»": 4742,
      "ä¾Ŀèµĸ": 4743,
      "1,": 4744,
      "æ¨ª": 4745,
      "ãĢĤä¸ĭéĿ¢": 4746,
      "ä¸įéľĢè¦ģ": 4747,
      "å£³": 4748,
      "å®¶æĹı": 4749,
      "éĥ½åı¯ä»¥": 4750,
      "2æľĪ": 4751,
      "è¿ģ": 4752,
      "é»ĳèī²": 4753,
      "âĢĿæĪĸ": 4754,
      "æķ´çĲĨ": 4755,
      "è®¤ä¸ºæĺ¯": 4756,
      "ï¼Įå°¤åħ¶": 4757,
      "æ¼ı": 4758,
      "ç¾¤ä½ĵ": 4759,
      "åĨĽäºĭ,": 4760,
      "è®¤çľŁ": 4761,
      "å©ļå§»": 4762,
      "çİ»": 4763,
      "çĪ¶äº²": 4764,
      "Al": 4765,
      "éķ¿æĹ¶éĹ´": 4766,
      "çĽ¸åĬł": 4767,
      "å½¢æĢģ": 4768,
      "ä¸ĵå®¶": 4769,
      "åĮĸåĴĮ": 4770,
      "ä¸ĵæ³¨": 4771,
      "æĻ¶": 4772,
      "ï¼ĮæľĢåĲİ": 4773,
      "åĮĻ": 4774,
      "æĴŀ": 4775,
      "æ¶¨": 4776,
      "ï¼ļè¿Ļ": 4777,
      "æĹģ": 4778,
      "èĩ³åħ³": 4779,
      "æ»´": 4780,
      "è¾ĥä¸º": 4781,
      "åįıä½ľ": 4782,
      "æ¾³": 4783,
      "è¿ĺéľĢè¦ģ": 4784,
      "ãĢĤå¦ĤæŀľæĤ¨": 4785,
      "æł¹æį®æłĩé¢ĺ": 4786,
      "åħ±äº«": 4787,
      "å¨ľ": 4788,
      "åı¯æĮģç»Ńåıĳå±ķ": 4789,
      "éĽĨåĽ¢": 4790,
      "æĤ¬": 4791,
      "å¤ıå¤©": 4792,
      "ç½²": 4793,
      "æĥ³è±¡": 4794,
      "åĪĽä¸ļ": 4795,
      "æķħäºĭï¼Į": 4796,
      "çĲĨå¿µ": 4797,
      "èıľåĵģ": 4798,
      "ãĢĤæł¹æį®": 4799,
      "åıĸåĨ³": 4800,
      "ï¼Įä¹Łåı¯ä»¥": 4801,
      "äºĨè®¸å¤ļ": 4802,
      "ä½©": 4803,
      "çļĦæķ°åŃĹ": 4804,
      "æ¸ħåįķ": 4805,
      "ï¼Įå°±æĺ¯": 4806,
      "åİŁåŃĲ": 4807,
      "æĶ¶çĽĬ": 4808,
      "ãĢģé«ĺ": 4809,
      "å¤§éĻĨ": 4810,
      "åī§æĥħ": 4811,
      "âĢĿåĴĮâĢľ": 4812,
      "åħģè®¸": 4813,
      "æĺ¨": 4814,
      "ä¼łç»ŁçļĦ": 4815,
      "åıĸåĨ³äºİ": 4816,
      "ä»¥åīį": 4817,
      "å¼ºå¤§çļĦ": 4818,
      "éĥ½èĥ½": 4819,
      "ãĢĤæ¯Ķå¦Ĥ": 4820,
      "æĪĲå°±": 4821,
      "æµģéĩı": 4822,
      "æł¹æį®ç»Ļå®ļçļĦ": 4823,
      "andĠ": 4824,
      "çļĦè´¨éĩı": 4825,
      "çľĭæ³ķ": 4826,
      "éĵľ": 4827,
      "çķĻä¸ĭ": 4828,
      "ãĢĤçĦ¶åĲİ": 4829,
      "æĪĺçķ¥": 4830,
      "æĺ¯ï¼ļ": 4831,
      "ãĢĤå®ĥä»¬": 4832,
      "ä¸ŃæıĲåıĸ": 4833,
      "åį³åı¯ãĢĤčĊ": 4834,
      "çĬ¯ç½ª": 4835,
      "è°ĥåĳ³": 4836,
      "è§ģčĊ": 4837,
      "ï¼Įå¸ĮæľĽ": 4838,
      "0å¹´ä»£": 4839,
      "ä½¿çĶ¨äºĨ": 4840,
      "1-": 4841,
      "ï¼Įåħ·æľī": 4842,
      "å¤§çº¦": 4843,
      "inĠ": 4844,
      "å¼ºåº¦": 4845,
      "æ²ĥ": 4846,
      "èĪį": 4847,
      "ï¼Įä¼ļ": 4848,
      "çĭĤ": 4849,
      "ä¸¥æł¼": 4850,
      "åıªè¦ģ": 4851,
      "æĸĩæĺİ": 4852,
      "èĥ¸": 4853,
      "æĢĿè·¯": 4854,
      "åĲ«éĩı": 4855,
      "æĿľ": 4856,
      "èģª": 4857,
      "ä½ĵéĩį": 4858,
      "ä½łå¥½": 4859,
      "app": 4860,
      "ä¸įå°ĳ": 4861,
      "åľ¨è¿Ļ": 4862,
      "åīĳ": 4863,
      "åŁºçī¹": 4864,
      "ï¼Įèĥ½": 4865,
      "çĽĪ": 4866,
      "çļĦæ¦Ĥå¿µ": 4867,
      "ï¼ĮåĬłåħ¥": 4868,
      "æĴĳ": 4869,
      "ce": 4870,
      "çļĦé¢ľèī²": 4871,
      "å¤§èĦĳ": 4872,
      "33": 4873,
      "æı´": 4874,
      "ãĢĤĠæĪĳ": 4875,
      "æĢİä¹Īæł·": 4876,
      "å¾®ä¿¡": 4877,
      "æĪ·å¤ĸ": 4878,
      "çŁĽçĽ¾": 4879,
      "åĩ¡": 4880,
      "çĶŁå¹³": 4881,
      "æĢ»ä½ĵ": 4882,
      "åĩºèī²": 4883,
      "åĵĪåĵĪ": 4884,
      "äººå£«": 4885,
      "æĵ¦": 4886,
      "éĢĴå½Ĵ": 4887,
      "çī¹æĢ§": 4888,
      "ï¼ģï¼ģ": 4889,
      "çļĦæĮĳæĪĺ": 4890,
      "çļĦå½±åĵįãĢĤčĊ": 4891,
      "ï¼ĮæľĢ": 4892,
      "æł·æľ¬": 4893,
      "åľŁåľ°": 4894,
      "åĵºä¹³åĬ¨çī©": 4895,
      "åĻª": 4896,
      "çŃīå¾ħ": 4897,
      "âĢĿæĪĸâĢľ": 4898,
      "åŁºçī¹å³°": 4899,
      "ä¸įå¤Ł": 4900,
      "\")čĊ": 4901,
      "å¿ĥåĴĮ": 4902,
      "æĹ¥Ġ||ĠåŁºçī¹å³°": 4903,
      "æĸ¯åĿ¦": 4904,
      "æĪĳåĽ½": 4905,
      "èİĵ": 4906,
      "çļĦæĶ¯æĮģ": 4907,
      "ang": 4908,
      "çĶ¨æĪ·è¾ĵåħ¥": 4909,
      "æĮĸ": 4910,
      "å®ŀæĹ¶": 4911,
      "è·¯çº¿": 4912,
      "éĢıæĺİ": 4913,
      "éħįç½®": 4914,
      "å½±åĵįãĢĤčĊ": 4915,
      "äºĭä¸ļ": 4916,
      "çĽĳè§ĨčĊ": 4917,
      "2019å¹´": 4918,
      "é¸£": 4919,
      "Ġ||Ġå¤ªç©º": 4920,
      "Ġ||Ġå¤ªç©ºçĽĳè§ĨčĊ": 4921,
      "åħĶ": 4922,
      "è¿Ľå±ķ": 4923,
      "èĲĿ": 4924,
      "æ¬²": 4925,
      "æ¯Ķä¾ĭ": 4926,
      "æĸ°åŀĭ": 4927,
      "ä¸»è§Ĵ": 4928,
      "ï¼ĮæĬĬ": 4929,
      "æ·ĭ": 4930,
      "ï¼ĮæĪĳä¼ļ": 4931,
      "æ¶īåıĬåĪ°": 4932,
      "å¨±ä¹ĲčĊ": 4933,
      "æŁ±": 4934,
      "å½¢å®¹": 4935,
      "åķĨåĬ¡": 4936,
      "åħ¶ä¸ŃçļĦ": 4937,
      "æĥħåĨµä¸ĭï¼Į": 4938,
      "åĨĴéĻ©": 4939,
      "ä¼ĺè´¨": 4940,
      "çĪ±çļĦ": 4941,
      "æĶ¾å¼ĥ": 4942,
      "æĸ¯çī¹": 4943,
      "åĮºåĿĹéĵ¾": 4944,
      "æª": 4945,
      "ä½ĵéªĮãĢĤčĊ": 4946,
      "äº§çĶŁäºĨ": 4947,
      "çĥ¦": 4948,
      "æłĩè®°": 4949,
      "å°ĸ": 4950,
      "å¤ļï¼Į": 4951,
      "åĿĳ": 4952,
      "Ġm": 4953,
      "åĺ´": 4954,
      "ä¿Ħç½Ĺæĸ¯": 4955,
      "----------------": 4956,
      "çģ¾å®³": 4957,
      "è¿ĩäºİ": 4958,
      "å¾Īæľī": 4959,
      "æ³¨åĨĮ": 4960,
      "æĺ¯å¤ļå°ĳ": 4961,
      "ãĢĭï¼Į": 4962,
      "éŃĶæ³ķ": 4963,
      "å¤º": 4964,
      "åį§": 4965,
      "æµħ": 4966,
      "çİ°åľº": 4967,
      "ç¬Ķè®°": 4968,
      "æĸĩæ¡£": 4969,
      "åĩºè¡Į": 4970,
      "48": 4971,
      "ãĢĤåĽłä¸º": 4972,
      "è·ĳæŃ¥": 4973,
      "æĪĸåħ¶ä»ĸ": 4974,
      "ä¸įå¤ª": 4975,
      "è¿ŀç»Ń": 4976,
      "å¹³éĿ¢": 4977,
      "ç»¼ä¸ĬæīĢè¿°ï¼Į": 4978,
      "æĵİ": 4979,
      "æīĵéĢł": 4980,
      "åħ¬åħ±äº¤éĢļ": 4981,
      "æ¬£èµı": 4982,
      "å¹²åĩĢ": 4983,
      "çĶ¨æĪ·çļĦ": 4984,
      "éĻħåħ³ç³»": 4985,
      "æİ¥è¿ĳ": 4986,
      "çļĦæ¤": 4987,
      "æľºæ¢°": 4988,
      "æī©å¤§": 4989,
      "ãĢĤâĢľ": 4990,
      "æĢİæł·": 4991,
      "çļĦĠ": 4992,
      "ä¸įå¥½": 4993,
      "ä¹īè¯į": 4994,
      "æĺ¯ä¸Ģæ¬¾": 4995,
      "çļĦçĥŃ": 4996,
      "çļĦä¸ĢäºĽ": 4997,
      "æŀĿ": 4998,
      "èĭ±éĽĦ": 4999,
      "æĩĴ": 5000,
      "æľĢæĸ°": 5001,
      "ĠĠĠĠĠ|Ġ": 5002,
      "è¾Ľ": 5003,
      "ä¼¤å®³": 5004,
      "çĴĥ": 5005,
      "TheĠ": 5006,
      "æ½ľåľ¨": 5007,
      "æ´ª": 5008,
      "ï¼Įæīįèĥ½": 5009,
      "åĪĿå§ĭ": 5010,
      "æĺİå¤©": 5011,
      "éĻª": 5012,
      "æĸĩåĮĸï¼Į": 5013,
      "åıĺæļĸ": 5014,
      "èĥ½åĬĽãĢĤčĊ": 5015,
      "æĦŁåĴĮ": 5016,
      "å½»": 5017,
      "è´¢ç»ı,æĪ¿äº§,": 5018,
      "æ³ķè¯Ń": 5019,
      "è®¾å®ļ": 5020,
      "å°ºå¯¸": 5021,
      "æĤ²": 5022,
      "åŃ©åŃĲçļĦ": 5023,
      "å½¹": 5024,
      "å¥ĸåĬ±": 5025,
      "æľ¬è´¨": 5026,
      "æ³ķéĻ¢": 5027,
      "TC": 5028,
      "æĹ¥čĊ": 5029,
      "äºĭæķħ": 5030,
      "éĢ¼": 5031,
      "çļĦæŁ": 5032,
      "åĬ¨è¯į": 5033,
      "åįĩçº§": 5034,
      "æįŁå¤±": 5035,
      "ç¨¿": 5036,
      "æĺ¯ä¸Ģä½į": 5037,
      "75": 5038,
      "ä¸įå¾Ĺ": 5039,
      "ä¸įäºĨ": 5040,
      "æĽ´æį¢": 5041,
      "è¿Ĳè¾ĵ": 5042,
      "çļĦéŁ³ä¹Ĳ": 5043,
      "æĻ®éģį": 5044,
      "èĮĥåĽ´åĨħ": 5045,
      "Â°": 5046,
      "çłĶåıĳ": 5047,
      "æĶ¯åĩº": 5048,
      "ãĢģæ°´": 5049,
      "åĲĮäºĭ": 5050,
      "æıĲåĪ°": 5051,
      "ä»Ĭå¹´": 5052,
      "æµªè´¹": 5053,
      "toĠ": 5054,
      "å¼¯": 5055,
      "æķĻå¸Ī": 5056,
      "ä¸¤ä¸ªæķ°åŃĹ": 5057,
      "å¤©çĦ¶": 5058,
      "ç½Ĺé©¬": 5059,
      "éĩĳé¢Ŀ": 5060,
      "è¿Ń": 5061,
      "èĬ¬": 5062,
      "åĽŀåĪ°": 5063,
      "æķĻèĤ²ï¼Į": 5064,
      "çĭ¸": 5065,
      "åĽ¾ä¹¦": 5066,
      "åĴĮĠ": 5067,
      "èº«ä½ĵåģ¥åº·": 5068,
      "å¿ħè¦ģçļĦ": 5069,
      "ä½ľå®¶": 5070,
      "æİ¨åĩº": 5071,
      "æĬ¢": 5072,
      "2020å¹´": 5073,
      "çļĦæķ°éĩı": 5074,
      "æĭĨ": 5075,
      "çļĦçĶµå½±": 5076,
      "3ãĢģ": 5077,
      "æī¾åĩº": 5078,
      "éļľç¢į": 5079,
      "æĪĳä»¬éľĢè¦ģ": 5080,
      "å¼ķæĵİ": 5081,
      "ãĢĢ": 5082,
      "æĢ§åĪ«": 5083,
      "èķī": 5084,
      "åħĥčĊ": 5085,
      "é«ĺçº§": 5086,
      "åľ°ä½į": 5087,
      "åľºæīĢ": 5088,
      "ä¸Ģå¼ł": 5089,
      "æľįè£ħ": 5090,
      "ç¾½": 5091,
      "æĦŁåħ´è¶£": 5092,
      "çļĦä½ľçĶ¨": 5093,
      "æİ¥çĿĢ": 5094,
      "æ¸ħæ´Ĺ": 5095,
      "åı¯ä»¥å°Ĩ": 5096,
      "æ¡Īä»¶": 5097,
      "ä¸īç§į": 5098,
      "è¯Ŀé¢ĺ": 5099,
      "è§Ĩä¸º": 5100,
      "åıī": 5101,
      "ä¸įåĨį": 5102,
      "ãĢĲ": 5103,
      "ç¦»åŃĲ": 5104,
      "å§ĭç»Ī": 5105,
      "åĲĪå¹¶": 5106,
      "çŁ©éĺµ": 5107,
      "æķ°ä¸º": 5108,
      "åĲĽ": 5109,
      "æĹ©æľŁ": 5110,
      "åŃ¦æľ¯": 5111,
      "10.Ġ": 5112,
      "æĸĩåĮĸåĴĮ": 5113,
      "ç¢°": 5114,
      "å¿ħçĦ¶": 5115,
      "å¤©ä½ĵ": 5116,
      "æ³ī": 5117,
      "æİ¨çĲĨ": 5118,
      "åľ°çĲĥçļĦ": 5119,
      "ãĢĳ": 5120,
      "çŃīæĸ¹å¼ı": 5121,
      "èİ·å¾ĹäºĨ": 5122,
      "å°±èĥ½": 5123,
      "input(\"": 5124,
      "å¸ĥå±Ģ": 5125,
      "çļĦæĥħåĨµä¸ĭ": 5126,
      "å¯¿åĳ½": 5127,
      "é¼»": 5128,
      "æĬĢæľ¯åĴĮ": 5129,
      "æĸ¯Â·": 5130,
      "ä¸Ģç³»åĪĹ": 5131,
      "å¥¥è¿Ĳ": 5132,
      "å®ĹæķĻ": 5133,
      "åĽŀæĶ¶": 5134,
      "åıįè½¬": 5135,
      "é¬": 5136,
      "å±ķå¼Ģ": 5137,
      "ï¼ĮåĴĮ": 5138,
      "ãĢĤä¸ºäºĨ": 5139,
      "èµµ": 5140,
      "2016": 5141,
      "åĬŀæ³ķ": 5142,
      "çĽĹ": 5143,
      "è¦ģæ³¨æĦı": 5144,
      "ï¼Įä¸ŃåĽ½": 5145,
      "ï¼Įçī¹åĪ«": 5146,
      "æĦıè§ģ": 5147,
      "çĩ¥": 5148,
      "æ¡Ĩæŀ¶": 5149,
      "ãĢĤæľĢåĲİï¼Į": 5150,
      "åıł": 5151,
      "èİİ": 5152,
      "æĺ¯éĿŀå¸¸": 5153,
      "äº¦": 5154,
      "å¼Ģå±ķ": 5155,
      "å®Įç¾İ": 5156,
      "èĪªç©º": 5157,
      "çļĦä¸ľè¥¿": 5158,
      "æ¯ģ": 5159,
      "ä¸¤ä¸ªåı¥åŃĲ": 5160,
      "æ±½è½¦,æķĻèĤ²,": 5161,
      "è°ĭ": 5162,
      "ï¼Įåı¯ä»¥å¸®åĬ©": 5163,
      "å·¥èµĦ": 5164,
      "èħ¹": 5165,
      "è´¦æĪ·": 5166,
      "åıĤè§ģčĊ": 5167,
      "å¿į": 5168,
      "çİ°éĩĳ": 5169,
      "A:Ġ": 5170,
      "æķ¦": 5171,
      "æľīäºĨ": 5172,
      "ate": 5173,
      "å»ºè®®ãĢĤčĊ": 5174,
      "',Ġ'": 5175,
      "åĬłéĢŁ": 5176,
      "åĪĨæŀĲåĴĮ": 5177,
      "åĲ´": 5178,
      "ä¸ĸçķĮä¸ĬæľĢ": 5179,
      "çļĦåĬŁèĥ½": 5180,
      "åĪ©äºļ": 5181,
      "Ch": 5182,
      "ï¼Įä½łåı¯ä»¥": 5183,
      "çļĦæ®µèĲ½ï¼Į": 5184,
      "å¿§": 5185,
      "çİ»çĴĥ": 5186,
      "ä¸»äºº": 5187,
      "çļĦæĵ": 5188,
      "ä¸¾è¡Į": 5189,
      "ä»¥åĲİ": 5190,
      "oun": 5191,
      "ç¢ĳ": 5192,
      "èģĮåľº": 5193,
      "||ĠĠ||Ġ200": 5194,
      "åģ¿": 5195,
      "è¾Ĳ": 5196,
      "èģĮä½į": 5197,
      "åľ°éĿ¢": 5198,
      "æľŁå¾ħ": 5199,
      "åľ°åĽ¾": 5200,
      "æŁľ": 5201,
      "....": 5202,
      "ï¼ĮæĹł": 5203,
      "èĥ½åĬĽåĴĮ": 5204,
      "äººä»¬çļĦ": 5205,
      "äººåĲį": 5206,
      "æĹ¶çļĦ": 5207,
      "æī®æ¼Ķ": 5208,
      "æµ¸": 5209,
      "éľį": 5210,
      "åĬłçĥŃ": 5211,
      "åķ¦": 5212,
      "èĥİ": 5213,
      "éªĹ": 5214,
      "æĿĨ": 5215,
      "çļĦæ·±": 5216,
      "ç¾İä¸½çļĦ": 5217,
      "è¯ķåĽ¾": 5218,
      "å®ŀéĻħä¸Ĭ": 5219,
      "æİĴåĲį": 5220,
      "ä¸ĭè½½": 5221,
      "æķĪçİĩåĴĮ": 5222,
      "æ¶Īæģ¯": 5223,
      "ãĢĤè¯·": 5224,
      "æ¨¡åĿĹ": 5225,
      "çļĦä»·æł¼": 5226,
      "ä»Ģä¹Īç±»åĪ«": 5227,
      "æĸ°éĹ»ï¼Ł": 5228,
      "æ¯ķç«Ł": 5229,
      "ï¼ĮåĲİ": 5230,
      "æ¯ıæ¬¡": 5231,
      "åĴĮæ°´": 5232,
      "çĲĨè´¢": 5233,
      "çĤī": 5234,
      "é«ĺéĢŁ": 5235,
      "çīĽèĤī": 5236,
      "ä¸ªæľĪ": 5237,
      "æ³¢éĤ£": 5238,
      "è¿Ļæ®µè¯Ŀï¼Ł": 5239,
      "4,Ġ": 5240,
      "å¦Īå¦Ī": 5241,
      "ä¼ĺç§ĢçļĦ": 5242,
      "çĽĴ": 5243,
      "å·¨å¤§": 5244,
      "äººãĢĤ": 5245,
      "çĶ»éĿ¢": 5246,
      "æ±½è½¦ï¼Į": 5247,
      "å·²çŁ¥": 5248,
      "æ³¢éĤ£å¥ĳ": 5249,
      "æ¢¯": 5250,
      "å¿ĥçĲĨåŃ¦": 5251,
      "æĸĲæ³¢éĤ£å¥ĳ": 5252,
      "ub": 5253,
      "éĢļä¿¡": 5254,
      "æľīè¶£çļĦ": 5255,
      "ä¸ºï¼ļ": 5256,
      "çļĦæĵį": 5257,
      "ä¹ĭéĹ´çļĦåħ³ç³»": 5258,
      "æıĲä¾Ľä¸Ģä¸ª": 5259,
      "é¦Ļèķī": 5260,
      "èģªæĺİ": 5261,
      "è´«": 5262,
      "ä¼ĺåħĪ": 5263,
      "åĪłéĻ¤": 5264,
      "æĺ¯éĢļè¿ĩ": 5265,
      "and": 5266,
      "ç»Īäºİ": 5267,
      "tr": 5268,
      "æĻºæħ§": 5269,
      "åĲĪæĪĲ": 5270,
      "æĸĩåĮĸ,å¨±ä¹Ĳ,": 5271,
      "åħ±æľī": 5272,
      "èĩ³äºİ": 5273,
      "æĸ°éĹ»ï¼ļĠ": 5274,
      "ä¸ĭè¾ĸ": 5275,
      "çĶµåĻ¨": 5276,
      "ofĠ": 5277,
      "ãĢĤåĲĮæĹ¶": 5278,
      "å¾Īå¤ļäºº": 5279,
      "é¢ĨåŁŁçļĦ": 5280,
      "åĽ½éĻħ,èĤ¡ç¥¨": 5281,
      "æĭħå¿ĥ": 5282,
      "åĨĽäºĭ,æĹħæ¸¸,": 5283,
      "è¯´è¯Ŀ": 5284,
      "ä¸ĬãĢĤčĊ": 5285,
      "åĸĤ": 5286,
      "æ¸¸æĪı?": 5287,
      "ä¸įæĸŃåľ°": 5288,
      ",åĨľä¸ļ,æ¸¸æĪı?": 5289,
      "æĸ°éĹ»ï¼ļĠæķħäºĭ,": 5290,
      "åĿĽ": 5291,
      "æľīä¸ĢäºĽ": 5292,
      "åı¯èĥ½çļĦ": 5293,
      "çĭĲçĭ¸": 5294,
      "ï¼ĮéĢīæĭ©": 5295,
      "èµĦæľ¬": 5296,
      "è¿Ļç¯ĩæĸ°éĹ»ï¼Ł": 5297,
      "è´¸æĺĵ": 5298,
      "æĻ¯çĤ¹": 5299,
      "æ¤ħ": 5300,
      "çĶŁå¹³čĊ": 5301,
      "æ·ĺ": 5302,
      "å¼ķå¯¼": 5303,
      "ä¸ĢåĪĩ": 5304,
      "åŁİå¸ĤçļĦ": 5305,
      "oc": 5306,
      "/Ġ": 5307,
      "ç§ĳæĬĢï¼Į": 5308,
      "ç¦ıåĪ©": 5309,
      "ä»¥ä¸ĭåĨħå®¹": 5310,
      "æ¶ĪèĢĹ": 5311,
      "æľīæ²¡æľī": 5312,
      "è¢Ń": 5313,
      "ä¿¡ä»°": 5314,
      "äºĨĠ": 5315,
      "èıľåįķ": 5316,
      "æĸ¹å¼ıãĢĤčĊ": 5317,
      "é£İæļ´": 5318,
      "èĥľåĪ©": 5319,
      "çĽ¸åıį": 5320,
      "åįľ": 5321,
      "å¯¼æ¼Ķ": 5322,
      "å±Ĥæ¬¡": 5323,
      "æıŃ": 5324,
      "å¾Īå¤§çļĦ": 5325,
      "pl": 5326,
      "åħ½": 5327,
      "æľĢå¤§åĢ¼": 5328,
      "æĽ´æľī": 5329,
      "å¼ºçļĦ": 5330,
      "ç¯®çĲĥ": 5331,
      "2011": 5332,
      "äºļæ´²": 5333,
      "åĺī": 5334,
      "IĠ": 5335,
      "åħ¶æ¬¡ï¼Į": 5336,
      "è¡ĮæĶ¿åĮº": 5337,
      "ç§°ä¸ºâĢľ": 5338,
      "æĦīå¿«": 5339,
      "ä½łèĥ½": 5340,
      "é©»": 5341,
      "éħįåĲĪ": 5342,
      "ä¼ļå¯¼èĩ´": 5343,
      "ï¼Įæł¹æį®": 5344,
      "10ä¸ª": 5345,
      "å°ĺ": 5346,
      "ï¼Įå¤ļ": 5347,
      "è¾ŀ": 5348,
      "åıĳè¡¨": 5349,
      "ä¸»åĬ¨": 5350,
      "$Ġ": 5351,
      "åľºåĲĪ": 5352,
      "æĽ´å¿«": 5353,
      "åĪĨæķ°": 5354,
      "çļĦæĥħç»ª": 5355,
      "çĶ¨éĢĶ": 5356,
      "88": 5357,
      "ĠĠ#Ġ": 5358,
      "åįĵ": 5359,
      "å¤ĸçļĦ": 5360,
      "ï¼Įäººå·¥æĻºèĥ½": 5361,
      "ï¼Įè¿ĺæĺ¯": 5362,
      "èµ¶": 5363,
      "ä¸Ńåħ±": 5364,
      "ç«¹": 5365,
      "2017": 5366,
      "çļĦæĶ¹": 5367,
      "çļĦæĳĺè¦ģ": 5368,
      "çļĦæĸĩæľ¬": 5369,
      "ï¼Įä¹Łå°±æĺ¯": 5370,
      "esĠ": 5371,
      "åį³ä½¿": 5372,
      "çĲĨæĥ³": 5373,
      "ä¼ĳéĹ²": 5374,
      "ï¼Įä¸įæĸŃ": 5375,
      "èħĬ": 5376,
      "è®¢åįķ": 5377,
      "æĪĲæŀľ": 5378,
      "è½»è½»": 5379,
      "åĲ¬èµ·æĿ¥": 5380,
      "ä¼Ļä¼´": 5381,
      "æµªæ¼«": 5382,
      "åİ¨æĪ¿": 5383,
      "èĬ±åĽŃ": 5384,
      "ï¼ĮæĪĸ": 5385,
      "çļĦæł¸å¿ĥ": 5386,
      "æĹłéĻĲ": 5387,
      "ä¼łè¾¾": 5388,
      "æĮĳ": 5389,
      "æĸĳ": 5390,
      "çĨŁæĤī": 5391,
      "åħħæ»¡äºĨ": 5392,
      "cm": 5393,
      "åħ¬è·¯": 5394,
      "ï¼ĮæĪĲä¸º": 5395,
      "PythonĠ": 5396,
      "çľŁæŃ£çļĦ": 5397,
      "2-": 5398,
      "æķĪæŀľãĢĤčĊ": 5399,
      "æĪĳåľ¨": 5400,
      "æıĲä¾Ľä¸ĢäºĽ": 5401,
      "å·¥ç¨ĭå¸Ī": 5402,
      "ä»Ķç»Ĩ": 5403,
      "éĻ¶": 5404,
      "çĤ®": 5405,
      "èģĶèµĽ": 5406,
      "éĤ£éĩĮ": 5407,
      "è®¡ç®Ĺæľºç§ĳåŃ¦": 5408,
      "åĸľå¥½": 5409,
      "ï¼Įç»Ļ": 5410,
      "å¯¹åħ¶": 5411,
      "æĮĩåĩº": 5412,
      "å¸¦æľī": 5413,
      "å®£å¸ĥ": 5414,
      "éŃħ": 5415,
      "ç®Ń": 5416,
      "ä¸»ä»»": 5417,
      "è®¾è®¡ä¸Ģä¸ª": 5418,
      "è¡¨è¾¾äºĨ": 5419,
      "åģ·": 5420,
      "20ä¸ĸçºª": 5421,
      "çļĦæ¤į": 5422,
      "åĩłå¹´": 5423,
      "ut": 5424,
      "ï¼Įå»ºè®®": 5425,
      "éļ¾åº¦": 5426,
      "ï¼Įçľĭ": 5427,
      "å»ºéĢł": 5428,
      "2015": 5429,
      "æĪĳæĥ³çŁ¥éģĵ": 5430,
      "æ³ķè§Ħ": 5431,
      "æģĴæĺŁ": 5432,
      "å¦ĤæŀľæĤ¨": 5433,
      "ä¼°è®¡": 5434,
      "ult": 5435,
      "400": 5436,
      "çļĦæĵįä½ľ": 5437,
      "çİ¯å¢ĥä¿ĿæĬ¤": 5438,
      "è¾¨": 5439,
      "çĶµåĬ¨": 5440,
      "ä¹¦è®°": 5441,
      "OS": 5442,
      "åı·çłģ": 5443,
      "ä¾¿åĪ©": 5444,
      "ķèī²": 5445,
      "æ¶¯": 5446,
      "ç½ĳä¸Ĭ": 5447,
      "çŃīåĽłç´ł": 5448,
      "æĻĭ": 5449,
      "æĺĨ": 5450,
      "12å¹´": 5451,
      "2014": 5452,
      "æĥľ": 5453,
      "å¤±åİ»": 5454,
      "ï¼Įå¢ŀåĬł": 5455,
      "éĹ®é¢ĺï¼ļâĢľ": 5456,
      "ç¢±": 5457,
      "ä¸ĭåįĪ": 5458,
      "èĤł": 5459,
      "çº¦ä¸º": 5460,
      "sh": 5461,
      "ï¼Īï¼Į": 5462,
      "æĺĤ": 5463,
      "åĪĨç±»ä¸º": 5464,
      "ä»ĭç»įäºĨ": 5465,
      "ï¼Įä¿ĿæĮģ": 5466,
      "è¡¥åħħ": 5467,
      "å¼ķåıĳ": 5468,
      "4Ġ": 5469,
      "An": 5470,
      "çļĦåħĥç´ł": 5471,
      "ç²Ĺ": 5472,
      "2008å¹´": 5473,
      "ue": 5474,
      "åħĪè¿Ľ": 5475,
      "åīįæĻ¯": 5476,
      "ï¼Įå¾ĹåĪ°": 5477,
      "é¢Ī": 5478,
      "è¯´ï¼ļâĢľ": 5479,
      "èĤ´": 5480,
      "æĶ¾ç½®": 5481,
      "äºķ": 5482,
      "55": 5483,
      "åĽŀçŃĶä»¥ä¸ĭ": 5484,
      "éĺĶ": 5485,
      "æĭĴ": 5486,
      "æĺ¯ä¸į": 5487,
      "çĽĳç®¡": 5488,
      "åĨľæĿĳ": 5489,
      "ä½łåľ¨": 5490,
      "iĠ": 5491,
      "ä¼į": 5492,
      "çļĦæĻ¯": 5493,
      "æĺ¯ä¸Ģéĥ¨": 5494,
      "ä¸Ģåľº": 5495,
      "ä½łåı¯ä»¥": 5496,
      "èĢĢ": 5497,
      "æĮĩæķ°": 5498,
      "ke": 5499,
      "äºĨå¾Īå¤ļ": 5500,
      "å¨ĺ": 5501,
      "è¯¦ç»ĨçļĦ": 5502,
      "è¿Ł": 5503,
      "åĳ½åĲį": 5504,
      "æŀģç«¯": 5505,
      "è°¨": 5506,
      "èģĶçĽŁ": 5507,
      "åĲĪçĲĨçļĦ": 5508,
      "ice": 5509,
      "æģ°": 5510,
      "67": 5511,
      "ï¼ĮæĿ¥": 5512,
      "ä¹ĭå¤ĸï¼Į": 5513,
      "ä½ĵèĤ²ï¼Į": 5514,
      "æ¡ĥ": 5515,
      "æĪĲäºĨ": 5516,
      "è¿ĩæ»¤": 5517,
      "èº«å¿ĥ": 5518,
      "é¢ĦæĬ¥": 5519,
      "åĪ°åºķ": 5520,
      "åĴĮè°Ĳ": 5521,
      "éĽĨåĲĪ": 5522,
      "éķ¿ï¼Į": 5523,
      "ï¼Īï¼ī": 5524,
      "çĶ¨ãĢĤčĊ": 5525,
      "åı¯è¡Į": 5526,
      "ä¸ĭåİ»": 5527,
      "ç©·": 5528,
      "å®ļå¾ĭ": 5529,
      "åıĻ": 5530,
      "2013": 5531,
      "éľĢæ±ĤåĴĮ": 5532,
      "åħ³éĹŃ": 5533,
      "ä¸ŃåĽ½çļĦ": 5534,
      "æľĢéĢĤåĲĪ": 5535,
      "éĩįå¤§": 5536,
      "Sc": 5537,
      "ãĢĤä»¥ä¸ĭæĺ¯ä¸ĢäºĽ": 5538,
      "æīĢè°ĵ": 5539,
      "ä¸Ĭä¸ĭæĸĩ": 5540,
      "ç»Łä¸Ģ": 5541,
      "éĢīé¡¹ï¼ļç§ĳæĬĢ,": 5542,
      "ç§ĳå¹»": 5543,
      "æī¿æĭħ": 5544,
      "é¬¼": 5545,
      "ä¿ĿçķĻ": 5546,
      "å¾Īå¥½çļĦ": 5547,
      "æİ¥æĶ¶": 5548,
      "çĤ¹åĩ»": 5549,
      "è¿Ļæ¬¡": 5550,
      "æľ±": 5551,
      "è¶ħçº§": 5552,
      "æľºåľº": 5553,
      "sor": 5554,
      "åŀĤ": 5555,
      "sum": 5556,
      "ãĢĤæŃ¤å¤ĸ": 5557,
      "ä¸Ńæľī": 5558,
      "æĺŁçĲĥ": 5559,
      "èĥĨ": 5560,
      "åĴĮæĶ¯æĮģ": 5561,
      "é¸Łç±»": 5562,
      "AppåºĶçĶ¨ç¨ĭåºı": 5563,
      "ne": 5564,
      "ãĢĤæĸĩç«ł": 5565,
      "å¾ĹåĪĨ": 5566,
      "äºĮæ°§åĮĸ": 5567,
      "ä¸Ģé¡¹": 5568,
      "çĶŁæĹ¥": 5569,
      "åĭ¤": 5570,
      "åħ¨çĲĥåıĺæļĸ": 5571,
      "2010å¹´": 5572,
      "ï¼Įä¸Ķ": 5573,
      "çĪ·": 5574,
      "éĢīé¡¹ï¼ļç§ĳæĬĢï¼Į": 5575,
      "çļĦãĢģ": 5576,
      "è¡Įé©¶": 5577,
      "åģ¥åº·åĴĮ": 5578,
      "å±ħä½ı": 5579,
      "pt": 5580,
      "æĭĸ": 5581,
      "çºµ": 5582,
      "ĠĠĠĠ|Ġ": 5583,
      "è¾ħåĬ©": 5584,
      "ãĢĤä¸įè¿ĩ": 5585,
      "æ¦Ĥæĭ¬": 5586,
      ",å¯¹": 5587,
      "æĸĩçī©": 5588,
      "2ä¸ª": 5589,
      "é¸Ń": 5590,
      "tp": 5591,
      "ĠĠ|čĊ": 5592,
      "çļĦæ¯ıä¸ª": 5593,
      "ï¼Įä¸įè¿ĩ": 5594,
      "ãĢĤéļıçĿĢ": 5595,
      "åħĭæľį": 5596,
      "çĥĤ": 5597,
      "è¯ŃéŁ³è¯ĨåĪ«": 5598,
      "ãĢĭçļĦ": 5599,
      "çļĦå¤§å°ı": 5600,
      "ä¸Ģå®ļè¦ģ": 5601,
      "åı¯ä»¥æıĲé«ĺ": 5602,
      "ä¾ł": 5603,
      "å±ŀæĢ§": 5604,
      "æĲº": 5605,
      "çħ§çīĩ": 5606,
      "åı¯èĥ½éľĢè¦ģ": 5607,
      "ä¾ĿçĦ¶": 5608,
      "åŃĲåĴĮ": 5609,
      "ï¼Įä¸įä»ħ": 5610,
      "çļĦé£Łçī©": 5611,
      "çļĦæĻºèĥ½": 5612,
      "åı¹": 5613,
      "å°ĶÂ·": 5614,
      "èŀįåĲĪ": 5615,
      "çŁ¥è¯ĨåĴĮ": 5616,
      "çļĦæ¢": 5617,
      "éģµå®Ī": 5618,
      "ver": 5619,
      "å¾Īå¿«": 5620,
      "æ¿ĢåĬ±": 5621,
      "æĹłè®ºæĺ¯": 5622,
      "åĬ¨çĶ»": 5623,
      "åģļæ³ķ": 5624,
      "éĺĲè¿°": 5625,
      "ID": 5626,
      "è¿Ľè¡ĮæİĴåºı": 5627,
      "å¸¦çĿĢ": 5628,
      "ãĢĤåı¦å¤ĸï¼Į": 5629,
      "èĦĨ": 5630,
      "å¹´ï¼Ī": 5631,
      "æĤł": 5632,
      "ıè§Ī": 5633,
      "èĢģæĿ¿": 5634,
      "ä¹Łåľ¨": 5635,
      "ï¼Įä½įäºİ": 5636,
      "å¥½åĥı": 5637,
      "æĺ¯ä¸įæĺ¯": 5638,
      "ï¼Įä¸įåĲĮ": 5639,
      "è¿ĺè¦ģ": 5640,
      "éĽķ": 5641,
      "åĽ½éĻħï¼Į": 5642,
      "çļĦè¯Ńè¨Ģ": 5643,
      "æ¦Ħ": 5644,
      "åģ¶æķ°": 5645,
      "è¿Ńä»£": 5646,
      "æĺ¯æĪĳä»¬": 5647,
      "åħ¹": 5648,
      "è½¬åĮĸä¸º": 5649,
      "åĴĮå¹³": 5650,
      "ï¼ĮæĪĳåı¯ä»¥": 5651,
      "å°ıäºİ": 5652,
      ",åľ¨": 5653,
      "ç»ĵæŀľãĢĤčĊ": 5654,
      "å¾¡": 5655,
      "æµ´": 5656,
      "ä½ĵç§¯": 5657,
      "å¤ªéĺ³èĥ½": 5658,
      "ello": 5659,
      "æµĻ": 5660,
      "å¼łä¸ī": 5661,
      "34": 5662,
      "ãĢģå¤§": 5663,
      "èĤĿ": 5664,
      "è¿ĳå¹´": 5665,
      "æľŁæľĽ": 5666,
      "åı¯èĥ½å¯¼èĩ´": 5667,
      "æııè¿°åĴĮ": 5668,
      "ä¸ºçľŁ": 5669,
      "å°ıåŀĭ": 5670,
      "è¡Ĺéģĵ": 5671,
      "åı¬": 5672,
      "å¿ħå®ļ": 5673,
      "çĵ£": 5674,
      "åĽ¾çīĩ": 5675,
      "çªģåĩº": 5676,
      "æĪĲçĨŁ": 5677,
      "ä¸ĵä¸ļçļĦ": 5678,
      "æĿĲè´¨": 5679,
      "åĪĨè§£": 5680,
      "anĠ": 5681,
      "åĲ¬è¯´": 5682,
      "é£İæĻ¯": 5683,
      "æª¬": 5684,
      "è¾ĥé«ĺ": 5685,
      "è´¢ç»ıï¼Į": 5686,
      "åĴĮæĮĳæĪĺ": 5687,
      "åıĳè¡Į": 5688,
      "ãĢĤåı¯ä»¥": 5689,
      "ä¿ĿåŃĺ": 5690,
      "å½Ĵç±»": 5691,
      "åŃ©åŃĲä»¬": 5692,
      "èĥ¡æ¤Ĵ": 5693,
      "å®ļåĪ¶": 5694,
      "é¸¡èĤī": 5695,
      "éģĹä¼ł": 5696,
      "åĮĸãĢģ": 5697,
      "åİĺç±³": 5698,
      "æľĪçĲĥ": 5699,
      "æĪĲåĬŁçļĦ": 5700,
      "æŃ£åĪĻ": 5701,
      "è®°å¾Ĺ": 5702,
      "è£ħå¤ĩ": 5703,
      "ĠĠĠ|čĊ": 5704,
      "æħİ": 5705,
      "ä»ĵ": 5706,
      "ä¹ŁéľĢè¦ģ": 5707,
      "èŃ¦å¯Ł": 5708,
      "))čĊ": 5709,
      "åŁºæľ¬çļĦ": 5710,
      "ï¼ļéĢļè¿ĩ": 5711,
      "ç¿¼": 5712,
      "æĸĲæ³¢éĤ£å¥ĳæķ°åĪĹ": 5713,
      "çĶ¨åĵģ": 5714,
      "æł¹æį®åħ³éĶ®è¯į": 5715,
      "łæª¬": 5716,
      "ä¾Ŀæį®": 5717,
      "ä½ľä¸ºä¸Ģä¸ª": 5718,
      "å¾ĭå¸Ī": 5719,
      "èĩĤ": 5720,
      "åľ°éĵģ": 5721,
      "åĲĦåľ°": 5722,
      "åį±æľº": 5723,
      "âĢĵ": 5724,
      "èħ°": 5725,
      "B:Ġ": 5726,
      "Ħæ¦Ħ": 5727,
      "å»ºçŃĳçī©": 5728,
      "å¸®åĬ©ãĢĤčĊ": 5729,
      "la": 5730,
      "ç»ĦæĪĲéĥ¨åĪĨ": 5731,
      "æĺ¯æľī": 5732,
      "æĹħæ¸¸ï¼Į": 5733,
      "2018å¹´": 5734,
      "ï¼ĮæĪĳä»¬å°Ĩ": 5735,
      "åĲĲ": 5736,
      "æłĩé¢ĺ:čĊ": 5737,
      "èŀº": 5738,
      "èµ¢å¾Ĺ": 5739,
      "æĻ¨": 5740,
      "åı°æ¹¾": 5741,
      "åĨ¥": 5742,
      "85": 5743,
      "ï¼Įä½ĨæĪĳ": 5744,
      "å¤ªå¤ļ": 5745,
      "ç´łè´¨": 5746,
      "å®¢æľį": 5747,
      "è¯´æľī": 5748,
      "ï¼ĮäºĨè§£": 5749,
      "éĺħè¯»ä»¥ä¸ĭ": 5750,
      "ï¼Įå¹¶å°Ĩåħ¶": 5751,
      "æĺ¯åĲ¦æľī": 5752,
      "åı¤åħ¸": 5753,
      "æ³Ĭ": 5754,
      "çļĦåŁİå¸Ĥ": 5755,
      "3Ġ": 5756,
      "æŀļ": 5757,
      "è¾Ĳå°Ħ": 5758,
      "æĿ¥è§£åĨ³": 5759,
      "æĸ¹æ³ķãĢĤčĊ": 5760,
      "Phon": 5761,
      "ï¼Įè¡¨ç¤º": 5762,
      "èĢ¶": 5763,
      "æĭĽèģĺ": 5764,
      "ä»£çłģï¼ļčĊ": 5765,
      "å°ĳå¹´": 5766,
      "éŃĤ": 5767,
      "æĹ¶åħī": 5768,
      "è±¡å¾ģ": 5769,
      "ph": 5770,
      "åŃ¦å®¶": 5771,
      "åĬłå¯Ĩ": 5772,
      "æŁĲç§į": 5773,
      "æ¦Ĥçİĩ": 5774,
      "çļĦæĶ¿": 5775,
      "*Ġ": 5776,
      "æİ¨è¿Ľ": 5777,
      "éĨĩ": 5778,
      "çľĭå¾ħ": 5779,
      "çĶŁæ´»æĸ¹å¼ı": 5780,
      "åħ¶å®ĥ": 5781,
      "åŃ¦ç§ĳï¼ļčĊ": 5782,
      "çİ©åħ·": 5783,
      "å¥¥æŀĹ": 5784,
      "est": 5785,
      "éĥİ": 5786,
      "è¾£æ¤Ĵ": 5787,
      "éħ¶": 5788,
      "åĴĮä¸į": 5789,
      "éĶĭ": 5790,
      "é¦¨": 5791,
      "æĹĭè½¬": 5792,
      "ä¸įä»ħä»ħ": 5793,
      "éľľ": 5794,
      "çļĦæīĢæľī": 5795,
      "æ³¨éĩĬ": 5796,
      "å«Į": 5797,
      "ç¨Ģ": 5798,
      "åĬ£": 5799,
      "ï¼Įå½¢æĪĲ": 5800,
      "ä¸Ģéģĵ": 5801,
      "èħĶ": 5802,
      "http": 5803,
      "æŃ¦åĻ¨": 5804,
      "150": 5805,
      "çļĦä»»åĬ¡": 5806,
      "ä¼łè¾ĵ": 5807,
      "åħĦ": 5808,
      "å¥Ķ": 5809,
      "input(\"è¯·è¾ĵåħ¥": 5810,
      "èĥ½åĲ¦": 5811,
      "å¯¹çİ¯å¢ĥ": 5812,
      "æĽ´é«ĺ": 5813,
      "æĸĩæľ¬ä¸ŃçļĦ": 5814,
      "ï¼ļæĪĳä»¬": 5815,
      "å¹²æī°": 5816,
      "äººåĴĮ": 5817,
      "2000": 5818,
      "PS": 5819,
      "ç¤¼çī©": 5820,
      ".âĢĿ": 5821,
      "2,": 5822,
      "åľĨå½¢": 5823,
      "å§¿åĬ¿": 5824,
      "ãĢĤå°Ĩ": 5825,
      "çĶ·æĢ§": 5826,
      "è¿ĩäºĨ": 5827,
      "èĻ¾": 5828,
      "èĩªçĦ¶çļĦ": 5829,
      "ä¸ĩåħĥ": 5830,
      "èµ¤": 5831,
      "çĭ®": 5832,
      "éĩįåĨĻ": 5833,
      "åı¯ä»¥æİ¨æĸŃ": 5834,
      "çĽ¸åºĶ": 5835,
      "å¼ĢéĢļ": 5836,
      "æĿĥåĪ©": 5837,
      "æĽ´å¥½åľ°çĲĨè§£": 5838,
      "åĨħå®¹ãĢĤčĊ": 5839,
      "é¢Ŀåº¦": 5840,
      "åħ±äº§": 5841,
      "åĩŃ": 5842,
      "ç´§æĢ¥": 5843,
      "åı«åģļ": 5844,
      "çħİ": 5845,
      "æ°§æ°Ķ": 5846,
      "æĻĴ": 5847,
      "ï¼ĪS": 5848,
      "éĴ®": 5849,
      "è®¤åı¯": 5850,
      "å¥¥æŀĹåĮ¹": 5851,
      "å¹²çĩ¥": 5852,
      "ï¼ļãĢĬ": 5853,
      "éĻ¤ä»¥": 5854,
      "åĨľä¸ļï¼Į": 5855,
      "çĩĥæĸĻ": 5856,
      "æĴ¤": 5857,
      "çĬ¹": 5858,
      "æ´ĭèĳ±": 5859,
      "ï¼ĮæĪĳæĥ³": 5860,
      "çĸ¼": 5861,
      "æķıæĦŁ": 5862,
      "åħ¬éĩĮï¼Į": 5863,
      "37": 5864,
      "ãĢģæĻºèĥ½": 5865,
      "å¿ĥæĥħ": 5866,
      "çĶµåķĨ": 5867,
      "iPhon": 5868,
      "åıĳéĢģ": 5869,
      "ç¬¬åįģ": 5870,
      "æķĪåºĶ": 5871,
      "è£¤": 5872,
      "èĽĩ": 5873,
      "åİĨåı²ä¸Ĭ": 5874,
      "ww": 5875,
      "ä¸§": 5876,
      "åĪĨåī²": 5877,
      "å¼ºåĮĸ": 5878,
      "çļĦæ¸ħ": 5879,
      "èĩªåĬ¨é©¾é©¶": 5880,
      "æ¶µçĽĸ": 5881,
      "æ°ĽåĽ´": 5882,
      "çŃĶæ¡Īæĺ¯ï¼ļčĊ": 5883,
      "çļĦæ¡": 5884,
      "åģļåĪ°": 5885,
      "ER": 5886,
      "2009å¹´": 5887,
      "ï¼Įå°Ĩåħ¶": 5888,
      "åĭĩæ°Ķ": 5889,
      "èº«è¾¹": 5890,
      "ï¼Įå®ĥçļĦ": 5891,
      "åĮĸå¦Ĩ": 5892,
      "çļĦæ¤įçī©": 5893,
      "æµģåĬ¨": 5894,
      "æĬĢèĥ½åĴĮ": 5895,
      "åĨįçĶŁ": 5896,
      "å®ı": 5897,
      "è¿ĺèĥ½": 5898,
      "å¥³åŃĲ": 5899,
      "ç²®": 5900,
      "éĹ¨ç±»ï¼ļčĊ": 5901,
      "ãĢĤé¦ĸåħĪ": 5902,
      "XXX": 5903,
      "è¡¨çİ°åĩº": 5904,
      "fr": 5905,
      "è¿ĩçļĦ": 5906,
      "è§Ĥæµĭ": 5907,
      "æŁłæª¬": 5908,
      "æīĭè¡¨": 5909,
      "æ©Ħæ¦Ħ": 5910,
      "èĬĴ": 5911,
      "ä¸ĬäºĨ": 5912,
      "ä¼Ĳ": 5913,
      "æĦīæĤ¦": 5914,
      "å¸ĿåĽ½": 5915,
      "æľīè®¸å¤ļ": 5916,
      "åıĳå±ķçļĦ": 5917,
      "å¤ļæ¬¡": 5918,
      "å¦Ĥä½ķåľ¨": 5919,
      "éĺ¿å°Ķ": 5920,
      "è¾ĥä½İ": 5921,
      "éĿ¢ç²ī": 5922,
      "åĬĽäºİ": 5923,
      "æĳĦåħ¥": 5924,
      "æµĨ": 5925,
      "è·Į": 5926,
      "è¯¢éĹ®": 5927,
      "çĶµè§Ĩåī§": 5928,
      "åĢĻéĢīæĪĲè¯Ń": 5929,
      "æīĢäºĨè§£": 5930,
      "ä¼ı": 5931,
      "ãĢĤĠåľ¨": 5932,
      "æ¼ł": 5933,
      "ä¸ªæĢ§åĮĸ": 5934,
      "æµıè§Ī": 5935,
      "çĦ¶åĲİï¼Į": 5936,
      "çļĦè®ºæĸĩæłĩé¢ĺ": 5937,
      "åŀ«": 5938,
      "åĵįåºĶ": 5939,
      "ï¼Įå¹¶æıĲä¾Ľ": 5940,
      "èµ·æºĲ": 5941,
      "åºĻ": 5942,
      "åĴĮåĪĨæŀĲ": 5943,
      "åĤ¬": 5944,
      "çļĦä¸ĸçķĮ": 5945,
      "åĪ©äºİ": 5946,
      "èį¡": 5947,
      "ãĢĤçİ°åľ¨": 5948,
      "çºªå¿µ": 5949,
      "çłĸ": 5950,
      "å¥¥æŀĹåĮ¹åħĭ": 5951,
      "ä»ħä½¿çĶ¨": 5952,
      "èµĶ": 5953,
      "æ°´ï¼Į": 5954,
      "æĺ¯ä¸ĢäºĽ": 5955,
      "äºĮåįģ": 5956,
      "éľĢè¦ģåľ¨": 5957,
      "æĺ¯ä¸Ģé¡¹": 5958,
      "æµģçķħ": 5959,
      "æľªçŁ¥čĊ": 5960,
      "ä¸ĭä¸Ģä¸ª": 5961,
      "ç¼Ŀ": 5962,
      "åºĶå½ĵ": 5963,
      "æ¸¸å®¢": 5964,
      "ï¼ļä½¿çĶ¨": 5965,
      "çļĦæ½": 5966,
      "ãĢĤè¯·éĹ®": 5967,
      "0.0": 5968,
      "ä¸ĵéĹ¨": 5969,
      "éĨĭ": 5970,
      "åĬŀåħ¬å®¤": 5971,
      "è¡°": 5972,
      "çĽ®çļĦåľ°": 5973,
      "åı¯ä»¥ä¸º": 5974,
      "è¯ĦåĪĨ": 5975,
      "æĦıè¯ĨåĪ°": 5976,
      "BA": 5977,
      "æľĢä½İ": 5978,
      "æ¿Ģåıĳ": 5979,
      "æŃ§": 5980,
      "å¹¿ä¸ľ": 5981,
      "éħª": 5982,
      "%çļĦ": 5983,
      "ï¼Įä»ĸçļĦ": 5984,
      "æīĭæľ¯": 5985,
      "åĩłç§į": 5986,
      "è¿Ĳç®Ĺç¬¦": 5987,
      "ç²¾ç¡®": 5988,
      "éĢĿ": 5989,
      "åĲĪæ³ķ": 5990,
      "çĩķ": 5991,
      "çŃ¹": 5992,
      "ï¼Įåį´": 5993,
      "æīĢéľĢçļĦ": 5994,
      "çĤ¹ãĢĤčĊ": 5995,
      "æ·Ģ": 5996,
      "ä¼ļå¯¹": 5997,
      "éĤĢè¯·": 5998,
      "éĢļçŁ¥": 5999,
      "åŃĹåħ¸": 6000,
      "èĢĥèĻĳåĪ°": 6001,
      "38": 6002,
      "åĪĬ": 6003,
      "åħ¸åŀĭ": 6004,
      "ä¸´åºĬ": 6005,
      "sp": 6006,
      "èįĴ": 6007,
      "çĥŃæĥħ": 6008,
      "æ¼Ķè®²": 6009,
      "èĬ±è´¹": 6010,
      "ï¼Įè®©äºº": 6011,
      "æĮĩçļĦæĺ¯": 6012,
      "åįĬå¾Ħ": 6013,
      "å·¡": 6014,
      "èĩ³åħ³éĩįè¦ģ": 6015,
      "tex": 6016,
      "äºĮæ°§åĮĸç¢³": 6017,
      "æ³Ħ": 6018,
      "æĢİä¹ĪåĬŀ": 6019,
      "åĩºåıĳ": 6020,
      "Ġï¼Ī": 6021,
      "è¥¿äºļ": 6022,
      "ç¿ħ": 6023,
      "all": 6024,
      "è¡ĮæĶ¿åĮºåĪĴ": 6025,
      "æıĲåĪ°äºĨ": 6026,
      "æ¦ľ": 6027,
      "æķ°æį®è¿Ľè¡Į": 6028,
      "ä½łå¯¹ä¸ĸçķĮ": 6029,
      ",éĶĻè¯¯": 6030,
      "åĪĹè¡¨ä¸ŃçļĦ": 6031,
      "çĶŁæ¶¯": 6032,
      "è§£æĶ¾": 6033,
      "âĨ": 6034,
      "å¾Ĳ": 6035,
      "çº¿ä¸Ĭ": 6036,
      "åı¯èĥ½ä¼ļå¯¼èĩ´": 6037,
      "çªģçł´": 6038,
      "æłĸ": 6039,
      "æĺ¯åĲ¦éģµå¾ª": 6040,
      "æŃ£ç¡®,éĶĻè¯¯": 6041,
      "ä»¥ä¸Ĭæııè¿°åĴĮ": 6042,
      ",æĪĸæľªçŁ¥ï¼ŁčĊ": 6043,
      "æīĢäºĨè§£çļĦ,": 6044,
      "è°Ĭ": 6045,
      "æ°´ä¸Ń": 6046,
      "å°Ĩåľ¨": 6047,
      "èıľèĤ´": 6048,
      "åºĶè¯¥åģĩå®ļ": 6049,
      "è´¢å¯Į": 6050,
      "åĲĹï¼Łæĺ¯çļĦ,ä¸įæĺ¯": 6051,
      "è¿Ļéĥ¨çĶµå½±": 6052,
      "åĬ©æīĭ": 6053,
      "åĩºçİ°äºĨ": 6054,
      "\",Ġ": 6055,
      "çļĦæľºä¼ļ": 6056,
      "ä¸ºä¸Ģä¸ª": 6057,
      "å¸ĮèħĬ": 6058,
      "ä¸ªä½ĵ": 6059,
      "åĴĮå®īåħ¨": 6060,
      "åĽ¢éĺŁæĪĲåĳĺ": 6061,
      "ç©¿çĿĢ": 6062,
      "äºīè®®": 6063,
      "èĤ©": 6064,
      "åĪĨç±»åĻ¨": 6065,
      "åħĭæĸ¯": 6066,
      "æĽ´å¥½åľ°äºĨè§£": 6067,
      "åĽŀå¿Ĩ": 6068,
      "ï¼Įä¸ĢèĪ¬": 6069,
      "è¢«å¹¿æ³Ľ": 6070,
      "çļĦéĤ£": 6071,
      "è´¯": 6072,
      "å§ĵåĲį": 6073,
      "èĥĥ": 6074,
      "ï¼Įåħ¶å®ŀ": 6075,
      "åĴª": 6076,
      "éĢĶå¾Ħ": 6077,
      "éģĵçĲĨåĲĹ": 6078,
      "è¿Ļæł·è¯´æľī": 6079,
      "å²Ĺä½į": 6080,
      "çļĦæĦŁåıĹ": 6081,
      "ãĢĤæľĢåĲİ": 6082,
      "åĦ¿åŃĲ": 6083,
      "you": 6084,
      "é£ĺ": 6085,
      "æķ£æŃ¥": 6086,
      "æĢĴ": 6087,
      "è¿Ļé¦ĸ": 6088,
      "è¿Ī": 6089,
      "ï¼Įåı¯ä»¥åľ¨": 6090,
      "æĹ©ä¸Ĭ": 6091,
      "éĿŀæ´²": 6092,
      "ãĢģæĽ´": 6093,
      "æĭ³": 6094,
      "å¯ĵ": 6095,
      "çħ§é¡¾": 6096,
      "åĬ³åĬ¨": 6097,
      "\\n": 6098,
      "å¼ºå¤§": 6099,
      "ä¸ĭéĿ¢çļĦéĻĪè¿°": 6100,
      "æ³¨æĦıäºĭé¡¹": 6101,
      "æ¬º": 6102,
      "æł¹æį®åīįéĿ¢": 6103,
      "onĠ": 6104,
      "å¤¹": 6105,
      "éĶ¦": 6106,
      "èµ·ï¼Į": 6107,
      "è¿Ļæĺ¯ä¸Ģ": 6108,
      "æ¬¡æķ°": 6109,
      "å°±åĥı": 6110,
      "èĤĸ": 6111,
      "ç²ĺ": 6112,
      "ä»¥ä¸º": 6113,
      "è¿Ļæ®µæĸĩæľ¬": 6114,
      "ï¼Įåİ»": 6115,
      "çļĦä¸įåĲĮ": 6116,
      "çĪµ": 6117,
      "ç¡¬ä»¶": 6118,
      "æĬ¹": 6119,
      "åıĹæ¬¢è¿İçļĦ": 6120,
      "ä»¥ä¸ĭæĺ¯åĲ¦": 6121,
      "åĮ»çĸĹä¿Ŀåģ¥": 6122,
      "å¿ĹæĦ¿": 6123,
      "ï¼Įè¯·éĹ®": 6124,
      "æµĩ": 6125,
      "éģ¥": 6126,
      "æ¯įäº²": 6127,
      "æĻ´": 6128,
      "ï¼Įåıªæľī": 6129,
      "äººå·¥æĻºèĥ½åľ¨": 6130,
      "å¹½": 6131,
      "éĥ¡": 6132,
      "æŀĦéĢł": 6133,
      "äººç¾¤": 6134,
      "æķĻç»ĥ": 6135,
      "ä¸ºçľŁï¼ļâĢľ": 6136,
      "éĢĤéĩıčĊ": 6137,
      "åı£è¯Ń": 6138,
      "åĪ©çİĩ": 6139,
      "çŀ¬": 6140,
      "ç§¯æŀģçļĦ": 6141,
      "éŁ©åĽ½": 6142,
      "1ä¸ª": 6143,
      "æĭįæĳĦ": 6144,
      "æķ°æį®åĴĮ": 6145,
      "åįĹäº¬": 6146,
      "çļĦå½¢å¼ı": 6147,
      "æĺ¯å¯¹": 6148,
      "è·¯å¾Ħ": 6149,
      "ï¼Įå®ĥå¿ħå®ļ": 6150,
      "ï¼ĮåºĶè¯¥": 6151,
      "åŃ¦çĶŁçļĦ": 6152,
      "æŃĮè¯į": 6153,
      "æ¯ıå¹´": 6154,
      "äººæķ°": 6155,
      "å°Ĩä»¥ä¸ĭåı¥åŃĲ": 6156,
      "æ·»åĬłåĪ°": 6157,
      "åĽ¾ä¹¦é¦Ĩ": 6158,
      "****": 6159,
      "åĪĨæľŁ": 6160,
      "çģ«æĺŁ": 6161,
      "æ¸ħçĲĨ": 6162,
      "çļĦéĩįè¦ģæĢ§": 6163,
      "ï¼ĮåĪĨåĪ«": 6164,
      "æĺ¯å¦Ĥä½ķ": 6165,
      "åĨħåŃĺ": 6166,
      "ç®ĢåİĨ": 6167,
      "åģľæŃ¢": 6168,
      "ä¸Ģä»¶": 6169,
      "éħ·": 6170,
      "èıĩ": 6171,
      "å¸¦æĿ¥çļĦ": 6172,
      "çļĦéķ¿åº¦": 6173,
      "ï¼Īï¼īï¼Į": 6174,
      "ä¾¿æį·": 6175,
      "æĬķèµĦèĢħ": 6176,
      "éĢĲæŃ¥": 6177,
      "åĢ¾åĲĳ": 6178,
      "'čĊ": 6179,
      "çĭ¼": 6180,
      "65": 6181,
      "çĶŁåĳ½çļĦ": 6182,
      "åĴĮæĬĢæľ¯": 6183,
      "çĽ®çļĦæĺ¯": 6184,
      "ä¸¢": 6185,
      "ä»¥æĿ¥": 6186,
      "åĽĽå·Ŀ": 6187,
      "è§£çŃĶ": 6188,
      "åĪĿåŃ¦èĢħ": 6189,
      "ï¼Įå¾Ī": 6190,
      "å¹¿å·ŀ": 6191,
      "é¥±": 6192,
      "åħ¶ä¸Ńï¼Į": 6193,
      "å½±çīĩ": 6194,
      "éŁ¦": 6195,
      "ï¼ĮåĲ¦åĪĻ": 6196,
      "æ°´ãĢģ": 6197,
      "çİ¯èĬĤ": 6198,
      "ä¸¤äºº": 6199,
      "å¸¸çĶ¨çļĦ": 6200,
      "120": 6201,
      "è§£åĨ³éĹ®é¢ĺ": 6202,
      "å¹´ä»½": 6203,
      "åĨħç½®": 6204,
      "åĪĹè½¦": 6205,
      "è±ĨèħĲ": 6206,
      "2011å¹´": 6207,
      "ï¼ļå¦Ĥæŀľ": 6208,
      "å¤ļåħĥ": 6209,
      "åĨ¬åŃ£": 6210,
      "åŃķ": 6211,
      "çĩĥçĥ§": 6212,
      "ãĢĤåħ¶ä¸Ń": 6213,
      "æĺĮ": 6214,
      "å¹´ä»£": 6215,
      "æ°ĳä¸»": 6216,
      "åįļå£«": 6217,
      "åĬĽãĢģ": 6218,
      "åģĩè®¾âĢľ": 6219,
      "åĪ¶æĪĲ": 6220,
      "èĲĿåįľ": 6221,
      "åĲ¬åĪ°": 6222,
      "ä¸¾åĬŀ": 6223,
      "ï¼ļæł¹æį®": 6224,
      "2016å¹´": 6225,
      "å¤ļå¹´": 6226,
      "ĠG": 6227,
      "æĥ§": 6228,
      "æ¡¶": 6229,
      "å¼Ģå¿ĥ": 6230,
      "åĩ½æķ°çļĦ": 6231,
      "ç»ĵæŀĦåĴĮ": 6232,
      "ï¼Įè¦ģæ±Ĥ": 6233,
      "å¼Ħ": 6234,
      "è¢ĸ": 6235,
      "ï¼ĮçĶ±äºİ": 6236,
      "åĲĦèĩª": 6237,
      "åĲ¯åĬ¨": 6238,
      "ä»ĺæ¬¾": 6239,
      "åĺĽ": 6240,
      "æħĪ": 6241,
      "åĨĻä¸Ģä¸ª": 6242,
      "é¢ĦæľŁ": 6243,
      "æĽ´é«ĺçļĦ": 6244,
      "æľ¬ç§ĳ": 6245,
      "æĴŃæĶ¾": 6246,
      "ä¹Łèĥ½": 6247,
      "çļĦæį": 6248,
      "èįīèİĵ": 6249,
      "çļĦæĸĩç«łãĢĤčĊ": 6250,
      "ç§¯ç´¯": 6251,
      "è¾©": 6252,
      "çĵ·": 6253,
      "ï¼ĮèĻ½çĦ¶": 6254,
      "çļĦæľįåĬ¡": 6255,
      "åĬĽãĢĤ": 6256,
      "å°±ä¸į": 6257,
      "ï¼ĪC": 6258,
      "ä¸»æĮģ": 6259,
      "ack": 6260,
      "4ãĢģ": 6261,
      "éĴ»": 6262,
      "IS": 6263,
      "æŃĮæīĭ": 6264,
      "åīįï¼Į": 6265,
      "://": 6266,
      "ä¼¦æķ¦": 6267,
      "çłĤ": 6268,
      "ï¼ĪM": 6269,
      "è¯Ńè¨Ģæ¨¡åŀĭ": 6270,
      "èī³": 6271,
      "åĩºåİ»": 6272,
      "åº¦ãĢģ": 6273,
      "ï¼Įå¹¶ä½¿çĶ¨": 6274,
      "ç®ĢçŁŃ": 6275,
      "è¿½è¸ª": 6276,
      "åĽŀçŃĶä¸ĬéĿ¢": 6277,
      "è´¢äº§": 6278,
      "æľĢéĩįè¦ģçļĦ": 6279,
      "å¢ĵ": 6280,
      "æĦĪ": 6281,
      "ä¸ľåĮĹ": 6282,
      "åĴĮç®¡çĲĨ": 6283,
      "éĹ¹": 6284,
      "ä»£è°¢": 6285,
      "2ï¼ī": 6286,
      "æ¯ıä¸Ģä¸ª": 6287,
      "åıĤèĢĥčĊ": 6288,
      "æĹ¥å¸¸çĶŁæ´»": 6289,
      "å®¶éĩĮ": 6290,
      "åħ¬å¼Ģ": 6291,
      "çĽĳæİ§": 6292,
      "æĺ¨å¤©": 6293,
      "é¦ĸæ¬¡": 6294,
      "éĢīæĭ©éĢĤåĲĪ": 6295,
      "ear": 6296,
      "çļĦï¼ŁčĊ": 6297,
      "çĽ¸äºĴä½ľçĶ¨": 6298,
      "è·Łè¸ª": 6299,
      "ãĢĤåħ·ä½ĵ": 6300,
      "ãĢĤä»ĸçļĦ": 6301,
      "ï¼Įåı¯ä»¥éĢļè¿ĩ": 6302,
      "çĥŃå¸¦": 6303,
      "éĢļå¸¸æĺ¯": 6304,
      "ä¸ĢæĹ¦": 6305,
      "text": 6306,
      "ç¡ķ": 6307,
      "æ¡Īä¾ĭ": 6308,
      "å©Ĩ": 6309,
      "åĳ½ä»¤": 6310,
      "ç§¦": 6311,
      "ä¼¦çĲĨ": 6312,
      "ç¤¾ä¼ļçļĦ": 6313,
      "éĿŀå¸¸æĦŁè°¢": 6314,
      "æĳĦå½±": 6315,
      "çĸ²åĬ³": 6316,
      "SE": 6317,
      "åĪļåĪļ": 6318,
      "é«ĺè´¨éĩı": 6319,
      "åįĹéĥ¨": 6320,
      "è½¬ç§»": 6321,
      "æĮīéĴ®": 6322,
      "row": 6323,
      "èĬ³": 6324,
      "ãĢĤ\"čĊ": 6325,
      "æľºåĻ¨åŃ¦ä¹łç®Ĺæ³ķ": 6326,
      "1ï¼ī": 6327,
      "æ·±è¿ľ": 6328,
      "å¿ĥèĦı": 6329,
      "å¼Ģå¤´": 6330,
      "äººæīį": 6331,
      "çĲĨçĶ±": 6332,
      "å®¶ï¼Į": 6333,
      "è¾¾æĪĲ": 6334,
      "éĴ¢çĲ´": 6335,
      "åĵªç§į": 6336,
      "è¿Ļæ¬¾": 6337,
      "æ¸¡": 6338,
      "æīĢäºĨè§£çļĦ,âĢľ": 6339,
      "åĬłå·¥": 6340,
      "ãĢĤĠĠĠ": 6341,
      "æĿ¥åĪ°": 6342,
      "åĵģå°Ŀ": 6343,
      "çĸı": 6344,
      "çĽ´å¾Ħ": 6345,
      "å¿ĥçĲĨåģ¥åº·": 6346,
      "æıĴåħ¥": 6347,
      "æĸ°å¢ŀ": 6348,
      "çŃĶæ¡Īï¼ļ": 6349,
      "çī¹å®ļçļĦ": 6350,
      "è®¾è®¡å¸Ī": 6351,
      "æĥĳ": 6352,
      "çĶ·åŃ©": 6353,
      "å¹´è½»äºº": 6354,
      "åĵĪåĪ©": 6355,
      "éģĩåĪ°äºĨ": 6356,
      "åĲĮä¸Ģ": 6357,
      "ä¸»å¸Ń": 6358,
      "åĮħæĭ¬ï¼ļ": 6359,
      "æĺ¯åĲ¦éģµå¾ªâĢľ": 6360,
      "åºĶè¯¥åģĩå®ļâĢľ": 6361,
      "list": 6362,
      "è¢«è®¤ä¸ºæĺ¯": 6363,
      "æĪĳè§īå¾Ĺ": 6364,
      "æĦŁçŁ¥": 6365,
      "èĩ´åĬĽäºİ": 6366,
      "æĪĳåĸľæ¬¢": 6367,
      "éĽ¾": 6368,
      "çĸ«æĥħ": 6369,
      "çŃīæĸ¹éĿ¢çļĦ": 6370,
      "æĸ½å·¥": 6371,
      "ï¼ĮæŃ¤": 6372,
      "åĴĮæĥħæĦŁ": 6373,
      "ä¸įèī¯": 6374,
      "çĳ°": 6375,
      "æĭ¥åłµ": 6376,
      "çĹĽèĭ¦": 6377,
      "ä»£çłģå®ŀçİ°": 6378,
      "âĳ": 6379,
      "åķĨåºĹ": 6380,
      "èĲ¥éĢł": 6381,
      "çº¿è·¯": 6382,
      "æ²¹ãĢģ": 6383,
      "åıĳåĬ¨æľº": 6384,
      "èĳ£": 6385,
      "åľ°åĮºçļĦ": 6386,
      "çŃĽéĢī": 6387,
      "çĻ»å½ķ": 6388,
      "åıįå¯¹": 6389,
      "å¤§æ¦Ĥ": 6390,
      "çłĶç©¶čĊ": 6391,
      "éģĵçĲĨåĲĹâĢľ": 6392,
      "çĽĲãĢģ": 6393,
      "éħµ": 6394,
      "è§Ĥçľĭ": 6395,
      "ï¼Įè¿ĻéĩĮ": 6396,
      "å¥³ï¼ļ": 6397,
      "å¯Įæľī": 6398,
      "äº²åŃĲ": 6399,
      "å´ĩ": 6400,
      "é¢Ħå¤ĦçĲĨ": 6401,
      "åĵģçīĮçļĦ": 6402,
      "ld": 6403,
      "æĺ¯ä¸ĢåĲį": 6404,
      "èĥ½å¤Łåľ¨": 6405,
      "é»Ħéĩĳ": 6406,
      "ä¸ĢãĢģ": 6407,
      "åĳĢ": 6408,
      "ï¼ĪA": 6409,
      "ï¼ĪåŃ¦": 6410,
      "éĥ½è¦ģ": 6411,
      "æĸĩåĮĸçļĦ": 6412,
      "ä»İä»¥ä¸ĭ": 6413,
      "å±±ä¸ľ": 6414,
      "IN": 6415,
      "ä»ĸåľ¨": 6416,
      "çĥŃéĹ¨": 6417,
      "é»ĳæļĹ": 6418,
      "åı¯ä»¥æİ¨æĸŃâĢľ": 6419,
      "32": 6420,
      "ĠD": 6421,
      "çļĦéĢŁåº¦": 6422,
      "æĹłäºº": 6423,
      "çĸĳéĹ®": 6424,
      "æŃ£åĪĻè¡¨è¾¾å¼ı": 6425,
      "æľĢåĪĿ": 6426,
      "éĻµ": 6427,
      "æĭĴç»Ŀ": 6428,
      "ä¸ĭéĿ¢è¿Ļåı¥è¯Ŀ": 6429,
      "èĤĮèĤ¤": 6430,
      "è¥¿æĸ¹": 6431,
      "çĭĹçĭĹ": 6432,
      "ĠT": 6433,
      "æĤŁ": 6434,
      "èĥĢ": 6435,
      "æ¸©å®¤": 6436,
      "æ¤įçī©çļĦ": 6437,
      "oog": 6438,
      "èħº": 6439,
      "åħ´å¥ĭ": 6440,
      "åĴĮä¸Ģä¸ª": 6441,
      "åĨĽéĺŁ": 6442,
      "åħ¬æŃ£": 6443,
      "ç¡«": 6444,
      "é»Ľ": 6445,
      "æ¸©é¦¨": 6446,
      "å°Ĭæķ¬": 6447,
      "1ï¼ļ": 6448,
      "ï¼ĮéĢĤåĲĪ": 6449,
      "çļĦæ°ĽåĽ´": 6450,
      "ie": 6451,
      "ä¸ĬéĿ¢çļĦ": 6452,
      "å¥½å¤Ħ": 6453,
      "æķıæį·": 6454,
      "çĽ´æĴŃ": 6455,
      "å¼ķåħ¥": 6456,
      "ä¹Łè¦ģ": 6457,
      "èµĽåŃ£": 6458,
      "æĢ§ï¼ļ": 6459,
      "è¯Ńï¼ļ": 6460,
      "çī©æµģ": 6461,
      "ç¬¬äºĶ": 6462,
      "èģĶéĤ¦": 6463,
      "ä¸įç¡®å®ļ": 6464,
      "åıĳåĩº": 6465,
      "è¯»ä¹¦": 6466,
      "åı¤èĢģ": 6467,
      "2ï¼ļ": 6468,
      "NL": 6469,
      "ä½łéľĢè¦ģ": 6470,
      "åħ¶æ¬¡": 6471,
      "å½ĵåľ°çļĦ": 6472,
      "éĿŀå¸¸æľī": 6473,
      "ĠĠĠĠĠĠĠĠĠĠĠĠ": 6474,
      "äººå·¥æĻºèĥ½çļĦ": 6475,
      "é²¸": 6476,
      "æĺ¾å¾Ĺ": 6477,
      "çģ«å±±": 6478,
      "190": 6479,
      "ä»Ģä¹Īï¼ŁčĊ": 6480,
      "å´©": 6481,
      "åĪĨï¼Į": 6482,
      "åĩ½æķ°å°Ĩ": 6483,
      "ä½¿çĶ¨Python": 6484,
      "çļĦæ¢¦": 6485,
      "äººãĢģ": 6486,
      "ï¼Įè®¡ç®Ĺ": 6487,
      "ä¼ª": 6488,
      "åĪĹä¸¾": 6489,
      "2012å¹´": 6490,
      "æĥ³åĪ°": 6491,
      "åĩıèĤ¥": 6492,
      "åľ°çĲĥä¸Ĭ": 6493,
      "çļĦåįķè¯į": 6494,
      "åĳĪçİ°åĩº": 6495,
      "âĢĿï¼Ī": 6496,
      "Re": 6497,
      "åıĭè°Ĭ": 6498,
      "å±±å³°": 6499,
      "3-": 6500,
      "è°ľ": 6501,
      "æµĻæ±Ł": 6502,
      "å¿łè¯ļ": 6503,
      "åľ¨ä¸ŃåĽ½": 6504,
      "å»·": 6505,
      "ãĢĤåħ¶ä¸Ńï¼Į": 6506,
      "åĪĨç¦»": 6507,
      "***": 6508,
      "ä¸īè§Ĵå½¢": 6509,
      "éĿ¢åĲĳ": 6510,
      "æĳ¸": 6511,
      "è®²è§£": 6512,
      "æĸĩæľ¬ï¼Į": 6513,
      "66": 6514,
      "ä¸Ģæľ¬": 6515,
      "ĠL": 6516,
      "è¯´çļĦ": 6517,
      "è´¨éĩıåĴĮ": 6518,
      "æ¯Ķäºļ": 6519,
      "åĳ¨æľ«": 6520,
      "èĩªæ²»": 6521,
      "ãĢģä¸Ń": 6522,
      "çŃīãĢĤè¿ĻäºĽ": 6523,
      "ä¸ªäººçļĦ": 6524,
      "ï¼Įåıªè¦ģ": 6525,
      "art": 6526,
      "é£Łè°±": 6527,
      "IP": 6528,
      "è¿ĺåľ¨": 6529,
      "æĺ¯ä¸ºäºĨ": 6530,
      "èīĩ": 6531,
      "å¯¹åºĶ": 6532,
      "ï¼Įåı¯ä»¥å°Ĩ": 6533,
      "åħħçĶµ": 6534,
      "8,Ġ": 6535,
      "æīĢå¾Ĺ": 6536,
      "éľ¸": 6537,
      "å»ī": 6538,
      "é©±åĬ¨": 6539,
      "èļĤèļģåĢŁåĳĹ": 6540,
      "åı¯ä»¥å¸®åĬ©æĪĳä»¬": 6541,
      "ä¼Ĺå¤ļ": 6542,
      "è¢«ç§°ä¸º": 6543,
      "æĪ¿åŃĲ": 6544,
      "æĿĤå¿Ĺ": 6545,
      "èĵĦ": 6546,
      "åıĸå¾ĹäºĨ": 6547,
      "iz": 6548,
      "å¤§è§Ħæ¨¡": 6549,
      "åħ±äº§åħļ": 6550,
      "end": 6551,
      "é¹¿": 6552,
      "åĭĩæķ¢": 6553,
      "æ±Ĺ": 6554,
      "æĽ¿ä»£": 6555,
      "åľ¨è¿ĻéĩĮ": 6556,
      "å¾½": 6557,
      "ib": 6558,
      "æĮĩç¤º": 6559,
      "æ¢¦æĥ³": 6560,
      "39": 6561,
      "æºª": 6562,
      "åĲĮæĦı": 6563,
      "çĶ·ï¼ļ": 6564,
      "çľĭåĪ°äºĨ": 6565,
      "å¤ľæĻļ": 6566,
      "åħ¬äº¤": 6567,
      "æī¾åĪ°äºĨ": 6568,
      "log": 6569,
      "å®ĥä»¬æľī": 6570,
      "ä½ľçĶ¨ãĢĤčĊ": 6571,
      "çļĦè¿ĩç¨ĭä¸Ńï¼Į": 6572,
      "åı¯ä»¥çĶ¨äºİ": 6573,
      "å·²ç»ıæĪĲä¸º": 6574,
      "èĬĤæĹ¥": 6575,
      "æĤ¨éľĢè¦ģ": 6576,
      "åĽŀæĿ¥": 6577,
      "åĭĥ": 6578,
      "ä½¿çĶ¨ãĢĤčĊ": 6579,
      "ä»ĸä»¬åľ¨": 6580,
      "ç²¾å½©": 6581,
      "2014å¹´": 6582,
      "èīºæľ¯å®¶": 6583,
      "æ»¨": 6584,
      "ãĢĤâĢĿĠ": 6585,
      "åĨ¥æĥ³": 6586,
      "æ¡ĳ": 6587,
      "ï¼ĮæĪĳä»¬åºĶè¯¥": 6588,
      "åĴĮçĲĨè§£": 6589,
      "èĢĲå¿ĥ": 6590,
      "å¥Ī": 6591,
      "å¹¿åľº": 6592,
      "é¡ºåĪ©": 6593,
      "æī¹è¯Ħ": 6594,
      "æ¼Ĥäº®": 6595,
      "åĴĮæĹ¶éĹ´": 6596,
      "æķĪçİĩãĢĤčĊ": 6597,
      "ook": 6598,
      "2017å¹´": 6599,
      "åħ¬å¹³": 6600,
      "ä¸ĢæĿ¯": 6601,
      "4ä¸ª": 6602,
      "çļĦäººåı£": 6603,
      "æķħéļľ": 6604,
      "åĴĮè¡Įä¸º": 6605,
      "åľ°äº§": 6606,
      "åĴĮåºĶçĶ¨": 6607,
      "æĺ¯åĲ¦çĽ¸åĲĮ": 6608,
      "2015å¹´": 6609,
      "èĢħï¼Į": 6610,
      "èĦĬ": 6611,
      "æĸ¤": 6612,
      "éĥĳ": 6613,
      "æ³¢åĬ¨": 6614,
      "èº«ä½ĵçļĦ": 6615,
      "åľ¨æŃ¤": 6616,
      "//Ġ": 6617,
      "ï¼ĮæľīäºĽ": 6618,
      "æīĩ": 6619,
      "å®ŀåľ¨": 6620,
      "èħ»": 6621,
      "ç»´ä¿®": 6622,
      "å®ħ": 6623,
      "æľīå¤ļ": 6624,
      "å¿ĥçģµ": 6625,
      "æĺİäº®": 6626,
      "åı¯ä»¥æĺ¯": 6627,
      "çļĦé¦ĸ": 6628,
      "éĢĤå®ľ": 6629,
      "è®¡ç®ĹåĻ¨": 6630,
      "ï¼ĮæĤ¨åı¯ä»¥": 6631,
      "çļĦæ½ľ": 6632,
      "æĪĳæĺ¯": 6633,
      "åģıå¥½": 6634,
      "ä¹Ĳè¶£": 6635,
      "äººéĻħåħ³ç³»": 6636,
      "æº¯": 6637,
      "800": 6638,
      "con": 6639,
      "2013å¹´": 6640,
      "éħįæĸĻ": 6641,
      "ç¼ºå°ĳ": 6642,
      "çļĦæ»": 6643,
      "æĲħæĭĮåĿĩåĮĢ": 6644,
      "ï¼ĮéĿŀå¸¸": 6645,
      "ĠW": 6646,
      "ç¿»çĤĴ": 6647,
      "ä½łä¼ļ": 6648,
      "éĢĤéĩıçļĦ": 6649,
      "ä¼łæĦŁ": 6650,
      "éĢīæīĭ": 6651,
      "ä¾¿å®ľ": 6652,
      "æııç»ĺ": 6653,
      "èĬ¯": 6654,
      "çļĦæ²»": 6655,
      "ï¼Įåħ¨": 6656,
      "æĺ¯ä¸Ģæł·çļĦ": 6657,
      "èĭıèģĶ": 6658,
      "åı¯ä»¥çĶ¨ä»¥ä¸ĭ": 6659,
      "éĻ¤æŃ¤": 6660,
      "æĿ¥è¿Ľè¡Į": 6661,
      "è¯·æ±Ĥ": 6662,
      "æľįåĬ¡åĻ¨": 6663,
      "éĿĴå¹´": 6664,
      "ç¾İåĳ³çļĦ": 6665,
      "çļĦçī¹å¾ģ": 6666,
      "ï¼Įè®©æĪĳä»¬": 6667,
      "çİ¯å¢ĥåĴĮ": 6668,
      "ra": 6669,
      "èĤ¿": 6670,
      "ï¼Įåı¯èĥ½": 6671,
      "ia": 6672,
      "æľĢåĸľæ¬¢çļĦ": 6673,
      "ä¼ģä¸ļçļĦ": 6674,
      "çĪĨåıĳ": 6675,
      "æµ·æĭĶ": 6676,
      "ä¸ºæĪĳ": 6677,
      "æĤ¨åı¯ä»¥": 6678,
      "éĵĥ": 6679,
      "è¶ħå¸Ĥ": 6680,
      "æĮĸæİĺ": 6681,
      "æĽ´å¤§çļĦ": 6682,
      "éĢĤçĶ¨": 6683,
      "åľĨçļĦ": 6684,
      "çģ¯åħī": 6685,
      "ãĢĤçĦ¶èĢĮï¼Į": 6686,
      "è¿ĽåĮĸ": 6687,
      "è¿Ľç¨ĭ": 6688,
      "åħĥï¼Į": 6689,
      "çļĦåħ·ä½ĵ": 6690,
      "ç«ĭåį³": 6691,
      "ç»ĺçĶ»": 6692,
      "çĶµåŃĲéĤ®ä»¶åľ°åĿĢ": 6693,
      "flo": 6694,
      "æľĢæĸ°çļĦ": 6695,
      "åĮħè£ħ": 6696,
      "å¤įåĲĪ": 6697,
      "ame": 6698,
      "St": 6699,
      "ä¸ĵè¾ĳ": 6700,
      "ä¸ŃåŃ¦": 6701,
      "å¿ĥæĢģ": 6702,
      "5-": 6703,
      "ud": 6704,
      "çŃīå¤ļç§į": 6705,
      "âĢľèĬ±åĳĹ": 6706,
      "ç¾İè§Ĥ": 6707,
      "ä¹Łå°±æĺ¯": 6708,
      "æ²³æµģ": 6709,
      "çĶŁæĪĲä¸Ģç¯ĩåħ³äºİ": 6710,
      "åģļçļĦ": 6711,
      "TM": 6712,
      "ï¼ĪåŃ¦åĲįï¼ļ": 6713,
      "è®¾ç«ĭ": 6714,
      "å®¶åºŃæĪĲåĳĺ": 6715,
      "2)": 6716,
      "ï¼Įå¢ŀå¼º": 6717,
      "åĪĨæĶ¯": 6718,
      "çĶŁæ´»çļĦ": 6719,
      "æĻ¯è§Ĥ": 6720,
      "èĩªçĦ¶çģ¾å®³": 6721,
      "çº¢æ¥¼": 6722,
      "éľĢæ±ĤãĢĤčĊ": 6723,
      "æİ¢éĻ©": 6724,
      "èĿ¶": 6725,
      "è¿ĽæĶ»": 6726,
      "èĩ³ä»Ĭ": 6727,
      "ç²¾åĩĨ": 6728,
      "ea": 6729,
      "çĳŁ": 6730,
      "ç¬ĳè¯Ŀ": 6731,
      "ä»İå°ı": 6732,
      "æĸĩç«łçļĦ": 6733,
      "æĸĩæľ¬ä¸ŃæıĲåıĸ": 6734,
      "åħ¬åħĥ": 6735,
      "åľºåľ°": 6736,
      "ç¹ģæ®ĸ": 6737,
      "å®ļçĲĨ": 6738,
      "7,Ġ": 6739,
      "æĿ¥æĽ¿æį¢": 6740,
      "åĩĨç¡®åľ°": 6741,
      "æĪĴ": 6742,
      "ä¼ļå½±åĵį": 6743,
      "èģļç±»": 6744,
      "æķ´éĻ¤": 6745,
      "ä¾£": 6746,
      "åıĳå°Ħ": 6747,
      "åħ¶ä»ĸçļĦ": 6748,
      "ãĢĤå»ºè®®": 6749,
      "ç½©": 6750,
      "å½ĵä»£": 6751,
      "æĪ¿äº§ï¼Į": 6752,
      "çļĦæĦıè§ģ": 6753,
      "çĤ¹çļĦ": 6754,
      "é¹ħ": 6755,
      "âĢĿï¼Įå¹¶ä¸Ķ": 6756,
      "æĻºèĥ½å®¶å±ħ": 6757,
      "è¿Ļå®¶": 6758,
      "æĸ°éĹ»æĬ¥éģĵ": 6759,
      "è¡Ģç®¡": 6760,
      "çļĦéĹ®é¢ĺï¼Į": 6761,
      "éĩĩçĶ¨äºĨ": 6762,
      "å½ĵä»Ĭ": 6763,
      "äºĨï¼ģ": 6764,
      "åıĸåĩº": 6765,
      "è®¾è®¡åĴĮ": 6766,
      "åıĹä¼Ĺ": 6767,
      "âĢ¦âĢ¦Ġ": 6768,
      "èĺ": 6769,
      "ï¼Įå¹¶ä¸º": 6770,
      "å·¾": 6771,
      "éĢīæĭ©ãĢĤčĊ": 6772,
      "æ¿ĢçĥĪ": 6773,
      "ist": 6774,
      "æ®¿": 6775,
      "åĵŃ": 6776,
      "ä»¥ä¸ĭåĩłä¸ªæĸ¹éĿ¢": 6777,
      "å¯Ħ": 6778,
      "çĽ¸æľº": 6779,
      "æĹ©é¤Ĳ": 6780,
      "èĭ±å¯¸": 6781,
      "æķ°æį®ï¼Į": 6782,
      "ï¼Įå±ŀäºİ": 6783,
      "æ³¨æĦıåĬĽ": 6784,
      "åıĳçİ°äºĨ": 6785,
      "numb": 6786,
      "æĽ¹": 6787,
      "å¾Īéĩįè¦ģ": 6788,
      "åĸ»": 6789,
      "ä»»åĬ¡ãĢĤ": 6790,
      "æ»ĭ": 6791,
      "é«ĺä¸Ń": 6792,
      "æľ¬åľ°": 6793,
      "çŁ¥ä¹İ": 6794,
      "ä¸ĸçķĮçļĦ": 6795,
      "é±¼ç±»": 6796,
      "è®¤ä¸ºï¼Į": 6797,
      "æĺ¯è°ģ": 6798,
      "åĴĮå·¥ä½ľ": 6799,
      "ï¼Įä½Ĩåľ¨": 6800,
      "ug": 6801,
      "æ°´çļĦ": 6802,
      "äºĮãĢģ": 6803,
      "åģľè½¦": 6804,
      "åĩĨå¤ĩå¥½": 6805,
      "çļĦæİ¢": 6806,
      "æĪĪ": 6807,
      "éľĢè¦ģè¿Ľè¡Į": 6808,
      "çĲ³": 6809,
      "çº²": 6810,
      "2007å¹´": 6811,
      "å¹¿æ³ĽçļĦ": 6812,
      "çİĽä¸½": 6813,
      "èĬĤçº¦": 6814,
      "åĴĮå°ı": 6815,
      "æł½": 6816,
      "ç²¾åĬĽ": 6817,
      "ÃĹĠ": 6818,
      "IT": 6819,
      "æķ°åŃĹçļĦ": 6820,
      "å½ĵçĦ¶ï¼Į": 6821,
      "çĶµç«ŀ": 6822,
      "æĺİæľĿ": 6823,
      "åıĸä»£": 6824,
      "âĢĿéĤ£ä¹Ī": 6825,
      "åıĸæ¶Ī": 6826,
      "ith": 6827,
      "ä¸įå¤ļ": 6828,
      "âĢĿä»ħä½¿çĶ¨": 6829,
      "å®¢è§Ĥ": 6830,
      "è´¢æĶ¿": 6831,
      "ç®¡çĲĨåĴĮ": 6832,
      "èĲ¥éĶĢçŃĸçķ¥": 6833,
      "çĥĺ": 6834,
      "éĩįè¦ģçļĦæĺ¯": 6835,
      "çĽ¸åĲĮçļĦæĦıæĢĿ": 6836,
      "éĹ´çļĦ": 6837,
      "æŁĶè½¯": 6838,
      "ï¼Īä¾ĭå¦Ĥ": 6839,
      "åľ³": 6840,
      "èº«ä½ĵåĴĮ": 6841,
      "èĨĢ": 6842,
      "ãĢĤæľī": 6843,
      "äººéĥ½": 6844,
      "ãĢĤä¸İ": 6845,
      "åĲİéĿ¢": 6846,
      "åİĨåı²čĊ": 6847,
      "å«©": 6848,
      "å¤©æĸĩ": 6849,
      "ç»³": 6850,
      "çĻ¾ä¸ĩ": 6851,
      "åŃ¦çļĦ": 6852,
      "è¯¯å·®": 6853,
      "ï¼ļ\",Ġ": 6854,
      "åİ»éĻ¤": 6855,
      "192": 6856,
      "æ¶Īå¤±": 6857,
      "SS": 6858,
      "çģ«è½¦": 6859,
      "ç»ıéªĮåĴĮ": 6860,
      "ä¿±ä¹Ĳ": 6861,
      "31": 6862,
      "çħ¤": 6863,
      "çļĦæĲ": 6864,
      "åıĳèĤ²": 6865,
      "ä¼łæĦŁåĻ¨": 6866,
      "ä¿±ä¹Ĳéĥ¨": 6867,
      "åħ³å¿ĥ": 6868,
      "âĢĿæĺ¯çľŁçļĦ": 6869,
      "åķĨå®¶": 6870,
      "çļĦçĬ¶æĢģ": 6871,
      "åĲĬ": 6872,
      "åĨ»": 6873,
      "ä»»åĬ¡ãĢĤčĊ": 6874,
      "ä¿¡çĶ¨åį¡": 6875,
      "èĬĿå£«": 6876,
      "å¯¼èĪª": 6877,
      "ãĢĤè¿Ļæĺ¯": 6878,
      "è£Ļ": 6879,
      "78": 6880,
      "å¤ªå¹³": 6881,
      "åŁİåĮº": 6882,
      "ä»ħä»ħ": 6883,
      "å¯ĮåĲ«": 6884,
      "çĶŁçĲĨ": 6885,
      "ä¸ĢçĽ´åľ¨": 6886,
      "ç²ĴåŃĲ": 6887,
      "éĩįåĬĽ": 6888,
      "çī§": 6889,
      "å¯¹åºĶçļĦ": 6890,
      "äº¤å¾Ģ": 6891,
      "åįıä¼ļ": 6892,
      "éĺ¿æĭī": 6893,
      "åĮħåĲ«äºĨ": 6894,
      "äºĨï¼ĮæĪĳ": 6895,
      "æĬĽ": 6896,
      "âĢĿæĺ¯æŃ£ç¡®,éĶĻè¯¯": 6897,
      "ç§įåŃĲ": 6898,
      "åĽŀå¤į": 6899,
      "========": 6900,
      "çº¢æ¥¼æ¢¦": 6901,
      "ä¸ĭéĿ¢æĺ¯": 6902,
      "æ²Ļåıĳ": 6903,
      "æĿĥçĽĬ": 6904,
      "è¯ŀ": 6905,
      "å±±èĦī": 6906,
      "è¿ľç¨ĭ": 6907,
      "å¥ī": 6908,
      "çļĦï¼ĮåĽłä¸º": 6909,
      "ç²īä¸Ŀ": 6910,
      "ci": 6911,
      "ä¸Ģéĥ¨": 6912,
      "æľ´": 6913,
      "âĢĿæĺ¯çļĦ,ä¸įæĺ¯": 6914,
      "ãĢĤä½¿çĶ¨": 6915,
      "å¥³åĦ¿": 6916,
      "çŃīçº§": 6917,
      "çĶŁæĪĲä¸Ģä»½": 6918,
      "çĸ«èĭĹ": 6919,
      "Bob": 6920,
      "çģĮ": 6921,
      "ä»¿ä½Ľ": 6922,
      "ç»ĻäºĨ": 6923,
      "ä¸Ģåı¥": 6924,
      "å¥½çľĭ": 6925,
      "%ï¼Į": 6926,
      "èĢį": 6927,
      "åŀĭåı·": 6928,
      "UTC": 6929,
      "ĠF": 6930,
      "çļĦæ¸©åº¦": 6931,
      "âĢĿéĹ®é¢ĺï¼ļâĢľ": 6932,
      "LE": 6933,
      "ä¼ļè¢«": 6934,
      "åĴĮçĽ®æłĩ": 6935,
      "éĺŁä¼į": 6936,
      "ç§¯åĪĨ": 6937,
      "æĹĭå¾ĭ": 6938,
      "çļĦæ¨¡åŀĭ": 6939,
      "âĢĿæł¹æį®åīįéĿ¢": 6940,
      "æĶ¯æĴĳ": 6941,
      "result": 6942,
      "é¢ĨåŁŁï¼Į": 6943,
      "çļĦæ¦Ĥçİĩ": 6944,
      "çĽ¸åĲĮçļĦåĲĹï¼ŁãĢĤ": 6945,
      "æĪĳæĥ³çŁ¥éģĵä¸ĭéĿ¢": 6946,
      "âĪ": 6947,
      "èº«é«ĺ": 6948,
      "æĹ¥åŃĲ": 6949,
      "æ±Łèĭı": 6950,
      "ç«ŀäºīå¯¹æīĭ": 6951,
      "ĠPythonĠ": 6952,
      "åĢ¾åĲ¬": 6953,
      "åµ": 6954,
      "ä¸įæĥ³": 6955,
      "èµĦæł¼": 6956,
      "æ²Ļæĭī": 6957,
      "éģĹäº§": 6958,
      "æµĵéĥģ": 6959,
      "çĳ¶": 6960,
      "çĥŃéĩı": 6961,
      "æĺ¯åĲ¦ä¸º": 6962,
      "å½»åºķ": 6963,
      "æľįåĬ¡ãĢĤčĊ": 6964,
      "çĶ¨æĪ·ä½ĵéªĮ": 6965,
      "åĳ½è¿Ĳ": 6966,
      "çļĦè¯¦ç»Ĩ": 6967,
      "åŃĹä½ĵ": 6968,
      "åı¯ä»¥å¸®åĬ©ä½ł": 6969,
      "ä¸Ģåı¥è¯Ŀ": 6970,
      "è¢«åĳĬ": 6971,
      "è½¬è¿°": 6972,
      "çº§åĪ«": 6973,
      "æĿĲæĸĻï¼ļčĊ": 6974,
      "çĶŁåĬ¨": 6975,
      "æ·±åľ³": 6976,
      "ç´§å¯Ĩ": 6977,
      "å®Įæķ´çļĦ": 6978,
      "BC": 6979,
      "ï¼ĮåĲĳ": 6980,
      "äº§çĶŁçļĦ": 6981,
      "AT": 6982,
      "å¾®åįļ": 6983,
      "ï¼Įåį³ä½¿": 6984,
      "éĨī": 6985,
      "ä¸Ĭå¸Ĥ": 6986,
      "å®¹éĩı": 6987,
      "ä¸įèµ·": 6988,
      "çŁ³å¤´": 6989,
      "åľ°çĲĨčĊ": 6990,
      "åıĳçĶŁäºĨ": 6991,
      "æĿĳãĢģ": 6992,
      "ç±»ä¼¼äºİ": 6993,
      "æµ·æ»©": 6994,
      "ç»ĨèıĮ": 6995,
      "çļĦæ£ķèī²": 6996,
      "ï¼Įæĥ³": 6997,
      "è§Ĥå¿µ": 6998,
      "åĩĮ": 6999,
      "éĢīæĭ©åĲĪéĢĤçļĦ": 7000,
      "ï¼Įä½łéľĢè¦ģ": 7001,
      "åħĥç´łçļĦ": 7002,
      "å·¥åŃ¦čĊ": 7003,
      "éĿ¢æĿ¡": 7004,
      "å¼ºè°ĥäºĨ": 7005,
      "ä¸įå¦Ĥ": 7006,
      "æĭĵå±ķ": 7007,
      "ä¸ŃçļĦåºĶçĶ¨": 7008,
      "è¿ĩæĿ¥": 7009,
      "ä¿Ŀåħ»": 7010,
      "æĮ¤": 7011,
      "åŃĺåľ¨çļĦ": 7012,
      "ï¼Įå°¤åħ¶æĺ¯": 7013,
      "è¿ĽèĢĮ": 7014,
      "AR": 7015,
      "æĴ°åĨĻ": 7016,
      "ãĢģæľī": 7017,
      "è®°èĢħ": 7018,
      "åİŁæĿ¥": 7019,
      "ç©ºè°ĥ": 7020,
      "çĮ«åĴª": 7021,
      "ĠH": 7022,
      "ge": 7023,
      "æĺ¯ï¼Į": 7024,
      "åĨĻåŃĹæ¯į": 7025,
      "è¯ĹæŃĮãĢĤčĊ": 7026,
      "âĢĻ": 7027,
      "èī°": 7028,
      "ä»»æĦı": 7029,
      "æķĻåłĤ": 7030,
      "è¿Ļä¸ªåĩ½æķ°": 7031,
      "åĽ¢éĺŁåĲĪä½ľ": 7032,
      "å¤§åĪ©äºļ": 7033,
      "æĺ¯å¤ļå°ĳï¼ŁčĊ": 7034,
      "éŃı": 7035,
      "Ġd": 7036,
      "åİī": 7037,
      "çĭ±": 7038,
      "åĮĹäº¬å¸Ĥ": 7039,
      "çĨĬçĮ«": 7040,
      "ï¼Įä¿ĥè¿Ľ": 7041,
      "çļĦåı¥åŃĲï¼ļâĢľ": 7042,
      "è¿Ļä¸ªåı¥åŃĲï¼ļâĢľ": 7043,
      "95": 7044,
      "å®ŀéĻħæĥħåĨµ": 7045,
      "æ¼«çĶ»": 7046,
      "éĥ½æ²¡æľī": 7047,
      "å¹³çŃī": 7048,
      "æ¸¸æĪıçļĦ": 7049,
      "åıĭå¥½": 7050,
      "è°·æŃĮ": 7051,
      "è§£æŀĲ": 7052,
      "ç®Ģè¦ģ": 7053,
      "æĦŁæĥħ": 7054,
      "ç¾İæ´²": 7055,
      "è´ŁéĿ¢å½±åĵį": 7056,
      "æĿ¥æıĲé«ĺ": 7057,
      "ä¹ĺä»¥": 7058,
      "åĳĺå·¥çļĦ": 7059,
      "èĥ¡èĲĿåįľ": 7060,
      "æ§½": 7061,
      "ä¸įåľ¨": 7062,
      "è¾ī": 7063,
      "åĩºä¸Ģä¸ª": 7064,
      "æ°´åĪĨ": 7065,
      "åĲ§ï¼Į": 7066,
      "6,Ġ": 7067,
      "éĿ¢åĽ¢": 7068,
      "æł¼åħ°": 7069,
      "èµł": 7070,
      "ï¼ŁãĢĤ": 7071,
      "çİ°çĬ¶": 7072,
      "åĩ¤": 7073,
      "æ£ī": 7074,
      "âĢĿæĺ¯åĲ¦éģµå¾ªâĢľ": 7075,
      "è¯´æ³ķ": 7076,
      "æ³¢çī¹": 7077,
      "åĸľçĪ±": 7078,
      "æ°´åĴĮ": 7079,
      "å¤©æ´¥": 7080,
      "åĲįç§°ï¼ļ": 7081,
      "çİ«": 7082,
      "+0": 7083,
      "æĪĳåı¯ä»¥çĶ¨ä»¥ä¸ĭ": 7084,
      "âĢĿï¼ĮæĿ¥æĽ¿æį¢": 7085,
      "åĨ°ç®±": 7086,
      "å°Ĩå®ĥä»¬": 7087,
      "çĮĽ": 7088,
      "å¤´èĦĳ": 7089,
      "å¨±ä¹Ĳï¼Į": 7090,
      "åĽ´ç»ķ": 7091,
      "åıįå°Ħ": 7092,
      "æľīéĻĲåħ¬åı¸": 7093,
      ")ãĢģ": 7094,
      "çļĦå¤ĸ": 7095,
      "æĬĢå·§åĴĮ": 7096,
      "èŁ": 7097,
      "ï¼Įå»ºç«ĭ": 7098,
      "éĻĮ": 7099,
      "ä¹ŁéĿŀå¸¸": 7100,
      "å¾·Â·": 7101,
      "åĨľæ°ĳ": 7102,
      "çľŁæĺ¯": 7103,
      "ç¼´": 7104,
      "ä»İäºĭ": 7105,
      "åĮºï¼Į": 7106,
      "åĮºä¸º": 7107,
      "æ¶ĪéĻ¤": 7108,
      "ä¸»è¦ģæĺ¯": 7109,
      "åĿļå®ļ": 7110,
      "è´Ŀå°Ķ": 7111,
      "ãĢĤè¦ģ": 7112,
      "ä½įæķ°": 7113,
      "è¦ģç´ł": 7114,
      "180": 7115,
      ")äºĨ": 7116,
      "æııè¿°äºĨ": 7117,
      "æĪĳåı¯ä»¥": 7118,
      "çļĦåŃĺåľ¨": 7119,
      "æĺİæĺŁ": 7120,
      "å·¥ä½ľï¼Į": 7121,
      "(æĦıæĢĿ": 7122,
      "èĴĻåı¤": 7123,
      "åºĨç¥Ŀ": 7124,
      "ä¸ºä½ł": 7125,
      "âĢĿè½¬è¿°": 7126,
      "ç®Ģçº¦": 7127,
      "å¥ĩæķ°": 7128,
      "ä¸ĭéĿ¢è¿Ļåı¥è¯Ŀï¼Ł": 7129,
      "æĺ¯ä¸Ģæł·çļĦ)äºĨ": 7130,
      "âĢĿè½¬è¿°(æĦıæĢĿ": 7131,
      "åĬ²": 7132,
      "æĮ¡": 7133,
      "éĹ®ï¼ļ": 7134,
      "èĥĸ": 7135,
      "åĽ¾æ¡Ī": 7136,
      "å¤«å¦»": 7137,
      "ç¨ĭåºıåĳĺ": 7138,
      "çļĦä¸Ń": 7139,
      "æ°¯": 7140,
      "æĸĩèīº": 7141,
      "éĥ½å¾Ī": 7142,
      "æĽ´æĸ°åĨħå®¹": 7143,
      "2006å¹´": 7144,
      "AC": 7145,
      "çİ¯å¢ĥãĢĤčĊ": 7146,
      "åľ°ä¸ĭ": 7147,
      "æ¡Ĥ": 7148,
      "æ¾³å¤§åĪ©äºļ": 7149,
      "æĬ¤çĲĨ": 7150,
      "ï¼Įä¸įèĥ½": 7151,
      "ãĢĤï¼Ī": 7152,
      "å®īéĿĻ": 7153,
      "æĳĦæ°ı": 7154,
      "ï¼Įäºİæĺ¯": 7155,
      "åĩºåı£": 7156,
      "æľ¬æĿ¥": 7157,
      "æĨ": 7158,
      "ç´¢å¼ķ": 7159,
      "æĹ±": 7160,
      "çİ©æ³ķ": 7161,
      "æĢĸ": 7162,
      "æĸ¹å¼ıï¼Į": 7163,
      "åŃ¦ãĢģ": 7164,
      "æīįæĺ¯": 7165,
      "åīįçļĦ": 7166,
      "çļĦæĥħåĨµä¸ĭï¼Į": 7167,
      "çļĦæ£ķèī²çĭĲçĭ¸": 7168,
      "64": 7169,
      "é«ĺäºİ": 7170,
      "...": 7171,
      "ï¼Įæ¯ıå¤©": 7172,
      ")ï¼Į": 7173,
      "çİ¯å¢ĥçļĦ": 7174,
      "åı¯ä»¥ä½¿": 7175,
      "æ¸ħæĸ°": 7176,
      "ä¸įæĸŃåıĳå±ķ": 7177,
      "ï¼Įè¯´": 7178,
      "æıŃç¤º": 7179,
      "åĽ¾å½¢": 7180,
      "æĹłçº¿": 7181,
      "äººå¿ĥ": 7182,
      "è¿ĺä¼ļ": 7183,
      "çĽĲåĴĮ": 7184,
      "éĥ¨éķ¿": 7185,
      "Web": 7186,
      "ä¸ĭéĿ¢ä¸¤ä¸ªåı¥åŃĲ": 7187,
      "åľ°ä¸Ĭ": 7188,
      "é«ĺæ¸©": 7189,
      "åĿĩè¡¡": 7190,
      "åĢĻéĢīæĪĲè¯Ńï¼ļ": 7191,
      "æĻĵ": 7192,
      "ï¼Įåıĳçİ°": 7193,
      "æĺ¯ä¸Ģä¸ªéĿŀå¸¸": 7194,
      "çĽ¸åĲĮï¼Įä¸įåĲĮ": 7195,
      "åĲĪéĢĤçļĦæĪĲè¯Ń": 7196,
      "è¸ı": 7197,
      "ä½ľä¸ļ": 7198,
      "æ¶Īæŀģ": 7199,
      "ï¼Įå¦Ĥä½ķ": 7200,
      "è¯Ńä¹īæĺ¯âĢľ": 7201,
      "çļĦåħ¬åı¸": 7202,
      "æľºåĻ¨ç¿»è¯ĳ": 7203,
      "çĽ¸åĲĮâĢĿæĪĸâĢľ": 7204,
      "èī²è°ĥ": 7205,
      "çľĭçĿĢ": 7206,
      "ä¸įåĲĮâĢĿï¼Ł": 7207,
      "âĢĿãĢĤéĢīé¡¹ï¼ļ": 7208,
      "è¯±": 7209,
      "æµ¦": 7210,
      "éĢīä¸¾": 7211,
      "è¾¹ç¼ĺ": 7212,
      "ãĢĤå°ı": 7213,
      "èĩ£": 7214,
      "éĤ£ç§į": 7215,
      "æĸ¹æ³ķï¼ļčĊ": 7216,
      "å¼ķçĶ¨": 7217,
      "å¾Īå®¹æĺĵ": 7218,
      "èĬĤèĥ½": 7219,
      "è¡Ģåİĭ": 7220,
      "è¶ĬæĿ¥è¶Ĭå¤ļ": 7221,
      "åħĦå¼Ł": 7222,
      "åı¯åĨįçĶŁ": 7223,
      "ï¼Įä»¥åħį": 7224,
      "å¤įåĪ¶": 7225,
      "æĵħ": 7226,
      "åĬłæĭ¿": 7227,
      "Â¥": 7228,
      "ç§ģäºº": 7229,
      "ï¼ĮæĢ»": 7230,
      "è¾ĥå¤§": 7231,
      "æ°¨": 7232,
      "éľĢè¦ģçļĦ": 7233,
      "çīµ": 7234,
      "éŁµ": 7235,
      "å²©çŁ³": 7236,
      "ä»¥ä¸ĬçļĦ": 7237,
      "æĺİæĺ¾çļĦ": 7238,
      "æĸĩæľ¬åĨħå®¹": 7239,
      "Goog": 7240,
      "ç¼ĸçłģä¸º": 7241,
      "æĦıå¤ĸ": 7242,
      "åħ³éĶ®è¯įãĢĤčĊ": 7243,
      "å¸½": 7244,
      "åħħè¶³çļĦ": 7245,
      "è¾Ī": 7246,
      "åıĹä¼¤": 7247,
      "mm": 7248,
      "å¯ĨåĪĩ": 7249,
      "ç°": 7250,
      "ãĢĤå°½ç®¡": 7251,
      "åĨ³èµĽ": 7252,
      "çļĦæ²»çĸĹ": 7253,
      "å¤¸": 7254,
      "å¸¸çĶ¨": 7255,
      "å»ºè®®ï¼ļčĊ": 7256,
      "åİĭåĬĽåĴĮ": 7257,
      "æĺŁç³»": 7258,
      "d_": 7259,
      "æľĢå¤ļ": 7260,
      "æİ¢è®¨äºĨ": 7261,
      "çļĦæĽ´": 7262,
      "èµ°åĲĳ": 7263,
      "æĸĩåĮĸčĊ": 7264,
      "our": 7265,
      "åĴĮä½¿çĶ¨": 7266,
      "åı¯çĪ±": 7267,
      "å¤§å¤§": 7268,
      "åĩłçĤ¹": 7269,
      "æ¼Ķåĩº": 7270,
      "ä¸ºä¾ĭ": 7271,
      "çŀ¬éĹ´": 7272,
      "è¿Ļæľ¬ä¹¦": 7273,
      "æŁı": 7274,
      "è½¦ï¼Į": 7275,
      "çŃĶæ¡ĪãĢĤčĊ": 7276,
      "Pythonåĩ½æķ°": 7277,
      "çĽĳçĿ£åŃ¦ä¹ł": 7278,
      "ä¸ĺ": 7279,
      "æıĲäº¤": 7280,
      "åĪĨæŀĲčĊ": 7281,
      "Mar": 7282,
      "çļĦç¬¬ä¸Ģ": 7283,
      "act": 7284,
      "UTC+0": 7285,
      "åŃĲčĊ": 7286,
      "åħ³èģĶ": 7287,
      "çļĦæľĭåıĭ": 7288,
      "æĿŃ": 7289,
      "1999å¹´": 7290,
      "å¸Ĥåľºä¸Ĭ": 7291,
      "å¥¶éħª": 7292,
      "çİ°æľī": 7293,
      "èº«ä¸Ĭ": 7294,
      "ä¹Łæ²¡æľī": 7295,
      "åĹ¯": 7296,
      "çļĦæĻ®": 7297,
      "æµĵåº¦": 7298,
      "ä¹Łæ²¡": 7299,
      "æĻºèĥ½æīĭæľº": 7300,
      "ï¼Įè¿ĺåı¯ä»¥": 7301,
      "å¡«ç©º": 7302,
      "1ï¼Į": 7303,
      "åįĹçľģ": 7304,
      "ä»·åĢ¼ãĢĤčĊ": 7305,
      "åĲĮä¹īè¯į": 7306,
      "å®¹åĻ¨": 7307,
      "åĨ·éĿĻ": 7308,
      "æµģè¡ĮçļĦ": 7309,
      "[1,Ġ": 7310,
      "ä¿¡æģ¯åĴĮ": 7311,
      "æłĩæ³¨": 7312,
      "åĢ¼ãĢĤčĊ": 7313,
      "çļĦä¸Ģä¸ªå¸Ĥéķĩ": 7314,
      "åįķåħĥ": 7315,
      "å½¢å®¹è¯į": 7316,
      "èĢĮä¸įæĺ¯": 7317,
      "æĪĲä¸Ģä¸ª": 7318,
      "èĤ¢": 7319,
      "å¤´åıĳ": 7320,
      "çİ«çĳ°": 7321,
      "ç³»æķ°": 7322,
      "è¿ĺåİŁ": 7323,
      "çļĦåŃĹç¬¦ä¸²": 7324,
      "æ¼Ķå¥ı": 7325,
      "ä¸Ģéĥ¨åĪĨ": 7326,
      "è¡ĮæĶ¿åĮºåĪĴčĊ": 7327,
      "æŀ¶æŀĦ": 7328,
      "èĢĮè¨Ģï¼Į": 7329,
      "GB": 7330,
      "éĥ¨éĺŁ": 7331,
      "é¢Ħè®¡": 7332,
      "çļĦç¤¾ä¼ļ": 7333,
      "ç§ĳæĬĢčĊ": 7334,
      "max": 7335,
      "44": 7336,
      "æĵįä½ľç³»ç»Ł": 7337,
      "æģĭçĪ±": 7338,
      "åģļäºĨ": 7339,
      "ç»ĵå©ļ": 7340,
      "åıĤè§Ĥ": 7341,
      "ç¼ĸåĨĻä¸Ģä»½": 7342,
      "çļĦåĩ½æķ°": 7343,
      "è¾¹çķĮ": 7344,
      "ä½Ĳ": 7345,
      "æĸ°äº§åĵģ": 7346,
      "è§£éĩĬï¼ļčĊ": 7347,
      "ï¼ĮåĪ°": 7348,
      "æīĳ": 7349,
      "æīŃ": 7350,
      "`åĩ½æķ°": 7351,
      "æ±Ĥè§£": 7352,
      "æĲ¬": 7353,
      "çĽ²": 7354,
      "98": 7355,
      "æĸ¹çļĦ": 7356,
      "å®ŀåĬĽ": 7357,
      "ç¨³å®ļæĢ§": 7358,
      "æĹ¶éĹ´åĨħ": 7359,
      "ï¼ĮæľīåĬ©äºİ": 7360,
      "è§£åĨ³æĸ¹æ¡ĪãĢĤčĊ": 7361,
      "æĺ¯Ġ": 7362,
      "è·¯ä¸Ĭ": 7363,
      "åĽŀæĬ¥": 7364,
      "åĪĨåĪ«ä¸º": 7365,
      "å¤©æĸĩåŃ¦": 7366,
      "ä¼łè¯´": 7367,
      "æİ¢æµĭ": 7368,
      "çĪĨçĤ¸": 7369,
      "ç³ĸãĢģ": 7370,
      "çģµæĦŁ": 7371,
      "å°ıæĺİï¼ļ": 7372,
      "äº¿ç¾İåħĥ": 7373,
      "éĥ½éľĢè¦ģ": 7374,
      "è´ŁåĢº": 7375,
      "ç¾İæĻ¯": 7376,
      "çĶµåŃĲåķĨåĬ¡": 7377,
      "ä¹ĭåīįï¼Į": 7378,
      "DP": 7379,
      "è¯Ī": 7380,
      "åľŁè±Ĩ": 7381,
      "äººå¤§": 7382,
      "çļĦæľĢ": 7383,
      "éĢļå¸¸ä¼ļ": 7384,
      "æ²Ł": 7385,
      "æŃ£æĸ¹": 7386,
      "ev": 7387,
      "ï¼Įæĭ¥æľī": 7388,
      "äºĳè®¡ç®Ĺ": 7389,
      "æłĸæģ¯": 7390,
      "g/": 7391,
      "å¹¶è¿ĶåĽŀ": 7392,
      "çļĦï¼Įä½Ĩ": 7393,
      "åºŀ": 7394,
      "éĿ¢ä¸Ĭ": 7395,
      "åĽŀå®¶": 7396,
      "çľģå¸Ĥéķĩ": 7397,
      "çĶŁçļĦ": 7398,
      "åı·çº¿": 7399,
      "è§£è¯»": 7400,
      "æ¸©å®¤æ°Ķä½ĵ": 7401,
      "äºļé©¬": 7402,
      "åİĨç¨ĭ": 7403,
      "å¦Ĥä»Ĭ": 7404,
      "èµļéĴ±": 7405,
      "2ï¼Į": 7406,
      "é©¬åħĭ": 7407,
      "ä¸Ģæł·ï¼Į": 7408,
      "ç»Ļåĩºä¸Ģä¸ª": 7409,
      "è¿ĺæ²¡æľī": 7410,
      "æĺ¯ä¸Ģå®¶": 7411,
      "åħ³éĶ®åŃĹ": 7412,
      "åĽŀçŃĶï¼ļčĊ": 7413,
      "æĬĳéĥģ": 7414,
      "1)": 7415,
      "åľ°è´¨": 7416,
      "ç¥ŀå¥ĩ": 7417,
      "ãĢĤä½Ĩæĺ¯ï¼Į": 7418,
      "éĢļè®¯": 7419,
      "åĪĹè¡¨ãĢĤčĊ": 7420,
      "æĶĢ": 7421,
      "ãĢģéĩĳèŀį": 7422,
      "å¤ļæł·æĢ§": 7423,
      "åı¯ä»¥æıĲä¾Ľ": 7424,
      "äºĨčĊ": 7425,
      "æĽ´æĶ¹": 7426,
      "3ï¼ī": 7427,
      "åĪĨæķ£": 7428,
      "åĬŁèĥ½ãĢĤčĊ": 7429,
      "å¡ĳéĢł": 7430,
      "è¾½": 7431,
      "åĳ¨è¾¹": 7432,
      "åĮĸï¼Į": 7433,
      "èĢģå¹´": 7434,
      "è®°ä½ı": 7435,
      "æľĢä¸º": 7436,
      "å®īåħ¨åĴĮ": 7437,
      "ãĢĭä¸Ń": 7438,
      "1.5": 7439,
      "ãĢĤĠè¿Ļ": 7440,
      "è®¸å¤ļäºº": 7441,
      "çĺ¦": 7442,
      "æ¶Į": 7443,
      "ãĢĤâĢĿï¼Ł": 7444,
      "çĶµæºĲ": 7445,
      "ä»¬çļĦ": 7446,
      "ï¼Įé«ĺ": 7447,
      "ç»ĳ": 7448,
      "æľīåı¯èĥ½": 7449,
      "èģļä¼ļ": 7450,
      "1åĴĮ": 7451,
      "usĠ": 7452,
      "ç®Ĺæ³ķçļĦ": 7453,
      "æ°®": 7454,
      "ä¹ĭåĴĮ": 7455,
      "ä¿ĥéĶĢ": 7456,
      "èĥ½ä¸įèĥ½": 7457,
      "è®¨è®ºäºĨ": 7458,
      "ä¸ĵæ³¨äºİ": 7459,
      "ï¼Įè®©æĪĳ": 7460,
      "èĪŀåı°": 7461,
      "èĬĤçľģ": 7462,
      "åĮĸåŃ¦åıįåºĶ": 7463,
      "~~": 7464,
      "äººå®¶": 7465,
      "ä¹ĺç§¯": 7466,
      "ä¸ľäº¬": 7467,
      "åįıåĬ©": 7468,
      ";Ġ": 7469,
      "æľīä¸ª": 7470,
      "ç»ĦæĪĲçļĦ": 7471,
      "çļĦæ¶Īè´¹": 7472,
      "åº¦è¿ĩ": 7473,
      "åįģäºĮ": 7474,
      "çļĦæİªæĸ½": 7475,
      "å°ıåĿĹ": 7476,
      "è´¨æķ°": 7477,
      "èĪĴéĢĤçļĦ": 7478,
      "è£ħç½®": 7479,
      "é¤Ĳé¥®": 7480,
      "æķ°æį®ä¸Ń": 7481,
      "åĪ¶å¤ĩ": 7482,
      "å¤§ä¼Ĺ": 7483,
      "å¾Īå°ĳ": 7484,
      "èīºæľ¯åĵģ": 7485,
      "æĬļ": 7486,
      "ä»ĸäººçļĦ": 7487,
      "atĠ": 7488,
      "åħ³éĶ®è¯įï¼ļ": 7489,
      "å°ıåŃ¦": 7490,
      "ä¸Ģç¯ĩåħ³äºİ": 7491,
      "åĨ²åĩ»": 7492,
      "å¥½çļĦï¼Įè¯·": 7493,
      "çŃĸåĪĴ": 7494,
      "æľ¨æĺŁ": 7495,
      "edĠ": 7496,
      "çļĦåı¯èĥ½": 7497,
      "åŁºæľ¬ä¸Ĭ": 7498,
      "çģ°èī²": 7499,
      "ä¼ĺç¼ºçĤ¹": 7500,
      "åįĥä¸ĩ": 7501,
      "éķľå¤´": 7502,
      "è¿Ļç¯ĩæĸĩç«łå±ŀäºİ": 7503,
      "è®¡ç®Ĺåĩº": 7504,
      "ç§ĺå¯Ĩ": 7505,
      "æ³ª": 7506,
      "ï¼Įæ²¡": 7507,
      "åı¯ä»¥ä»İ": 7508,
      "æĢ»åĴĮ": 7509,
      "åŃĲãĢĤčĊ": 7510,
      "ï¼Įåıį": 7511,
      "æĸĩæľ¬è¿Ľè¡Į": 7512,
      "èģĮè´£": 7513,
      "éĩıåŃĲåĬĽåŃ¦": 7514,
      "æľīæĹ¶": 7515,
      "åĲİæŀľ": 7516,
      "å®¢æĪ·çļĦ": 7517,
      "åĿĲåľ¨": 7518,
      "æĮĩæĮ¥": 7519,
      "å¥½å¥½": 7520,
      "ä¿¡æģ¯ï¼Į": 7521,
      "é¢ĳç¹ģ": 7522,
      "æĺ¯åĲ¦çĽ¸åĲĮãĢĤâĢľ": 7523,
      "åĮºçļĦ": 7524,
      "å¦Ĥä½ķåĪ¶ä½ľ": 7525,
      "è¡į": 7526,
      "ä¼ļåĳĺ": 7527,
      "3,": 7528,
      "å®ŀä¹ł": 7529,
      "æīĵç®Ĺ": 7530,
      "çĽ¸ä¼¼åº¦": 7531,
      "å¸¸è§Ħ": 7532,
      "éĥŃ": 7533,
      "èĢĥçłĶ": 7534,
      "çĺ¤": 7535,
      "çļĦæķĪæŀľ": 7536,
      "åİĭç¼©": 7537,
      "æī¶": 7538,
      "æīĢç¤º": 7539,
      "åĩłä½ķ": 7540,
      "è¿½æº¯": 7541,
      "åıĶ": 7542,
      "åı¯è§Ĩ": 7543,
      "èĺĳ": 7544,
      "çļĦåıĳçĶŁ": 7545,
      "çĲ¦": 7546,
      "æ²¸": 7547,
      "ç¿»è¯ĳæĪĲæ³ķè¯Ń": 7548,
      "ä»£æĽ¿": 7549,
      "æĸĩç«łï¼Į": 7550,
      "æĿ¡ä»¶ä¸ĭ": 7551,
      "æĬ¼": 7552,
      "å¿½çķ¥": 7553,
      "äºļé©¬éĢĬ": 7554,
      "å½±åĥı": 7555,
      "å·ŀå¸Ĥ": 7556,
      "æī¿è®¤": 7557,
      "çļĦåħī": 7558,
      "éĻªä¼´": 7559,
      "åĴĮé«ĺ": 7560,
      "at(": 7561,
      "æľīä¸¤ä¸ª": 7562,
      "å¥½åıĭ": 7563,
      "éĤ£æł·": 7564,
      "è§£éĩĬä¸Ģä¸ĭ": 7565,
      "åħ¬åı¸åľ¨": 7566,
      "èĥ½å¤Łå¸®åĬ©": 7567,
      "Scri": 7568,
      "ĠxĠ": 7569,
      "ï¼ĪæĪĸ": 7570,
      "çļĦæĹ¶": 7571,
      "å·¥ä½ľãĢĤčĊ": 7572,
      "ass": 7573,
      "ak": 7574,
      "ä¸Ĭåİ»": 7575,
      "æľĹçİĽ": 7576,
      "å¤§æĪĺ": 7577,
      "éĶħä¸Ń": 7578,
      "åĴĮæ²»çĸĹ": 7579,
      "ä¸Ńä½¿çĶ¨": 7580,
      "æŃ¥è¡Į": 7581,
      "æłĳæľ¨": 7582,
      "çıłç©Ĩ": 7583,
      "ï¼Įå¹¶å¯¹": 7584,
      "ä¸īãĢģ": 7585,
      "å¾Īé«ĺåħ´": 7586,
      "5000": 7587,
      "çī©çļĦ": 7588,
      "idi": 7589,
      "ç¼ĸåĨĻä¸Ģä¸ªç¨ĭåºı": 7590,
      "NLP": 7591,
      "çļĦæĤ": 7592,
      "åıĺéĿ©": 7593,
      "æĬĢæľ¯ï¼Į": 7594,
      "wh": 7595,
      "è¶ħè¶Ĭ": 7596,
      "æ·ĺå®Ŀ": 7597,
      "åĭº": 7598,
      "æĽ²çº¿": 7599,
      "åİ»å¹´": 7600,
      "è´Łæĭħ": 7601,
      "ä¸ºæĤ¨æıĲä¾Ľ": 7602,
      "ä»ĭç»įä¸Ģä¸ĭ": 7603,
      "åı¯ä»¥çľĭ": 7604,
      "æĪĳä»¬åľ¨": 7605,
      "äº¤åıī": 7606,
      "çıłç©ĨæľĹçİĽ": 7607,
      "èĤīç±»": 7608,
      "æĿĲæĸĻåĴĮ": 7609,
      "æľīæīĢä¸įåĲĮ": 7610,
      "è°¨æħİ": 7611,
      "çĹħäºº": 7612,
      "åĲŀ": 7613,
      "æĿ¥çľĭï¼Į": 7614,
      "è®¼": 7615,
      "æ²¡æľīä»»ä½ķ": 7616,
      "åİ¦": 7617,
      "ell": 7618,
      "ãĢģC": 7619,
      "è¿ĽåĪ¶": 7620,
      "å°ıçº¢": 7621,
      "æĶ¹åĨĻ": 7622,
      "çĥ¤çĽĺ": 7623,
      "ç«Ļåľ¨": 7624,
      "èĺĳèıĩ": 7625,
      "åį¡çī¹": 7626,
      "å¥¥è¿Ĳä¼ļ": 7627,
      "éĶĲ": 7628,
      "ç»ıåħ¸çļĦ": 7629,
      "ä¹ĲåĻ¨": 7630,
      "èİ²": 7631,
      "ï¼Įå¦Ĥæŀľä½ł": 7632,
      "ï¼Įçī¹åĪ«æĺ¯": 7633,
      "çļĦè¡¨çİ°": 7634,
      "å¼¥": 7635,
      "æ¢³": 7636,
      "ãĢĭĠ": 7637,
      "å¼ıçļĦ": 7638,
      "åĿĲæłĩ": 7639,
      "ï¼ĮåĬł": 7640,
      "éĢļè¿ĩå¯¹": 7641,
      "ãĢģæµ·": 7642,
      "åĳ¨éķ¿": 7643,
      "åŁĥåıĬ": 7644,
      "çİĩãĢģ": 7645,
      "çļĨ": 7646,
      "ä½¿åħ¶": 7647,
      "åĽ½çİĭ": 7648,
      "å¿ĺè®°": 7649,
      "ç²¾åº¦": 7650,
      "åįļå®¢": 7651,
      "æĪĳä»¬çļĦçĶŁæ´»": 7652,
      "åĲĦç±»": 7653,
      "åī©ä½Ļ": 7654,
      "]Ġ": 7655,
      "ï¼ļè¿Ļä¸ª": 7656,
      "å®¢åİħ": 7657,
      "ç¿»è¯ĳæĪĲä¸Ńæĸĩ": 7658,
      "æ±īè¯Ń": 7659,
      "éŁ§": 7660,
      "æĪ¿åľ°äº§": 7661,
      "\"ãĢĤčĊ": 7662,
      "åİ»ä¸ĸ": 7663,
      "ä¸ŃåĮ»": 7664,
      "æľĪä»½": 7665,
      "åıĳéŁ³": 7666,
      "çİĩåĴĮ": 7667,
      "å¥¶æ²¹": 7668,
      "éĽĨæĪĲ": 7669,
      "å®¢äºº": 7670,
      "äºĭåĬ¡": 7671,
      "åĶ®åĲİ": 7672,
      "ĠR": 7673,
      "åĲĦä½į": 7674,
      "ãĢĤåľ¨è¿Ļç§į": 7675,
      "çŁŃæľŁ": 7676,
      "ç¤ºä¾ĭï¼ļčĊ": 7677,
      "åĴĮåŃ¦ä¹ł": 7678,
      "ç¨ĭåº¦ä¸Ĭ": 7679,
      "å¤§ä¼ļ": 7680,
      "çİĭæĺŁ": 7681,
      "èĭ±æĸĩåı¥åŃĲ": 7682,
      "ï¼Įä½Ĩå®ĥ": 7683,
      "é¤Ĳé¦Ĩ": 7684,
      "ach": 7685,
      "çļĦäººçī©": 7686,
      "2004å¹´": 7687,
      "æħķ": 7688,
      "arr": 7689,
      "ä¸ĭä¸Ģ": 7690,
      "äººæĢ§": 7691,
      "åĩºèī²çļĦ": 7692,
      "æľĢé«ĺçļĦ": 7693,
      "åĳ¢ï¼ŁĠ": 7694,
      "éĴł": 7695,
      "å®³æĢķ": 7696,
      "è¯īè®¼": 7697,
      "æĺ¯å°Ĩ": 7698,
      "ç«ŀæĬĢ": 7699,
      "äººæ°ĳå¸ģ": 7700,
      "ï¼Įåħ·ä½ĵ": 7701,
      "åı¦ä¸Ģç§į": 7702,
      "èĸ¯": 7703,
      "è®¡ç®Ĺæľºè§Ĩè§ī": 7704,
      "åĨ·åį´": 7705,
      "å¼ĢåĲ¯": 7706,
      "æľ¯è¯Ń": 7707,
      "å¤įä¹ł": 7708,
      "åĽ½æ°ĳ": 7709,
      "å¿ĥéĩĮ": 7710,
      "çıłç©ĨæľĹçİĽå³°": 7711,
      "å¹´åº¦": 7712,
      "å½ĵä½ł": 7713,
      "æľºåħ³": 7714,
      "æī¿åıĹ": 7715,
      "åĨ³çŃĸæłĳ": 7716,
      "ï¼Įä¸¤": 7717,
      "åįķçĭ¬": 7718,
      "è´µçļĦ": 7719,
      "çİ©èĢį": 7720,
      "600": 7721,
      "2005å¹´": 7722,
      "å®Ŀçİī": 7723,
      "ä¸ļç»©": 7724,
      "å¦¥": 7725,
      "æŁ¿": 7726,
      "åıĹåĪ°äºĨ": 7727,
      "çļĦä»£è¡¨": 7728,
      "é«ĺæķĪçļĦ": 7729,
      "ä¸º0": 7730,
      "æ·±åĪ»çļĦ": 7731,
      "1åĪ°": 7732,
      "åĴĮæķ°æį®": 7733,
      "æŀģå¤§": 7734,
      "2001å¹´": 7735,
      "Ġ2": 7736,
      "çļĦåĬĽéĩı": 7737,
      "è´¨éĩıãĢĤčĊ": 7738,
      "è¿Ļä»¶": 7739,
      "æ¯ıåĳ¨": 7740,
      "ä»¿çľŁ": 7741,
      "é³į": 7742,
      "å®ŀéªĮå®¤": 7743,
      "ãĢĤĠæīĢä»¥": 7744,
      "é¥²": 7745,
      "ip": 7746,
      "å°±è¦ģ": 7747,
      "éĺ¿éĩĮ": 7748,
      "åĪĨæŀĲäºĨ": 7749,
      "âĨĴ": 7750,
      "æĪĲä¸ºä¸Ģä¸ª": 7751,
      "åķĬï¼Į": 7752,
      "å¹¿æĴŃ": 7753,
      "æķĻèĤ²čĊ": 7754,
      "æĹ¥çĽĬ": 7755,
      "ï¼Įä»¥å¸®åĬ©": 7756,
      "æ¸¸æĪı,": 7757,
      "çĽĪåĪ©": 7758,
      "âĺ": 7759,
      "çĸĨ": 7760,
      "æ´»åĬ¨ï¼Į": 7761,
      "indow": 7762,
      "ãĢģä¸į": 7763,
      "çŃīéĹ®é¢ĺ": 7764,
      "çļĦå£°éŁ³": 7765,
      "æĬĺæī£": 7766,
      "ãĢĤèĢĮä¸Ķ": 7767,
      "åŁİéķĩ": 7768,
      "åĮĸçŁ³": 7769,
      "ä¿¡æģ¯ï¼ļčĊ": 7770,
      "åŃ¦ä½į": 7771,
      "ä¹ĺæ³ķ": 7772,
      "^2": 7773,
      "ãĢĤæľ¬": 7774,
      "åıįæĢĿ": 7775,
      "éļıåĲİ": 7776,
      "ct": 7777,
      "åº¦åģĩ": 7778,
      "äºĭï¼Į": 7779,
      "åĮĹæŀģ": 7780,
      "çļĦè¿ĲåĬ¨": 7781,
      "åįī": 7782,
      "éļĲèĹı": 7783,
      "ff": 7784,
      "ãĢģå°ı": 7785,
      "form": 7786,
      "JavaScri": 7787,
      "å®¶çĶµ": 7788,
      "ç±»çļĦ": 7789,
      "æĻ®åıĬ": 7790,
      "up": 7791,
      "çļĦäººçĶŁ": 7792,
      "å°½å¿«": 7793,
      "è´¡çĮ®ãĢĤčĊ": 7794,
      "II": 7795,
      "ä½İäºİ": 7796,
      "çĻĮçĹĩ": 7797,
      "è°ĥæĸĻ": 7798,
      "çļĦæ¬¡": 7799,
      "æĪĲå¹´": 7800,
      "ä¹Łå°±": 7801,
      "å§ĳ": 7802,
      "çļĦæ¢¦æĥ³": 7803,
      "ä¸ºæŃ¢": 7804,
      "äººçī©čĊ": 7805,
      ",ä»¥": 7806,
      "å¤ĸäº¤": 7807,
      "æĿ¡æ¬¾": 7808,
      "5ãĢģ": 7809,
      "é¢ĦçĥŃ": 7810,
      "å¼Ģå§ĭï¼Į": 7811,
      "æŁ´": 7812,
      "å½Ĵç±»ä¸º": 7813,
      "âĢĿè¿Ļä¸ª": 7814,
      "èĢĮæĪĲ": 7815,
      "éĶ¡": 7816,
      "èĬ±æľµ": 7817,
      "QL": 7818,
      "ç»Ļå®ļä¸Ģä¸ª": 7819,
      "æķ°åŃĹåĮĸ": 7820,
      "è´¢ç»ıčĊ": 7821,
      "age": 7822,
      "éģ®": 7823,
      "çļĦæ¯Ķä¾ĭ": 7824,
      "åĮĹéĥ¨": 7825,
      "å¹¿æ³ĽçļĦåºĶçĶ¨": 7826,
      "ç»µ": 7827,
      "åħĭçļĦ": 7828,
      "ãĢĤæľĢç»Ī": 7829,
      "æħ°": 7830,
      "èĻļæĭŁçİ°å®ŀ": 7831,
      "ee": 7832,
      "æŁ³": 7833,
      "è¾¾åĪ°äºĨ": 7834,
      "æ©Ħæ¦Ħæ²¹": 7835,
      "ä¸Ļ": 7836,
      "æĺ¯ä»İ": 7837,
      "ord": 7838,
      "1998å¹´": 7839,
      "çļĦæ¯ĶèµĽ": 7840,
      "68": 7841,
      "å¦®": 7842,
      "æĶ¶åĪ°": 7843,
      "çĸ¯": 7844,
      "è®¾è®¡çļĦ": 7845,
      "çĶŁæĪĲä¸Ģé¦ĸ": 7846,
      "ç»§æī¿": 7847,
      "å²ģçļĦ": 7848,
      "Hello": 7849,
      "èĬ±åįī": 7850,
      "é©¬æĭī": 7851,
      "èĳ¡èĲĦéħĴ": 7852,
      "å°Ĭæķ¬çļĦ": 7853,
      "åĴĮçİ¯å¢ĥ": 7854,
      "å¥½çļĦï¼ĮéĤ£": 7855,
      "PC": 7856,
      "éĥ½è¢«": 7857,
      "ï¼Įéĥ½æĺ¯": 7858,
      "å¤§æ°Ķå±Ĥ": 7859,
      "ï¼ļè¯¥": 7860,
      "æĬ¬": 7861,
      "å¯¹äººç±»": 7862,
      "æ¤İ": 7863,
      "æĶ¯ä»ĺå®Ŀ": 7864,
      "è¿ĩå¤ļ": 7865,
      "Â²": 7866,
      "æĪĸç¼º": 7867,
      "ä¸»è¯Ń": 7868,
      "åŃĺåĤ¨åľ¨": 7869,
      "åĬłæĭ¿å¤§": 7870,
      "æĿī": 7871,
      "åģ¥åº·é¥®é£Ł": 7872,
      "æĭŁåĲĪ": 7873,
      "çī¹æ®ĬçļĦ": 7874,
      "æŀģåħ¶": 7875,
      "æĪĸæľįåĬ¡": 7876,
      "è¯´æĺ¯": 7877,
      "ãĢĬçº¢æ¥¼æ¢¦": 7878,
      "æīĭæ³ķ": 7879,
      "æ¼Ĩ": 7880,
      "æĹħæ¸¸čĊ": 7881,
      "æĺ¯ä»Ģä¹Īï¼Ł": 7882,
      "ä¸Ģçīĩ": 7883,
      "åįĹæŀģ": 7884,
      "åĪĿå§ĭåĮĸ": 7885,
      "èĬ½": 7886,
      "ï¼Įè¿Ļå°Ĩ": 7887,
      "æĪĳå°±": 7888,
      "éĿŀå¸¸å¥½": 7889,
      "ãĢĤĠå¦Ĥæŀľ": 7890,
      "å¸ĤåľºçļĦ": 7891,
      "æīĭå·¥": 7892,
      "ä»½é¢Ŀ": 7893,
      "æ´»åĬ¨ãĢĤčĊ": 7894,
      "çļĦæµĭ": 7895,
      "2000å¹´": 7896,
      "ç¨İæĶ¶": 7897,
      "(x": 7898,
      "ant": 7899,
      "num2": 7900,
      "ï¼Įç»ĵæŀľ": 7901,
      "æŃī": 7902,
      "åĩĢåĮĸ": 7903,
      "ï¼ĮåĽłä¸ºå®ĥä»¬": 7904,
      "çļĦè¯Ŀé¢ĺ": 7905,
      "èĤĥ": 7906,
      "å¢ĥåĨħ": 7907,
      "è®²è¿°äºĨ": 7908,
      "æºĥ": 7909,
      "5æĹ¥": 7910,
      "ï¼Įä¿Ŀè¯ģ": 7911,
      "ä¿®æŃ£": 7912,
      "åĲįä¸ºâĢľ": 7913,
      "æģĲæĢĸ": 7914,
      "èµ·äºĨ": 7915,
      "ç¼ĵæħ¢": 7916,
      "éļ¾é¢ĺ": 7917,
      "éĥ¨ä½į": 7918,
      "çĥ·": 7919,
      "ä¸ŃåĽ½åı¤ä»£": 7920,
      "åĲĹï¼ŁĠ": 7921,
      "ï¼Įåħ¶ä¸ŃåĮħæĭ¬": 7922,
      "çļĦéĥ¨åĪĨ": 7923,
      "åľ¨æľªæĿ¥": 7924,
      "ä¹ĲéĺŁ": 7925,
      "Pythonç¨ĭåºı": 7926,
      "å¾Ĺä¸»": 7927,
      "åıĺå½¢": 7928,
      "ill": 7929,
      "çļĦåĲįåŃĹ": 7930,
      "ãĢĤåıªæľī": 7931,
      "æĮ«": 7932,
      "æ°ĳåĽ½": 7933,
      "åĸĤåħ»": 7934,
      "åĪ¶åĵģ": 7935,
      "ç³ĸå°¿": 7936,
      "åħĥ/": 7937,
      "æ°Ľ": 7938,
      "éĢīçĶ¨": 7939,
      "èĻ¹": 7940,
      "è©": 7941,
      "èĩªè½¬": 7942,
      "åįİä¸º": 7943,
      "æľºéģĩ": 7944,
      "åİ»çľĭ": 7945,
      "è¥¿éĥ¨": 7946,
      "éĩİçĶŁ": 7947,
      "æľīå®³": 7948,
      "åħĶåŃĲ": 7949,
      "(n": 7950,
      "éĹ®é¢ĺåĴĮ": 7951,
      "ç½ĳé¡µ": 7952,
      "æĢĿèĢĥåĴĮ": 7953,
      "çī©ä½ĵçļĦ": 7954,
      "æĸ¹æ³ķåĴĮ": 7955,
      "å²Ń": 7956,
      "äºı": 7957,
      "æľĢæĹ©": 7958,
      "åĲĳä¸Ĭ": 7959,
      "è©¹": 7960,
      "çļĦæİ§": 7961,
      "å¯Ĥ": 7962,
      "æĹ¶éĹ´ãĢģ": 7963,
      "ç®ĢåĮĸ": 7964,
      "æ²Ļæ»©": 7965,
      "ä¸¤ä¸ªæķ´æķ°": 7966,
      "çľŁçļĦčĊ": 7967,
      "2,Ġ3,Ġ": 7968,
      "çĮ´": 7969,
      "Ã·": 7970,
      "æĮĩä»¤": 7971,
      "ä¸»äººåħ¬": 7972,
      "æľīçĽĬ": 7973,
      "éªĤ": 7974,
      "ä¹īåĬ¡": 7975,
      "Pro": 7976,
      "Sh": 7977,
      "å®´": 7978,
      "å±Ī": 7979,
      "å¹³æĹ¶": 7980,
      "çłĶç©¶è¡¨æĺİ": 7981,
      "çļĦæŁĲ": 7982,
      "Â°C": 7983,
      "æĦıå¿Ĺ": 7984,
      "Alice": 7985,
      "çļĦåĬ¨çī©": 7986,
      "ï¼Įåı¯ä»¥éĢīæĭ©": 7987,
      "çªĥ": 7988,
      "ç¾İå¦Ļ": 7989,
      "èĭ±å°º": 7990,
      "ä»ĺåĩº": 7991,
      "çĿ¡è§ī": 7992,
      "ä¸įåıĺ": 7993,
      "ä¸įç®¡": 7994,
      "éĿ¢ï¼Į": 7995,
      "åĩºæĿ¥çļĦ": 7996,
      "è¯¥åĩ½æķ°": 7997,
      "ãĢĤè¿ĻæĦıåĳ³çĿĢ": 7998,
      "æĬ¥è¡¨": 7999,
      "å¹³æĸ¹åħ¬éĩĮ": 8000,
      "ç³ĸå°¿çĹħ": 8001,
      "èĨ¨": 8002,
      "ä¿¡å¿ĥ": 8003,
      "æł¹æį®ä»¥ä¸Ĭ": 8004,
      "entĠ": 8005,
      "åĲ¨": 8006,
      "ç±³é¥Ń": 8007,
      "åį±å®³": 8008,
      "çī¹Â·": 8009,
      "åħ»çĶŁ": 8010,
      "åĪĩçīĩ": 8011,
      "è´¦åı·": 8012,
      "åīįè¿Ľ": 8013,
      "æ¯Ķçī¹": 8014,
      "å¸Ĥæ°ĳ": 8015,
      "å¤ķ": 8016,
      "è¡¨æĥħ": 8017,
      "åħ³ç³»ãĢĤčĊ": 8018,
      "åµĮ": 8019,
      "CO": 8020,
      "ç¬¼": 8021,
      "å°ıå¿ĥ": 8022,
      "fo": 8023,
      "åİĮ": 8024,
      "å¤įæĿĤåº¦": 8025,
      "âĢ¢": 8026,
      "åıªéľĢè¦ģ": 8027,
      "77": 8028,
      "åĲĮæŃ¥": 8029,
      "ç©ºæł¼": 8030,
      "åį³å°Ĩ": 8031,
      "åģĩçļĦčĊ": 8032,
      "çļĦè¦ģæ±Ĥ": 8033,
      "ç»Łæ²»": 8034,
      "dog": 8035,
      "è¯ķè¯ķ": 8036,
      "æĸĩç«łãĢĤčĊ": 8037,
      "ï¼ĮæĹłæ³ķ": 8038,
      "æł¡åıĭ": 8039,
      "æĪ¿äº§čĊ": 8040,
      "ä¸Ģå±Ĥ": 8041,
      "æĥħæĦŁåĪĨæŀĲ": 8042,
      "ä¸Ģä¸ªåŃĹç¬¦ä¸²": 8043,
      "æĪĸæĺ¯": 8044,
      "æĢ»äººåı£": 8045,
      "ï¼ĮçĽ®åīį": 8046,
      "åļ": 8047,
      "ï¼Įå¤§å®¶": 8048,
      "åħ¥éĹ¨": 8049,
      "æ¸ħæľĿ": 8050,
      "åĲĥé¥Ń": 8051,
      "å¥ĩæĢª": 8052,
      "äº§æĿĥ": 8053,
      "ä¸º5": 8054,
      "A.Ġ": 8055,
      "åģ¥åº·ãĢĤčĊ": 8056,
      "è®ºæĸĩçļĦæĳĺè¦ģ": 8057,
      "ç£·": 8058,
      "9æľĪ2": 8059,
      "ä¼łæī¿": 8060,
      "ä¸ŃåĽ½äººæ°ĳ": 8061,
      "çļĦè§Ĵåº¦": 8062,
      "æ¼ĶåĶ±": 8063,
      "=\"": 8064,
      "çļĦä½ľåĵģ": 8065,
      "å¦Ĥä½ķçľĭå¾ħ": 8066,
      "çİīç±³": 8067,
      "åĨħæ¶µ": 8068,
      "åĤ¨åŃĺ": 8069,
      "åĽĬ": 8070,
      "åı£ç¢ĳ": 8071,
      "åĮĸå¦Ĩåĵģ": 8072,
      "å¸ħ": 8073,
      "åľ°æĿ¿": 8074,
      "çĽ¸çŃī": 8075,
      "åıĺæĪĲäºĨ": 8076,
      "çŃīå¤ļä¸ª": 8077,
      "å»ºç«ĭä¸Ģä¸ª": 8078,
      "ï¼Įå¹¶æł¹æį®": 8079,
      "åįłæį®": 8080,
      "ï¼ĽèĢĮ": 8081,
      "}{": 8082,
      "ä»£çĲĨ": 8083,
      "ï¼Įä»¥æıĲé«ĺ": 8084,
      "æııåĨĻ": 8085,
      "éĻĮçĶŁ": 8086,
      "çļĦäººï¼Į": 8087,
      "ess": 8088,
      "æĬĳåĪ¶": 8089,
      "9,Ġ": 8090,
      "åĲĳåīį": 8091,
      "å·®è·Ŀ": 8092,
      "å¯¼èĩ´äºĨ": 8093,
      "ç¼ĸåĨĻä¸Ģä¸ªåĩ½æķ°": 8094,
      "Em": 8095,
      "||": 8096,
      "æķĪçĽĬ": 8097,
      "éħįå¤ĩ": 8098,
      "æĪĲåĬŁåľ°": 8099,
      "ï¼ĪB": 8100,
      "ä»¥ä¸ĭæŃ¥éª¤ï¼ļčĊ": 8101,
      "åĪĨè¯į": 8102,
      "åĮħæĭ¬ï¼ļčĊ": 8103,
      "æł¡åĽŃ": 8104,
      "æĥħåĨµãĢĤčĊ": 8105,
      "æĿ¥å¸®åĬ©": 8106,
      "è¾ĥé«ĺçļĦ": 8107,
      "æ¼ĶåĮĸ": 8108,
      "çĽ®æłĩåĴĮ": 8109,
      "æĢĢçĸĳ": 8110,
      "çĶŁæĪĲä¸Ģç¯ĩåĴĮ": 8111,
      "éĻ·åħ¥": 8112,
      "æĸ°æīĭ": 8113,
      "å·¥åİĤ": 8114,
      "çħ§æĺİ": 8115,
      "æĸĻéħĴ": 8116,
      "æĬ½è±¡": 8117,
      "å¿½è§Ĩ": 8118,
      "æīĵåĩ»": 8119,
      "ï¼Įä¸Ģå®ļ": 8120,
      "ä»ªå¼ı": 8121,
      "çļĦå¸Ĥåľº": 8122,
      "æłĩé¢ĺãĢĤčĊ": 8123,
      "è¡Ģæ¶²": 8124,
      "è½»æĿ¾åľ°": 8125,
      "åĲİç»Ń": 8126,
      "æįī": 8127,
      "çŃīï¼ī": 8128,
      "äººåı£čĊ": 8129,
      "æ®µèĲ½ï¼ļ": 8130,
      "çİĭçĲ¦": 8131,
      "çªĹæĪ·": 8132,
      "åľ¨åĵªéĩĮ": 8133,
      "å³¡": 8134,
      "æĪĳè®¤ä¸º": 8135,
      "å¤ıå¤©çļĦ": 8136,
      "æĢ§,": 8137,
      "æĶ¹ä¸º": 8138,
      "%ãĢĤčĊ": 8139,
      "è¿Ļä»½": 8140,
      "èĹ¤": 8141,
      "ç®Ģç§°": 8142,
      "æº¶æ¶²": 8143,
      "æ·ĩ": 8144,
      "åįĩé«ĺ": 8145,
      "èĭ¯": 8146,
      "é»ĳèĥ¡æ¤Ĵ": 8147,
      "ard": 8148,
      "ĠN": 8149,
      "å®ª": 8150,
      "åı¯è§ģ": 8151,
      "éĿŀå¸¸éĩįè¦ģçļĦ": 8152,
      "æľīä»»ä½ķ": 8153,
      "åħ¬å¸ĥ": 8154,
      "æĹ¶éĹ´ï¼Į": 8155,
      "ç¿Ķ": 8156,
      "åĢºåĬ¡": 8157,
      "çİĭçĲ¦çĳ¶": 8158,
      "åīĬ": 8159,
      "æķĻç¨ĭ": 8160,
      "åŀĤçĽ´": 8161,
      "åĴĮçĶŁæ´»": 8162,
      "ç®Ĺæĺ¯": 8163,
      "éĴ¥": 8164,
      "éº»çĥ¦": 8165,
      "çī¢": 8166,
      "æ¸´": 8167,
      "åı¯åĨįçĶŁèĥ½æºĲ": 8168,
      "ç©¿è¶Ĭ": 8169,
      "ç¥ŀç»ıåħĥ": 8170,
      "é£İæł¼åĴĮ": 8171,
      "æ²Ī": 8172,
      "é¢ĺä¸»": 8173,
      "ä¸Ńæĸĩç¿»è¯ĳ": 8174,
      "ä¸º1": 8175,
      "ä»£åħ¥": 8176,
      "æľĪäº®": 8177,
      "å¸ĥç½®": 8178,
      "asĠ": 8179,
      "ä¹ĭå¤ĸ": 8180,
      "ä¸įåı¯æĪĸç¼º": 8181,
      "ä¸Ģä¸ªå°ı": 8182,
      "åĻ¨å®ĺ": 8183,
      "åıįå¤į": 8184,
      "çīĽé¡¿": 8185,
      "çļĦæĦŁæĥħ": 8186,
      "æİĪæĿĥ": 8187,
      "æłª": 8188,
      "èį£èªī": 8189,
      "ï¼Įäº«åıĹ": 8190,
      "çıĬ": 8191
    },
    "merges": [
      [
        "ä",
        "¸"
      ],
      [
        "ï",
        "¼"
      ],
      [
        "ï¼",
        "Į"
      ],
      [
        "ç",
        "ļ"
      ],
      [
        "çļ",
        "Ħ"
      ],
      [
        "ã",
        "Ģ"
      ],
      [
        "ä",
        "º"
      ],
      [
        "ãĢ",
        "Ĥ"
      ],
      [
        "č",
        "Ċ"
      ],
      [
        "ä",
        "»"
      ],
      [
        "å",
        "ı"
      ],
      [
        "æ",
        "ľ"
      ],
      [
        "è",
        "¿"
      ],
      [
        "å",
        "ħ"
      ],
      [
        "æ",
        "ĺ"
      ],
      [
        "å",
        "Ī"
      ],
      [
        "å",
        "¤"
      ],
      [
        "æ",
        "Ī"
      ],
      [
        "ä",
        "½"
      ],
      [
        "å",
        "®"
      ],
      [
        "ç",
        "Ķ"
      ],
      [
        "å",
        "ľ"
      ],
      [
        "å",
        "Ĳ"
      ],
      [
        "è",
        "¯"
      ],
      [
        "æĺ",
        "¯"
      ],
      [
        "ä¸",
        "Ģ"
      ],
      [
        "æ",
        "ĸ"
      ],
      [
        "å",
        "Ĵ"
      ],
      [
        "ãĢĤ",
        "čĊ"
      ],
      [
        "ä",
        "¹"
      ],
      [
        "åĴ",
        "Į"
      ],
      [
        "ç",
        "»"
      ],
      [
        "å",
        "Ĭ"
      ],
      [
        "å",
        "°"
      ],
      [
        "å",
        "Ń"
      ],
      [
        "è",
        "®"
      ],
      [
        "ãĢ",
        "ģ"
      ],
      [
        "å",
        "¹"
      ],
      [
        "ä¸",
        "ª"
      ],
      [
        "ï¼",
        "ļ"
      ],
      [
        "ä»",
        "¥"
      ],
      [
        "åľ",
        "¨"
      ],
      [
        "å",
        "Ľ"
      ],
      [
        "æ",
        "Ĺ"
      ],
      [
        "å",
        "º"
      ],
      [
        "é",
        "Ģ"
      ],
      [
        "æ",
        "ķ"
      ],
      [
        "æ",
        "Ŀ"
      ],
      [
        "ä",
        "¼"
      ],
      [
        "é",
        "ĩ"
      ],
      [
        "æľ",
        "ī"
      ],
      [
        "ĥ",
        "½"
      ],
      [
        "è",
        "¡"
      ],
      [
        "ä¸",
        "į"
      ],
      [
        "äº",
        "Ĩ"
      ],
      [
        "äº",
        "º"
      ],
      [
        "å",
        "¸"
      ],
      [
        "ä¸",
        "Ń"
      ],
      [
        "åı",
        "¯"
      ],
      [
        "â",
        "Ģ"
      ],
      [
        "å",
        "ĩ"
      ],
      [
        "è¿",
        "Ļ"
      ],
      [
        "æĪ",
        "ĳ"
      ],
      [
        "å",
        "Ĩ"
      ],
      [
        "ä¸",
        "º"
      ],
      [
        "å",
        "Į"
      ],
      [
        "å",
        "į"
      ],
      [
        "å",
        "·"
      ],
      [
        "å",
        "¯"
      ],
      [
        "å",
        "¾"
      ],
      [
        "æ",
        "ī"
      ],
      [
        "å",
        "¼"
      ],
      [
        "ç",
        "ī"
      ],
      [
        "è",
        "§"
      ],
      [
        "çĶ",
        "¨"
      ],
      [
        "æ",
        "Ģ"
      ],
      [
        "ç",
        "§"
      ],
      [
        "è",
        "Ģ"
      ],
      [
        "è",
        "¦"
      ],
      [
        "æ",
        "ł"
      ],
      [
        "è¦",
        "ģ"
      ],
      [
        "ç",
        "İ"
      ],
      [
        "ç",
        "Ń"
      ],
      [
        "è",
        "ĥ½"
      ],
      [
        "å",
        "¥"
      ],
      [
        "é",
        "Ĺ"
      ],
      [
        "ç",
        "Ľ"
      ],
      [
        "ä»",
        "¬"
      ],
      [
        "é",
        "¢"
      ],
      [
        "æ",
        "ŀ"
      ],
      [
        "é",
        "Ŀ"
      ],
      [
        "æ",
        "³"
      ],
      [
        "å",
        "½"
      ],
      [
        "æ",
        "Ń"
      ],
      [
        "æ",
        "Ĭ"
      ],
      [
        "è",
        "ĩ"
      ],
      [
        "è",
        "´"
      ],
      [
        "åı¯",
        "ä»¥"
      ],
      [
        "å",
        "ĵ"
      ],
      [
        "ç",
        "Ĳ"
      ],
      [
        "çĶ",
        "Ł"
      ],
      [
        "Ġ",
        "Ġ"
      ],
      [
        "å¤",
        "§"
      ],
      [
        "æķ",
        "°"
      ],
      [
        "æĹ",
        "¶"
      ],
      [
        "ä¸",
        "ĭ"
      ],
      [
        "æĿ",
        "¥"
      ],
      [
        "çļĦ",
        "æ"
      ],
      [
        "æĪ",
        "Ĳ"
      ],
      [
        "ä",
        "¿"
      ],
      [
        "å",
        "ĳ"
      ],
      [
        "å",
        "¦"
      ],
      [
        "è¡",
        "Į"
      ],
      [
        "åŃ",
        "¦"
      ],
      [
        "äº",
        "İ"
      ],
      [
        "æ",
        "ĭ"
      ],
      [
        "å¯",
        "¹"
      ],
      [
        "å",
        "İ"
      ],
      [
        "æ",
        "°"
      ],
      [
        "åĪ",
        "°"
      ],
      [
        "æĸ",
        "ĩ"
      ],
      [
        "æ",
        "Ķ"
      ],
      [
        "ä¸",
        "Ĭ"
      ],
      [
        "æ",
        "İ"
      ],
      [
        "æĸ",
        "¹"
      ],
      [
        "ä¸Ģ",
        "ä¸ª"
      ],
      [
        "è",
        "µ"
      ],
      [
        ".",
        "Ġ"
      ],
      [
        "å",
        "¿"
      ],
      [
        "è",
        "¾"
      ],
      [
        "å",
        "±"
      ],
      [
        "åĪ",
        "Ĩ"
      ],
      [
        "åĩ",
        "º"
      ],
      [
        "ä¼",
        "ļ"
      ],
      [
        "å¦",
        "Ĥ"
      ],
      [
        "æ",
        "Ħ"
      ],
      [
        "æ",
        "¯"
      ],
      [
        "æ",
        "µ"
      ],
      [
        "ç",
        "º"
      ],
      [
        "å¹",
        "´"
      ],
      [
        "åľ",
        "°"
      ],
      [
        "æ",
        "Ľ"
      ],
      [
        "æ",
        "ı"
      ],
      [
        "ä",
        "¾"
      ],
      [
        "é",
        "Ļ"
      ],
      [
        "æ",
        "ĥ"
      ],
      [
        "ç",
        "®"
      ],
      [
        "ä½",
        "ľ"
      ],
      [
        "èĩ",
        "ª"
      ],
      [
        "ä»",
        "ĸ"
      ],
      [
        "æ",
        "į"
      ],
      [
        "çŃ",
        "ī"
      ],
      [
        "éĿ",
        "¢"
      ],
      [
        "ï¼",
        "Ł"
      ],
      [
        "å¤",
        "ļ"
      ],
      [
        "è",
        "½"
      ],
      [
        "æ",
        "Į"
      ],
      [
        "ç",
        "ľ"
      ],
      [
        "æ",
        "²"
      ],
      [
        "åŃ",
        "Ĳ"
      ],
      [
        "é",
        "ľ"
      ],
      [
        "è¿",
        "ĩ"
      ],
      [
        "ï¼ļ",
        "čĊ"
      ],
      [
        "å¥",
        "½"
      ],
      [
        "çĲ",
        "Ĩ"
      ],
      [
        "âĢ",
        "ľ"
      ],
      [
        "âĢ",
        "Ŀ"
      ],
      [
        "å",
        "Ł"
      ],
      [
        "åĬ",
        "¨"
      ],
      [
        "å®",
        "ļ"
      ],
      [
        "ä½",
        "ł"
      ],
      [
        "åı",
        "ĳ"
      ],
      [
        "ä¹",
        "Ł"
      ],
      [
        "æ³",
        "ķ"
      ],
      [
        "çİ",
        "°"
      ],
      [
        "å¹",
        "¶"
      ],
      [
        "çī",
        "©"
      ],
      [
        "æ",
        "¸"
      ],
      [
        "åĽ",
        "½"
      ],
      [
        "åĲ",
        "Į"
      ],
      [
        "ç",
        "±"
      ],
      [
        "ä½",
        "ĵ"
      ],
      [
        "æĪĳ",
        "ä»¬"
      ],
      [
        "åħ",
        "¶"
      ],
      [
        "ç§",
        "į"
      ],
      [
        "æľ",
        "Ģ"
      ],
      [
        "éľ",
        "Ģ"
      ],
      [
        "é",
        "ĺ"
      ],
      [
        "åĮ",
        "ĸ"
      ],
      [
        "æĢ",
        "§"
      ],
      [
        "è¿",
        "Ľ"
      ],
      [
        "ç",
        "«"
      ],
      [
        "æĽ",
        "´"
      ],
      [
        "é¢",
        "ĺ"
      ],
      [
        "ç",
        "¨"
      ],
      [
        "æ",
        "´"
      ],
      [
        "æı",
        "Ĳ"
      ],
      [
        "äº",
        "Ľ"
      ],
      [
        "å°",
        "Ĩ"
      ],
      [
        "åĲ",
        "İ"
      ],
      [
        "æ",
        "¬"
      ],
      [
        "é",
        "«"
      ],
      [
        "é«",
        "ĺ"
      ],
      [
        "å°",
        "ı"
      ],
      [
        "éĢ",
        "ļ"
      ],
      [
        "ä½",
        "¿"
      ],
      [
        "å",
        "ģ"
      ],
      [
        "åº",
        "¦"
      ],
      [
        "åħ",
        "³"
      ],
      [
        "å·",
        "¥"
      ],
      [
        "å®",
        "¶"
      ],
      [
        "é",
        "ģ"
      ],
      [
        "è¡",
        "¨"
      ],
      [
        "è",
        "Ĥ"
      ],
      [
        "åĬ",
        "ł"
      ],
      [
        "è",
        "ī"
      ],
      [
        "åĬ",
        "Ľ"
      ],
      [
        "æľ",
        "¬"
      ],
      [
        "æ",
        "±"
      ],
      [
        "å",
        "ī"
      ],
      [
        "æĪ",
        "ĸ"
      ],
      [
        "ç",
        "Ĥ"
      ],
      [
        "åº",
        "Ķ"
      ],
      [
        "æ",
        "Ļ"
      ],
      [
        "æį",
        "®"
      ],
      [
        "å",
        "Ģ"
      ],
      [
        "æŀ",
        "ľ"
      ],
      [
        "ï¼",
        "ī"
      ],
      [
        "ä¹",
        "ĭ"
      ],
      [
        "ï¼",
        "Ī"
      ],
      [
        "åĽ",
        "ł"
      ],
      [
        "éĩ",
        "ı"
      ],
      [
        "éĹ",
        "®"
      ],
      [
        "æľ",
        "º"
      ],
      [
        "åĵ",
        "ģ"
      ],
      [
        "ç",
        "Ł"
      ],
      [
        "é",
        "£"
      ],
      [
        "å¾",
        "Ĺ"
      ],
      [
        "åĲ",
        "Ī"
      ],
      [
        "æĸ",
        "°"
      ],
      [
        "ç",
        "½"
      ],
      [
        "ç",
        "¬"
      ],
      [
        "éľĢ",
        "è¦ģ"
      ],
      [
        "ç",
        "Ħ"
      ],
      [
        "èĢ",
        "Į"
      ],
      [
        "ç±",
        "»"
      ],
      [
        "å¸",
        "¸"
      ],
      [
        "éĹ",
        "´"
      ],
      [
        "ç",
        "³"
      ],
      [
        "è®",
        "¡"
      ],
      [
        "å®",
        "ĥ"
      ],
      [
        "å®",
        "ŀ"
      ],
      [
        "è",
        "°"
      ],
      [
        "éĩ",
        "į"
      ],
      [
        "è§",
        "£"
      ],
      [
        "ç»",
        "ı"
      ],
      [
        "é",
        "¡"
      ],
      [
        "æ",
        "¡"
      ],
      [
        "æī",
        "Ģ"
      ],
      [
        "è",
        "¶"
      ],
      [
        "ç¨",
        "ĭ"
      ],
      [
        "åħ",
        "¬"
      ],
      [
        "å°",
        "±"
      ],
      [
        "ä¸",
        "ļ"
      ],
      [
        "ä¹",
        "Ī"
      ],
      [
        "é",
        "ķ"
      ],
      [
        "ç",
        "¤"
      ],
      [
        "è",
        "Ĭ"
      ],
      [
        "çĦ",
        "¶"
      ],
      [
        "éĢ",
        "ī"
      ],
      [
        "é",
        "Ķ"
      ],
      [
        "é",
        "ĥ½"
      ],
      [
        "ç",
        "¡"
      ],
      [
        "ä¿",
        "Ŀ"
      ],
      [
        "ä¸",
        "»"
      ],
      [
        "ç",
        "¾"
      ],
      [
        "çĽ",
        "¸"
      ],
      [
        "ç",
        "©"
      ],
      [
        "ä¸",
        "İ"
      ],
      [
        "0",
        "0"
      ],
      [
        "å",
        "»"
      ],
      [
        "å¤",
        "©"
      ],
      [
        "|",
        "Ġ"
      ],
      [
        "ï¼Ł",
        "čĊ"
      ],
      [
        "çĤ",
        "¹"
      ],
      [
        "åħ",
        "¥"
      ],
      [
        "é",
        "ĥ"
      ],
      [
        "è¯",
        "Ń"
      ],
      [
        "ãĢĤ",
        "Ġ"
      ],
      [
        "ç",
        "ł"
      ],
      [
        "è",
        "·"
      ],
      [
        "å",
        "¢"
      ],
      [
        "çĶ",
        "µ"
      ],
      [
        "ç",
        "´"
      ],
      [
        "å¼",
        "ı"
      ],
      [
        "äº",
        "§"
      ],
      [
        "è¿",
        "ĺ"
      ],
      [
        "ç",
        "Ŀ"
      ],
      [
        "è¯",
        "´"
      ],
      [
        "ä½¿",
        "çĶ¨"
      ],
      [
        "é",
        "Ĥ"
      ],
      [
        "å¼",
        "Ģ"
      ],
      [
        "çī",
        "¹"
      ],
      [
        "éĹ®",
        "é¢ĺ"
      ],
      [
        "æĹ",
        "¥"
      ],
      [
        "æ",
        "Ĥ"
      ],
      [
        "æĦ",
        "Ł"
      ],
      [
        "ç³",
        "»"
      ],
      [
        "æĬ",
        "Ģ"
      ],
      [
        "èĢ",
        "ħ"
      ],
      [
        "ä»",
        "£"
      ],
      [
        "åĪ",
        "¶"
      ],
      [
        "äº",
        "ĭ"
      ],
      [
        "å",
        "Ŀ"
      ],
      [
        "å»",
        "º"
      ],
      [
        "æŃ",
        "¤"
      ],
      [
        "æĦ",
        "ı"
      ],
      [
        "éĥ",
        "¨"
      ],
      [
        "æ¯",
        "Ķ"
      ],
      [
        "è¿Ļ",
        "ä¸ª"
      ],
      [
        "ç®",
        "Ĺ"
      ],
      [
        "å¿",
        "ĥ"
      ],
      [
        "åĨ",
        "ħ"
      ],
      [
        "ï¼Į",
        "å¹¶"
      ],
      [
        "çŃ",
        "Ķ"
      ],
      [
        "åŃ",
        "Ĺ"
      ],
      [
        "å¾",
        "Ī"
      ],
      [
        "éķ",
        "¿"
      ],
      [
        "ç»",
        "ĵ"
      ],
      [
        "æĥ",
        "ħ"
      ],
      [
        "ä½",
        "Ĩ"
      ],
      [
        "é",
        "ļ"
      ],
      [
        "æ¡",
        "Ī"
      ],
      [
        "æ",
        "ģ"
      ],
      [
        "èī",
        "²"
      ],
      [
        "æĺ",
        "İ"
      ],
      [
        "ç",
        "ķ"
      ],
      [
        "ç»",
        "Ļ"
      ],
      [
        "åī",
        "į"
      ],
      [
        "å½",
        "ĵ"
      ],
      [
        "é",
        "ħ"
      ],
      [
        "å¸",
        "Ĥ"
      ],
      [
        "åĲ",
        "į"
      ],
      [
        "è¯",
        "¥"
      ],
      [
        "è",
        "¢"
      ],
      [
        "åħ",
        "¨"
      ],
      [
        "æ",
        "Ł"
      ],
      [
        "ç",
        "¼"
      ],
      [
        "è",
        "ģ"
      ],
      [
        "è®",
        "¾"
      ],
      [
        "é",
        "Ľ"
      ],
      [
        "éĩ",
        "Į"
      ],
      [
        "ç¾",
        "İ"
      ],
      [
        "ä¿",
        "¡"
      ],
      [
        "è¿Ľ",
        "è¡Į"
      ],
      [
        "å",
        "ŀ"
      ],
      [
        "æľ",
        "Ī"
      ],
      [
        "é",
        "¦"
      ],
      [
        "ç¡",
        "®"
      ],
      [
        "ä»",
        "İ"
      ],
      [
        "å½",
        "±"
      ],
      [
        "æ°",
        "´"
      ],
      [
        "å",
        "§"
      ],
      [
        "é",
        "ª"
      ],
      [
        "ç",
        "ĥ"
      ],
      [
        "çĿ",
        "Ģ"
      ],
      [
        "ä»¥",
        "ä¸ĭ"
      ],
      [
        "å¹",
        "³"
      ],
      [
        "éģ",
        "ĵ"
      ],
      [
        "åħ",
        "·"
      ],
      [
        "å·",
        "±"
      ],
      [
        "å¤",
        "ĸ"
      ],
      [
        "æľ",
        "¯"
      ],
      [
        "çľ",
        "ĭ"
      ],
      [
        "åı",
        "ĺ"
      ],
      [
        "ĠĠ",
        "ĠĠ"
      ],
      [
        "åĬ",
        "¡"
      ],
      [
        "è",
        "ĭ"
      ],
      [
        "èĩª",
        "å·±"
      ],
      [
        "ä½",
        "į"
      ],
      [
        "è¢",
        "«"
      ],
      [
        "æ",
        "·"
      ],
      [
        "åĮ",
        "ħ"
      ],
      [
        "çĽ",
        "®"
      ],
      [
        "åı",
        "Ĭ"
      ],
      [
        "è",
        "Ĳ"
      ],
      [
        "éĤ",
        "£"
      ],
      [
        "æŃ",
        "£"
      ],
      [
        "åľ",
        "º"
      ],
      [
        "ä¹",
        "ł"
      ],
      [
        "ä¸",
        "¤"
      ],
      [
        "ç§",
        "ĳ"
      ],
      [
        "è´",
        "¨"
      ],
      [
        "æľ",
        "Ł"
      ],
      [
        "æ´",
        "»"
      ],
      [
        "åŁ",
        "º"
      ],
      [
        "åĪ",
        "©"
      ],
      [
        "å",
        "ķ"
      ],
      [
        "åį",
        "ķ"
      ],
      [
        "æĤ",
        "¨"
      ],
      [
        "åŀ",
        "ĭ"
      ],
      [
        "æ°",
        "Ķ"
      ],
      [
        "çĲ",
        "ĥ"
      ],
      [
        "-",
        "Ġ"
      ],
      [
        "æ²",
        "¡"
      ],
      [
        "æł",
        "ĩ"
      ],
      [
        "æĮ",
        "ģ"
      ],
      [
        "æī",
        "ĭ"
      ],
      [
        "åĮ",
        "º"
      ],
      [
        "å",
        "ĸ"
      ],
      [
        "æĥ",
        "³"
      ],
      [
        "æł",
        "¹"
      ],
      [
        "äº",
        "¤"
      ],
      [
        "çŁ",
        "¥"
      ],
      [
        "åĽ",
        "ŀ"
      ],
      [
        "å±",
        "ķ"
      ],
      [
        "èĢ",
        "ĥ"
      ],
      [
        "æ",
        "¶"
      ],
      [
        "éĢ",
        "Ĥ"
      ],
      [
        "è®",
        "©"
      ],
      [
        "å",
        "Ļ"
      ],
      [
        "çļĦ",
        "ï¼Į"
      ],
      [
        "èµ",
        "·"
      ],
      [
        "ä¾",
        "ĭ"
      ],
      [
        "åĪ",
        "Ĺ"
      ],
      [
        "è½",
        "¦"
      ],
      [
        "åı¯",
        "èĥ½"
      ],
      [
        "ç¬",
        "¬"
      ],
      [
        "åĳ",
        "ĺ"
      ],
      [
        "æł",
        "·"
      ],
      [
        "ç",
        "Ī"
      ],
      [
        "æķ°",
        "æį®"
      ],
      [
        "éĿ",
        "ŀ"
      ],
      [
        "è®",
        "º"
      ],
      [
        "ç",
        "¥"
      ],
      [
        "ä¾",
        "Ľ"
      ],
      [
        "ä»",
        "Ģ"
      ],
      [
        "æł",
        "¼"
      ],
      [
        "åĪ",
        "«"
      ],
      [
        "2",
        "0"
      ],
      [
        "æĹ",
        "ł"
      ],
      [
        "ä¸Ń",
        "ï¼Į"
      ],
      [
        "åİ",
        "»"
      ],
      [
        "è¯",
        "į"
      ],
      [
        "ç»",
        "Ħ"
      ],
      [
        "çİ",
        "¯"
      ],
      [
        "éĢļ",
        "è¿ĩ"
      ],
      [
        "ç»",
        "Ł"
      ],
      [
        "æĺ¯",
        "ä¸Ģ"
      ],
      [
        "åĻ",
        "¨"
      ],
      [
        "è",
        "º"
      ],
      [
        "é¡",
        "¹"
      ],
      [
        "æĢ",
        "»"
      ],
      [
        "ä»Ģ",
        "ä¹Ī"
      ],
      [
        "ä»",
        "»"
      ],
      [
        "æ",
        "®"
      ],
      [
        "æĪ",
        "·"
      ],
      [
        "åı",
        "¥"
      ],
      [
        "è",
        "Ī"
      ],
      [
        "ä»",
        "¶"
      ],
      [
        "æ¸",
        "¸"
      ],
      [
        "ä¸",
        "ī"
      ],
      [
        "é",
        "Ĵ"
      ],
      [
        "å¦Ĥ",
        "æŀľ"
      ],
      [
        "è",
        "ĥ"
      ],
      [
        "ï¼Į",
        "è¿Ļ"
      ],
      [
        "çŃĶ",
        "æ¡Ī"
      ],
      [
        "æ¬",
        "¡"
      ],
      [
        "èº",
        "«"
      ],
      [
        "ç",
        "ģ"
      ],
      [
        "æ¯",
        "ı"
      ],
      [
        "å¤",
        "Ħ"
      ],
      [
        "è",
        "į"
      ],
      [
        "åĬ",
        "©"
      ],
      [
        "è¿",
        "Ĳ"
      ],
      [
        "å",
        "£"
      ],
      [
        "åħ",
        "ĥ"
      ],
      [
        "åº",
        "ı"
      ],
      [
        "åĨ",
        "Ļ"
      ],
      [
        "ç",
        "ĸ"
      ],
      [
        "è¯",
        "·"
      ],
      [
        "å½",
        "¢"
      ],
      [
        "èµ",
        "Ħ"
      ],
      [
        "è",
        "Ļ"
      ],
      [
        "åı",
        "¸"
      ],
      [
        "é",
        "Ł"
      ],
      [
        "ç",
        "²"
      ],
      [
        "åı",
        "Ĺ"
      ],
      [
        "ä½",
        "ķ"
      ],
      [
        "æĺ",
        "Ł"
      ],
      [
        "è¿",
        "°"
      ],
      [
        "ï¼Į",
        "ä½Ĩ"
      ],
      [
        "ç",
        "ĭ"
      ],
      [
        "ä¸į",
        "åĲĮ"
      ],
      [
        "ç",
        "Ļ"
      ],
      [
        "æİ",
        "¥"
      ],
      [
        "å®",
        "ī"
      ],
      [
        "æıĲ",
        "ä¾Ľ"
      ],
      [
        "è¯",
        "Ŀ"
      ],
      [
        "1",
        "9"
      ],
      [
        "æł¹",
        "æį®"
      ],
      [
        "å°",
        "ĳ"
      ],
      [
        "ä¹",
        "Ĳ"
      ],
      [
        "æķ",
        "Ī"
      ],
      [
        "æ",
        "¨"
      ],
      [
        "æ±",
        "Ĥ"
      ],
      [
        "åı",
        "ĸ"
      ],
      [
        "ä¸Ģ",
        "äºĽ"
      ],
      [
        "åı",
        "Ĥ"
      ],
      [
        "çĶ",
        "±"
      ],
      [
        "ï¼Į",
        "ä»¥"
      ],
      [
        "åĢ",
        "¼"
      ],
      [
        "æ³",
        "¨"
      ],
      [
        "æķ",
        "Ļ"
      ],
      [
        "ä¸į",
        "æĺ¯"
      ],
      [
        "é£",
        "Ł"
      ],
      [
        "æ",
        "»"
      ],
      [
        "æģ",
        "¯"
      ],
      [
        "ãĢ",
        "ĭ"
      ],
      [
        "ãĢ",
        "Ĭ"
      ],
      [
        "åı",
        "ª"
      ],
      [
        "çº",
        "¿"
      ],
      [
        "ç´",
        "ł"
      ],
      [
        "çľ",
        "Ł"
      ],
      [
        "å¼",
        "º"
      ],
      [
        "é",
        "©"
      ],
      [
        "å®",
        "¹"
      ],
      [
        "åĨ",
        "³"
      ],
      [
        "é",
        "ĵ"
      ],
      [
        "é£",
        "İ"
      ],
      [
        "æµ",
        "ģ"
      ],
      [
        "åŃ¦",
        "ä¹ł"
      ],
      [
        "æĭ",
        "©"
      ],
      [
        "é",
        "»"
      ],
      [
        "æ¨",
        "¡"
      ],
      [
        "ä»",
        "·"
      ],
      [
        "éĢī",
        "æĭ©"
      ],
      [
        "æĻ",
        "º"
      ],
      [
        "ä»ĸ",
        "ä»¬"
      ],
      [
        "éĩ",
        "ĳ"
      ],
      [
        "è°",
        "ĥ"
      ],
      [
        "è",
        "Ħ"
      ],
      [
        "æĶ",
        "¾"
      ],
      [
        "åħ¬",
        "åı¸"
      ],
      [
        "æŃ",
        "¥"
      ],
      [
        ",",
        "Ġ"
      ],
      [
        "ç¤",
        "¾"
      ],
      [
        "åİ",
        "Ł"
      ],
      [
        "åĲ",
        "ĳ"
      ],
      [
        "æ",
        "º"
      ],
      [
        "æĬĢ",
        "æľ¯"
      ],
      [
        "è",
        "İ"
      ],
      [
        "å¯",
        "¼"
      ],
      [
        "æĸ",
        "Ļ"
      ],
      [
        "è¾",
        "¾"
      ],
      [
        "ç©",
        "º"
      ],
[...]
