{
  "version": "1.0",
  "truncation": null,
  "padding": null,
  "added_tokens": [
    {
      "id": 0,
      "content": "<|endoftext|>",
      "single_word": false,
      "lstrip": false,
      "rstrip": false,
      "normalized": false,
      "special": true
    },
    {
      "id": 1,
      "content": "<|im_start|>",
      "single_word": false,
      "lstrip": false,
      "rstrip": false,
      "normalized": false,
      "special": true
    },
    {
      "id": 2,
      "content": "<|im_end|>",
      "single_word": false,
      "lstrip": false,
      "rstrip": false,
      "normalized": false,
      "special": true
    }
  ],
  "normalizer": {
    "type": "NFC"
  },
  "pre_tokenizer": {
    "type": "Sequence",
    "pretokenizers": [
      {
        "type": "Split",
        "pattern": {
          "Regex": "(?i:'s|'t|'re|'ve|'m|'ll|'d)|[^\\r\\n\\p{L}\\p{N}]?\\p{L}+|\\p{N}| ?[^\\s\\p{L}\\p{N}]+[\\r\\n]*|\\s*[\\r\\n]+|\\s+(?!\\S)|\\s+"
        },
        "behavior": "Isolated",
        "invert": false
      },
      {
        "type": "ByteLevel",
        "add_prefix_space": false,
        "trim_offsets": true,
        "use_regex": false
      }
    ]
  },
  "post_processor": {
    "type": "ByteLevel",
    "add_prefix_space": false,
    "trim_offsets": true,
    "use_regex": false
  },
  "decoder": {
    "type": "ByteLevel",
    "add_prefix_space": true,
    "trim_offsets": true,
    "use_regex": true
  },
  "model": {
    "type": "BPE",
    "dropout": null,
    "unk_token": null,
    "continuing_subword_prefix": "",
    "end_of_word_suffix": null,
    "fuse_unk": false,
    "byte_fallback": false,
    "ignore_merges": false,
    "vocab": {
      "<|endoftext|>": 0,
      "<|im_start|>": 1,
      "<|im_end|>": 2,
      "!": 3,
      "\"": 4,
      "#": 5,
      "$": 6,
      "%": 7,
      "&": 8,
      "'": 9,
      "(": 10,
      ")": 11,
      "*": 12,
      "+": 13,
      ",": 14,
      "-": 15,
      ".": 16,
      "/": 17,
      "0": 18,
      "1": 19,
      "2": 20,
      "3": 21,
      "4": 22,
      "5": 23,
      "6": 24,
      "7": 25,
      "8": 26,
      "9": 27,
      ":": 28,
      ";": 29,
      "<": 30,
      "=": 31,
      ">": 32,
      "?": 33,
      "@": 34,
      "A": 35,
      "B": 36,
      "C": 37,
      "D": 38,
      "E": 39,
      "F": 40,
      "G": 41,
      "H": 42,
      "I": 43,
      "J": 44,
      "K": 45,
      "L": 46,
      "M": 47,
      "N": 48,
      "O": 49,
      "P": 50,
      "Q": 51,
      "R": 52,
      "S": 53,
      "T": 54,
      "U": 55,
      "V": 56,
      "W": 57,
      "X": 58,
      "Y": 59,
      "Z": 60,
      "[": 61,
      "\\": 62,
      "]": 63,
      "^": 64,
      "_": 65,
      "`": 66,
      "a": 67,
      "b": 68,
      "c": 69,
      "d": 70,
      "e": 71,
      "f": 72,
      "g": 73,
      "h": 74,
      "i": 75,
      "j": 76,
      "k": 77,
      "l": 78,
      "m": 79,
      "n": 80,
      "o": 81,
      "p": 82,
      "q": 83,
      "r": 84,
      "s": 85,
      "t": 86,
      "u": 87,
      "v": 88,
      "w": 89,
      "x": 90,
      "y": 91,
      "z": 92,
      "{": 93,
      "|": 94,
      "}": 95,
      "~": 96,
      "¡": 97,
      "¢": 98,
      "£": 99,
      "¤": 100,
      "¥": 101,
      "¦": 102,
      "§": 103,
      "¨": 104,
      "©": 105,
      "ª": 106,
      "«": 107,
      "¬": 108,
      "®": 109,
      "¯": 110,
      "°": 111,
      "±": 112,
      "²": 113,
      "³": 114,
      "´": 115,
      "µ": 116,
      "¶": 117,
      "·": 118,
      "¸": 119,
      "¹": 120,
      "º": 121,
      "»": 122,
      "¼": 123,
      "½": 124,
      "¾": 125,
      "¿": 126,
      "À": 127,
      "Á": 128,
      "Â": 129,
      "Ã": 130,
      "Ä": 131,
      "Å": 132,
      "Æ": 133,
      "Ç": 134,
      "È": 135,
      "É": 136,
      "Ê": 137,
      "Ë": 138,
      "Ì": 139,
      "Í": 140,
      "Î": 141,
      "Ï": 142,
      "Ð": 143,
      "Ñ": 144,
      "Ò": 145,
      "Ó": 146,
      "Ô": 147,
      "Õ": 148,
      "Ö": 149,
      "×": 150,
      "Ø": 151,
      "Ù": 152,
      "Ú": 153,
      "Û": 154,
      "Ü": 155,
      "Ý": 156,
      "Þ": 157,
      "ß": 158,
      "à": 159,
      "á": 160,
      "â": 161,
      "ã": 162,
      "ä": 163,
      "å": 164,
      "æ": 165,
      "ç": 166,
      "è": 167,
      "é": 168,
      "ê": 169,
      "ë": 170,
      "ì": 171,
      "í": 172,
      "î": 173,
      "ï": 174,
      "ð": 175,
      "ñ": 176,
      "ò": 177,
      "ó": 178,
      "ô": 179,
      "õ": 180,
      "ö": 181,
      "÷": 182,
      "ø": 183,
      "ù": 184,
      "ú": 185,
      "û": 186,
      "ü": 187,
      "ý": 188,
      "þ": 189,
      "ÿ": 190,
      "Ā": 191,
      "ā": 192,
      "Ă": 193,
      "ă": 194,
      "Ą": 195,
      "ą": 196,
      "Ć": 197,
      "ć": 198,
      "Ĉ": 199,
      "ĉ": 200,
      "Ċ": 201,
      "ċ": 202,
      "Č": 203,
      "č": 204,
      "Ď": 205,
      "ď": 206,
      "Đ": 207,
      "đ": 208,
      "Ē": 209,
      "ē": 210,
      "Ĕ": 211,
      "ĕ": 212,
      "Ė": 213,
      "ė": 214,
      "Ę": 215,
      "ę": 216,
      "Ě": 217,
      "ě": 218,
      "Ĝ": 219,
      "ĝ": 220,
      "Ğ": 221,
      "ğ": 222,
      "Ġ": 223,
      "ġ": 224,
      "Ģ": 225,
      "ģ": 226,
      "Ĥ": 227,
      "ĥ": 228,
      "Ħ": 229,
      "ħ": 230,
      "Ĩ": 231,
      "ĩ": 232,
      "Ī": 233,
      "ī": 234,
      "Ĭ": 235,
      "ĭ": 236,
      "Į": 237,
      "į": 238,
      "İ": 239,
      "ı": 240,
      "Ĳ": 241,
      "ĳ": 242,
      "Ĵ": 243,
      "ĵ": 244,
      "Ķ": 245,
      "ķ": 246,
      "ĸ": 247,
      "Ĺ": 248,
      "ĺ": 249,
      "Ļ": 250,
      "ļ": 251,
      "Ľ": 252,
      "ľ": 253,
      "Ŀ": 254,
      "ŀ": 255,
      "Ł": 256,
      "ł": 257,
      "Ń": 258,
      "ï¼": 259,
      "ä¸": 260,
      "ï¼Į": 261,
      "ãĢ": 262,
      "äº": 263,
      "çļ": 264,
      "çļĦ": 265,
      "æľ": 266,
      "ãĢĤ": 267,
      "åı": 268,
      "åħ": 269,
      "ä»": 270,
      "å¤": 271,
      "åĪ": 272,
      "å®": 273,
      "è¿": 274,
      "âĢ": 275,
      "åľ": 276,
      "åĲ": 277,
      "ä½": 278,
      "æĺ": 279,
      "åĬ": 280,
      "ãĢģ": 281,
      "ä¹": 282,
      "æĪ": 283,
      "çĶ": 284,
      "ç»": 285,
      "åĽ": 286,
      "å¹": 287,
      "ä¸Ģ": 288,
      "æĸ": 289,
      "åį": 290,
      "å°": 291,
      "æĹ": 292,
      "è¯": 293,
      "æĿ": 294,
      "æĺ¯": 295,
      "ä¼": 296,
      "è®": 297,
      "å¸": 298,
      "åŃ": 299,
      "éĩ": 300,
      "åľ¨": 301,
      "äºĨ": 302,
      "æī": 303,
      "äºº": 304,
      "ä¸į": 305,
      "æľī": 306,
      "å·": 307,
      "åĩ": 308,
      "å¼": 309,
      "åĮ": 310,
      "åº": 311,
      "åĨ": 312,
      "è¡": 313,
      "ä¸Ń": 314,
      "çĽ": 315,
      "æĬ": 316,
      "èĢ": 317,
      "èµ": 318,
      "å¾": 319,
      "éĢ": 320,
      "å¹´": 321,
      "è´": 322,
      "æķ": 323,
      "å¯": 324,
      "ä¸º": 325,
      "âĢľ": 326,
      "âĢĿ": 327,
      "å¤§": 328,
      "å±": 329,
      "çİ": 330,
      "ĥ½": 331,
      "å¥": 332,
      "ç§": 333,
      "è§": 334,
      "æĶ": 335,
      "æĢ": 336,
      "åĴ": 337,
      "æł": 338,
      "åĽ½": 339,
      "ä¸Ĭ": 340,
      "éĻ": 341,
      "çī": 342,
      "æŃ": 343,
      "åĴĮ": 344,
      "åİ": 345,
      "å¿": 346,
      "ä¸ļ": 347,
      "çº": 348,
      "éĹ": 349,
      "ãĢĤĊ": 350,
      "èĩ": 351,
      "åĳ": 352,
      "æµ": 353,
      "ä¸ª": 354,
      "è¿Ļ": 355,
      "æ°": 356,
      "å½": 357,
      "éĿ": 358,
      "ï¼ļ": 359,
      "æĿ¥": 360,
      "æİ": 361,
      "æ³": 362,
      "åıĳ": 363,
      "ä»¥": 364,
      "ä¿": 365,
      "çľ": 366,
      "è¡Į": 367,
      "æĪĳ": 368,
      "æŀ": 369,
      "æ²": 370,
      "ä¼ļ": 371,
      "åĩº": 372,
      "ç«": 373,
      "çŃ": 374,
      "æĹ¶": 375,
      "åŁ": 376,
      "çĶŁ": 377,
      "æĥ": 378,
      "èĥ½": 379,
      "åĵ": 380,
      "é¢": 381,
      "çĲ": 382,
      "åħ¬": 383,
      "æĮ": 384,
      "åĪ°": 385,
      "¦ģ": 386,
      "è¾": 387,
      "ç¬": 388,
      "è½": 389,
      "åī": 390,
      "ä»ĸ": 391,
      "æ¯": 392,
      "è¦ģ": 393,
      "åľ°": 394,
      "æĭ": 395,
      "èĤ": 396,
      "æĪĲ": 397,
      "åŃ¦": 398,
      "ä½ľ": 399,
      "å¸Ĥ": 400,
      "çĶ¨": 401,
      "å¯¹": 402,
      "äºİ": 403,
      "ãĢĢ": 404,
      "ä¸ĭ": 405,
      "éģ": 406,
      "æ±": 407,
      "æĸ°": 408,
      "å®¶": 409,
      "åı¯": 410,
      "éķ": 411,
      "éĺ": 412,
      "äº§": 413,
      "ä¾": 414,
      "æĸ¹": 415,
      "ç®": 416,
      "ç»ı": 417,
      "ç¬¬": 418,
      "ä¹Ł": 419,
      "çĲĨ": 420,
      "åĲİ": 421,
      "æľĪ": 422,
      "æĹ¥": 423,
      "åĬ¨": 424,
      "ç½": 425,
      "å°±": 426,
      "åĪĨ": 427,
      "ä¹ĭ": 428,
      "æ¬": 429,
      "æĦ": 430,
      "èĩª": 431,
      "å·¥": 432,
      "æ¸": 433,
      "è¿ĩ": 434,
      "çİ°": 435,
      "å¤ļ": 436,
      "ï¼ī": 437,
      "é«": 438,
      "ï¼Ī": 439,
      "å¦": 440,
      "é«ĺ": 441,
      "è·": 442,
      "åħ¨": 443,
      "ä»¬": 444,
      "èµĦ": 445,
      "çĿ": 446,
      "çĤ": 447,
      "éĥ": 448,
      "ä¸İ": 449,
      "éĽ": 450,
      "å¼Ģ": 451,
      "åŃĲ": 452,
      "ç¾": 453,
      "éķ¿": 454,
      "æľ¬": 455,
      "çŃī": 456,
      "æ´": 457,
      "å®ŀ": 458,
      "æĽ": 459,
      "åĬĽ": 460,
      "ä¸»": 461,
      "åĢ": 462,
      "æĻ": 463,
      "åĲĮ": 464,
      "éĩĳ": 465,
      "éĿ¢": 466,
      "è¿Ľ": 467,
      "ç¤": 468,
      "æ¶": 469,
      "çŁ": 470,
      "å¢": 471,
      "å°ı": 472,
      "åĮĸ": 473,
      "é¡": 474,
      "åīį": 475,
      "åĵģ": 476,
      "è¯´": 477,
      "æı": 478,
      "åģ": 479,
      "æ³ķ": 480,
      "åĲĪ": 481,
      "éģĵ": 482,
      "åħĥ": 483,
      "åħ¶": 484,
      "åı¸": 485,
      "ä½ĵ": 486,
      "å¿ĥ": 487,
      "è°": 488,
      "å»": 489,
      "èĢĮ": 490,
      "å¾Ĺ": 491,
      "æį": 492,
      "èĢħ": 493,
      "å®ļ": 494,
      "æľº": 495,
      "ç¨": 496,
      "åĬ¡": 497,
      "éĥ¨": 498,
      "è¶": 499,
      "åĿ": 500,
      "å§": 501,
      "åľº": 502,
      "å¤©": 503,
      "çĿĢ": 504,
      "äºĭ": 505,
      "éĤ": 506,
      "ãĢĭ": 507,
      "ãĢĬ": 508,
      "çĦ": 509,
      "åĮº": 510,
      "èģ": 511,
      "çĶµ": 512,
      "ä¸ī": 513,
      "èĬ": 514,
      "ï¼Ľ": 515,
      "ä½ł": 516,
      "æľŁ": 517,
      "åħ¬åı¸": 518,
      "åħ³": 519,
      "æīĢ": 520,
      "é£": 521,
      "éĥ½": 522,
      "åº¦": 523,
      "æķ°": 524,
      "éĢļ": 525,
      "åĨħ": 526,
      "æĸĩ": 527,
      "å°Ĩ": 528,
      "çĤ¹": 529,
      "æģ": 530,
      "æĢ§": 531,
      "æĥħ": 532,
      "çł": 533,
      "å¥½": 534,
      "éļ": 535,
      "ç©": 536,
      "åĬł": 537,
      "èī": 538,
      "ç¾İ": 539,
      "éĩį": 540,
      "å»º": 541,
      "éĹ´": 542,
      "çĻ": 543,
      "èĲ": 544,
      "åħ¥": 545,
      "å¦Ĥ": 546,
      "å±ķ": 547,
      "åıĬ": 548,
      "è¿ĺ": 549,
      "æľĢ": 550,
      "èĭ": 551,
      "çĦ¶": 552,
      "æıĲ": 553,
      "åŁº": 554,
      "çľĭ": 555,
      "åķ": 556,
      "éĶ": 557,
      "ç®¡": 558,
      "ĠĠ": 559,
      "åĪ¶": 560,
      "çĽ®": 561,
      "æ¯Ķ": 562,
      "éĩĮ": 563,
      "çķ": 564,
      "èĤ¡": 565,
      "ç³": 566,
      "éĩı": 567,
      "å¹³": 568,
      "åĪ©": 569,
      "ï¼Ł": 570,
      "å¤ĸ": 571,
      "è®¾": 572,
      "éľ": 573,
      "åºĶ": 574,
      "è®¡": 575,
      "åįģ": 576,
      "éĵ": 577,
      "äºĮ": 578,
      "ç±": 579,
      "å£": 580,
      "ä¿¡": 581,
      "å½ĵ": 582,
      "ä»İ": 583,
      "çĸ": 584,
      "ä¿Ŀ": 585,
      "ç¥": 586,
      "æŁ": 587,
      "çĽ¸": 588,
      "è¡¨": 589,
      "ä¹Ī": 590,
      "æ°ĳ": 591,
      "ç§į": 592,
      "æĺİ": 593,
      "ä½į": 594,
      "æīĭ": 595,
      "éĤ£": 596,
      "ãģ": 597,
      "è¢": 598,
      "åİ»": 599,
      "èµ·": 600,
      "åĳĺ": 601,
      "ä¸ĩ": 602,
      "çī©": 603,
      "æĹł": 604,
      "éħ": 605,
      "æĶ¿": 606,
      "æŃ¤": 607,
      "ç³»": 608,
      "é¦": 609,
      "ä¸ŃåĽ½": 610,
      "ç§ĳ": 611,
      "ä»·": 612,
      "æĶ¶": 613,
      "è½¦": 614,
      "ä¸Ģä¸ª": 615,
      "æĦı": 616,
      "æ²¡": 617,
      "å¹¶": 618,
      "æĬĢ": 619,
      "æĮģ": 620,
      "å¢ŀ": 621,
      "å®ī": 622,
      "åĲį": 623,
      "ï¼ģ": 624,
      "æĽ´": 625,
      "ä½Ĩ": 626,
      "çī¹": 627,
      "æ·": 628,
      "å·²": 629,
      "æµ·": 630,
      "çĪ": 631,
      "æ°´": 632,
      "æ¬¡": 633,
      "åĽł": 634,
      "èį": 635,
      "äº¤": 636,
      "ä»£": 637,
      "æº": 638,
      "æ¡": 639,
      "ç¼": 640,
      "ç´": 641,
      "æį®": 642,
      "ä¸ľ": 643,
      "ä»»": 644,
      "ãĢĤâĢĿ": 645,
      "ç½ĳ": 646,
      "æŃ£": 647,
      "æķĻ": 648,
      "åķĨ": 649,
      "èĪ": 650,
      "æĬ¥": 651,
      "çģ": 652,
      "ç¡": 653,
      "æĬķ": 654,
      "èĩ³": 655,
      "èº": 656,
      "è¢«": 657,
      "ç¨ĭ": 658,
      "æĥ³": 659,
      "æľ¯": 660,
      "å¥¹": 661,
      "éĴ": 662,
      "å¼ı": 663,
      "æľį": 664,
      "äºĽ": 665,
      "ç«ł": 666,
      "é©": 667,
      "åĲĳ": 668,
      "è§Ħ": 669,
      "ä¼ģ": 670,
      "èĥ": 671,
      "çŁ¥": 672,
      "ä¸¤": 673,
      "in": 674,
      "åĽŀ": 675,
      "çĥ": 676,
      "èº«": 677,
      "ç²": 678,
      "åŁİ": 679,
      "è¥": 680,
      "åıª": 681,
      "åĪĽ": 682,
      "æĢ»": 683,
      "å¾Ī": 684,
      "æŀľ": 685,
      "æİ¥": 686,
      "å¤´": 687,
      "åĶ": 688,
      "æł·": 689,
      "èİ": 690,
      "éĽĨ": 691,
      "è¥¿": 692,
      "ç¤º": 693,
      "ä¹¦": 694,
      "åŀ": 695,
      "åĽĽ": 696,
      "åįĹ": 697,
      "âĢĶ": 698,
      "çłĶ": 699,
      "äº¿": 700,
      "å¸Ĥåľº": 701,
      "è·¯": 702,
      "å¼º": 703,
      "æĪĳä»¬": 704,
      "åİŁ": 705,
      "é¡¹": 706,
      "åıĳå±ķ": 707,
      "åı£": 708,
      "æºĲ": 709,
      "é£İ": 710,
      "èĦ": 711,
      "éª": 712,
      "æ´»": 713,
      "ç¤¾": 714,
      "ç«ĭ": 715,
      "æł¼": 716,
      "æĮĩ": 717,
      "é»": 718,
      "è§£": 719,
      "å¸¸": 720,
      "æµģ": 721,
      "éĹ¨": 722,
      "å±±": 723,
      "æĪĸ": 724,
      "éĹ®": 725,
      "ç¦": 726,
      "ç»ĵ": 727,
      "çº¿": 728,
      "é¢ĺ": 729,
      "çĶ±": 730,
      "æłĩ": 731,
      "åĮĹ": 732,
      "ç»Ł": 733,
      "çĹ": 734,
      "åĸ": 735,
      "ä¼ģä¸ļ": 736,
      "éĻ¢": 737,
      "ä½¿": 738,
      "èģĶ": 739,
      "âĢĤ": 740,
      "å¤Ħ": 741,
      "çº§": 742,
      "å¸ĥ": 743,
      "å·±": 744,
      "ä»¶": 745,
      "åı°": 746,
      "å·¥ä½ľ": 747,
      "è£": 748,
      "æ°Ķ": 749,
      "Ġt": 750,
      "er": 751,
      "æĪ¿": 752,
      "ï¼Įè¿Ļ": 753,
      "åįķ": 754,
      "è¿Ĳ": 755,
      "an": 756,
      "è¾¾": 757,
      "åıĺ": 758,
      "èĲ¥": 759,
      "æ»": 760,
      "èī²": 761,
      "èĻ": 762,
      "æ±Ĥ": 763,
      "èĩªå·±": 764,
      "æģ¯": 765,
      "æĪ·": 766,
      "è¯ģ": 767,
      "éľĢ": 768,
      "è®©": 769,
      "è®°": 770,
      "åı¯ä»¥": 771,
      "æ²¡æľī": 772,
      "åıĹ": 773,
      "ç®¡çĲĨ": 774,
      "âĢ¦": 775,
      "æīĵ": 776,
      "èĢģ": 777,
      "ä¼ł": 778,
      "å½±": 779,
      "åĲĦ": 780,
      "ä¸ĵ": 781,
      "å¯¼": 782,
      "åŀĭ": 783,
      "ç»Ħ": 784,
      "èĬĤ": 785,
      "æ¨": 786,
      "åģļ": 787,
      "ï¼Įä½Ĩ": 788,
      "åĪ«": 789,
      "æ®": 790,
      "æĪĺ": 791,
      "on": 792,
      "éĢł": 793,
      "è°ĥ": 794,
      "äºĶ": 795,
      "åĮ»": 796,
      "ä¾Ľ": 797,
      "æ¶Ī": 798,
      "ä¸ĸ": 799,
      "è´¨": 800,
      "ç±»": 801,
      "æľįåĬ¡": 802,
      "åįİ": 803,
      "ç»Ń": 804,
      "çĽ´": 805,
      "è¿ĳ": 806,
      "ï¼Įåľ¨": 807,
      "å²": 808,
      "æ¼": 809,
      "æŀĦ": 810,
      "å°ĳ": 811,
      "èĮ": 812,
      "åħī": 813,
      "åħĪ": 814,
      "è´¹": 815,
      "æĶ¾": 816,
      "æĦŁ": 817,
      "æĤ": 818,
      "æĸ¯": 819,
      "ç»Ļ": 820,
      "æİ¨": 821,
      "åħ±": 822,
      "ï¼ļâĢľ": 823,
      "çľģ": 824,
      "ä»Ĭ": 825,
      "å¹¿": 826,
      "çİĩ": 827,
      "å±Ģ": 828,
      "éŁ": 829,
      "å¥³": 830,
      "è¯¥": 831,
      "è§ģ": 832,
      "æµİ": 833,
      "å®Į": 834,
      "åĽ¢": 835,
      "çľŁ": 836,
      "çĭ": 837,
      "å¸Ī": 838,
      "æĬķèµĦ": 839,
      "åĳĬ": 840,
      "çİĭ": 841,
      "æĶ¯": 842,
      "åĳ¨": 843,
      "ï¼Įä¸į": 844,
      "ç¥ŀ": 845,
      "å½¢": 846,
      "æķ´": 847,
      "åĢ¼": 848,
      "é¢Ĩ": 849,
      "è¯Ŀ": 850,
      "æĺĵ": 851,
      "åĨį": 852,
      "è®¤": 853,
      "æ·±": 854,
      "å§Ķ": 855,
      "è½¬": 856,
      "è§Ĩ": 857,
      "éĻĲ": 858,
      "æ£": 859,
      "åįĩ": 860,
      "ç©¶": 861,
      "ï¼Įä»ĸ": 862,
      "æŃ¥": 863,
      "æĿĥ": 864,
      "æľª": 865,
      "å¤į": 866,
      "å¸¦": 867,
      "åıĪ": 868,
      "å¿«": 869,
      "æĬĬ": 870,
      "ä»Ģ": 871,
      "å¤ĩ": 872,
      "äº§åĵģ": 873,
      "åħ·": 874,
      "æ³¨": 875,
      "ç©º": 876,
      "è¶ħ": 877,
      "çĻ¾": 878,
      "å®¹": 879,
      "âĢĤâĢĤ": 880,
      "å·ŀ": 881,
      "èŀ": 882,
      "æĬĢæľ¯": 883,
      "æĺ¾": 884,
      "æ¢": 885,
      "çĻ½": 886,
      "é¢Ħ": 887,
      "æ¨¡": 888,
      "Ġç¬¬": 889,
      "he": 890,
      "ç»ıæµİ": 891,
      "è®º": 892,
      "éĿŀ": 893,
      "æīį": 894,
      "ä»Ģä¹Ī": 895,
      "åĬŀ": 896,
      "åĩĨ": 897,
      "çķĮ": 898,
      "éĢī": 899,
      "æĿĳ": 900,
      "åĦ": 901,
      "Âł": 902,
      "çº¦": 903,
      "æĿ¡": 904,
      "è±": 905,
      "å¼ł": 906,
      "ä½ķ": 907,
      "èĤ²": 908,
      "æ¸¸": 909,
      "ĠĠĠĠ": 910,
      "æķĪ": 911,
      "åĽ¾": 912,
      "ä¼ĺ": 913,
      "..": 914,
      "æİ§": 915,
      "çĲĥ": 916,
      "æĶ¹": 917,
      "åĻ": 918,
      "ä»½": 919,
      "è¾ĥ": 920,
      "åĨĽ": 921,
      "çİ¯": 922,
      "èµ°": 923,
      "æ¸ħ": 924,
      "éĢŁ": 925,
      "èŀį": 926,
      "æ²»": 927,
      "ç§°": 928,
      "è¿Ľè¡Į": 929,
      "åĮħ": 930,
      "æ¯ı": 931,
      "çłĶç©¶": 932,
      "åŃĺ": 933,
      "æĸ½": 934,
      "ç¡®": 935,
      "æ±Ł": 936,
      "å°Ķ": 937,
      "åĦ¿": 938,
      "äº¬": 939,
      "åıĤ": 940,
      "å®¢": 941,
      "é¦ĸ": 942,
      "è®®": 943,
      "çħ": 944,
      "é¾": 945,
      "æĴ": 946,
      "åĨ³": 947,
      "åŃĹ": 948,
      "å¤ª": 949,
      "ï¼ĮèĢĮ": 950,
      "éĻħ": 951,
      "ä½İ": 952,
      "éĶĢ": 953,
      "åĬ¿": 954,
      "åıĸ": 955,
      "ç²¾": 956,
      "è§Ĥ": 957,
      "å£°": 958,
      "åı·": 959,
      "åıį": 960,
      "çª": 961,
      "éĻ©": 962,
      "å¨": 963,
      "å¾·": 964,
      "ï¼ĮæĪĳ": 965,
      "æ¡Ī": 966,
      "æĳ": 967,
      "é¥": 968,
      "é©¬": 969,
      "æĸĻ": 970,
      "å¢ĥ": 971,
      "å°±æĺ¯": 972,
      "çĬ": 973,
      "èİ·": 974,
      "éĵ¶": 975,
      "å§ĭ": 976,
      "åĩł": 977,
      "ä½ı": 978,
      "çīĩ": 979,
      "æł¡": 980,
      "åĪĴ": 981,
      "èĬ±": 982,
      "å£«": 983,
      "æĹ¶éĹ´": 984,
      "åĽ½å®¶": 985,
      "å·²ç»ı": 986,
      "åĪĻ": 987,
      "ï¼Įå¹¶": 988,
      "åĻ¨": 989,
      "æ¹": 990,
      "è´£": 991,
      "èĢĥ": 992,
      "äº¿åħĥ": 993,
      "æŁ¥": 994,
      "ç®Ĺ": 995,
      "ou": 996,
      "æŀĹ": 997,
      "åħĭ": 998,
      "åĬŁ": 999,
      "é¡¹çĽ®": 1000,
      "éħį": 1001,
      "æĢģ": 1002,
      "Â·": 1003,
      "çĪ±": 1004,
      "ï¼Įä¹Ł": 1005,
      "è´¢": 1006,
      "æļ": 1007,
      "éĺŁ": 1008,
      "è£ħ": 1009,
      "çŃĸ": 1010,
      "çĹħ": 1011,
      "çĽĳ": 1012,
      "åĥ": 1013,
      "ï¼Įä¸Ģ": 1014,
      "çľ¼": 1015,
      "èĳ": 1016,
      "ä¹Ĳ": 1017,
      "æħ": 1018,
      "ä¹ī": 1019,
      "è¿ŀ": 1020,
      "ãĢĤâĢľ": 1021,
      "æ¬¾": 1022,
      "éļ¾": 1023,
      "æĢĿ": 1024,
      "æł¹": 1025,
      "ç±³": 1026,
      "re": 1027,
      "è¨": 1028,
      "å®ĥ": 1029,
      "åŁŁ": 1030,
      "åĨľ": 1031,
      "éĺ²": 1032,
      "åĭ": 1033,
      "éªĮ": 1034,
      "ãĢĢãĢĢ": 1035,
      "çĮ": 1036,
      "è¡Įä¸ļ": 1037,
      "å¢ŀéķ¿": 1038,
      "éĹ®é¢ĺ": 1039,
      "ä¾ĭ": 1040,
      "åŁºéĩĳ": 1041,
      "åİĨ": 1042,
      "å¼ķ": 1043,
      "æ¼Ķ": 1044,
      "è¨Ģ": 1045,
      "éĢļè¿ĩ": 1046,
      "æĻº": 1047,
      "åĨµ": 1048,
      "åĶ®": 1049,
      "è´Ń": 1050,
      "ç§¯": 1051,
      "ä¸»è¦ģ": 1052,
      "ä¾¿": 1053,
      "åį³": 1054,
      "æĭī": 1055,
      "Ġs": 1056,
      "çĽĬ": 1057,
      "åĵį": 1058,
      "åºľ": 1059,
      "æŀģ": 1060,
      "çĸ«": 1061,
      "çīĪ": 1062,
      "at": 1063,
      "éŁ³": 1064,
      "æĬ¤": 1065,
      "åĬ©": 1066,
      "ç«Ļ": 1067,
      "ç¦»": 1068,
      "âĢĿï¼Į": 1069,
      "æĸŃ": 1070,
      "ä»ĸä»¬": 1071,
      "è¶Ĭ": 1072,
      "é¾Ļ": 1073,
      "ãĤ": 1074,
      "æĻ¯": 1075,
      "è¾¹": 1076,
      "èģĮ": 1077,
      "ç¬¬ä¸Ģ": 1078,
      "%ï¼Į": 1079,
      "ç½®": 1080,
      "æķ°æį®": 1081,
      "æĺŁ": 1082,
      "æ¶¨": 1083,
      "çº¢": 1084,
      "èħ": 1085,
      "æµĭ": 1086,
      "åı¯èĥ½": 1087,
      "èį¯": 1088,
      "éļı": 1089,
      "æ¥": 1090,
      "çı": 1091,
      "æľĽ": 1092,
      "ï¼Įä»¥": 1093,
      "éĺ³": 1094,
      "ä¿¡æģ¯": 1095,
      "èĲ½": 1096,
      "è¯Ń": 1097,
      "en": 1098,
      "åĳ½": 1099,
      "è¯Ĩ": 1100,
      "è¿Ļä¸ª": 1101,
      "å»ºè®¾": 1102,
      "äºĳ": 1103,
      "ä¼Ĺ": 1104,
      "ç»´": 1105,
      "åĥı": 1106,
      "ç¢": 1107,
      "åĿĩ": 1108,
      "åİ¿": 1109,
      "çŁ³": 1110,
      "èĭ±": 1111,
      "å±ŀ": 1112,
      "çīĮ": 1113,
      "è´§": 1114,
      "äººæ°ĳ": 1115,
      "åįı": 1116,
      "æł¸": 1117,
      "éĿĴ": 1118,
      "ar": 1119,
      "é¢Ŀ": 1120,
      "ä¸Ķ": 1121,
      "å¾®": 1122,
      "ç¾İåĽ½": 1123,
      "æĸ¹éĿ¢": 1124,
      "åħļ": 1125,
      "æĿİ": 1126,
      "éĩĩ": 1127,
      "çĥŃ": 1128,
      "è¯ķ": 1129,
      "çļĦäºº": 1130,
      "èĮĥ": 1131,
      "al": 1132,
      "ç¤¾ä¼ļ": 1133,
      "åį´": 1134,
      "äºĨä¸Ģ": 1135,
      "ï¼Įæĺ¯": 1136,
      "éĻį": 1137,
      "åı²": 1138,
      "âĢĶâĢĶ": 1139,
      "ç³»ç»Ł": 1140,
      "or": 1141,
      "å±ħ": 1142,
      "äº§ä¸ļ": 1143,
      "åĢĻ": 1144,
      "è¯Ħ": 1145,
      "æ²³": 1146,
      "æĿ¿": 1147,
      "ç§ĳæĬĢ": 1148,
      "åıĮ": 1149,
      "æ®µ": 1150,
      "åįĬ": 1151,
      "åħŃ": 1152,
      "åºĹ": 1153,
      "è®¸": 1154,
      "ç¼ĸ": 1155,
      "åĪĹ": 1156,
      "è¶³": 1157,
      "ï¼Įåħ¶": 1158,
      "ä¸įæĺ¯": 1159,
      "åĲĮæĹ¶": 1160,
      "æıĲä¾Ľ": 1161,
      "èı": 1162,
      "è¯·": 1163,
      "it": 1164,
      "çļĦä¸Ģ": 1165,
      "åĽłä¸º": 1166,
      "è§ī": 1167,
      "ï¼ĮâĢľ": 1168,
      "âĢ¦âĢ¦": 1169,
      "å¿ħ": 1170,
      "åĽŃ": 1171,
      "ï¼Įæľī": 1172,
      "ä¾Ŀ": 1173,
      "äºļ": 1174,
      "æķĻèĤ²": 1175,
      "è±¡": 1176,
      "ï¼ŁâĢĿ": 1177,
      "å¤§åŃ¦": 1178,
      "æİĴ": 1179,
      "è¿ľ": 1180,
      "åŃ£": 1181,
      "èĩ´": 1182,
      "ç»Ī": 1183,
      "ä¿®": 1184,
      "æĲ": 1185,
      "åĤ": 1186,
      "æ»¡": 1187,
      "ä¹ł": 1188,
      "æĿĲ": 1189,
      "æŃ»": 1190,
      "éĻ¤": 1191,
      "çģ«": 1192,
      "è´Ł": 1193,
      "é»Ħ": 1194,
      "è¡¨ç¤º": 1195,
      "å¹²": 1196,
      "æĥħåĨµ": 1197,
      "åī¯": 1198,
      "éħĴ": 1199,
      "ä»ħ": 1200,
      "å¤±": 1201,
      "èµĽ": 1202,
      "å¡": 1203,
      "çħ§": 1204,
      "èĭı": 1205,
      "es": 1206,
      "éŃ": 1207,
      "æĪĲä¸º": 1208,
      "æĶ¿åºľ": 1209,
      "å¦Ĥæŀľ": 1210,
      "åºķ": 1211,
      "æ±½": 1212,
      "ãĢĤè¿Ļ": 1213,
      "éľĢè¦ģ": 1214,
      "Ġw": 1215,
      "ãĢĤåľ¨": 1216,
      "çİ°åľ¨": 1217,
      "å¾Ģ": 1218,
      "å½±åĵį": 1219,
      "Ġm": 1220,
      "ä¸Ńå¿ĥ": 1221,
      "é£Ł": 1222,
      "ä½¿çĶ¨": 1223,
      "äºī": 1224,
      "æľīéĻĲ": 1225,
      "åħ»": 1226,
      "åı¤": 1227,
      "åĪ°äºĨ": 1228,
      "ç¿": 1229,
      "ä¸ļåĬ¡": 1230,
      "æ£Ģ": 1231,
      "åĪ¸": 1232,
      "æī¿": 1233,
      "å®ŀçİ°": 1234,
      "ä¸ĸçķĮ": 1235,
      "å¼Ģå§ĭ": 1236,
      "æ¦": 1237,
      "åĩ»": 1238,
      "åģ¥": 1239,
      "ç¾¤": 1240,
      "çĶŁäº§": 1241,
      "åľŁ": 1242,
      "å±Ĥ": 1243,
      "åº·": 1244,
      "ç®Ģ": 1245,
      "è½»": 1246,
      "å¹³åı°": 1247,
      "is": 1248,
      "ä¹°": 1249,
      "æĻ®": 1250,
      "æ¸¯": 1251,
      "å¿µ": 1252,
      "çĽ¸åħ³": 1253,
      "å¯Į": 1254,
      "ç´ł": 1255,
      "èīº": 1256,
      "çĶŁæ´»": 1257,
      "äººçļĦ": 1258,
      "åħ«": 1259,
      "åįł": 1260,
      "æ²¹": 1261,
      "åĪĿ": 1262,
      "åŁİå¸Ĥ": 1263,
      "çĽ®åīį": 1264,
      "åĪĩ": 1265,
      "åł": 1266,
      "åħ´": 1267,
      "ç»ĩ": 1268,
      "æķħ": 1269,
      "çŁ¥éģĵ": 1270,
      "åĲ¬": 1271,
      "çł´": 1272,
      "äº²": 1273,
      "éĵ¶è¡Į": 1274,
      "ç½Ĺ": 1275,
      "ä¸ĥ": 1276,
      "åįĥ": 1277,
      "ä¹Ŀ": 1278,
      "çĽĺ": 1279,
      "åıĭ": 1280,
      "æ¶Īè´¹": 1281,
      "å®Ŀ": 1282,
      "çķ¥": 1283,
      "å¸ģ": 1284,
      "å®īåħ¨": 1285,
      "ä»ĭ": 1286,
      "åĽ´": 1287,
      "åİĭ": 1288,
      "ä¸ŃçļĦ": 1289,
      "æľºæŀĦ": 1290,
      "ï¼ģâĢĿ": 1291,
      "Ġthe": 1292,
      "æĮī": 1293,
      "âĢĿçļĦ": 1294,
      "çªģ": 1295,
      "äºĴ": 1296,
      "åĩĢ": 1297,
      "è®¾è®¡": 1298,
      "åĽ½éĻħ": 1299,
      "æĹı": 1300,
      "æĸĩåĮĸ": 1301,
      "ï¼Įä¸º": 1302,
      "éĥ¨åĪĨ": 1303,
      "ï¼Įä½ł": 1304,
      "ä»·æł¼": 1305,
      "æĹ©": 1306,
      "Ġa": 1307,
      "ä¸Ĭæµ·": 1308,
      "æĹ¶åĢĻ": 1309,
      "å¤§çļĦ": 1310,
      "å®ĺ": 1311,
      "éķĩ": 1312,
      "ï¼Įè¿ĺ": 1313,
      "ç¬ĳ": 1314,
      "æĵ": 1315,
      "ï¼Įå°±": 1316,
      "åħħ": 1317,
      "è§Ĵ": 1318,
      "åĮĹäº¬": 1319,
      "å®¤": 1320,
      "ï¼Įå¯¹": 1321,
      "éĩįè¦ģ": 1322,
      "é£ŀ": 1323,
      "åĿĹ": 1324,
      "åĩı": 1325,
      "æĺ¥": 1326,
      "éĽĨåĽ¢": 1327,
      "ing": 1328,
      "ä½ľä¸º": 1329,
      "çĬ¶": 1330,
      "åĺ": 1331,
      "çĶ·": 1332,
      "ä¸¾": 1333,
      "è¡Ģ": 1334,
      "é¸": 1335,
      "åıĳå¸ĥ": 1336,
      "å¹ħ": 1337,
      "ä¸¥": 1338,
      "ç»Ĩ": 1339,
      "æŃ¦": 1340,
      "è·Ł": 1341,
      "æ±½è½¦": 1342,
      "æ´»åĬ¨": 1343,
      "é»ĳ": 1344,
      "å©": 1345,
      "æŀĲ": 1346,
      "çĸĹ": 1347,
      "é²": 1348,
      "å¯Ĩ": 1349,
      "ç¬¬äºĮ": 1350,
      "å¤Ł": 1351,
      "æĽ¾": 1352,
      "ç»§": 1353,
      "éĩĳèŀį": 1354,
      "ç¦ı": 1355,
      "åį¡": 1356,
      "æĶ¿çŃĸ": 1357,
      "äº¤æĺĵ": 1358,
      "æī¹": 1359,
      "å¿Ĺ": 1360,
      "æ¸©": 1361,
      "éĢĤ": 1362,
      "åį«": 1363,
      "ç«¯": 1364,
      "æĺ¯ä¸Ģ": 1365,
      "åĢº": 1366,
      "ic": 1367,
      "èĥ½åĬĽ": 1368,
      "æĢİ": 1369,
      "è¯»": 1370,
      "æĿ¥çļĦ": 1371,
      "éĺ¿": 1372,
      "æĭħ": 1373,
      "Ġc": 1374,
      "äººåĳĺ": 1375,
      "æľīéĻĲåħ¬åı¸": 1376,
      "çºª": 1377,
      "çĶ»": 1378,
      "è·Į": 1379,
      "åħ¶ä»ĸ": 1380,
      "åĨħå®¹": 1381,
      "Ġb": 1382,
      "å¥ĸ": 1383,
      "åįļ": 1384,
      "åĪĽæĸ°": 1385,
      "æ½": 1386,
      "å½ķ": 1387,
      "åĲĪä½ľ": 1388,
      "ç»Ħç»ĩ": 1389,
      "ç¨³": 1390,
      "åĸĦ": 1391,
      "ï¼ĮéĤ£": 1392,
      "æĭ¬": 1393,
      "æĪı": 1394,
      "çļĦæĺ¯": 1395,
      "ç¾İåħĥ": 1396,
      "å®¡": 1397,
      "åĨĻ": 1398,
      "å¾ĭ": 1399,
      "çģµ": 1400,
      "ĠI": 1401,
      "ä»ĺ": 1402,
      "æĶ¶åħ¥": 1403,
      "çŁŃ": 1404,
      "æ³¢": 1405,
      "çĭ¬": 1406,
      "æīĢä»¥": 1407,
      "çĨ": 1408,
      "æī¾": 1409,
      "åī§": 1410,
      "ç»ľ": 1411,
      "å¤«": 1412,
      "ä¹¡": 1413,
      "æŃ¢": 1414,
      "ĠS": 1415,
      "åĸľ": 1416,
      "å°½": 1417,
      "ç´§": 1418,
      "ç¥¨": 1419,
      "çķĻ": 1420,
      "è¦ģæ±Ĥ": 1421,
      "åŃ©": 1422,
      "èĩªå·±çļĦ": 1423,
      "çİ¯å¢ĥ": 1424,
      "le": 1425,
      "éĴ±": 1426,
      "Ġd": 1427,
      "æĸ¹å¼ı": 1428,
      "ä¸´": 1429,
      "åħ¨çĲĥ": 1430,
      "åĩºçİ°": 1431,
      "ä¸ĩåħĥ": 1432,
      "ä¸ĬçļĦ": 1433,
      "é¢ĳ": 1434,
      "åĮħæĭ¬": 1435,
      "åħ¨åĽ½": 1436,
      "è½½": 1437,
      "é¦Ļ": 1438,
      "å·¥ç¨ĭ": 1439,
      "éĵģ": 1440,
      "æĺ¾ç¤º": 1441,
      "åĵģçīĮ": 1442,
      "èĴ": 1443,
      "åĪĨæŀĲ": 1444,
      "åĲĮæ¯Ķ": 1445,
      "éĢģ": 1446,
      "æ¿": 1447,
      "åı¦": 1448,
      "èĻ½": 1449,
      "æĴŃ": 1450,
      "æĮģç»Ń": 1451,
      "ä»¥åıĬ": 1452,
      "æī§": 1453,
      "å·´": 1454,
      "åħ°": 1455,
      "çĸ«æĥħ": 1456,
      "åĿļ": 1457,
      "ï¼īĊ": 1458,
      "åĪļ": 1459,
      "å®ģ": 1460,
      "æĶ¯æĮģ": 1461,
      "æł¹æį®": 1462,
      "é£İéĻ©": 1463,
      "åıĳçİ°": 1464,
      "æ¹ĸ": 1465,
      "åģľ": 1466,
      "Ġf": 1467,
      "è¿Ļæł·": 1468,
      "è®¤ä¸º": 1469,
      "èµĦéĩĳ": 1470,
      "è¿°": 1471,
      "åŁºç¡": 1472,
      "åĲ§": 1473,
      "ä»¤": 1474,
      "åŁºç¡Ģ": 1475,
      "å¼Ĥ": 1476,
      "æ¯į": 1477,
      "éĻĪ": 1478,
      "and": 1479,
      "âĢĿãĢĤ": 1480,
      "ï¼Įä»İ": 1481,
      "å³": 1482,
      "ï¼ĮæĪĳä»¬": 1483,
      "ro": 1484,
      "å¥ĩ": 1485,
      "å¼Ģåıĳ": 1486,
      "æĹħ": 1487,
      "ä¸įåĲĮ": 1488,
      "ç½ĳç»ľ": 1489,
      "æ¬§": 1490,
      "åħį": 1491,
      "éľĢæ±Ĥ": 1492,
      "åŁ¹": 1493,
      "çĳ": 1494,
      "ä¸ªäºº": 1495,
      "ä¸ĵä¸ļ": 1496,
      "èµĦæºĲ": 1497,
      "éĶĢåĶ®": 1498,
      "éĿ©": 1499,
      "éĥ½æĺ¯": 1500,
      "è¿ĺæĺ¯": 1501,
      "éĹ»": 1502,
      "æ¥¼": 1503,
      "æį¢": 1504,
      "æıĲåįĩ": 1505,
      "æĿĢ": 1506,
      "ä»į": 1507,
      "âĢĤâĢĤâĢĤâĢĤ": 1508,
      "æīĢæľī": 1509,
      "åŁºæľ¬": 1510,
      "æŃĮ": 1511,
      "è®²": 1512,
      "èŃ": 1513,
      "ï¼Įåıª": 1514,
      "æ¶¦": 1515,
      "el": 1516,
      "åį°": 1517,
      "å®£": 1518,
      "ç¨İ": 1519,
      "çĶ¨æĪ·": 1520,
      "å¸®": 1521,
      "ä»ĸçļĦ": 1522,
      "åĪ»": 1523,
      "ç§ĳåŃ¦": 1524,
      "æĭ©": 1525,
      "æĻļ": 1526,
      "Ġo": 1527,
      "å·®": 1528,
      "ä¼¼": 1529,
      "åĲĥ": 1530,
      "çĵ": 1531,
      "å¾ħ": 1532,
      "æŁĲ": 1533,
      "èĤ¡ä»½": 1534,
      "å¥Ĺ": 1535,
      "ä¹ĭåĲİ": 1536,
      "çº³": 1537,
      "æ¿Ģ": 1538,
      "æ±ī": 1539,
      "è®¡åĪĴ": 1540,
      "èĹ": 1541,
      "èĪª": 1542,
      "æĽ²": 1543,
      "ç»Ŀ": 1544,
      "ä¸ĢæŃ¥": 1545,
      "--": 1546,
      "æĻºèĥ½": 1547,
      "åľ°åĮº": 1548,
      "ãĥ": 1549,
      "å¸Į": 1550,
      "as": 1551,
      "ed": 1552,
      "ï¼īï¼Į": 1553,
      "åĪĺ": 1554,
      "æ¬¢": 1555,
      "èŃ¦": 1556,
      "è¿ĻäºĽ": 1557,
      "åª": 1558,
      "æīĺ": 1559,
      "Ġp": 1560,
      "åĲĹ": 1561,
      "é¢ĨåŁŁ": 1562,
      "è®°èĢħ": 1563,
      "åĳ³": 1564,
      "éº": 1565,
      "ĠĠĠĠĠĠĠĠ": 1566,
      "æĢİä¹Ī": 1567,
      "Ġy": 1568,
      "åĽ½åĨħ": 1569,
      "èµ·æĿ¥": 1570,
      "æĭĽ": 1571,
      "åºı": 1572,
      "åºĶçĶ¨": 1573,
      "åı¶": 1574,
      "èµĦäº§": 1575,
      "æ¤": 1576,
      "å¹´çļĦ": 1577,
      "èĥĮ": 1578,
      "èĪ¬": 1579,
      "éľ²": 1580,
      "ĠC": 1581,
      "éĥ¨éĹ¨": 1582,
      "ä¼¤": 1583,
      "å¯Ł": 1584,
      "ä¹İ": 1585,
      "ãĢĳ": 1586,
      "ãĢĲ": 1587,
      "è®¯": 1588,
      "èĵ": 1589,
      "ä¸įèĥ½": 1590,
      "ç¯": 1591,
      "è¡¥": 1592,
      "å®ĮæĪĲ": 1593,
      "èİ·å¾Ĺ": 1594,
      "å®³": 1595,
      "èī¯": 1596,
      "æ¦Ĥ": 1597,
      "è§Ħæ¨¡": 1598,
      "åĨł": 1599,
      "ç¬¬ä¸ī": 1600,
      "åİĨåı²": 1601,
      "è®Ń": 1602,
      "ï¼Įå¤§": 1603,
      "éĢīæĭ©": 1604,
      "ï¼Įå¥¹": 1605,
      "æľªæĿ¥": 1606,
      "æłĩåĩĨ": 1607,
      "å¤®": 1608,
      "ç«ŀ": 1609,
      "ç»©": 1610,
      "è¯ī": 1611,
      "ãĢĢãĢĢãĢĢ": 1612,
      "é¼": 1613,
      "åĨ²": 1614,
      "çĻ»": 1615,
      "è¯ģåĪ¸": 1616,
      "å¢ŀåĬł": 1617,
      "éĿŀå¸¸": 1618,
      "ï¼Įå°Ĩ": 1619,
      "ä»£è¡¨": 1620,
      "åĤ¨": 1621,
      "åĲ¦": 1622,
      "è¾ĳ": 1623,
      "....": 1624,
      "ç´¢": 1625,
      "åİĤ": 1626,
      "æľĿ": 1627,
      "èĥ½æºĲ": 1628,
      "è¾ĵ": 1629,
      "éļľ": 1630,
      "è¯¾": 1631,
      "ç»ıèĲ¥": 1632,
      "ç»¼": 1633,
      "å¥¥": 1634,
      "et": 1635,
      "éĵ¾": 1636,
      "åĩºçīĪ": 1637,
      "æĬ¥åĳĬ": 1638,
      "æľ¨": 1639,
      "è¯į": 1640,
      "ä»Ĭå¹´": 1641,
      "æĦ¿": 1642,
      "ç§»": 1643,
      "åĨ·": 1644,
      "å¾ģ": 1645,
      "åħ³ç³»": 1646,
      "Ġl": 1647,
      "çĶ³": 1648,
      "ĠA": 1649,
      "åĳ¢": 1650,
      "å²ģ": 1651,
      "æĢ¥": 1652,
      "åº§": 1653,
      "ä¸Ĭå¸Ĥ": 1654,
      "å½Ĵ": 1655,
      "è¿Ļä¸Ģ": 1656,
      "èĭ¥": 1657,
      "ç»§ç»Ń": 1658,
      "ä¸įä¼ļ": 1659,
      "å¯¹äºİ": 1660,
      "åıĳçĶŁ": 1661,
      "å®Ĺ": 1662,
      "èĥ½å¤Ł": 1663,
      "è´Łè´£": 1664,
      "åįĸ": 1665,
      "å®¢æĪ·": 1666,
      "å¾Īå¤ļ": 1667,
      "å¤ľ": 1668,
      "ãĢĤä»ĸ": 1669,
      "äº«": 1670,
      "ç»¿": 1671,
      "æĭ¿": 1672,
      "åįķä½į": 1673,
      "éĶĻ": 1674,
      "çŃĳ": 1675,
      "å¨ģ": 1676,
      "ãĢĤä½Ĩ": 1677,
      "åŃ¦çĶŁ": 1678,
      "åŃĺåľ¨": 1679,
      "åŃ¦æł¡": 1680,
      "ï¼Įåı¯": 1681,
      "çıŃ": 1682,
      "%ãĢĤ": 1683,
      "æ±ĩ": 1684,
      "æĭ¥": 1685,
      "å§Ķåĳĺ": 1686,
      "å·¦": 1687,
      "é¡¾": 1688,
      "ä¹Łæĺ¯": 1689,
      "åĵª": 1690,
      "èĻ½çĦ¶": 1691,
      "è¶ħè¿ĩ": 1692,
      "æ¯Ĵ": 1693,
      "æ¸¸æĪı": 1694,
      "è´£ä»»": 1695,
      "çĽ®æłĩ": 1696,
      "å¦Ĥä½ķ": 1697,
      "åħµ": 1698,
      "å¥½çļĦ": 1699,
      "é¡»": 1700,
      "åģĩ": 1701,
      "çĪ¶": 1702,
      "ä¸°": 1703,
      "æľīä¸Ģ": 1704,
      "èĽ": 1705,
      "æİ§åĪ¶": 1706,
      "æĿ¨": 1707,
      "éĽ¶": 1708,
      "æķ°åŃĹ": 1709,
      "éĢĢ": 1710,
      "om": 1711,
      "èģļ": 1712,
      "æĵį": 1713,
      "åĲ¯": 1714,
      "ï¼Įè®©": 1715,
      "éĨ": 1716,
      "è½®": 1717,
      "çĶļ": 1718,
      "è¡Ĺ": 1719,
      "åľ°æĸ¹": 1720,
      "æ´²": 1721,
      "èĦ¸": 1722,
      "æĪª": 1723,
      "åŃ©åŃĲ": 1724,
      "åģ¥åº·": 1725,
      "Ġyou": 1726,
      "åķĬ": 1727,
      "æ´¾": 1728,
      "éģĩ": 1729,
      "éĽª": 1730,
      "åĲ¸": 1731,
      "åŃ¦ä¹ł": 1732,
      "èĩªçĦ¶": 1733,
      "åªĴ": 1734,
      "è´¨éĩı": 1735,
      "è§Ħå®ļ": 1736,
      "ä»·åĢ¼": 1737,
      "è½¯": 1738,
      "è¿½": 1739,
      "æĿ¾": 1740,
      "é¦Ĩ": 1741,
      "é¡º": 1742,
      "æİĪ": 1743,
      "è´·": 1744,
      "çİī": 1745,
      "è´µ": 1746,
      "ç§Ģ": 1747,
      "ç»ĵæŀĦ": 1748,
      "åı«": 1749,
      "ä¹ħ": 1750,
      "æ°¸": 1751,
      "éĺ¶": 1752,
      "ãĢĭï¼Į": 1753,
      "é¹": 1754,
      "æįŁ": 1755,
      "éĻĦ": 1756,
      "çĩ": 1757,
      "æİ¢": 1758,
      "çŀ": 1759,
      "åħ·æľī": 1760,
      "å·¨": 1761,
      "è¿ĩç¨ĭ": 1762,
      "æĶ»": 1763,
      "åĬŁèĥ½": 1764,
      "æıĲé«ĺ": 1765,
      "æĽ´å¤ļ": 1766,
      "éĻĨ": 1767,
      "ç»¼åĲĪ": 1768,
      "Ġh": 1769,
      "åħ³æ³¨": 1770,
      "è¿Ľåħ¥": 1771,
      "ä¿ĿæĬ¤": 1772,
      "æĪĸèĢħ": 1773,
      "ĠT": 1774,
      "åĽłæŃ¤": 1775,
      "è®¾å¤ĩ": 1776,
      "æĸ¹æ³ķ": 1777,
      "ion": 1778,
      "è¿Ľä¸ĢæŃ¥": 1779,
      "åĮ»éĻ¢": 1780,
      "éĴŁ": 1781,
      "å¸Ŀ": 1782,
      "çļ®": 1783,
      "çłģ": 1784,
      "åı³": 1785,
      "åħ¶ä¸Ń": 1786,
      "åĲ«": 1787,
      "æķĳ": 1788,
      "æī©": 1789,
      "æ¨¡å¼ı": 1790,
      "ç»į": 1791,
      "çĶ°": 1792,
      "å®Ī": 1793,
      "çĶ±äºİ": 1794,
      "éĽ·": 1795,
      "åĪ©æ¶¦": 1796,
      "æĪĳçļĦ": 1797,
      "åħ¸": 1798,
      "åĪĨåĪ«": 1799,
      "éĢĲ": 1800,
      "å°¼": 1801,
      "æĬĹ": 1802,
      "Ġof": 1803,
      "Ġn": 1804,
      "å·¥ä¸ļ": 1805,
      "il": 1806,
      "ï¼ĮæľĢ": 1807,
      "å¼Ģå±ķ": 1808,
      "åĩºäºĨ": 1809,
      "è§£åĨ³": 1810,
      "ĠM": 1811,
      "èĳĹ": 1812,
      "çļĦæĹ¶åĢĻ": 1813,
      "çĽ´æİ¥": 1814,
      "å®ŀæĸ½": 1815,
      "èĸ": 1816,
      "èįī": 1817,
      "åºĵ": 1818,
      "ä¼°": 1819,
      "é½": 1820,
      "ow": 1821,
      "è¯Ĺ": 1822,
      "ä¸įæĸŃ": 1823,
      "èį£": 1824,
      "ä¸½": 1825,
      "ç£": 1826,
      "éĩįçĤ¹": 1827,
      "ĠP": 1828,
      "å¸Ń": 1829,
      "ï¼Įå½ĵ": 1830,
      "è¾¾åĪ°": 1831,
      "ãĢĮ": 1832,
      "Ġg": 1833,
      "æ°´å¹³": 1834,
      "åŃ£åº¦": 1835,
      "ãĢį": 1836,
      "å±Ĭ": 1837,
      "è°Ī": 1838,
      "æķ£": 1839,
      "å¤ĦçĲĨ": 1840,
      "å¤ı": 1841,
      "æ¢¦": 1842,
      "åºĨ": 1843,
      "æ²Ļ": 1844,
      "çľĭåĪ°": 1845,
      "ç´¯": 1846,
      "ä½Ļ": 1847,
      "çŃĶ": 1848,
      "æĸĹ": 1849,
      "çĸĳ": 1850,
      "Ġto": 1851,
      "çīĽ": 1852,
      "å»ºçŃĳ": 1853,
      "st": 1854,
      "ä¹ĭéĹ´": 1855,
      "è¡Įä¸º": 1856,
      "éĿĻ": 1857,
      "è¿Ļç§į": 1858,
      "æĿĲæĸĻ": 1859,
      "Ġand": 1860,
      "ä¸¤ä¸ª": 1861,
      "ä»¥ä¸Ĭ": 1862,
      "ç»ĥ": 1863,
      "å³°": 1864,
      "am": 1865,
      "ä¸įè¿ĩ": 1866,
      "æłĳ": 1867,
      "åĢŁ": 1868,
      "ç«Ł": 1869,
      "è§ĦåĪĴ": 1870,
      "ï¼Įä½Ĩæĺ¯": 1871,
      "æĭį": 1872,
      "èĳ£": 1873,
      "åĢĴ": 1874,
      "ä¸ºäºĨ": 1875,
      "çİ©": 1876,
      "çļĩ": 1877,
      "¤Ĳ": 1878,
      "åºŃ": 1879,
      "ä½ľåĵģ": 1880,
      "å°ģ": 1881,
      "éĩĬ": 1882,
      "ac": 1883,
      "å·Ŀ": 1884,
      "æĹ¶ä»£": 1885,
      "å½¢æĪĲ": 1886,
      "çĿ£": 1887,
      "åĪ¶éĢł": 1888,
      "id": 1889,
      "èıľ": 1890,
      "åĪ¤": 1891,
      "çĽĸ": 1892,
      "ä¿ĥ": 1893,
      "æ¯Ľ": 1894,
      "éĶ®": 1895,
      "ç³»åĪĹ": 1896,
      "æĥĬ": 1897,
      "è°ģ": 1898,
      "æľīåħ³": 1899,
      "èĹı": 1900,
      "æĿ¥æºĲ": 1901,
      "ãĢĤæĪĳ": 1902,
      "ä¸Ģæł·": 1903,
      "ä½ľèĢħ": 1904,
      "åĬ³": 1905,
      "ç©ºéĹ´": 1906,
      "å°ļ": 1907,
      "èĦĳ": 1908,
      "éļıçĿĢ": 1909,
      "éĴĪ": 1910,
      "åħ³äºİ": 1911,
      "åĿĲ": 1912,
      "åįĪ": 1913,
      "ãĢĤèĢĮ": 1914,
      "åŃ¦éĻ¢": 1915,
      "å»¶": 1916,
      "ï¼ļĊ": 1917,
      "æ¯ķ": 1918,
      "çĶµåŃĲ": 1919,
      "æĮ¥": 1920,
      "ï¼Įåħ¬åı¸": 1921,
      "äº®": 1922,
      "æĤ¨": 1923,
      "ä»¥æĿ¥": 1924,
      "ä½ľçĶ¨": 1925,
      "çŃ¾": 1926,
      "åĽº": 1927,
      "åĮ»çĸĹ": 1928,
      "ä»»ä½ķ": 1929,
      "è¿Ŀ": 1930,
      "äºĨè§£": 1931,
      "èĤī": 1932,
      "éĿ¢ç§¯": 1933,
      "å´": 1934,
      "æ¯Ķè¾ĥ": 1935,
      "æĸ°çļĦ": 1936,
      "åį·": 1937,
      "åĵĪ": 1938,
      "ve": 1939,
      "æĪĺçķ¥": 1940,
      "çļĦäºĭ": 1941,
      "èĥľ": 1942,
      "Ġin": 1943,
      "æīĭæľº": 1944,
      "å®ŀéĻħ": 1945,
      "æ±ł": 1946,
      "éŃĶ": 1947,
      "éĽ¨": 1948,
      "åĵ¥": 1949,
      "ç¼º": 1950,
      "åĶĲ": 1951,
      "çŁ¥è¯Ĩ": 1952,
      "è¡£": 1953,
      "ol": 1954,
      "æĭŁ": 1955,
      "ä½ĵç³»": 1956,
      "ä¸ĢäºĽ": 1957,
      "é¤Ĳ": 1958,
      "å®«": 1959,
      "åºĶè¯¥": 1960,
      "ÂłÂł": 1961,
      "æł¸å¿ĥ": 1962,
      "æİª": 1963,
      "ä¸ĢçĽ´": 1964,
      "æ¾": 1965,
      "ä¸Ŀ": 1966,
      "åĨ³å®ļ": 1967,
      "éĢı": 1968,
      "ï¼İ": 1969,
      "æĿ¥çľĭ": 1970,
      "æŀ¶": 1971,
      "è¯Ĭ": 1972,
      "èīºæľ¯": 1973,
      "ï¼ŁĊ": 1974,
      "å½©": 1975,
      "å°Ħ": 1976,
      "èµĦæľ¬": 1977,
      "ä»ĭç»į": 1978,
      "é¥°": 1979,
      "å»ºç«ĭ": 1980,
      "ä¹ĭä¸Ģ": 1981,
      "èĨ": 1982,
      "è¸": 1983,
      "æİ¨åĬ¨": 1984,
      "ç©¿": 1985,
      "ä½Ľ": 1986,
      "åħ¨éĿ¢": 1987,
      "è®¢": 1988,
      "ï¼Įåħ¶ä¸Ń": 1989,
      "è¡¨çİ°": 1990,
      "åı¥": 1991,
      "æĭ¥æľī": 1992,
      "æŁĵ": 1993,
      "ä¸Ģèµ·": 1994,
      "çļĦå¤§": 1995,
      "ç¤¼": 1996,
      "éĿł": 1997,
      "ç¬Ķ": 1998,
      "æ¥ļ": 1999,
      "æĸ°éĹ»": 2000,
      "è¿İ": 2001,
      "ï¼Įä»ĸä»¬": 2002,
      "æ¶Īæģ¯": 2003,
      "å¸ĮæľĽ": 2004,
      "å¼¹": 2005,
      "çĶļèĩ³": 2006,
      "ç§ĺ": 2007,
      "è´¸": 2008,
      "æĢķ": 2009,
      "åľ£": 2010,
      "Ġ(": 2011,
      "æĪĲåĬŁ": 2012,
      "ä¼ļè®®": 2013,
      "ç½ª": 2014,
      "éĴ¢": 2015,
      "èĶ": 2016,
      "ï¼Įä¸ŃåĽ½": 2017,
      "ç§¯æŀģ": 2018,
      "åłĤ": 2019,
      "ä¸Ģå®ļ": 2020,
      "åİħ": 2021,
      "åıĤä¸İ": 2022,
      "å²Ľ": 2023,
      "ay": 2024,
      "ä¿Ŀéļľ": 2025,
      "æ¶ī": 2026,
      "ç¯ĩ": 2027,
      "æĮĩæķ°": 2028,
      "è®¡ç®Ĺ": 2029,
      "çĽĽ": 2030,
      "ĠB": 2031,
      "ï¼ĮæīĢä»¥": 2032,
      "åĩºæĿ¥": 2033,
      "ä¸Ĭæ¶¨": 2034,
      "è¿ĩåİ»": 2035,
      "âĢĻ": 2036,
      "åīĳ": 2037,
      "ä½³": 2038,
      "åĽ°": 2039,
      "èĭĹ": 2040,
      "æľ«": 2041,
      "åķĨä¸ļ": 2042,
      "äº¤éĢļ": 2043,
      "åĪ©çĶ¨": 2044,
      "æĶ¶çĽĬ": 2045,
      "æĿĤ": 2046,
      "ç»ĵæŀľ": 2047,
      "æĸ¹æ¡Ī": 2048,
      "åıĳè¡Į": 2049,
      "è·Ŀ": 2050,
      "äºĪ": 2051,
      "çī¹åĪ«": 2052,
      "åºĬ": 2053,
      "ĠL": 2054,
      "æ¤į": 2055,
      "èĻļ": 2056,
      "æŃ£åľ¨": 2057,
      "ï¼ĮåĲĮæ¯Ķ": 2058,
      "ä¼łç»Ł": 2059,
      "è°¢": 2060,
      "åĲī": 2061,
      "åĲĽ": 2062,
      "æĹ¥æľ¬": 2063,
      "ot": 2064,
      "åıĺåĮĸ": 2065,
      "Ġth": 2066,
      "èģĶç½ĳ": 2067,
      "éħ¸": 2068,
      "æĪĲæľ¬": 2069,
      "ãĢĤâĢĿâĢľ": 2070,
      "é½Ĳ": 2071,
      "å¼Ł": 2072,
      "èĭ¦": 2073,
      "è¿Ļä¹Ī": 2074,
      "ç«¥": 2075,
      "çĶŁæĢģ": 2076,
      "åį±": 2077,
      "æ¸Ĳ": 2078,
      "æİ¨è¿Ľ": 2079,
      "å¿ħé¡»": 2080,
      "%ãĢĤĊ": 2081,
      "åĮºåŁŁ": 2082,
      "çŁ¿": 2083,
      "æĳĦ": 2084,
      "é¡¶": 2085,
      "æľĭ": 2086,
      "ä¾ĽåºĶ": 2087,
      "æĢĢ": 2088,
      "æĹłæ³ķ": 2089,
      "ãĢģãĢĬ": 2090,
      "æĪĲç«ĭ": 2091,
      "æĬķèµĦèĢħ": 2092,
      "ä¸»ä»»": 2093,
      "ig": 2094,
      "è§īå¾Ĺ": 2095,
      "æĹ§": 2096,
      "ad": 2097,
      "çĽĳç®¡": 2098,
      "çĮ®": 2099,
      "åĪ¶åº¦": 2100,
      "æĹ¢": 2101,
      "å¤§å®¶": 2102,
      "çĹĽ": 2103,
      "ï¼ĮåıĪ": 2104,
      "æ²ī": 2105,
      "è¡ĮæĶ¿": 2106,
      "æİĮ": 2107,
      "åĬłå¼º": 2108,
      "ç«ŀäºī": 2109,
      "å¦Ī": 2110,
      "Ġï¼Ī": 2111,
      "æľŁéĹ´": 2112,
      "ä¿ĿæĮģ": 2113,
      "çłĶåıĳ": 2114,
      "ãĢĤâĢĿĊ": 2115,
      "è¿ĺæľī": 2116,
      "ï¼ĮåĽłä¸º": 2117,
      "ä¸ĭéĻį": 2118,
      "åĲ´": 2119,
      "ç§ģ": 2120,
      "é¥®": 2121,
      "ï¼Įå¦Ĥ": 2122,
      "åĨ°": 2123,
      "å°ıè¯´": 2124,
      "æĿ¥è¯´": 2125,
      "ä½łçļĦ": 2126,
      "éŁ©": 2127,
      "ç²¾ç¥ŀ": 2128,
      "ä¿ĿéĻ©": 2129,
      "è®¿": 2130,
      "é¢Ħè®¡": 2131,
      "ä¸Ģæ¬¡": 2132,
      "æ¡¥": 2133,
      "åıĤåĬł": 2134,
      "æ³°": 2135,
      "æĹĹ": 2136,
      "çİ°ä»£": 2137,
      "åªĴä½ĵ": 2138,
      "æĵįä½ľ": 2139,
      "æ··": 2140,
      "ä¹ĭåīį": 2141,
      "æħ¢": 2142,
      "è¯º": 2143,
      "æī§è¡Į": 2144,
      "è¾Ĩ": 2145,
      "çĳŀ": 2146,
      "è°ĥæķ´": 2147,
      "åĨĮ": 2148,
      "çĨŁ": 2149,
      "èĪ¹": 2150,
      "ç¬¦": 2151,
      "ï¼Įè¯¥": 2152,
      "æ³ķå¾ĭ": 2153,
      "ç§Ł": 2154,
      "å®ĭ": 2155,
      "è¿ĻéĩĮ": 2156,
      "é±": 2157,
      "èĵĿ": 2158,
      "ent": 2159,
      "åľ°äº§": 2160,
      "æĿ¡ä»¶": 2161,
      "åİŁåĽł": 2162,
      "è¶ĭ": 2163,
      "ï¼Įè¦ģ": 2164,
      "å§Ķåĳĺä¼ļ": 2165,
      "éĺ´": 2166,
      "ï¼Įä¸Ń": 2167,
      "å®Įåħ¨": 2168,
      "åĲ¨": 2169,
      "åħĪçĶŁ": 2170,
      "èĮĥåĽ´": 2171,
      "èĦ±": 2172,
      "éĺµ": 2173,
      "éĩİ": 2174,
      "åħ¬åĳĬ": 2175,
      "èµµ": 2176,
      "un": 2177,
      "çĥĪ": 2178,
      "é±¼": 2179,
      "çļĦè¯Ŀ": 2180,
      "ä¼ĺåĬ¿": 2181,
      "äº§çĶŁ": 2182,
      "æ´ĭ": 2183,
      "è§Ĩé¢ĳ": 2184,
      "æĶ¹éĿ©": 2185,
      "ï¼Įä¸İ": 2186,
      "è¯¢": 2187,
      "èª": 2188,
      "éļĲ": 2189,
      "éķ¿æľŁ": 2190,
      "æĺİæĺ¾": 2191,
      "åºĦ": 2192,
      "çĶµå½±": 2193,
      "å§Ĳ": 2194,
      "ï¼Įåį³": 2195,
      "çĦ¶åĲİ": 2196,
      "åħ±åĲĮ": 2197,
      "çĪĨ": 2198,
      "ä¸ĢèĪ¬": 2199,
      "åĳ¼": 2200,
      "æĺ¯åľ¨": 2201,
      "å¯»": 2202,
      "å«": 2203,
      "æĮīçħ§": 2204,
      "ç²ī": 2205,
      "ç¼ĵ": 2206,
      "ä¸ļç»©": 2207,
      "å¹¸": 2208,
      "ä¸ľè¥¿": 2209,
      "ä»Ļ": 2210,
      "éģĹ": 2211,
      "æĪªèĩ³": 2212,
      "çĶŁçī©": 2213,
      "ä¹Łä¸į": 2214,
      "è¿ĲåĬ¨": 2215,
      "æľĭåıĭ": 2216,
      "å©ļ": 2217,
      "ï¼Įå¦Ĥæŀľ": 2218,
      "äº¦": 2219,
      "æļĹ": 2220,
      "çĽŁ": 2221,
      "ch": 2222,
      "èĻĳ": 2223,
      "è·ĳ": 2224,
      "çĶµè§Ĩ": 2225,
      "å®ĩ": 2226,
      "ä¸ĭçļĦ": 2227,
      "é¢Ĩå¯¼": 2228,
      "èģĶåĲĪ": 2229,
      "ç¤¾åĮº": 2230,
      "èĳ£äºĭ": 2231,
      "æĥł": 2232,
      "å¦ĤæŃ¤": 2233,
      "ï¼Įæ¯ı": 2234,
      "ä¹¦è®°": 2235,
      "å¾ĹåĪ°": 2236,
      "ä¼ĳ": 2237,
      "ä¸»ä¹ī": 2238,
      "æĹħæ¸¸": 2239,
      "ä½įäºİ": 2240,
      "å¸®åĬ©": 2241,
      "ä¼Ļ": 2242,
      "æıĲåĩº": 2243,
      "åĲĦç§į": 2244,
      "ç¨³å®ļ": 2245,
      "å®½": 2246,
      "ä»Ĭå¤©": 2247,
      "ĠW": 2248,
      "ãĢĤæŃ¤": 2249,
      "ä¹±": 2250,
      "æīĵéĢł": 2251,
      "æľĢåĲİ": 2252,
      "ï¼Įå®ĥ": 2253,
      "æ³¨æĦı": 2254,
      "æĢ§çļĦ": 2255,
      "å®ľ": 2256,
      "äººä»¬": 2257,
      "ç¦ģ": 2258,
      "çĶ²": 2259,
      "é¢ĦæľŁ": 2260,
      "è®¾æĸ½": 2261,
      "ç¢³": 2262,
      "ï¼ĮæĽ´": 2263,
      "çº·": 2264,
      "åľ³": 2265,
      "è§¦": 2266,
      "éĺ¶æ®µ": 2267,
      "æĺ¯ä¸Ģä¸ª": 2268,
      "åĢį": 2269,
      "è¿ĲèĲ¥": 2270,
      "æ¶Īè´¹èĢħ": 2271,
      "æľºä¼ļ": 2272,
      "æļ´": 2273,
      "åİ»å¹´": 2274,
      "éľĩ": 2275,
      "èĤ¡ç¥¨": 2276,
      "ĠD": 2277,
      "æ·±åľ³": 2278,
      "é²ľ": 2279,
      "çĬ¯": 2280,
      "ç»ıçĲĨ": 2281,
      "å¹ķ": 2282,
      "äºĮåįģ": 2283,
      "éĤ£ä¹Ī": 2284,
      "æķħäºĭ": 2285,
      "æı¡": 2286,
      "èĪŀ": 2287,
      "ä¼Ĭ": 2288,
      "åħ¬éĩĮ": 2289,
      "åķĨåĵģ": 2290,
      "æĬĵ": 2291,
      "ĠH": 2292,
      "ç»ĵåĲĪ": 2293,
      "èĦļ": 2294,
      "çĲĨè®º": 2295,
      "ç¡¬": 2296,
      "æ¹¾": 2297,
      "æķĻåŃ¦": 2298,
      "Ġ-": 2299,
      "è®¨": 2300,
      "æľīæķĪ": 2301,
      "ä»ĵ": 2302,
      "æħ§": 2303,
      "å¼±": 2304,
      "åŃĻ": 2305,
      "æĸ°åĨł": 2306,
      "èĮ¶": 2307,
      "ä¸ªæľĪ": 2308,
      "å»ºè®®": 2309,
      "ï¼ĮèĢĮä¸Ķ": 2310,
      "ç¼ĸè¾ĳ": 2311,
      "åĬ±": 2312,
      "ç§ĭ": 2313,
      "ç¿»": 2314,
      "éª¨": 2315,
      "æģ¶": 2316,
      "æĤ£": 2317,
      "åĬŀåħ¬": 2318,
      "æķ´ä½ĵ": 2319,
      "æ£®": 2320,
      "èŀįèµĦ": 2321,
      "éģ¿": 2322,
      "äºĴèģĶç½ĳ": 2323,
      "us": 2324,
      "ï¼ģĊ": 2325,
      "ãĢĤå½ĵ": 2326,
      "åĨ¬": 2327,
      "æĶ¿æ²»": 2328,
      "im": 2329,
      "å±ĭ": 2330,
      "èľ": 2331,
      "åĩĨå¤ĩ": 2332,
      "åħ³éĶ®": 2333,
      "æ¶²": 2334,
      "åĸľæ¬¢": 2335,
      "ï¼ĮåĲĮæĹ¶": 2336,
      "âĢĺ": 2337,
      "èĤ¡ä¸ľ": 2338,
      "ï¼Įåı¯ä»¥": 2339,
      "åıĹåĪ°": 2340,
      "åĨľä¸ļ": 2341,
      "ï¼Įéĥ½": 2342,
      "ç§¦": 2343,
      "éĺħ": 2344,
      "åħ·ä½ĵ": 2345,
      "é¡¿": 2346,
      "æĸ¹åĲĳ": 2347,
      "å¡Ķ": 2348,
      "çĶµè¯Ŀ": 2349,
      "æİªæĸ½": 2350,
      "èĬ¯": 2351,
      "åľĨ": 2352,
      "ä¼´": 2353,
      "å¯¼èĩ´": 2354,
      "æĢª": 2355,
      "æĿŁ": 2356,
      "%ï¼Ľ": 2357,
      "éĩĩçĶ¨": 2358,
      "ãĢĤï¼Ī": 2359,
      "æĩ": 2360,
      "ä¸¹": 2361,
      "éĽħ": 2362,
      "æŃ£å¼ı": 2363,
      "æķ¢": 2364,
      "åģı": 2365,
      "ï¼Įåħ¨": 2366,
      "èĴĻ": 2367,
      "éŁ³ä¹Ĳ": 2368,
      "åĬĽéĩı": 2369,
      "å±ı": 2370,
      "ä»»åĬ¡": 2371,
      "è´§å¸ģ": 2372,
      "èĢ³": 2373,
      "ï¼ĮæĹł": 2374,
      "ä»ª": 2375,
      "ï¼Įåį´": 2376,
      "é¦Ģ": 2377,
      "åĪº": 2378,
      "äº¿ç¾İåħĥ": 2379,
      "è´Ŀ": 2380,
      "åĶ±": 2381,
      "éĻ¤äºĨ": 2382,
      "ver": 2383,
      "åıªæĺ¯": 2384,
      "æĮĩå¯¼": 2385,
      "æ´Ľ": 2386,
      "åľĪ": 2387,
      "ĠR": 2388,
      "é²ģ": 2389,
      "éĽĦ": 2390,
      "é©¾": 2391,
      "çº¯": 2392,
      "çĥŁ": 2393,
      "è´¦": 2394,
      "æģ©": 2395,
      "å¿«éĢŁ": 2396,
      "å¾Ĳ": 2397,
      "å±ŀäºİ": 2398,
      "è·¨": 2399,
      "äººæ°ĳå¸ģ": 2400,
      "ãĢĭãĢģãĢĬ": 2401,
      "ä¼Ł": 2402,
      "æľ±": 2403,
      "è´«": 2404,
      "æ£Ģæµĭ": 2405,
      "ä¸ĭæĿ¥": 2406,
      "ä¼¦": 2407,
      "å·¦åı³": 2408,
      "æĽ´åĬł": 2409,
      "æİī": 2410,
      "ç¬¬åĽĽ": 2411,
      "å°¤": 2412,
      "æľīäºĽ": 2413,
      "æĬĺ": 2414,
      "nd": 2415,
      "ĠG": 2416,
      "åįĬå¹´": 2417,
      "åīĤ": 2418,
      "èİ«": 2419,
      "èĤ¯": 2420,
      "åĪ©çİĩ": 2421,
      "çĦ¦": 2422,
      "è°ĥæŁ¥": 2423,
      "è¿ª": 2424,
      "æİ¥åıĹ": 2425,
      "ç¡®å®ļ": 2426,
      "ä¸Ńå¤®": 2427,
      "ä¸Ģç§į": 2428,
      "äººæīį": 2429,
      "ä¸įå¾Ĺ": 2430,
      "è®¸å¤ļ": 2431,
      "èĥ¡": 2432,
      "æĿ¿åĿĹ": 2433,
      "ç¼©": 2434,
      "çĽĪ": 2435,
      "è¡ĮåĬ¨": 2436,
      "ï¼Įä½¿": 2437,
      "ut": 2438,
      "ï¼īãĢĤ": 2439,
      "ï½": 2440,
      "çĶ³è¯·": 2441,
      "åŁ¹è®Ń": 2442,
      "çĹĩ": 2443,
      "æľĢé«ĺ": 2444,
      "å®¶åºŃ": 2445,
      "éĢĶ": 2446,
      "åĪĨéĴŁ": 2447,
      "çĶ¨äºİ": 2448,
      "æĺ¯åĲ¦": 2449,
      "è°·": 2450,
      "ï¼īãĢģ": 2451,
      "çĤİ": 2452,
      "æ»ĳ": 2453,
      "æĬ¥éģĵ": 2454,
      "å°ıæĹ¶": 2455,
      "æķ´ä¸ª": 2456,
      "æĪĳåĽ½": 2457,
      "åĳĬè¯ī": 2458,
      "æĮĳ": 2459,
      "æĿ¥èĩª": 2460,
      "åį«çĶŁ": 2461,
      "æī¬": 2462,
      "è¶£": 2463,
      "ï¼ĮåĨį": 2464,
      "æ´Ĺ": 2465,
      "åıªæľī": 2466,
      "æĿ°": 2467,
      "åĿļæĮģ": 2468,
      "èģĮä¸ļ": 2469,
      "å¯Ĵ": 2470,
      "æĿ¥äºĨ": 2471,
      "ï¼Įæ¯Ķ": 2472,
      "è¯¯": 2473,
      "è´´": 2474,
      "å¥¹çļĦ": 2475,
      "è´·æ¬¾": 2476,
      "æµª": 2477,
      "ï¼ĮçĶ±": 2478,
      "å¹³åĿĩ": 2479,
      "åĪĢ": 2480,
      "çľĭçĿĢ": 2481,
      "ç»ıéªĮ": 2482,
      "åĹ": 2483,
      "çº¸": 2484,
      "æ¯«": 2485,
      "è´¥": 2486,
      "ï¼Įæľ¬": 2487,
      "è°ĵ": 2488,
      "åĺī": 2489,
      "æĤī": 2490,
      "æģĴ": 2491,
      "èħ¾": 2492,
      "çĸ¾": 2493,
      ")Ċ": 2494,
      "éĤ£äºĽ": 2495,
      "å¹´åº¦": 2496,
      "æĪĲäºĨ": 2497,
      "èĩªåĬ¨": 2498,
      "ä½ĵéªĮ": 2499,
      "éĨĴ": 2500,
      "çıł": 2501,
      "åĩºçļĦ": 2502,
      "åĬª": 2503,
      "ä¸įåı¯": 2504,
      "Ġë": 2505,
      "ĠE": 2506,
      "od": 2507,
      "æľºåĪ¶": 2508,
      "æĦŁè§ī": 2509,
      "éķľ": 2510,
      "æĶ¯ä»ĺ": 2511,
      "äº¡": 2512,
      "ä¾§": 2513,
      "æĮ¯": 2514,
      "æķ°éĩı": 2515,
      "çľŁçļĦ": 2516,
      "éļĶ": 2517,
      "åĩıå°ĳ": 2518,
      "æ¢ħ": 2519,
      "å°Ĭ": 2520,
      ")ï¼Į": 2521,
      "ä¸ĵå®¶": 2522,
      "è¯ļ": 2523,
      "å¹³æĸ¹": 2524,
      "çĸ«èĭĹ": 2525,
      "å¹´æĿ¥": 2526,
      "æĢĿæĥ³": 2527,
      "è£ģ": 2528,
      "åĬ¨åĬĽ": 2529,
      "äººåı£": 2530,
      "éħĴåºĹ": 2531,
      "åĽ¢éĺŁ": 2532,
      "éĽĨä¸Ń": 2533,
      "æģĲ": 2534,
      "é£Łåĵģ": 2535,
      "Ġì": 2536,
      "ç±»åŀĭ": 2537,
      "çļĦæĸ°": 2538,
      "ä¼¯": 2539,
      "ĠF": 2540,
      "ç»ıè¿ĩ": 2541,
      "åĭŁ": 2542,
      "è¯¸": 2543,
      "å®ŀéªĮ": 2544,
      "ï¼ĮåĬł": 2545,
      "æĻĵ": 2546,
      "å¹¶ä¸į": 2547,
      "è·µ": 2548,
      "ä¸ºä¸»": 2549,
      "åı¬": 2550,
      "è½¯ä»¶": 2551,
      "åİļ": 2552,
      "çĶµæ±ł": 2553,
      "åĲİçļĦ": 2554,
      "çħ¤": 2555,
      "è¿·": 2556,
      "ç¥ĸ": 2557,
      "åįĩçº§": 2558,
      "ãģ®": 2559,
      "ht": 2560,
      "ä»¥ä¸ĭ": 2561,
      "è¶ĭåĬ¿": 2562,
      "é¬": 2563,
      "åĬŀæ³ķ": 2564,
      "åĲĪåĲĮ": 2565,
      "æ½®": 2566,
      "ãĢģâĢľ": 2567,
      "ä½łä»¬": 2568,
      "åĩĢåĪ©æ¶¦": 2569,
      "åĩ¡": 2570,
      "ç½ļ": 2571,
      "æ´¥": 2572,
      "å¹¿å·ŀ": 2573,
      "è¯´éģĵ": 2574,
      "åıĸå¾Ĺ": 2575,
      "ä¹ĺ": 2576,
      "æķĮ": 2577,
      "åĳĪ": 2578,
      "çĽĳçĿ£": 2579,
      "æ¢ģ": 2580,
      "ï¼ĽĊ": 2581,
      "åĮĸçļĦ": 2582,
      "å¼ĢæĶ¾": 2583,
      "åĽłç´ł": 2584,
      "åİĭåĬĽ": 2585,
      "å¾Ħ": 2586,
      "ï¼Įä»¥åıĬ": 2587,
      "è¡¡": 2588,
      "æĺł": 2589,
      "æģ¢": 2590,
      "åħ¨éĥ¨": 2591,
      "å®ĮåĸĦ": 2592,
      "ä¿ĥè¿Ľ": 2593,
      "åĳĺå·¥": 2594,
      "çļĦå°ı": 2595,
      "éĩįå¤§": 2596,
      "é¥Ń": 2597,
      "çģ¯": 2598,
      "é¡µ": 2599,
      "ä¸Ģä¸ĭ": 2600,
      "ä¸ĸçºª": 2601,
      "é»ĺ": 2602,
      "èµĦæĸĻ": 2603,
      "ãģĦ": 2604,
      "éĤ£ä¸ª": 2605,
      "æ½ľ": 2606,
      "åįģäºĮ": 2607,
      "ke": 2608,
      "éĹŃ": 2609,
      "çİ°åľº": 2610,
      "ï¼ĮæŃ¤": 2611,
      "çľŁæŃ£": 2612,
      "ç»¿èī²": 2613,
      "ä¼ĺç§Ģ": 2614,
      "çĶŁåĳ½": 2615,
      "os": 2616,
      "åĨľæĿĳ": 2617,
      "èĭ±åĽ½": 2618,
      "æ¦Ĥå¿µ": 2619,
      "ir": 2620,
      "ä¿Ħ": 2621,
      "æĭĵ": 2622,
      "åħ¼": 2623,
      "ĠN": 2624,
      "å¿Ļ": 2625,
      "ä¸°å¯Į": 2626,
      "çļĦé«ĺ": 2627,
      "ï¼Įæĸ°": 2628,
      "é¼ĵ": 2629,
      "ä¸įè¦ģ": 2630,
      "çļĦæĥħåĨµ": 2631,
      "æ·¡": 2632,
      "ï¼Įå°ı": 2633,
      "ãĢĤä¸Ģ": 2634,
      "çĪ·": 2635,
      "æ³½": 2636,
      "åįıä¼ļ": 2637,
      "èĢĥèĻĳ": 2638,
      "æ´ŀ": 2639,
      "å¦ĩ": 2640,
      "çĺ": 2641,
      "ç¨ĭåºı": 2642,
      "Ġon": 2643,
      "è¯¦": 2644,
      "èģĶç³»": 2645,
      "èĽĭ": 2646,
      "ç½²": 2647,
      "å½¢å¼ı": 2648,
      "çĮª": 2649,
      "æĬ±": 2650,
      "æĭľ": 2651,
      "è·³": 2652,
      "çļĦåıĳå±ķ": 2653,
      "ï¼ĮçĦ¶åĲİ": 2654,
      "ä¸įåĪ°": 2655,
      "ĠâĢľ": 2656,
      "çĤ¼": 2657,
      "é©¶": 2658,
      "èµ¶": 2659,
      "âĢ¦âĢ¦âĢĿ": 2660,
      "ä¹Į": 2661,
      "æ°ı": 2662,
      "æģ¢å¤į": 2663,
      "åĩºçīĪç¤¾": 2664,
      "é¦Ļæ¸¯": 2665,
      "ï¼Įä¸Ĭ": 2666,
      "éĩĮçļĦ": 2667,
      "çĬ¶æĢģ": 2668,
      "æļĸ": 2669,
      "æľīçļĦ": 2670,
      "çªģçł´": 2671,
      "çīĻ": 2672,
      "æĿ¥è¶Ĭ": 2673,
      "å¹´è½»": 2674,
      "åįıè®®": 2675,
      "æĮĤ": 2676,
      "ãĢĤä»İ": 2677,
      "åĬªåĬĽ": 2678,
      "æļĤ": 2679,
      "æĪĲéķ¿": 2680,
      "æł·çļĦ": 2681,
      "æĸĩåŃ¦": 2682,
      "éĢĴ": 2683,
      "æµĻ": 2684,
      "éĥĳ": 2685,
      "ï¼ĮçĽ®åīį": 2686,
      "åĪĽä¸ļ": 2687,
      "åĿĢ": 2688,
      "è´Ńä¹°": 2689,
      "è¶ĬæĿ¥è¶Ĭ": 2690,
      "è¿¹": 2691,
      "éĴĪå¯¹": 2692,
      "åĿı": 2693,
      "çī¹èī²": 2694,
      "åĶ¯": 2695,
      "æīįèĥ½": 2696,
      "ç»Łè®¡": 2697,
      "äº©": 2698,
      "æ²»çĸĹ": 2699,
      "æĸĩä»¶": 2700,
      "æĲŃ": 2701,
      "ï¼ĮéĢļè¿ĩ": 2702,
      "ä¸ģ": 2703,
      "ç¨ĭåº¦": 2704,
      "çĩĥ": 2705,
      "âĢĿãĢĤĊ": 2706,
      "æ²Ī": 2707,
      "ç´«": 2708,
      "åºĶå½ĵ": 2709,
      "æĳ©": 2710,
      "ä¸įä»ħ": 2711,
      "çŃ¹": 2712,
      "åįģåĽĽ": 2713,
      "åĪ¶ä½ľ": 2714,
      "æ¼«": 2715,
      "ï¼ĮæĬĬ": 2716,
      "è¿Ĳè¡Į": 2717,
      "ur": 2718,
      "è¿ħ": 2719,
      "éĢŁåº¦": 2720,
      "åĩºåı£": 2721,
      "åįģåĪĨ": 2722,
      "åıĳå±ķçļĦ": 2723,
      "æĻ®éĢļ": 2724,
      "æľĹ": 2725,
      "éģį": 2726,
      "æķĪæŀľ": 2727,
      "åħ¶å®ŀ": 2728,
      "èĻİ": 2729,
      "èİ±": 2730,
      "èĲ¨": 2731,
      "èĦī": 2732,
      "å¥¶": 2733,
      "è§ĦèĮĥ": 2734,
      "ter": 2735,
      "å®ı": 2736,
      "æĬ«": 2737,
      "èļ": 2738,
      "ä¼ı": 2739,
      "éĺ»": 2740,
      "éº»": 2741,
      "ç´¯è®¡": 2742,
      "é¬¼": 2743,
      "ç®±": 2744,
      "åħħåĪĨ": 2745,
      "åħ¬å¸ĥ": 2746,
      "æ¯Ķä¾ĭ": 2747,
      "å±±ä¸ľ": 2748,
      "Ġe": 2749,
      "è¿ŀç»Ń": 2750,
      "åı¦ä¸Ģ": 2751,
      "ï¼Įè¢«": 2752,
      "ap": 2753,
      "ä¸¥éĩį": 2754,
      "çĦ¶èĢĮ": 2755,
      "ä½įç½®": 2756,
      "èĲ¥ä¸ļ": 2757,
      "æ®ĭ": 2758,
      "ç¹": 2759,
      "éģŃ": 2760,
      "æķĻå¸Ī": 2761,
      "å¨ĺ": 2762,
      "ï¼ĮæĢ»": 2763,
      "æĺİç¡®": 2764,
      "PP": 2765,
      "åħ¬åı¸çļĦ": 2766,
      "åĽ¾ä¹¦": 2767,
      "å·§": 2768,
      "ãĢĤãĢĬ": 2769,
      "è¯´æĺİ": 2770,
      "ï¼ĮåĲĮæ¯Ķå¢ŀéķ¿": 2771,
      "ç®Ģåįķ": 2772,
      "all": 2773,
      "ç»ĦæĪĲ": 2774,
      "æĦıä¹ī": 2775,
      "æ¢°": 2776,
      "æ»¡è¶³": 2777,
      "æĮĩåĩº": 2778,
      "èº«ä½ĵ": 2779,
      "åįģä¸Ģ": 2780,
      "éļĨ": 2781,
      "æ£ĢæŁ¥": 2782,
      "åľŁåľ°": 2783,
      "ag": 2784,
      "ç¼ĺ": 2785,
      "å®£ä¼ł": 2786,
      "ct": 2787,
      "åģļå¥½": 2788,
      "æĻ¶": 2789,
      "çªģçĦ¶": 2790,
      "æĻºæħ§": 2791,
      "æĪ¿åľ°äº§": 2792,
      "æľīäºº": 2793,
      "çģŃ": 2794,
      "çĴ": 2795,
      "æĶ¹åıĺ": 2796,
      "å¹¿ä¸ľ": 2797,
      "åħ¬å¼Ģ": 2798,
      "çģ¾": 2799,
      "ä¸ºä»Ģä¹Ī": 2800,
      "åħ¬åħ±": 2801,
      "æ¸ł": 2802,
      "æĦıè§ģ": 2803,
      "å½»": 2804,
      "äººçī©": 2805,
      "éĢłæĪĲ": 2806,
      "å¹¼": 2807,
      "æī¶": 2808,
      "æĳĩ": 2809,
      "è·Ŀç¦»": 2810,
      "å®¹æĺĵ": 2811,
      "å§ĵ": 2812,
      "çĭĤ": 2813,
      "åĭĩ": 2814,
      "çĽ¸å¯¹": 2815,
      "ang": 2816,
      "å±ħæ°ĳ": 2817,
      "ãĢĤå¦Ĥæŀľ": 2818,
      "ç»ķ": 2819,
      "åıĬæĹ¶": 2820,
      "ä»ģ": 2821,
      "åĪĽéĢł": 2822,
      "ãĢĤå¥¹": 2823,
      "æľĢå¤§": 2824,
      "ï¼ĮåĲİ": 2825,
      "çĽ®çļĦ": 2826,
      "äºĭä»¶": 2827,
      "ç¾¤ä¼Ĺ": 2828,
      "ï¼ŁâĢĿâĢľ": 2829,
      "åı¦å¤ĸ": 2830,
      "ĠãĢĬ": 2831,
      "èĬ¯çīĩ": 2832,
      "åĮ»èį¯": 2833,
      "æ®Ĭ": 2834,
      "èªī": 2835,
      "å£°éŁ³": 2836,
      "æ³Ľ": 2837,
      "äºı": 2838,
      "ä¸ĢçĤ¹": 2839,
      "ation": 2840,
      "ï¼ĮçĶ¨": 2841,
      "ï¼Įå°±æĺ¯": 2842,
      "ç®Ģä»ĭ": 2843,
      "è¿Ķ": 2844,
      "æĴĳ": 2845,
      "ä¿Ŀè¯ģ": 2846,
      "ä¸įå°ĳ": 2847,
      "æĹ¶æľŁ": 2848,
      "äºĭä¸ļ": 2849,
      "å¼ĥ": 2850,
      "èĲ½å®ŀ": 2851,
      "ç¹ģ": 2852,
      "äººç±»": 2853,
      "åŃĶ": 2854,
      "æĸ°èĥ½æºĲ": 2855,
      "è´¢æĶ¿": 2856,
      "è¿ĩç¨ĭä¸Ń": 2857,
      "æķı": 2858,
      "æ³¨åĨĮ": 2859,
      "åħĦ": 2860,
      "èĲ¥éĶĢ": 2861,
      "åıĳæĮ¥": 2862,
      "æ³ī": 2863,
      "åĺ´": 2864,
      "ç§»åĬ¨": 2865,
      "æ¬²": 2866,
      "çĥ§": 2867,
      "æ¾³": 2868,
      "é¢ľ": 2869,
      "æ²¿": 2870,
      "ç¦»å¼Ģ": 2871,
      "çĶĺ": 2872,
      "æĸĩç«ł": 2873,
      "åįģä¸ī": 2874,
      "åĪĽä½ľ": 2875,
      "æ¡£": 2876,
      "éī": 2877,
      "æĪ´": 2878,
      "æķĻæİĪ": 2879,
      "æ´ģ": 2880,
      "%çļĦ": 2881,
      "ç±į": 2882,
      "å®ŀè·µ": 2883,
      "çĵ¦": 2884,
      "æĬµ": 2885,
      "æ¨ª": 2886,
      "å¢¨": 2887,
      "ï¼ĮåĮħæĭ¬": 2888,
      "æĲľ": 2889,
      "ï½ŀ": 2890,
      "å¸ĥå±Ģ": 2891,
      "æĪĲäº¤": 2892,
      "é¸¡": 2893,
      "Ġme": 2894,
      "åĦ¿ç«¥": 2895,
      "æ±¡": 2896,
      "åģ¿": 2897,
      "éŃĤ": 2898,
      "çļĦéĹ®é¢ĺ": 2899,
      "å¡ŀ": 2900,
      "ï¼ĮåĽłæŃ¤": 2901,
      "å²Ĺ": 2902,
      "ï¼Įä¸»è¦ģ": 2903,
      "éī´": 2904,
      "åŁºåľ°": 2905,
      "æĦıè¯Ĩ": 2906,
      "åĬĽçļĦ": 2907,
      "è¯ĳ": 2908,
      "æ¯ķä¸ļ": 2909,
      "æĬķåħ¥": 2910,
      "èĤ¥": 2911,
      "åİŁåĪĻ": 2912,
      "è´¸æĺĵ": 2913,
      "æł¹æľ¬": 2914,
      "éĺ²æİ§": 2915,
      "æĽ¿": 2916,
      "å¿ĺ": 2917,
      "å§Ĩ": 2918,
      "éĻįä½İ": 2919,
      "å¤Ħäºİ": 2920,
      "çĿ¡": 2921,
      "æĥ³è¦ģ": 2922,
      "å°¾": 2923,
      "éĿ¢å¯¹": 2924,
      "åĩ¤": 2925,
      "é»Ħéĩĳ": 2926,
      "è¿Ļæł·çļĦ": 2927,
      "åıĤèĢĥ": 2928,
      "æ¬§æ´²": 2929,
      "éĢĥ": 2930,
      "åĢ¼å¾Ĺ": 2931,
      "ä¼¼ä¹İ": 2932,
      "é©±": 2933,
      "çĽ¸ä¿¡": 2934,
      "âĳ": 2935,
      "åĪĳ": 2936,
      "åĩłä¹İ": 2937,
      "äº¤æµģ": 2938,
      "å¿ĥçĲĨ": 2939,
      "æľīæīĢ": 2940,
      "ï¼Įèĩª": 2941,
      "ãĢĤæľ¬": 2942,
      "IP": 2943,
      "éĿ¢çļĦ": 2944,
      "ce": 2945,
      "è´¡": 2946,
      "ä½ĵèĤ²": 2947,
      "å®ļçļĦ": 2948,
      "åĸĿ": 2949,
      "æŃ£å¸¸": 2950,
      "è¿Ļæĺ¯": 2951,
      "åĭĴ": 2952,
      "if": 2953,
      "ãĢĤæĪĳä»¬": 2954,
      "å¸¦æĿ¥": 2955,
      "è´¢ç»ı": 2956,
      "å¹»": 2957,
      "å²¸": 2958,
      "æĹģ": 2959,
      "åıĬåħ¶": 2960,
      "Ġst": 2961,
      "ç»ª": 2962,
      "åĳ¨æľŁ": 2963,
      "éŀ": 2964,
      "å¤§å¹ħ": 2965,
      "éĶģ": 2966,
      "åħĪè¿Ľ": 2967,
      "è¾ī": 2968,
      "æĬ¢": 2969,
      "å¿½": 2970,
      "è´¯": 2971,
      "å°¤åħ¶": 2972,
      "æ²Ł": 2973,
      "æı´": 2974,
      "å¦¹": 2975,
      "æ°ĳæĹı": 2976,
      "ä¸Ĭåįĩ": 2977,
      "éĺħè¯»": 2978,
      "éĹª": 2979,
      "éĢļçŁ¥": 2980,
      "æİ§èĤ¡": 2981,
      "åĢºåĪ¸": 2982,
      "æĺĮ": 2983,
      "éĤ¦": 2984,
      "è¯Ńè¨Ģ": 2985,
      "Ġ\"": 2986,
      "å¤§éĩı": 2987,
      "å®ħ": 2988,
      "çªĹ": 2989,
      "åĩŃ": 2990,
      "å¤§ä¼ļ": 2991,
      "ï¼ĮæĪĸ": 2992,
      "çŃĸçķ¥": 2993,
      "å¯¸": 2994,
      "ä¸Ńåįİ": 2995,
      "åħ½": 2996,
      "----": 2997,
      "å¿Ĩ": 2998,
      "ãĢĤæį®": 2999,
      "è´¹çĶ¨": 3000,
      "çī¹çĤ¹": 3001,
      "è¾ħ": 3002,
      "å·ŀå¸Ĥ": 3003,
      "ä¾µ": 3004,
      "æľĪä»½": 3005,
      "å·¥åħ·": 3006,
      "æµĻæ±Ł": 3007,
      "èĩªçĶ±": 3008,
      "åĨįæ¬¡": 3009,
      "äºĭæĥħ": 3010,
      "èį¡": 3011,
      "æĪĲæŀľ": 3012,
      "å®£å¸ĥ": 3013,
      "ï¼ĮçĶļèĩ³": 3014,
      "ä¸ĭè·Į": 3015,
      "ä¸įçŁ¥éģĵ": 3016,
      "å¿į": 3017,
      "è¿ģ": 3018,
      "ç¬¦åĲĪ": 3019,
      "è¿Ĳè¾ĵ": 3020,
      "å¹¿åĳĬ": 3021,
      "æŀª": 3022,
      "æ´ª": 3023,
      "ï¼Įå¤ļ": 3024,
      "ãĢģé«ĺ": 3025,
      "Ġç¬¬ä¸Ģ": 3026,
      "ï¼Įä¸¤": 3027,
      "æıı": 3028,
      "ä¼ĺåĮĸ": 3029,
      "çĭ¬ç«ĭ": 3030,
      "æ¦ľ": 3031,
      "æĹ¦": 3032,
      "æľºåħ³": 3033,
      "ï¼Įé«ĺ": 3034,
      "çĽ¸æ¯Ķ": 3035,
      "Ġä¸Ģ": 3036,
      "ç»ıåİĨ": 3037,
      "ç³ĸ": 3038,
      "%ãĢģ": 3039,
      "åĬłåħ¥": 3040,
      "........": 3041,
      "é¾Ħ": 3042,
      "çİĦ": 3043,
      "éº¦": 3044,
      "em": 3045,
      "èĤº": 3046,
      "ãĢĭæĺ¯": 3047,
      "åŃĲçļĦ": 3048,
      "åľºæĻ¯": 3049,
      "ï¼Įä¹Łæĺ¯": 3050,
      "æĿ¯": 3051,
      "æĥ³åĪ°": 3052,
      "æ¸łéģĵ": 3053,
      "æ±¤": 3054,
      "è½¬åŀĭ": 3055,
      "éħįç½®": 3056,
      "èĢħçļĦ": 3057,
      "éĻ·": 3058,
      "ä»¥åĲİ": 3059,
      "âĢĿãĢģâĢľ": 3060,
      "ç½ĳç«Ļ": 3061,
      "äººå£«": 3062,
      "å¥ĭ": 3063,
      "æµģåĬ¨": 3064,
      "Ġit": 3065,
      "è§Ī": 3066,
      "äºİæĺ¯": 3067,
      "Ġbe": 3068,
      "ä¸īä¸ª": 3069,
      "éĩĩåıĸ": 3070,
      "éĹ²": 3071,
      "èī¾": 3072,
      "æĽ¼": 3073,
      "åĩłä¸ª": 3074,
      "ï¼Įä¾¿": 3075,
      "æĪĳä»¬çļĦ": 3076,
      "çĲĨè§£": 3077,
      "ç²®": 3078,
      "è±ª": 3079,
      "æī©å¤§": 3080,
      "æİ¨åĩº": 3081,
      "å¢Ļ": 3082,
      "åŁºäºİ": 3083,
      "èµŀ": 3084,
      "é©¾é©¶": 3085,
      "å¦»": 3086,
      "çĿĽ": 3087,
      "ï¼Įæ²¡æľī": 3088,
      "æĬ½": 3089,
      "è°ĭ": 3090,
      "Ġis": 3091,
      "ä»ĬæĹ¥": 3092,
      "å®¶çļĦ": 3093,
      "çº¿ä¸Ĭ": 3094,
      "èĤ¡æĿĥ": 3095,
      "å¹³æĸ¹ç±³": 3096,
      "éĿĴå¹´": 3097,
      "æĿľ": 3098,
      "è±Ĩ": 3099,
      "çĲĨå¿µ": 3100,
      "æķ¬": 3101,
      "±ä¹Ĳ": 3102,
      "å¸ĤåľºçļĦ": 3103,
      "ç»ĵæĿŁ": 3104,
      "åºŁ": 3105,
      "ï¼ĮåĪ°": 3106,
      "æĽ°": 3107,
      "one": 3108,
      "åĨħçļĦ": 3109,
      "èįĲ": 3110,
      "åĴ¨": 3111,
      "ï¼Įçľĭ": 3112,
      "è§£éĩĬ": 3113,
      "æľĢç»Ī": 3114,
      "'s": 3115,
      "çĹħæ¯Ĵ": 3116,
      "âĢĿâĢľ": 3117,
      "ĠĠĠ": 3118,
      "ï¼ĮéĤ£ä¹Ī": 3119,
      "å½ĵæĹ¶": 3120,
      "é©»": 3121,
      "èĢĹ": 3122,
      "ï¼Įçİ°åľ¨": 3123,
      "åıĳè¡¨": 3124,
      "å¾ª": 3125,
      "éĩĳé¢Ŀ": 3126,
      "ä¸ľæĸ¹": 3127,
      "ãĢĤåĲĮæĹ¶": 3128,
      "è´¢åĬ¡": 3129,
      "åŁ¹åħ»": 3130,
      "å°±ä¼ļ": 3131,
      "é«ĺçļĦ": 3132,
      "çļĦéĩįè¦ģ": 3133,
      "åįłæ¯Ķ": 3134,
      "op": 3135,
      "æ±Łèĭı": 3136,
      "åĪĬ": 3137,
      "Ġre": 3138,
      "èĥĮæĻ¯": 3139,
      "ill": 3140,
      "èĪĴ": 3141,
      "ï¼Įè¿ĻäºĽ": 3142,
      "äºĨä¸Ģä¸ª": 3143,
      "æĻ¨": 3144,
      "æľĢæĸ°": 3145,
      "è®¾ç½®": 3146,
      "æĢĴ": 3147,
      "åĴ¨è¯¢": 3148,
      "ul": 3149,
      "ï¼ĮãĢĬ": 3150,
      "æ¯ĶèµĽ": 3151,
      "åīįçļĦ": 3152,
      "ãģŁ": 3153,
      "æ¹¿": 3154,
      "éĩįæĸ°": 3155,
      "èĢģå¸Ī": 3156,
      "åĲĪçĲĨ": 3157,
      "èĩªèº«": 3158,
      "åĨħéĥ¨": 3159,
      "ï¼ĮèĢĮæĺ¯": 3160,
      "å®¾": 3161,
      "éĤ®": 3162,
      "ab": 3163,
      "ï¼Įè¿Ļæĺ¯": 3164,
      "æ·±åħ¥": 3165,
      "èĥĢ": 3166,
      "çĶµåĬ¨": 3167,
      "åįģäºĶ": 3168,
      "ï¼Įè¿Ļä¸ª": 3169,
      "Ġå¹´": 3170,
      "æĬ«éľ²": 3171,
      "th": 3172,
      "å¢ŀéĢŁ": 3173,
      "è·ĥ": 3174,
      "æĶ¯æĴĳ": 3175,
      "ï¼Įå¹¶ä¸Ķ": 3176,
      "èµ¢": 3177,
      "èı²": 3178,
      "ï¼ĮåĪĻ": 3179,
      "çī¹æ®Ĭ": 3180,
      "è¯Ħä»·": 3181,
      "å¡ĳ": 3182,
      "èµĭ": 3183,
      "èĻ«": 3184,
      "å®īæİĴ": 3185,
      "ä¹ĥ": 3186,
      "åĢ¾": 3187,
      "æīĢåľ¨": 3188,
      "åı¯æĺ¯": 3189,
      "ä¸»é¢ĺ": 3190,
      "ä¼¸": 3191,
      "çĪ¸": 3192,
      "æĻĭ": 3193,
      "åĿ¦": 3194,
      "æĢ§èĥ½": 3195,
      "ä»İäºĭ": 3196,
      "ä¸Ĭå¸Ĥåħ¬åı¸": 3197,
      "åķĨåĬ¡": 3198,
      "ä»ĸä»¬çļĦ": 3199,
      "åĩ¯": 3200,
      "è¹": 3201,
      "ĠO": 3202,
      "åĩĿ": 3203,
      "å°±ä¸ļ": 3204,
      "å¯¿": 3205,
      "å¤ļçļĦ": 3206,
      "æ¶īåıĬ": 3207,
      "å°½ç®¡": 3208,
      "å¥³äºº": 3209,
      "æ³ķéĻ¢": 3210,
      "å¤ļä¸ª": 3211,
      "ãģª": 3212,
      "ãĢĤè¯¥": 3213,
      "è¯ģæĺİ": 3214,
      "æŁ³": 3215,
      "åįĹäº¬": 3216,
      "äºķ": 3217,
      "çĶµåķĨ": 3218,
      "æį·": 3219,
      "è®¤è¯Ĩ": 3220,
      "åĩĮ": 3221,
      "éĩįåºĨ": 3222,
      "éĢĲæ¸Ĳ": 3223,
      "ä»¿": 3224,
      "ĠJ": 3225,
      "ä¸¥æł¼": 3226,
      "èĩ£": 3227,
      "å½ĵåľ°": 3228,
      "ä¸Ģå¹´": 3229,
      "ä¿Ĺ": 3230,
      "ĠY": 3231,
      "ä¼į": 3232,
      "çĽ´æĴŃ": 3233,
      "çļĦäºĭæĥħ": 3234,
      "æĮĩæłĩ": 3235,
      "ãĢĤä½Ĩæĺ¯": 3236,
      "çĪ¶äº²": 3237,
      "æľºæ¢°": 3238,
      "éĶĭ": 3239,
      "ï¼Įç¾İåĽ½": 3240,
      "åĲĮæľŁ": 3241,
      "è¿ĳæĹ¥": 3242,
      "åĽĽå·Ŀ": 3243,
      "ç¬¬äºĶ": 3244,
      "èĢĮè¨Ģ": 3245,
      "å®ŀåĬĽ": 3246,
      "åİ»äºĨ": 3247,
      "ä½ıæĪ¿": 3248,
      "ä¿¡çĶ¨": 3249,
      "éģĵè·¯": 3250,
      "ä¸ŃåŃ¦": 3251,
      "ä¸Ģä½ĵ": 3252,
      "èĤ¡ä»·": 3253,
      "çľ¼çĿĽ": 3254,
      "ãĢĭï¼Ī": 3255,
      "éĻĲåĪ¶": 3256,
      "ï¼Įä¸įè¿ĩ": 3257,
      "åĵ²": 3258,
      "å°ıåŃ¦": 3259,
      "éĵľ": 3260,
      "åĬ²": 3261,
      "çĻ»è®°": 3262,
      "ä¹Łæľī": 3263,
      "ãģ¦": 3264,
      "å¤ļå°ĳ": 3265,
      "æīİ": 3266,
      "éĽ¶åĶ®": 3267,
      "å¾®ä¿¡": 3268,
      "æĪĲåĳĺ": 3269,
      "æĭħä»»": 3270,
      "èĿ": 3271,
      "ä¹ĭä¸Ń": 3272,
      "ç»Łä¸Ģ": 3273,
      "æµĭè¯ķ": 3274,
      "èķ": 3275,
      "åĬ³åĬ¨": 3276,
      "ï¼ĮåĲĦ": 3277,
      "ç¡®ä¿Ŀ": 3278,
      "æī¿æĭħ": 3279,
      "åĬŀåħ¬å®¤": 3280,
      "æĿŃ": 3281,
      "èµı": 3282,
      "åıįåºĶ": 3283,
      "ç»Īäºİ": 3284,
      "çļĦå½±åĵį": 3285,
      "ä¸»åĬ¨": 3286,
      "èº«ä¸Ĭ": 3287,
      "æ²»çĲĨ": 3288,
      "è¿ĳæľŁ": 3289,
      "åĩºçĶŁ": 3290,
      "æľĢå¤§çļĦ": 3291,
      "é¦ĸæ¬¡": 3292,
      "Ġç¬¬ä¸ī": 3293,
      "åĲ¯åĬ¨": 3294,
      "åįİä¸º": 3295,
      "ĠĠĠĠĠĠĠĠĠĠĠĠĠĠĠĠ": 3296,
      "æķ°æį®æĺ¾ç¤º": 3297,
      "åĪ·": 3298,
      "æ®¿": 3299,
      "å°º": 3300,
      "æ²³åįĹ": 3301,
      "è£Ĥ": 3302,
      "å¾Ĵ": 3303,
      "æµ®": 3304,
      "åĲĮæł·": 3305,
      "ç¨¿": 3306,
      "æĳĨ": 3307,
      "çĽ¸å½ĵ": 3308,
      "ï¼Įä¸ĭ": 3309,
      "æī£": 3310,
      "çĽĲ": 3311,
      "èº«ä»½": 3312,
      "ä¸¾è¡Į": 3313,
      "æ§": 3314,
      "éĶ¦": 3315,
      "ï¼Įå®ŀçİ°": 3316,
      "èĤ¯å®ļ": 3317,
      "]Ċ": 3318,
      "éĿ¢ä¸´": 3319,
      "èĲ¥æĶ¶": 3320,
      "éĵº": 3321,
      "å¤º": 3322,
      "ï¼Įä¸Ķ": 3323,
      "åıĮæĸ¹": 3324,
      "æĺ¥èĬĤ": 3325,
      "æµ¦": 3326,
      "è®°å½ķ": 3327,
      "æİ¢ç´¢": 3328,
      "ä»įçĦ¶": 3329,
      "ä¼ĺè´¨": 3330,
      "èĭ¹": 3331,
      "æŁĶ": 3332,
      "è¡Įæĥħ": 3333,
      "åĲ¸å¼ķ": 3334,
      "åĪ¶å®ļ": 3335,
      "ç¾½": 3336,
      "ç½Ĺæĸ¯": 3337,
      "å£ģ": 3338,
      "è¾ŀ": 3339,
      "å²©": 3340,
      "éªĳ": 3341,
      "åĬ¨çī©": 3342,
      "æĸ°å¢ŀ": 3343,
      "åľ°ä½į": 3344,
      "å¿ł": 3345,
      "ï¼Įä¸Ģä¸ª": 3346,
      "çī©æµģ": 3347,
      "Ġfor": 3348,
      "è¾ĸ": 3349,
      "æĭ¼": 3350,
      "ä»¥ä¸º": 3351,
      "å¯º": 3352,
      "åĿĽ": 3353,
      "ãĢĤåħ¶ä¸Ń": 3354,
      "ight": 3355,
      "çıį": 3356,
      "æī«": 3357,
      "ä¾ĿçĦ¶": 3358,
      "å§Ķä¼ļ": 3359,
      "Ġç¬¬äºĮ": 3360,
      "ä¸»å¸Ń": 3361,
      "ãĢģä¸Ń": 3362,
      "å¾½": 3363,
      "æ³¥": 3364,
      "è¿ĩæĿ¥": 3365,
      "éĥŃ": 3366,
      "èĭ¹æŀľ": 3367,
      "ç»ĺ": 3368,
      "çĩķ": 3369,
      "å¿§": 3370,
      "éĥ½æľī": 3371,
      "èĢĲ": 3372,
      "ä¼°åĢ¼": 3373,
      "åįļå£«": 3374,
      "è¿Ľè¡ĮäºĨ": 3375,
      "æķĪçİĩ": 3376,
      "éĩįè¦ģçļĦ": 3377,
      "è¿«": 3378,
      "æ»´": 3379,
      "um": 3380,
      "æī¾åĪ°": 3381,
      "èĪį": 3382,
      "è²": 3383,
      "å¾·åĽ½": 3384,
      "è®Ńç»ĥ": 3385,
      "pp": 3386,
      "æ¶¨å¹ħ": 3387,
      "ãĢĤä¸įè¿ĩ": 3388,
      "æĦıåĳ³": 3389,
      "ä¹ĭå¤ĸ": 3390,
      "ãĢĭãĢĬ": 3391,
      "éĿ©åĳ½": 3392,
      "ï¼ĮæŃ£": 3393,
      "å·¥èīº": 3394,
      "æĬĢèĥ½": 3395,
      "å¦Ļ": 3396,
      "è´¡çĮ®": 3397,
      "åıªèĥ½": 3398,
      "å°ĳå¹´": 3399,
      "åĩ½": 3400,
      "ç¾Ĭ": 3401,
      "æģĭ": 3402,
      "ä¸ĬäºĨ": 3403,
      "ï¼Įè¯·": 3404,
      "å¸¦çĿĢ": 3405,
      "ie": 3406,
      "æĦıæĢĿ": 3407,
      "æ®ĸ": 3408,
      "è¿ħéĢŁ": 3409,
      "äºĭå®ŀ": 3410,
      "æĥ¯": 3411,
      "å®ĥä»¬": 3412,
      "æĩĤ": 3413,
      "èĤ¡ä»½æľīéĻĲåħ¬åı¸": 3414,
      "ia": 3415,
      "ä¸»ä½ĵ": 3416,
      "ï¼Įå¤©": 3417,
      "æĶ¹åĸĦ": 3418,
      "çļĨ": 3419,
      "è¯¾ç¨ĭ": 3420,
      "âĢķ": 3421,
      "éĶĢéĩı": 3422,
      "çĭĹ": 3423,
      "ind": 3424,
      "å¢ŀå¼º": 3425,
      "é«ĺéĢŁ": 3426,
      "ï¼Įè¿ĺæľī": 3427,
      "åĪ©çĽĬ": 3428,
      "ä¸įåĲĮçļĦ": 3429,
      "æľºåĻ¨": 3430,
      "æĸĩæĺİ": 3431,
      "èĢĢ": 3432,
      "ï¼ĮèĻ½çĦ¶": 3433,
      "è§ĤçĤ¹": 3434,
      "Ġ[": 3435,
      "ï¼Įè¯´": 3436,
      "é¸Ł": 3437,
      "æ¼Ķåĳĺ": 3438,
      "ä¸ĭåįĪ": 3439,
      "åĲįç§°": 3440,
      "éĢĲæŃ¥": 3441,
      "æ¸ħæ¥ļ": 3442,
      "è¦": 3443,
      "åĬłå·¥": 3444,
      "èī²çļĦ": 3445,
      "å¹²éĥ¨": 3446,
      "ï¼Įä¸ī": 3447,
      "ä¾Ŀæ³ķ": 3448,
      "ĠV": 3449,
      "éĩĩè´Ń": 3450,
      "å¯¹è±¡": 3451,
      "å®¿": 3452,
      "åĽ¾çīĩ": 3453,
      "çŁŃæľŁ": 3454,
      "ç»´æĮģ": 3455,
      "åħ¬å®ī": 3456,
      "çĮ«": 3457,
      "ä¸Ĭæµ·å¸Ĥ": 3458,
      "çİ°å®ŀ": 3459,
      "çľŁå®ŀ": 3460,
      "çºµ": 3461,
      "art": 3462,
      "å°±åľ¨": 3463,
      "ç«¹": 3464,
      "å°ĺ": 3465,
      "èĸĦ": 3466,
      "è½¨": 3467,
      "ãĢĭçļĦ": 3468,
      "Ġk": 3469,
      "é¦ĸåħĪ": 3470,
      "æĮĸ": 3471,
      "æĮĳæĪĺ": 3472,
      "çİ°éĩĳ": 3473,
      "Ġåľ¨": 3474,
      "ï¼Įäºº": 3475,
      "ãĢģå¤§": 3476,
      "ere": 3477,
      "ä¹ĭéĹ´çļĦ": 3478,
      "åįģåħ«": 3479,
      "ä¸ĢåĪĩ": 3480,
      "çī¹å¾ģ": 3481,
      "éĥ½ä¸į": 3482,
      "å¿ĥéĩĮ": 3483,
      "è´¢å¯Į": 3484,
      "ith": 3485,
      "Ġr": 3486,
      "æ³ķåĽ½": 3487,
      "åıĺå¾Ĺ": 3488,
      "è¾Ľ": 3489,
      "éªĹ": 3490,
      "æĿĥçĽĬ": 3491,
      "éĢĨ": 3492,
      "çĽĪåĪ©": 3493,
      "ä¸Ģå®¶": 3494,
      "æµĵ": 3495,
      "åĭ¤": 3496,
      "åĵģè´¨": 3497,
      "åĪĨåĪ«ä¸º": 3498,
      "æµ·å¤ĸ": 3499,
      "çļĦæĹ¶éĹ´": 3500,
      "æĶ»åĩ»": 3501,
      "å±¥": 3502,
      "åįģå¹´": 3503,
      "è´Łè´£äºº": 3504,
      "ãģ«": 3505,
      "æĸ¯æĭī": 3506,
      "è§Ĥå¯Ł": 3507,
      "æİ¨å¹¿": 3508,
      "å¹¸ç¦ı": 3509,
      "ä¼łæĴŃ": 3510,
      "å°ĸ": 3511,
      "æĦŁæŁĵ": 3512,
      "çĹħä¾ĭ": 3513,
      "oc": 3514,
      "å¦Ĥä»Ĭ": 3515,
      "Ġmy": 3516,
      "çİĽ": 3517,
      ".Ċ": 3518,
      "ç»ĦåĲĪ": 3519,
      "é¢Ħæµĭ": 3520,
      "åŃ¦ä¼ļ": 3521,
      "æİ¨èįĲ": 3522,
      "èŀįåĲĪ": 3523,
      "éĶĤ": 3524,
      "ï¼ĮæĪĲä¸º": 3525,
      "å¾¡": 3526,
      "èıĮ": 3527,
      "èĥ¶": 3528,
      "ç»´æĬ¤": 3529,
      "æıĴ": 3530,
      "çĶŁçļĦ": 3531,
      "ï¼Įå·²": 3532,
      "åįģåħŃ": 3533,
      "çİ°è±¡": 3534,
      "è½¦è¾Ĩ": 3535,
      "å¤ļæķ°": 3536,
      "çĮĽ": 3537,
      "ç¢İ": 3538,
      "ï¼Įå¯¹äºİ": 3539,
      "å¦ĸ": 3540,
      "Ġwh": 3541,
      "çľī": 3542,
      "éĥİ": 3543,
      "æĤ²": 3544,
      "åħ¬è·¯": 3545,
      "ï¼Įè¿ĺæĺ¯": 3546,
      "æ¯įäº²": 3547,
      "æĪĲéĥ½": 3548,
      "æİĮæı¡": 3549,
      "åŁĥ": 3550,
      "ä¸įè¶³": 3551,
      "æľŁè´§": 3552,
      "æĺİçĻ½": 3553,
      "èĤ¤": 3554,
      "æ¡ĥ": 3555,
      "åı¯èĥ½ä¼ļ": 3556,
      "æ©": 3557,
      "ä¹Ķ": 3558,
      "æİĴåĲį": 3559,
      "è¡Ĺéģĵ": 3560,
      "å£®": 3561,
      "æµ©": 3562,
      "AèĤ¡": 3563,
      "èĥŀ": 3564,
      "æºª": 3565,
      "éĩĳå±ŀ": 3566,
      "çģ°": 3567,
      "æĽ¾ç»ı": 3568,
      "å¥ı": 3569,
      "ï¼ĮåĽł": 3570,
      "æĹĭ": 3571,
      "ä¼ļåĳĺ": 3572,
      "æŀĦå»º": 3573,
      "oo": 3574,
      "è¿Ł": 3575,
      "ä»½é¢Ŀ": 3576,
      "æİ¥ç§į": 3577,
      "ä¸ĩäºº": 3578,
      "å¼ķèµ·": 3579,
      "éĥ½ä¼ļ": 3580,
      "è¢ĭ": 3581,
      "é¹ı": 3582,
      "å¤įæĿĤ": 3583,
      "èĨľ": 3584,
      "æľĢè¿ĳ": 3585,
      "å¹¿æ³Ľ": 3586,
      "ç£¨": 3587,
      "æĢ»ç»ıçĲĨ": 3588,
      "æŀĦæĪĲ": 3589,
      "åĽ°éļ¾": 3590,
      "çļĦåľ°æĸ¹": 3591,
      "ä¸Ĭè¿°": 3592,
      "ä¼ģä¸ļçļĦ": 3593,
      "éħįå¥Ĺ": 3594,
      "äººæ°ĳæĶ¿åºľ": 3595,
      "åĲĦç±»": 3596,
      "æĪĺäºī": 3597,
      "ï¼į": 3598,
      "å¯¼æ¼Ķ": 3599,
      "ãĢģæĸ°": 3600,
      "æīĭæ®µ": 3601,
      "__": 3602,
      "åī©": 3603,
      "çĸ¾çĹħ": 3604,
      "æ¡Į": 3605,
      "æĽ¹": 3606,
      "å¼ºåĮĸ": 3607,
      "é¢Ĺ": 3608,
      "äº§åĵģçļĦ": 3609,
      "ä¸īå¹´": 3610,
      "åĬŀçĲĨ": 3611,
      "è¸ª": 3612,
      "é»İ": 3613,
      "ãĢĤåĽłæŃ¤": 3614,
      "ç»ıå¸¸": 3615,
      "éĥ½åľ¨": 3616,
      "æķ°åŃĹåĮĸ": 3617,
      "å¥Ķ": 3618,
      "çĸ«æĥħéĺ²æİ§": 3619,
      "åĮĸåŃ¦": 3620,
      "åħļå§Ķ": 3621,
      "åĩºåİ»": 3622,
      "ore": 3623,
      "çĬ¯ç½ª": 3624,
      "åħįè´¹": 3625,
      "åħ·å¤ĩ": 3626,
      "åĪĨäº«": 3627,
      "çķª": 3628,
      "ï¼Įåįł": 3629,
      "çķħ": 3630,
      "åĬłå¿«": 3631,
      "ä¸¾åĬŀ": 3632,
      "å¨ľ": 3633,
      "æĶ¶è´Ń": 3634,
      "ong": 3635,
      "ï¼Įå¾Ī": 3636,
      "çļĦä¸»è¦ģ": 3637,
      "éĩĮéĿ¢": 3638,
      "è§ĦåĪĻ": 3639,
      "æĤ£èĢħ": 3640,
      "ly": 3641,
      "å§ľ": 3642,
      "ãĢĤæīĢä»¥": 3643,
      "ãĢĤçĽ®åīį": 3644,
      "çº½": 3645,
      "ä¸ĩåĲ¨": 3646,
      "å¯¹æĸ¹": 3647,
      "åħ¬åĽŃ": 3648,
      "æĭĶ": 3649,
      "ãĢĭãĢĤ": 3650,
      "å±Ģéķ¿": 3651,
      "æĮģæľī": 3652,
      "æĺ¯ä¸į": 3653,
      "ç§°ä¸º": 3654,
      "æĢĿèĢĥ": 3655,
      "çĤĴ": 3656,
      "æĺ¨": 3657,
      "æĦŁåĪ°": 3658,
      "åĿ¡": 3659,
      "ï¼Įä¼ļ": 3660,
      "æĿ¥åĪ°": 3661,
      "ç§ĳçłĶ": 3662,
      "æĥħç»ª": 3663,
      "æĺ¯ä¸ª": 3664,
      "éĻĦè¿ĳ": 3665,
      "éĢļä¿¡": 3666,
      "æĦıåĳ³çĿĢ": 3667,
      "èĩ³å°ĳ": 3668,
      "æīĢè°ĵ": 3669,
      "åģ¶": 3670,
      "æĺ¯ä»Ģä¹Ī": 3671,
      "èĢķ": 3672,
      "æĿĨ": 3673,
      "å¿ħè¦ģ": 3674,
      "ri": 3675,
      "èµĸ": 3676,
      "éĤĢ": 3677,
      "å½¼": 3678,
      "åĨĴ": 3679,
      "ï¼Įä»İèĢĮ": 3680,
      "ãĢĤæŃ¤å¤ĸ": 3681,
      "ä¹Łä¼ļ": 3682,
      "å¥ī": 3683,
      "éĻµ": 3684,
      "äº§èĥ½": 3685,
      "æ·»": 3686,
      "éľį": 3687,
      "èģĺ": 3688,
      "æľīäºĨ": 3689,
      "èĳ£äºĭéķ¿": 3690,
      "å¸ĤåĢ¼": 3691,
      "âĸ": 3692,
      "çĥ¦": 3693,
      "ĠK": 3694,
      "æĸ¹éĿ¢çļĦ": 3695,
      "çĶµåĬĽ": 3696,
      "å±ķç¤º": 3697,
      "ç¤ºèĮĥ": 3698,
      "è¯Ħä¼°": 3699,
      "å½ĵçĦ¶": 3700,
      "å½¢è±¡": 3701,
      "é«ĺçº§": 3702,
      "æŃ»äº¡": 3703,
      "å°ıåĮº": 3704,
      "å¼ºè°ĥ": 3705,
      "æĭĴ": 3706,
      "qu": 3707,
      "åŃ¤": 3708,
      "æĺ¯ä¸Ģç§į": 3709,
      "éģ¿åħį": 3710,
      "ĠæĪĳ": 3711,
      "ç»Ŀå¯¹": 3712,
      "ï¼Įåħ±": 3713,
      "æĤ¦": 3714,
      "èĥ¸": 3715,
      "çĪ¶æ¯į": 3716,
      "ç®Ģç§°": 3717,
      "è®¡ç®Ĺæľº": 3718,
      "æĳ¸": 3719,
      "åľ¨çº¿": 3720,
      "åĨľæ°ĳ": 3721,
      "ä¿Ħç½Ĺæĸ¯": 3722,
      "ï¼Įèĥ½": 3723,
      "æĬ¼": 3724,
      "é£İæł¼": 3725,
      "çĬ¶åĨµ": 3726,
      "çĬ¹": 3727,
      "ï¼Įç»Ļ": 3728,
      "æ¶µ": 3729,
      "è§Ĵèī²": 3730,
      "Ġv": 3731,
      "ain": 3732,
      "æĪĺæĸĹ": 3733,
      "éĶħ": 3734,
      "'t": 3735,
      "çĶ¨çļĦ": 3736,
      "æľ¬ä¹¦": 3737,
      "æĲº": 3738,
      "åĬłéĢŁ": 3739,
      "ä¸Ńå°ı": 3740,
      "æ³¡": 3741,
      "å¥Ī": 3742,
      "éŃı": 3743,
      "å®ĺæĸ¹": 3744,
      "å£°æĺİ": 3745,
      "å¿ĥçļĦ": 3746,
      "çī§": 3747,
      "èģĶåĤ¨": 3748,
      "ãģĹ": 3749,
      "æ»¨": 3750,
      "èĳĹåĲį": 3751,
      "çļĦåŁºç¡Ģ": 3752,
      "çĲ´": 3753,
      "åįĵ": 3754,
      "ç¡®å®ŀ": 3755,
      "åı¬å¼Ģ": 3756,
      "èį·": 3757,
      "çĶ·äºº": 3758,
      "èĢĥè¯ķ": 3759,
      "åĪ°åºķ": 3760,
      "æ¹ĸåįĹ": 3761,
      "åı°æ¹¾": 3762,
      "åĪĨç±»": 3763,
      "æĸ½å·¥": 3764,
      "æ¬£": 3765,
      "åĵģç§į": 3766,
      "èĪ°": 3767,
      "ä½©": 3768,
      "æĪĲç»©": 3769,
      "å§ĳ": 3770,
      "åħģ": 3771,
      "æĹ¶çļĦ": 3772,
      "å¤§åŀĭ": 3773,
      "è¾°": 3774,
      "æ²ª": 3775,
      "ä¸įåĨį": 3776,
      "est": 3777,
      "ï¼Įçİ°": 3778,
      "ìĿ": 3779,
      "çļĦæĸ¹å¼ı": 3780,
      "æħİ": 3781,
      "æĦ¿æĦı": 3782,
      "åĶ¯ä¸Ģ": 3783,
      "éĻª": 3784,
      "ä¹¡æĿĳ": 3785,
      "èĩªæ²»": 3786,
      "æ³ķè§Ħ": 3787,
      "åıįæĺł": 3788,
      "è¿Ŀæ³ķ": 3789,
      "å¼Ĺ": 3790,
      "ä¼ļè®¡": 3791,
      "èµļ": 3792,
      "çŀ¬": 3793,
      "ove": 3794,
      "Ġthat": 3795,
      "èħ¿": 3796,
      "ãĤĭ": 3797,
      "æ°§": 3798,
      "ç«ŁçĦ¶": 3799,
      "çĤ¸": 3800,
      "ï¼ĮæĿİ": 3801,
      "è¿Ľåı£": 3802,
      "æĶ¹éĢł": 3803,
      "æ¢¯": 3804,
      "åĽŀåĪ°": 3805,
      "åĪ«äºº": 3806,
      "çļĦä¸Ģä¸ª": 3807,
      "è¯ķéªĮ": 3808,
      "è§Ĵåº¦": 3809,
      "åħĪåĲİ": 3810,
      "ï¼ĮçĶ±äºİ": 3811,
      "ç¡ķ": 3812,
      "éĻ¶": 3813,
      "çĻ¾åĪĨ": 3814,
      "è²Į": 3815,
      "å¿ĥä¸Ń": 3816,
      "è¿Ī": 3817,
      "çĸĨ": 3818,
      "åħ¬ä¼Ĺ": 3819,
      "å¤®è¡Į": 3820,
      "æµģç¨ĭ": 3821,
      "æīĵå¼Ģ": 3822,
      "ï¼ĮåİŁ": 3823,
      "æ¡Īä¾ĭ": 3824,
      "çī¹æĸ¯æĭī": 3825,
      "æľĢä½³": 3826,
      "åģ·": 3827,
      "åįģä¹Ŀ": 3828,
      "åįıè°ĥ": 3829,
      "åį°åº¦": 3830,
      "äººåľ¨": 3831,
      "è®¾ç«ĭ": 3832,
      "å°Ŀ": 3833,
      "å¼Ħ": 3834,
      "ãģ¨": 3835,
      "æī¹åĩĨ": 3836,
      "Ġhe": 3837,
      "åĩºä¸Ģ": 3838,
      "ant": 3839,
      "èĩªä¸»": 3840,
      "æłı": 3841,
      "ä¹³": 3842,
      "çī©ä¸ļ": 3843,
      "åįģä¸ĥ": 3844,
      "ä¸´åºĬ": 3845,
      "æĴ¤": 3846,
      "ï¼Įéķ¿": 3847,
      "éļıåĲİ": 3848,
      "åĪĨä¸º": 3849,
      "åĳĪçİ°": 3850,
      "çļĦå·¥ä½ľ": 3851,
      "âĢĿĊ": 3852,
      "åŃ¦æľ¯": 3853,
      "éļ¾ä»¥": 3854,
      "è½©": 3855,
      "ãĢĤå¯¹": 3856,
      "åĪĨå¸ĥ": 3857,
      "å¤§åĪ©": 3858,
      "æ³¢åĬ¨": 3859,
      "AI": 3860,
      "å¤ļå¹´": 3861,
      "se": 3862,
      "å¹¶æ²¡æľī": 3863,
      "å¹½": 3864,
      "èģĬ": 3865,
      "èº«è¾¹": 3866,
      "ä¸ĭåİ»": 3867,
      "äººå·¥": 3868,
      "åĲ¬åĪ°": 3869,
      "çº¹": 3870,
      "ĠãĢĢ": 3871,
      "èĲ§": 3872,
      "åİī": 3873,
      "ï¼Įä»Ĭå¹´": 3874,
      "ist": 3875,
      "å°Ĩåľ¨": 3876,
      "ãĢĤåħ¶": 3877,
      "å¹´åºķ": 3878,
      "ä¾ĭå¦Ĥ": 3879,
      "åĮ»çĶŁ": 3880,
      "ï¼Įé¢Ħè®¡": 3881,
      "çīµ": 3882,
      "åħ»èĢģ": 3883,
      "è¾Ī": 3884,
      "ä¸»æĮģ": 3885,
      "ä¸ĬåįĬå¹´": 3886,
      "äº§ä¸ļéĵ¾": 3887,
      "æ¬¢è¿İ": 3888,
      "ä¸ĬåįĪ": 3889,
      "è¢Ń": 3890,
      "up": 3891,
      "äºĭé¡¹": 3892,
      "å½ĵåīį": 3893,
      "èĪªç©º": 3894,
      "ï¼Įå¥½": 3895,
      "å¤©ä¸ĭ": 3896,
      "ç¥¥": 3897,
      "ç§įæ¤į": 3898,
      "âĹ": 3899,
      "åľ°åĿĢ": 3900,
      "è®¨è®º": 3901,
      "åī¯ä¸»ä»»": 3902,
      "é¸¿": 3903,
      "ï¼Įå¸Ĥåľº": 3904,
      "æľīçĿĢ": 3905,
      "å¹´ä»£": 3906,
      "ãĢĭçŃī": 3907,
      "æ³ª": 3908,
      "ä¹Łåľ¨": 3909,
      "èµĶ": 3910,
      "é¾Ļå¤´": 3911,
      "ç«ĭåį³": 3912,
      "ä»¤äºº": 3913,
      "ï¼Įæīį": 3914,
      "åĬĽåº¦": 3915,
      "é¢ĨåħĪ": 3916,
      "ç§Ĵ": 3917,
      "äº«åıĹ": 3918,
      "å®īè£ħ": 3919,
      "åĮ»åŃ¦": 3920,
      "ç«Ļåľ¨": 3921,
      "âĨ": 3922,
      "å¥³åĦ¿": 3923,
      "ãĢĤä¸į": 3924,
      "our": 3925,
      "æĹ¥å¸¸": 3926,
      "æĬ¬": 3927,
      "æĹ¥èµ·": 3928,
      "å·¥åİĤ": 3929,
      "èĩ³ä»Ĭ": 3930,
      "è¯´çļĦ": 3931,
      "ï¼ĮåĲĳ": 3932,
      "ell": 3933,
      "ll": 3934,
      "æĢģåº¦": 3935,
      "æĹ¨": 3936,
      "ä¹ĭä¸ĭ": 3937,
      "æŁ±": 3938,
      "å§ĭç»Ī": 3939,
      "ld": 3940,
      "å¤ļç§į": 3941,
      "è´¤": 3942,
      "éħįåĲĪ": 3943,
      "çºł": 3944,
      "æ¤įçī©": 3945,
      "èĭ±è¯Ń": 3946,
      "ãĢģä¸ŃåĽ½": 3947,
      "åĩī": 3948,
      "ç¥Ŀ": 3949,
      "å·¡": 3950,
      "è£ħå¤ĩ": 3951,
      "èµ¤": 3952,
      "æ²³åĮĹ": 3953,
      "èĤĥ": 3954,
      "æ¡Īä»¶": 3955,
      "çĨĬ": 3956,
      "æĶ¾åľ¨": 3957,
      "æ¯ģ": 3958,
      "å©Ĩ": 3959,
      "æĲŀ": 3960,
      "ç¼´": 3961,
      "åľ°çļĦ": 3962,
      "åºĶå¯¹": 3963,
      "ä¸įäºĨ": 3964,
      "ä½İäºİ": 3965,
      "å¹¿åľº": 3966,
      "åı¹": 3967,
      "èµĦæł¼": 3968,
      "æįŁå¤±": 3969,
      "æĭĨ": 3970,
      "æĸ¹ä¾¿": 3971,
      "æ¸¯åħĥ": 3972,
      "é«ĺç«¯": 3973,
      "ï¼ĮæĪªèĩ³": 3974,
      "èµ«": 3975,
      "çļĦå¿ĥ": 3976,
      "çĵ¶": 3977,
      "å¼ķå¯¼": 3978,
      "éĢĤåĲĪ": 3979,
      "ï¼ĮåĴĮ": 3980,
      "hen": 3981,
      "å¤ªéĺ³": 3982,
      "ate": 3983,
      "å«Į": 3984,
      "ä¸įä½ı": 3985,
      "èįĴ": 3986,
      "æįķ": 3987,
      "çĪ±æĥħ": 3988,
      "çĲĨè´¢": 3989,
      "ï¼īçļĦ": 3990,
      "æĭ³": 3991,
      "éĢ»": 3992,
      "æĹ¥æĬ¥": 3993,
      "ç¨Ģ": 3994,
      "ç²Ĵ": 3995,
      "æĺĨ": 3996,
      "èĬĤçĽ®": 3997,
      "éģµ": 3998,
      "åĲĲ": 3999,
      ")ãĢģ": 4000,
      "æħķ": 4001,
      "æ¯ıä¸ª": 4002,
      "åĽ´ç»ķ": 4003,
      "ä¸ĭäºĨ": 4004,
      "æİ¥è§¦": 4005,
      "æĮĩæĮ¥": 4006,
      "åħħæ»¡": 4007,
      "ï¼ĮéļıçĿĢ": 4008,
      "çİ¯ä¿Ŀ": 4009,
      "èħ¹": 4010,
      "ĠSt": 4011,
      "ãĢĤæľī": 4012,
      "äº§éĩı": 4013,
      "ä¸Ģä¸ªäºº": 4014,
      "çľĭæĿ¥": 4015,
      "çĽĳæµĭ": 4016,
      "åĬ¨ä½ľ": 4017,
      "çŁ¥åĲį": 4018,
      "å¥³æĢ§": 4019,
      "åĵªäºĽ": 4020,
      "ä¸ĭä¸Ģ": 4021,
      "æģ¨": 4022,
      "æī°": 4023,
      "å¹¿å¤§": 4024,
      "åıĶ": 4025,
      "ç¬¬ä¸Ģæ¬¡": 4026,
      "æŃ¤å¤ĸ": 4027,
      "ï¼Įå·²ç»ı": 4028,
      "èĬ³": 4029,
      "èİ²": 4030,
      "è¯´è¯Ŀ": 4031,
      "ãĢĤä»ĸä»¬": 4032,
      "è®ºæĸĩ": 4033,
      "Ġä¸ī": 4034,
      "ï¼ĮåĽ½": 4035,
      "ç¾İèģĶåĤ¨": 4036,
      "èĩ³äºİ": 4037,
      "åİ¦": 4038,
      "å¦Īå¦Ī": 4039,
      "äºıæįŁ": 4040,
      "éŁ©åĽ½": 4041,
      "æµģéĩı": 4042,
      "éĵģè·¯": 4043,
      "çĤŃ": 4044,
      "ĠæľĪ": 4045,
      "æĭħå¿ĥ": 4046,
      ".S": 4047,
      "æ·±åº¦": 4048,
      "ï¼Įåīį": 4049,
      "åħĦå¼Ł": 4050,
      "ï¼ļãĢĬ": 4051,
      "åĵŃ": 4052,
      "åľ¨ä¸Ģèµ·": 4053,
      "æŃ¦æ±ī": 4054,
      "ï¼Įå°¤åħ¶": 4055,
      "åĲİæĿ¥": 4056,
      "åĦ¿åŃĲ": 4057,
      "ess": 4058,
      "ĠäºĮ": 4059,
      "ers": 4060,
      "æĹ¥æľŁ": 4061,
      "APP": 4062,
      "æĽ´æĸ°": 4063,
      "çĽ¸åºĶ": 4064,
      "åĽŀçŃĶ": 4065,
      "ç¢į": 4066,
      "ä¿Ĭ": 4067,
      "äºĳåįĹ": 4068,
      "ç½ĳåıĭ": 4069,
      "éķ¿çļĦ": 4070,
      "å´ĩ": 4071,
      "åıªè¦ģ": 4072,
      "ãģĭ": 4073,
      "åħļåĳĺ": 4074,
      "ä¹ı": 4075,
      "çĽ¾": 4076,
      "æ±Ĺ": 4077,
      "èĴĤ": 4078,
      "éĹ¹": 4079,
      "ç¬¬åħŃ": 4080,
      "ust": 4081,
      "è°±": 4082,
      "æ¯ķç«Ł": 4083,
      "ä¼ļä¸Ĭ": 4084,
      "åĪĨéħį": 4085,
      "åĨ³çŃĸ": 4086,
      "æĥľ": 4087,
      "çļĦåĲĮæĹ¶": 4088,
      "èĤ¿": 4089,
      "æĴŀ": 4090,
      "è¾½": 4091,
      "ä¸Ńæĸĩ": 4092,
      "éĿ¢åīį": 4093,
      "æŀĿ": 4094,
      "åĬłå¤§": 4095,
      "å¾Ģå¾Ģ": 4096,
      "æ²ĥ": 4097,
      "Ġç¬¬åĽĽ": 4098,
      "åĪ°çļĦ": 4099,
      "èµ·äºĨ": 4100,
      "èħ¾è®¯": 4101,
      "åħ±åĴĮ": 4102,
      "å®ł": 4103,
      "out": 4104,
      "åĪ¤æĸŃ": 4105,
      "æŃĮæĽ²": 4106,
      "ÂłĠ": 4107,
      "éĢļå¸¸": 4108,
      "è®©äºº": 4109,
      "ç¢°": 4110,
      "ä¸įå¥½": 4111,
      "æ»ļ": 4112,
      "å®ļä½į": 4113,
      "äº§æĿĥ": 4114,
      "æľīæľĽ": 4115,
      "çİ¯èĬĤ": 4116,
      "ç¨į": 4117,
      "å¤įçĽĸ": 4118,
      "çĤī": 4119,
      "éĽĨä½ĵ": 4120,
      "åĪļåĪļ": 4121,
      "è¿½æ±Ĥ": 4122,
      "è¿ĲçĶ¨": 4123,
      "åį±æľº": 4124,
      "åķ¦": 4125,
      "å±ķå¼Ģ": 4126,
      "ä¸Ģä½į": 4127,
      "æ¸¡": 4128,
      "è¡ĮçļĦ": 4129,
      "æıĲåīį": 4130,
      "å¼ĢåĲ¯": 4131,
      "çĲĨæĥ³": 4132,
      "å®ĥçļĦ": 4133,
      "éĢļèĥĢ": 4134,
      "éĩįè§Ĩ": 4135,
      "ï¼ģâĢĿâĢľ": 4136,
      "åĲ¹": 4137,
      "ure": 4138,
      "æĮº": 4139,
      "éĤ»": 4140,
      "é¼ĵåĬ±": 4141,
      "éĻķ": 4142,
      "çĶľ": 4143,
      "åŃĺåĤ¨": 4144,
      "äººæķ°": 4145,
      "éĤ£éĩĮ": 4146,
      "ep": 4147,
      "åį±éĻ©": 4148,
      "å°¸": 4149,
      "ä½ıå®ħ": 4150,
      "ĠU": 4151,
      "æķĻæĿĲ": 4152,
      "å®īå¾½": 4153,
      "è¿ŀæİ¥": 4154,
      "åĳ¨è¾¹": 4155,
      "ä½ĵçİ°": 4156,
      "ï¼Įçİĭ": 4157,
      "åĮ¹": 4158,
      "æĽ´å¤ļçļĦ": 4159,
      "éĢ¼": 4160,
      "å¹¼åĦ¿": 4161,
      "åĬ©åĬĽ": 4162,
      "ĠĊ": 4163,
      "ï¼ħ": 4164,
      "ï¼Įè¥¿": 4165,
      "äºĴåĬ¨": 4166,
      "å¸Ĥæ°ĳ": 4167,
      "ï¼Įæł¹æį®": 4168,
      "âĢľä¸Ģ": 4169,
      "ç¾İæľ¯": 4170,
      "ä¹łæĥ¯": 4171,
      "ï¼ĮçĽ´": 4172,
      "ä¹Ļ": 4173,
      "ÃĹ": 4174,
      "èĲ½åľ°": 4175,
      "èµ°äºĨ": 4176,
      "ä¾¯": 4177,
      "æĪ¿å±ĭ": 4178,
      ".c": 4179,
      "é«ĺåº¦": 4180,
      "å¨±ä¹Ĳ": 4181,
      "ï¼Įåıį": 4182,
      "è°¨": 4183,
      "å¤©æ´¥": 4184,
      "è¿ĺåľ¨": 4185,
      "è§£åĨ³æĸ¹æ¡Ī": 4186,
      "ä¸įçŁ¥": 4187,
      "mm": 4188,
      "å®Ļ": 4189,
      "è¡¨è¾¾": 4190,
      "åĵ²åŃ¦": 4191,
      "åĪ¶éĢłä¸ļ": 4192,
      "æ¯Ķå¦Ĥ": 4193,
      "ç¿¼": 4194,
      "çĸ¯": 4195,
      "åĵªéĩĮ": 4196,
      "æĸĩåŃĹ": 4197,
      "æĢ»ä½ĵ": 4198,
      "æ°¸è¿ľ": 4199,
      "èİī": 4200,
      "åĢºåĬ¡": 4201,
      "æĪĲçĨŁ": 4202,
      "æ¹ĸåĮĹ": 4203,
      "èĤ©": 4204,
      "çĵľ": 4205,
      "ãĢĭä¸Ń": 4206,
      "å¾ªçİ¯": 4207,
      "æ¯ıå¤©": 4208,
      "...": 4209,
      "æıĲä¾ĽäºĨ": 4210,
      "èĥĨ": 4211,
      "çłĶç©¶éĻ¢": 4212,
      "æľºåľº": 4213,
      "æİ¥è¿ĳ": 4214,
      "ä¸ĵé¡¹": 4215,
      "çļĦåīį": 4216,
      "é¸£": 4217,
      "çī©è´¨": 4218,
      "æİĺ": 4219,
      "ome": 4220,
      "Ġyour": 4221,
      "éģ¥": 4222,
      "ç»Ĩèĥŀ": 4223,
      "æµ·åįĹ": 4224,
      "åĪĽå»º": 4225,
      "ä¼Ļä¼´": 4226,
      "è½´": 4227,
      "çŁ³æ²¹": 4228,
      "åĲĮæ¯Ķå¢ŀéķ¿": 4229,
      "ãģ¯": 4230,
      "å±ħä½ı": 4231,
      "åĬ¡éĻ¢": 4232,
      "ï¼Įè¿Ļç§į": 4233,
      "è¿ĳå¹´æĿ¥": 4234,
      "av": 4235,
      "åıł": 4236,
      "å¼ºçļĦ": 4237,
      "æĶ¶çĽĬçİĩ": 4238,
      "åł¡": 4239,
      "èĤĮ": 4240,
      "å¯»æī¾": 4241,
      "åħ±äº«": 4242,
      "æľīä»Ģä¹Ī": 4243,
      "åĩºæĿ¥çļĦ": 4244,
      "è¡Įä¸ļçļĦ": 4245,
      "æ¨¡åŀĭ": 4246,
      "å¯Ħ": 4247,
      "ï¼Įå¼ł": 4248,
      "å·¥ä½ľçļĦ": 4249,
      "åłĨ": 4250,
      "æĭĵå±ķ": 4251,
      "æĿŃå·ŀ": 4252,
      "æŃ¤åīį": 4253,
      "ï¼ĮåĮĹäº¬": 4254,
      "çĤ®": 4255,
      "å¹´åīį": 4256,
      "ãĢĤéĤ£": 4257,
      "æĭĸ": 4258,
      "åı¥è¯Ŀ": 4259,
      "é«ĺè´¨éĩı": 4260,
      "ç¾¤ä½ĵ": 4261,
      "çļĦäº§åĵģ": 4262,
      "çĭł": 4263,
      "å¥½äºĨ": 4264,
      "è¾ĥå¤§": 4265,
      "èĤºçĤİ": 4266,
      "æľ¬èº«": 4267,
      "ï¼Įæİ¨åĬ¨": 4268,
      "é¼ł": 4269,
      "åĲįåŃĹ": 4270,
      "æµħ": 4271,
      "ãĢĤæł¹æį®": 4272,
      "ï¼Įæķħ": 4273,
      "åĽºå®ļ": 4274,
      "å¯¼ä½ĵ": 4275,
      "çļĦéĤ£": 4276,
      "æĹĹä¸ĭ": 4277,
      "ä¸»ç®¡": 4278,
      "å¯¹å¤ĸ": 4279,
      "æĢ»è£ģ": 4280,
      "ï¼Įæ¯Ķå¦Ĥ": 4281,
      "ï¼Įåıªæĺ¯": 4282,
      "å½¹": 4283,
      "ä¸īå¤§": 4284,
      "æĨ": 4285,
      "è´Ńçī©": 4286,
      "åŃĲåħ¬åı¸": 4287,
      "ç»ıåħ¸": 4288,
      "åŃŁ": 4289,
      "åħ±äº§": 4290,
      "é©±åĬ¨": 4291,
      "å»ºæĪĲ": 4292,
      "æıŃ": 4293,
      "å¹³è¡¡": 4294,
      "æĪ¿åŃĲ": 4295,
      "å¥³åŃĲ": 4296,
      "ä»¥åīį": 4297,
      "é¢ĨåŁŁçļĦ": 4298,
      "å¸¦æĿ¥çļĦ": 4299,
      "å®ŀè¡Į": 4300,
      "æ¡ĳ": 4301,
      "èĦı": 4302,
      "äººå¤§": 4303,
      "åĽŀæĿ¥": 4304,
      "è´£ä»»ç¼ĸè¾ĳ": 4305,
      "æĦĪ": 4306,
      "çī¹åĪ«æĺ¯": 4307,
      "æ¡Ĩ": 4308,
      "âĢĿçŃī": 4309,
      "èĩªæĪĳ": 4310,
      "åľ¨äºİ": 4311,
      "åºĶæĢ¥": 4312,
      "æŃ£æĺ¯": 4313,
      "æł¼å±Ģ": 4314,
      "ãĢĤåĽłä¸º": 4315,
      "ç£ģ": 4316,
      "ĠThe": 4317,
      "åģļåĪ°": 4318,
      "Ġwith": 4319,
      "æ¡Ĥ": 4320,
      "çĤ¹åĩ»": 4321,
      "çĴĥ": 4322,
      "æľīçĤ¹": 4323,
      "ï¼ĮæĪĸèĢħ": 4324,
      "å®ŀéĻħä¸Ĭ": 4325,
      "åĲĮæĦı": 4326,
      "ç»ĻäºĪ": 4327,
      "ine": 4328,
      "è¸ı": 4329,
      "çªģåĩº": 4330,
      "æĸ°åĮº": 4331,
      "ä¿¡åı·": 4332,
      "åıĺæĪĲ": 4333,
      "åħħçĶµ": 4334,
      "å®ŀåľ¨": 4335,
      "éĺŁä¼į": 4336,
      "çİ»": 4337,
      "ä»£çĲĨ": 4338,
      "çī¢": 4339,
      "èħ°": 4340,
      "ï¼Įåıªè¦ģ": 4341,
      "ä¸įéĶĻ": 4342,
      "ï¼Įä½ľèĢħ": 4343,
      "ä½ıäºĨ": 4344,
      "éĢĤåºĶ": 4345,
      "ä¸Ģèĩ´": 4346,
      "ãĢĤä½ł": 4347,
      "çľŁæĺ¯": 4348,
      "çĶµèĦĳ": 4349,
      "åŃķ": 4350,
      "çī©çĲĨ": 4351,
      "å¤©çļĦ": 4352,
      "éĢ»è¾ĳ": 4353,
      "åįĬå¯¼ä½ĵ": 4354,
      "åħ´è¶£": 4355,
      "ç¡®è¯Ĭ": 4356,
      "èħĲ": 4357,
      "ä¾ĽåºĶéĵ¾": 4358,
      "æĸ¤": 4359,
      "ï¼Įåı¯æĺ¯": 4360,
      "çĤ¹å¤´": 4361,
      "å»·": 4362,
      "ç¾İçļĦ": 4363,
      "æŃ¤æ¬¡": 4364,
      "ä¸Ľ": 4365,
      "è¿Ļæ¬¡": 4366,
      "æł·åŃĲ": 4367,
      "å¤§éĻĨ": 4368,
      "å¡«": 4369,
      "è®¸åı¯": 4370,
      "è¯»èĢħ": 4371,
      "OS": 4372,
      "å®Įæķ´": 4373,
      "åĽ½çļĦ": 4374,
      "å¼ķåıĳ": 4375,
      "çº·çº·": 4376,
      "çĽĴ": 4377,
      "ard": 4378,
      "çº¿ä¸ĭ": 4379,
      "å¾Īå¿«": 4380,
      "iv": 4381,
      "çĭ¼": 4382,
      "æī¿è¯º": 4383,
      "æłª": 4384,
      "ç±»ä¼¼": 4385,
      "ç¢ĳ": 4386,
      "çĽĳä¼ļ": 4387,
      "å±±è¥¿": 4388,
      "ï¼ı": 4389,
      "å®ĩå®Ļ": 4390,
      "ï¼ĮèĢģ": 4391,
      "ãĢĤçĦ¶èĢĮ": 4392,
      "æİĪæĿĥ": 4393,
      "åĪºæ¿Ģ": 4394,
      "äººéĥ½": 4395,
      "èģĶçĽŁ": 4396,
      "çİ¯æ¯Ķ": 4397,
      "éĽķ": 4398,
      "ç²Ĺ": 4399,
      "åģļåĩº": 4400,
      "åıĳåĬ¨": 4401,
      "ä¼ļæľī": 4402,
      "çļĦæīĭ": 4403,
      "ç¯®": 4404,
      "çŀ¬éĹ´": 4405,
      "ç©·": 4406,
      "å¸¦åĬ¨": 4407,
      "ä¸¤å¹´": 4408,
      "ä¾Ŀæį®": 4409,
      "æĢ§åĴĮ": 4410,
      "åĩĨç¡®": 4411,
      "æľ¬æ¬¡": 4412,
      "ä¹°åħ¥": 4413,
      "èĭ±éĽĦ": 4414,
      "éĥ¨éķ¿": 4415,
      "å¤ļæ¬¡": 4416,
      "èĮħ": 4417,
      "iP": 4418,
      "æ±¡æŁĵ": 4419,
      "è¯Ħçº§": 4420,
      "ç½ĳä¸Ĭ": 4421,
      "åŁºéĩĳç®¡çĲĨ": 4422,
      "çİ©å®¶": 4423,
      "è¦Ĩ": 4424,
      "åĸĬ": 4425,
      "å²Ń": 4426,
      "æ²ŁéĢļ": 4427,
      "ï¼Įä¸įä»ħ": 4428,
      "æĬĸ": 4429,
      "å°ıçļĦ": 4430,
      "éľ¸": 4431,
      "éĩıçļĦ": 4432,
      "æĽ´æĺ¯": 4433,
      "ry": 4434,
      "ãĢĤåħ¬åı¸": 4435,
      "äºĭæķħ": 4436,
      "æĬĳ": 4437,
      "å¢ĵ": 4438,
      "æŃ£ç¡®": 4439,
      "å¤Ħç½ļ": 4440,
      "å·¥ä½ľäººåĳĺ": 4441,
      "ï¼Įæĥ³": 4442,
      "ak": 4443,
      "ç¡®è®¤": 4444,
      "è´µå·ŀ": 4445,
      "ï¼Įä¸ľ": 4446,
      "èİ·åıĸ": 4447,
      "åĳĢ": 4448,
      "çŃīçŃī": 4449,
      "çļĦä¸į": 4450,
      "çļĦæĥħåĨµä¸ĭ": 4451,
      "ï¼ĮåįĹ": 4452,
      "å¤©çĦ¶": 4453,
      "æĶ¶çĽĺ": 4454,
      "åį¢": 4455,
      "og": 4456,
      "è¯ķçĤ¹": 4457,
      "æĤŁ": 4458,
      "ãģ£": 4459,
      "ç¿Ķ": 4460,
      "æĻ®éģį": 4461,
      "çĶ·åŃĲ": 4462,
      "åºĻ": 4463,
      "æľµ": 4464,
      "éĢļè®¯": 4465,
      "ĠãĢĲ": 4466,
      "çĪ±çļĦ": 4467,
      "ont": 4468,
      "ï¼Įèĭ¥": 4469,
      "æ¶Ĥ": 4470,
      "æĹłè®º": 4471,
      "CE": 4472,
      "ï¼ĮâĢĿ": 4473,
      "ä¸ĩèĤ¡": 4474,
      "çľĭçľĭ": 4475,
      "èµ´": 4476,
      "èĤĸ": 4477,
      "ĠçļĦ": 4478,
      "ãĤĴ": 4479,
      "è¯Ħè®º": 4480,
      "ÂłÂłÂłÂł": 4481,
      "çŃīå¥ĸ": 4482,
      "ç½©": 4483,
      "åĿĬ": 4484,
      "æ¼ı": 4485,
      "è¿ĽæŃ¥": 4486,
      "åĨ²åĩ»": 4487,
      "ï¼Įæ²¡": 4488,
      "ä¼Ĺå¤ļ": 4489,
      "ï¼ĮæľªæĿ¥": 4490,
      "æĪ¿éĹ´": 4491,
      "And": 4492,
      "é¡ºåĪ©": 4493,
      "éĤª": 4494,
      "åħīä¼ı": 4495,
      "è®¢åįķ": 4496,
      "è´¦æĪ·": 4497,
      "å°¿": 4498,
      "é¤Ĳé¥®": 4499,
      "æħĪ": 4500,
      "ï¼Įä¸Ĭæµ·": 4501,
      "ç¾İä¸½": 4502,
      "æł¸éħ¸": 4503,
      "ç©ºæ°Ķ": 4504,
      "èĸª": 4505,
      "èĦĤ": 4506,
      "ç¬¬ä¸ĥ": 4507,
      "ãĥ»": 4508,
      "ä»Ķ": 4509,
      "æ¶Į": 4510,
      "åħĳ": 4511,
      "å°Ĩä¼ļ": 4512,
      "ï¼Įè¿ŀ": 4513,
      "åĨ¯": 4514,
      "ä¸Ī": 4515,
      "æĤ¬": 4516,
      "å°ıç»Ħ": 4517,
      "äº¤æīĢ": 4518,
      "çĽ¸äºĴ": 4519,
      "å¿ĹæĦ¿": 4520,
      "éĶĲ": 4521,
      "ä¸ĵåĪ©": 4522,
      "éĹ®éģĵ": 4523,
      "åĪĨåŃĲ": 4524,
      "ew": 4525,
      "ï¼Įç»ı": 4526,
      "ï¼ĮæľĢç»Ī": 4527,
      "è¯¦ç»Ĩ": 4528,
      "æīĢæľīçļĦ": 4529,
      "å¥ĳ": 4530,
      "æĸ°åįİ": 4531,
      "æĢĿç»´": 4532,
      "èµģ": 4533,
      "å©´": 4534,
      "éĽ¾": 4535,
      "éĥ¨ç½²": 4536,
      "æ··åĲĪ": 4537,
      "ï¼Įå½¢æĪĲ": 4538,
      "ç¦ıå»º": 4539,
      "åŀĤ": 4540,
      "éĩĬæĶ¾": 4541,
      "AR": 4542,
      "èµ°åĬ¿": 4543,
      "èĥİ": 4544,
      "ç§Łèµģ": 4545,
      "èĲ¥ä¸ļæĶ¶åħ¥": 4546,
      "ä»²": 4547,
      "æķ´åĲĪ": 4548,
      "å¤įèĭı": 4549,
      "ï¼Įäºİ": 4550,
      "å²³": 4551,
      "ob": 4552,
      "åı¸æ³ķ": 4553,
      "Ġse": 4554,
      "çĪĨåıĳ": 4555,
      "åĲķ": 4556,
      "äºĭåĬ¡": 4557,
      "å¯¹æīĭ": 4558,
      "æĢ»ç»Ł": 4559,
      "ä½Ĩæĺ¯": 4560,
      "åŁºç¡Ģè®¾æĸ½": 4561,
      "å®ŀä½ĵ": 4562,
      "é¦ĸå¸Ń": 4563,
      "èĭį": 4564,
      "åĲįä¸º": 4565,
      "ï¼ĮæĹ¢": 4566,
      "Ġan": 4567,
      "åĲĦé¡¹": 4568,
      "å°±èĥ½": 4569,
      "Ġde": 4570,
      "å¤«äºº": 4571,
      "æ¸©åº¦": 4572,
      "éĢļéģĵ": 4573,
      "nt": 4574,
      "æķĪåºĶ": 4575,
      "è°ĥçłĶ": 4576,
      "æĿĳæ°ĳ": 4577,
      "åľ¨ä¸ŃåĽ½": 4578,
      "å·¨å¤§": 4579,
      "æľĢä½İ": 4580,
      "è¡¥åħħ": 4581,
      "The": 4582,
      "ï¼Įåıªæľī": 4583,
      "çļĦåŁºæľ¬": 4584,
      "åľ¨è¿Ļ": 4585,
      "åıįå¼¹": 4586,
      "ï¼Įèĩªå·±": 4587,
      "ä¸Ĭä¸Ģ": 4588,
      "åī²": 4589,
      "æ£®æŀĹ": 4590,
      "çħ§çīĩ": 4591,
      "ack": 4592,
      "çĻ¾åĪĨçĤ¹": 4593,
      "åĮħåĲ«": 4594,
      "è¡¨æĺİ": 4595,
      "ç®Ń": 4596,
      "ä¸¤äºº": 4597,
      "éĢ¾": 4598,
      "å¦Ĩ": 4599,
      "ide": 4600,
      "æĭ¨": 4601,
      "ç§ĺä¹¦": 4602,
      "éĽĨæĪĲ": 4603,
      "åŁİåĮº": 4604,
      "å¾Īå¤§": 4605,
      "å±ıå¹ķ": 4606,
      "ST": 4607,
      "æĮģèĤ¡": 4608,
      "ra": 4609,
      "ãĢĤä¸º": 4610,
      "ç¤¾äº¤": 4611,
      "âĶ": 4612,
      "æĭįæĳĦ": 4613,
      "ä»¶äºĭ": 4614,
      "æĥĳ": 4615,
      "ï¼Įè¾ĥ": 4616,
      "ãĢĤèĻ½çĦ¶": 4617,
      "è®°å¿Ĩ": 4618,
      "æĹº": 4619,
      "å·®å¼Ĥ": 4620,
      "åĮĸå·¥": 4621,
      "å»ī": 4622,
      "åĴ±": 4623,
      "åĮħè£ħ": 4624,
      "å¿«ä¹Ĳ": 4625,
      "åĩºè¡Į": 4626,
      "å¯ĵ": 4627,
      "ud": 4628,
      "ãĤĤ": 4629,
      "ET": 4630,
      "è¾ĵåħ¥": 4631,
      "ï¼ĮéľĢè¦ģ": 4632,
      "ä¸»æ¼Ķ": 4633,
      "âĢĤâĢĤâĢĤ": 4634,
      "ãĢĤè¿ĻäºĽ": 4635,
      "Ġwe": 4636,
      "ä»°": 4637,
      "èĢģå¹´": 4638,
      "è§Ĥä¼Ĺ": 4639,
      "äººçĶŁ": 4640,
      "è½°": 4641,
      "éĺĶ": 4642,
      "ï¼Įä½ľä¸º": 4643,
      "çĸı": 4644,
      "ä¸ªçĻ¾åĪĨçĤ¹": 4645,
      "éħ·": 4646,
      "ãģĨ": 4647,
      "æıĲéĨĴ": 4648,
      "éĥģ": 4649,
      "æĦıå¤ĸ": 4650,
      "éŀĭ": 4651,
      "éĺ³åħī": 4652,
      "æłĩé¢ĺ": 4653,
      "Ġj": 4654,
      "è¾¨": 4655,
      "ä¸Ģå¤©": 4656,
      "ä¾ĿæĹ§": 4657,
      "ç´§å¼ł": 4658,
      "ãĢĤçĶ±äºİ": 4659,
      "ãĢĤå¤§": 4660,
      "ãģĮ": 4661,
      "èĥ½éĩı": 4662,
      "èĤł": 4663,
      "æŁı": 4664,
      "åį³å°Ĩ": 4665,
      "éĺģ": 4666,
      "åºŀ": 4667,
      "ä¹īåĬ¡": 4668,
      "ä¹Łæ²¡æľī": 4669,
      "æĶ¶åĪ°": 4670,
      "çļĦä¸»": 4671,
      "è¿ĺè¦ģ": 4672,
      "åĪ©äºİ": 4673,
      "åĸ·": 4674,
      "åĽŃåĮº": 4675,
      "å¹³å®ī": 4676,
      "æĺ¾çĦ¶": 4677,
      "åıĳå¸ĥçļĦ": 4678,
      "ace": 4679,
      "çº¤": 4680,
      "ãĢĶ": 4681,
      "å¦Ĥä¸ĭ": 4682,
      "ãĢĤä¸İ": 4683,
      "èģĮåĬ¡": 4684,
      "åĩºçīĪç¤¾åĩºçīĪ": 4685,
      "éĶĻè¯¯": 4686,
      "ãĢģå¸Ĥ": 4687,
      "åĩ¶": 4688,
      "æĲ¬": 4689,
      "æĢ»é¢Ŀ": 4690,
      "ä¾Ľç»Ļ": 4691,
      "ĠCh": 4692,
      "ãĢķ": 4693,
      "çĭ¬çī¹": 4694,
      "ï¼ĮäºĮ": 4695,
      "æıĲç¤º": 4696,
      "âĦ": 4697,
      "æĻļä¸Ĭ": 4698,
      "éĿ¢ä¸Ĭ": 4699,
      "åĩłå¹´": 4700,
      "âĢĥ": 4701,
      "åĽ½æ°ĳ": 4702,
      "ä¸ĵéĹ¨": 4703,
      "æĺŁæľŁ": 4704,
      "IT": 4705,
      "çłĶç©¶æīĢ": 4706,
      "çĭĲ": 4707,
      "æĪĴ": 4708,
      "ä¸ĭæ»ĳ": 4709,
      "æģ°": 4710,
      "ä¸Ģçº¿": 4711,
      "åħ¨å¹´": 4712,
      "åĨłåĨĽ": 4713,
      "è®¤çľŁ": 4714,
      "hone": 4715,
      "æ·ĺ": 4716,
      "ED": 4717,
      "é¼»": 4718,
      "å®¶æĹı": 4719,
      "ï¼ĮéĻ¤äºĨ": 4720,
      "è½¦åŀĭ": 4721,
      "èħĶ": 4722,
      "æĽ´å¥½": 4723,
      "èµł": 4724,
      "ä¸ªèĤ¡": 4725,
      "ä¸ĭè½½": 4726,
      "éĶ¡": 4727,
      "çĸ¼": 4728,
      "%Ċ": 4729,
      "éĴ»": 4730,
      "æ°¢": 4731,
      "æľŁå¾ħ": 4732,
      "äºĨèµ·æĿ¥": 4733,
      "ity": 4734,
      "éĢ¸": 4735,
      "ç¡ħ": 4736,
      "æķ¦": 4737,
      "åĩºçİ°äºĨ": 4738,
      "çĽĹ": 4739,
      "éĢĬ": 4740,
      "ï¼Įä»ĸçļĦ": 4741,
      "ãĢĤå¯¹äºİ": 4742,
      "èĢģäºº": 4743,
      "ç²¾åĩĨ": 4744,
      "çĽ¸åĲĮ": 4745,
      "åıĳçĶµ": 4746,
      "åĬ¨æĢģ": 4747,
      "ï¼ĮæĪĳåĽ½": 4748,
      "æ°ĳä¸»": 4749,
      "ãģ§": 4750,
      "çīĪæľ¬": 4751,
      "è®ºåĿĽ": 4752,
      "èĽĩ": 4753,
      "ï¼Įè¿Ļæł·": 4754,
      "æĪĲå°±": 4755,
      "åįıåĲĮ": 4756,
      "ï¼Įå¹´": 4757,
      "éģĩåĪ°": 4758,
      "ï¼ĮæıĲé«ĺ": 4759,
      "æĭĴç»Ŀ": 4760,
      "ï¼ĮçĶ·": 4761,
      "äººç¾¤": 4762,
      "åĿĲåľ¨": 4763,
      "æİĴæĶ¾": 4764,
      "åĲĦåľ°": 4765,
      "ãĤĮ": 4766,
      "å½»åºķ": 4767,
      "å¸ħ": 4768,
      "ç¥ŀç»ı": 4769,
      "åıĤæķ°": 4770,
      "èį¯çī©": 4771,
      "åĳ¨åĽ´": 4772,
      "éĨī": 4773,
      "è¶ħçº§": 4774,
      "éĻķè¥¿": 4775,
      "ç³»ç»ŁçļĦ": 4776,
      "æłĩå¿Ĺ": 4777,
      "èģĮå·¥": 4778,
      "ç»ĻæĪĳ": 4779,
      "ä¸Ģå£°": 4780,
      "æ¶Īå¤±": 4781,
      "åĨ»": 4782,
      "åĽ½åĬ¡éĻ¢": 4783,
      "å£³": 4784,
      "åı¦ä¸Ģæĸ¹éĿ¢": 4785,
      "ç»ıæµİåŃ¦": 4786,
      "å¹¿è¥¿": 4787,
      "æī§æ³ķ": 4788,
      "æ®µæĹ¶éĹ´": 4789,
      "åħģè®¸": 4790,
      "æĮ¡": 4791,
      "çŃīçº§": 4792,
      "å°ĨåĨĽ": 4793,
      "æ±Łè¥¿": 4794,
      "è¿ĩçļĦ": 4795,
      "æ°Ľ": 4796,
      "çĽ®åħī": 4797,
      "æĽ´ä¸º": 4798,
      "å²Ĺä½į": 4799,
      "è¯ŀ": 4800,
      "åĨĽäºĭ": 4801,
      "åĬĽäºİ": 4802,
      "äº¤æĺĵæīĢ": 4803,
      "ãĢĤè¦ģ": 4804,
      "è¡°": 4805,
      "èī¯å¥½": 4806,
      "åĤ¬": 4807,
      "å·¨å¤§çļĦ": 4808,
      "åŃ¦ç§ĳ": 4809,
      "åįķåħĥ": 4810,
      "ï¼Įä¸įæĸŃ": 4811,
      "å¥³åŃ©": 4812,
      "åħ¸åŀĭ": 4813,
      "Ġï¼Į": 4814,
      "ç«ĭåĪ»": 4815,
      "å½¢åĬ¿": 4816,
      "çĭ±": 4817,
      "å°±åı¯ä»¥": 4818,
      "ãĤī": 4819,
      "å¥³å£«": 4820,
      "è½¬ç§»": 4821,
      "ï¼Įä»ħ": 4822,
      "è®©æĪĳ": 4823,
      "ä½ľä¸ļ": 4824,
      "å°±ä¸į": 4825,
      "åİ¨": 4826,
      "ãĢĤä¸ŃåĽ½": 4827,
      "èģļçĦ¦": 4828,
      "æĸ°åĨłèĤºçĤİ": 4829,
      "èĥĮåĲİ": 4830,
      "çļĦçĶŁæ´»": 4831,
      "èĻ¹": 4832,
      "æĥ³è±¡": 4833,
      "çĹĩçĬ¶": 4834,
      "é£ĺ": 4835,
      "ï¼Įæį®": 4836,
      "å®ļä¹ī": 4837,
      "ä½ľå®¶": 4838,
      "èģª": 4839,
      "çŁĽ": 4840,
      "çİ»çĴĥ": 4841,
      "æĸ°åŀĭ": 4842,
      "ï¼ĮçĻ½": 4843,
      "çĻĮ": 4844,
      "CP": 4845,
      "å½Ń": 4846,
      "é«ĺè¾¾": 4847,
      "æııè¿°": 4848,
      "**": 4849,
      "èĴĻåı¤": 4850,
      "å¤ļåħĥ": 4851,
      "ï¼Įè¿Ľä¸ĢæŃ¥": 4852,
      "æĦŁåıĹ": 4853,
      "çľĭè§ģ": 4854,
      "æ¯ıå¹´": 4855,
      "éĥ¨éĺŁ": 4856,
      "çļĦçłĶç©¶": 4857,
      "çŃīå¾ħ": 4858,
      "å¹¶ä¸įæĺ¯": 4859,
      "åŃĺæ¬¾": 4860,
      "ive": 4861,
      "èĴĭ": 4862,
      "å·¥èµĦ": 4863,
      "è¯ĨåĪ«": 4864,
      "âĦĥ": 4865,
      "é¢ĩ": 4866,
      "èĤĿ": 4867,
      "éĥ½æ²¡æľī": 4868,
      "ip": 4869,
      "è¿ĩäºĨ": 4870,
      "ï¼Įä¸ºäºĨ": 4871,
      "åĤ²": 4872,
      "æĶ¾å¼ĥ": 4873,
      "éĺ¿éĩĮ": 4874,
      "åħ¨å¸Ĥ": 4875,
      "ç®Ĺæĺ¯": 4876,
      "è´¾": 4877,
      "é£ŀæľº": 4878,
      "åĤħ": 4879,
      "ss": 4880,
      "è¢ģ": 4881,
      "çº¢èī²": 4882,
      "çļĦä¼ģä¸ļ": 4883,
      "æĬĽ": 4884,
      "æĢİæł·": 4885,
      "æĬļ": 4886,
      "èĲ¥åħ»": 4887,
      "ç½¢": 4888,
      "ä¼Ĳ": 4889,
      "æº¶": 4890,
      "æ¼Ĥ": 4891,
      "å®ŀéªĮå®¤": 4892,
      "åľ°ä¸Ĭ": 4893,
      "éĵĿ": 4894,
      "åĲĮåŃ¦": 4895,
      "å½¢æĢģ": 4896,
      "æĹ¥æĻļ": 4897,
      "çļĦå¥½": 4898,
      "éĤĵ": 4899,
      "åıĳåĩº": 4900,
      "éĿ¢åĲĳ": 4901,
      "ï¼Įåĩº": 4902,
      "ä¸Ĭåİ»": 4903,
      "åĲįåįķ": 4904,
      "ï¼ĮåºĶ": 4905,
      "åĽŀå®¶": 4906,
      "çĮİ": 4907,
      "æīŃ": 4908,
      "ä»ĩ": 4909,
      "éĩĩè®¿": 4910,
      "æĹ¶å°ļ": 4911,
      "ï¼Įç¡®ä¿Ŀ": 4912,
      "ç¬¬ä¸Ģä¸ª": 4913,
      "now": 4914,
      "åĲĪè®¡": 4915,
      "æĻ¯åĮº": 4916,
      "Ġå¤§": 4917,
      "è®¤è¯ģ": 4918,
      "âĢĿåĴĮ": 4919,
      "è¾ĥä¸º": 4920,
      "ich": 4921,
      "åħ±åĴĮåĽ½": 4922,
      "æĺ¯åĽłä¸º": 4923,
      "æ¸¯èĤ¡": 4924,
      "ä¸ĢæĿ¡": 4925,
      "å¸Ĥå§Ķ": 4926,
      "èĬĴ": 4927,
      "å¾ĭå¸Ī": 4928,
      "èį¯åĵģ": 4929,
      "äºĶå¹´": 4930,
      "åľºæīĢ": 4931,
      "å·¥åķĨ": 4932,
      "åĽŀåºĶ": 4933,
      "for": 4934,
      "çī¹æĢ§": 4935,
      "æįĲ": 4936,
      "å§¿": 4937,
      "çļĦä¸Ń": 4938,
      "æīĵåĩ»": 4939,
      "æł¡åĽŃ": 4940,
      "æĿĥåĪ©": 4941,
      "èĢ¶": 4942,
      "ä¸Ĭä¸ĭ": 4943,
      "æĪ¿ä»·": 4944,
      "åĬ«": 4945,
      "äºļæ´²": 4946,
      "éľĩèį¡": 4947,
      "è´º": 4948,
      "èĮĤ": 4949,
      "ç¡ķå£«": 4950,
      "è½»æĿ¾": 4951,
      "åģļäºĨ": 4952,
      "éĿĴå²Ľ": 4953,
      "çļĩå¸Ŀ": 4954,
      "åĪĽå§ĭ": 4955,
      "çĽ®å½ķ": 4956,
      "åĽĽä¸ª": 4957,
      "çŃīæĸ¹éĿ¢": 4958,
      "ãĢĤå¦Ĥ": 4959,
      "è£ķ": 4960,
      "Ġsh": 4961,
      "çļĦä¸ľè¥¿": 4962,
      "ãĢĤä»¥": 4963,
      "å¾Īéļ¾": 4964,
      "çĲĨäºĭ": 4965,
      "åĴĸ": 4966,
      "è¿İæĿ¥": 4967,
      "æİ¥åı£": 4968,
      "åľ°ä¸ĭ": 4969,
      "Ġæľ¬": 4970,
      "æĹ¶åĪ»": 4971,
      "åľ¨äºĨ": 4972,
      "éĤĢè¯·": 4973,
      "æĤł": 4974,
      "æĭĽåķĨ": 4975,
      "æĸ©": 4976,
      "ä¿¡å¿ĥ": 4977,
      "æīįæĺ¯": 4978,
      "å¤§éĥ¨åĪĨ": 4979,
      "åĲĦä¸ª": 4980,
      "ä¾¿åĪ©": 4981,
      "ï¼Įå¼Ģ": 4982,
      "èĶ¡": 4983,
      "èī°": 4984,
      "è¡£æľį": 4985,
      "æĢ»æĺ¯": 4986,
      "æº¢": 4987,
      "åħ±äº§åħļ": 4988,
      "ï¼Įéĥ½æĺ¯": 4989,
      "ï¼Įå¤§å®¶": 4990,
      "ä»¬çļĦ": 4991,
      "ç§ĺå¯Ĩ": 4992,
      "rom": 4993,
      "ä¸¤ç§į": 4994,
      "ice": 4995,
      "ï¼Įä»»": 4996,
      "åľ°çĲĨ": 4997,
      "å®¡æł¸": 4998,
      "ï¼Įå¤ĸ": 4999,
      "ä¼¤å®³": 5000,
      "æľįè£ħ": 5001,
      "å°ıå§Ĳ": 5002,
      "é³": 5003,
      "åĥıæĺ¯": 5004,
      "ä¸ĢåĲį": 5005,
      "åĬĿ": 5006,
      "æĵħ": 5007,
      "æ¿ĢåĬ±": 5008,
      "æĹłäºº": 5009,
      "ook": 5010,
      "ç³Ĭ": 5011,
      "æľīä¸Ģä¸ª": 5012,
      "end": 5013,
      "åħĥç´ł": 5014,
      "ä½ľåĩº": 5015,
      "ä¿¡æīĺ": 5016,
      "are": 5017,
      "é¼İ": 5018,
      "æİ¥çĿĢ": 5019,
      "ä¸ľåĮĹ": 5020,
      "æĳĺ": 5021,
      "ï¼Įæµ·": 5022,
      "æ°ĶåĢĻ": 5023,
      "ãĢĳĊ": 5024,
      "åŁİéķĩ": 5025,
      "çļĦåİŁåĽł": 5026,
      "æĻ°": 5027,
      "âĢĿï¼Ī": 5028,
      "å±ħçĦ¶": 5029,
      "çºªå¿µ": 5030,
      "åĽŀèĲ½": 5031,
      "ç®¡çĲĨå±Ģ": 5032,
      "æµ´": 5033,
      "Ġä¸ŃåĽ½": 5034,
      "ï¼Įæľª": 5035,
      "åīįå¾Ģ": 5036,
      "åľ¨è¿ĻéĩĮ": 5037,
      "èµ°åĲĳ": 5038,
      "Ġcan": 5039,
      "amp": 5040,
      "çŃĶæ¡Ī": 5041,
      "æķ°åŃ¦": 5042,
      "çī¹å¸ģ": 5043,
      "å°ºå¯¸": 5044,
      "ä¸įæĥ³": 5045,
      "ãĢĤãĢį": 5046,
      "çĻ¾å§ĵ": 5047,
      "èĢĮå·²": 5048,
      "è½¬è½½": 5049,
      "æŁ¥çľĭ": 5050,
      "äºŃ": 5051,
      "åľ°åĿĹ": 5052,
      "åĳµ": 5053,
      "iPhone": 5054,
      "å¸¸è§ģ": 5055,
      "é«ĺæķĪ": 5056,
      "æĢ»ç»ĵ": 5057,
      "æµģåĬ¨æĢ§": 5058,
      "çļĦå¸Ĥåľº": 5059,
      "Ġgo": 5060,
      "ç©Ĩ": 5061,
      "å¿½çĦ¶": 5062,
      "åŃĿ": 5063,
      "äº¬ä¸ľ": 5064,
      "è¯ĬæĸŃ": 5065,
      "ãĢģå°ı": 5066,
      "çĪµ": 5067,
      "åĲ¾": 5068,
      "ĠPro": 5069,
      "åİĺ": 5070,
      "ä¸įèµ·": 5071,
      "å¤ĸçļĦ": 5072,
      "èĢĥæł¸": 5073,
      "å°±è¦ģ": 5074,
      "ä¿®å¤į": 5075,
      "éŃħ": 5076,
      "åºĵåŃĺ": 5077,
      "ï¼Įä½ľèĢħæĺ¯": 5078,
      "ç¥Ń": 5079,
      "æłĭ": 5080,
      "å²ģçļĦ": 5081,
      "èį£èªī": 5082,
      "èľľ": 5083,
      "å¸ķ": 5084,
      "æīĺç®¡": 5085,
      "è¿Ľå±ķ": 5086,
      "ĠIn": 5087,
      "è·Įå¹ħ": 5088,
      "ãĢĤçİ°åľ¨": 5089,
      "æī®": 5090,
      "ï¼Įåħ¶å®ŀ": 5091,
      "ä¸Ĭå¹´": 5092,
      "æµģåħ¥": 5093,
      "ID": 5094,
      "éļĶç¦»": 5095,
      "åİŁæ²¹": 5096,
      "ä»¿ä½Ľ": 5097,
      "æĢ¨": 5098,
      "çĲĨçĶ±": 5099,
      "åŁºå±Ĥ": 5100,
      "GB": 5101,
      "æ¡¶": 5102,
      "èĩĤ": 5103,
      "æĥ³æ³ķ": 5104,
      "çļ®èĤ¤": 5105,
      "ï¼ĮåĮĹ": 5106,
      "æĥ¨": 5107,
      "çł´åĿı": 5108,
      "ç»ĥä¹ł": 5109,
      "åıĸæ¶Ī": 5110,
      "å¼ķé¢Ĩ": 5111,
      "ake": 5112,
      "è¶³å¤Ł": 5113,
      "ä¸§": 5114,
      "åŀĥ": 5115,
      "æŁ´": 5116,
      "è´¢äº§": 5117,
      "æ¶Ľ": 5118,
      "ï¼Įéĩĳ": 5119,
      "æķ´çĲĨ": 5120,
      "Ġç¬¬äºĶ": 5121,
      "åľ¾": 5122,
      "æ»¡æĦı": 5123,
      "ï¼ĮåĽ½å®¶": 5124,
      "èī³": 5125,
      "ç¢§": 5126,
      "èĻļæĭŁ": 5127,
      "çĮľ": 5128,
      "ï¼Įæīĵ": 5129,
      "è¶³çĲĥ": 5130,
      "çĺ¤": 5131,
      "å¹¿ä¸ľçľģ": 5132,
      "è´¯å½»": 5133,
      "åŀĥåľ¾": 5134,
      "é«ĺäºİ": 5135,
      "ï¼ĮæľĢåĲİ": 5136,
      "æĦŁæĥħ": 5137,
      "æĺĤ": 5138,
      "åľ°çĲĥ": 5139,
      "è¾¾æĪĲ": 5140,
      "åįļçī©": 5141,
      "çľĭäºĨ": 5142,
      "âĢľä¸ī": 5143,
      "æīĳ": 5144,
      "åį³åı¯": 5145,
      "è¿Ŀè§Ħ": 5146,
      "ue": 5147,
      "å¹´é¾Ħ": 5148,
      "ç¤¾ä¼ļä¸»ä¹ī": 5149,
      "èĴ¸": 5150,
      "åĽ½æľī": 5151,
      "å¢ĥåĨħ": 5152,
      "ï¼Įäºİæĺ¯": 5153,
      "ä¾¿æĺ¯": 5154,
      "å¼¥": 5155,
      "ï¼Įåįİ": 5156,
      "ä¸¢": 5157,
      "ä¸įæķ¢": 5158,
      "æĵ¦": 5159,
      "ä½ĵçļĦ": 5160,
      "Ġê": 5161,
      "è°Ĳ": 5162,
      "ãĢĤ(": 5163,
      "åħ¬ä¸»": 5164,
      "æĹ¥åīį": 5165,
      "å¹´åĪĿ": 5166,
      "ï¼ĮæĽ¾": 5167,
      "åŁºåĽł": 5168,
      "è¶ħå¸Ĥ": 5169,
      "å®ıè§Ĥ": 5170,
      "èī¯å¥½çļĦ": 5171,
      "ä¼ĳéĹ²": 5172,
      "åĩ½æķ°": 5173,
      "æĺ¯ä¸įæĺ¯": 5174,
      "è¯Ī": 5175,
      "å±ŀæĢ§": 5176,
      "èĤ¡å¸Ĥ": 5177,
      "ï¼Įå¸ĮæľĽ": 5178,
      "åĳĨ": 5179,
      "æľ¬äºº": 5180,
      "Ġle": 5181,
      "ãĢģæľī": 5182,
      "ç¿°": 5183,
      "æŃ¦åĻ¨": 5184,
      "åī¯ä¹¦è®°": 5185,
      "'m": 5186,
      "åľ¨ä¸Ģ": 5187,
      "é¢Ħéĺ²": 5188,
      "çļĦéľĢæ±Ĥ": 5189,
      "å¸ĪèĮĥ": 5190,
      "ãĢģæ°´": 5191,
      "æħ¢æħ¢": 5192,
      "è§£æĶ¾": 5193,
      "æ¼ĶåĶ±": 5194,
      "åħ¬çĽĬ": 5195,
      "Ġall": 5196,
      "ãĢĤè¿Ļä¸ª": 5197,
      "æ·±åĮĸ": 5198,
      "å®¡æŁ¥": 5199,
      "åį§": 5200,
      "ä¸įçĶ¨": 5201,
      "é«ĺçŃī": 5202,
      "éĥ½å¸Ĥ": 5203,
      "å®¶äºº": 5204,
      "ä¸ĵè¾ĳ": 5205,
      "DP": 5206,
      "ï¼Įç¾İ": 5207,
      "æ£Ģå¯Ł": 5208,
      "ä»¥ä¸ĬçļĦ": 5209,
      "Ġup": 5210,
      "ä¸įåľ¨": 5211,
      "èĥģ": 5212,
      "å±Ĥæ¬¡": 5213,
      "çļĦå£°éŁ³": 5214,
      "å¤ķ": 5215,
      "Ġ|": 5216,
      "éļ¾éģĵ": 5217,
      "æħ°": 5218,
      "åİŁæĿ¥": 5219,
      "ãĢĤ\"": 5220,
      "èĥĥ": 5221,
      "åīª": 5222,
      "æ¸Ķ": 5223,
      "ä¸Ģè·¯": 5224,
      "ä¾ł": 5225,
      "åİŁçĲĨ": 5226,
      "çģĮ": 5227,
      "åİĤåķĨ": 5228,
      "çĻ¾åº¦": 5229,
      "åĽĬ": 5230,
      "è¥¿æĸ¹": 5231,
      "åĮºçļĦ": 5232,
      "ãģ¾": 5233,
      "å±¥è¡Į": 5234,
      "ï¼Įå¾Īå¤ļ": 5235,
      "ç¨İåĬ¡": 5236,
      "Ġé¥°": 5237,
      "èĳ¡": 5238,
      "åĮĹäº¬å¸Ĥ": 5239,
      "è¡¨æ¼Ķ": 5240,
      "ï¼Įç§¯æŀģ": 5241,
      "å¹´è½»äºº": 5242,
      "å¼¯": 5243,
      "ãĢĤåı¯": 5244,
      "èİİ": 5245,
      "å¤ļå®¶": 5246,
      "è¯±": 5247,
      "å¡ĺ": 5248,
      "éĹ®é¢ĺçļĦ": 5249,
      "åŃ¦ä½į": 5250,
      "åĶ¤": 5251,
      "ä¸īè§Ĵ": 5252,
      "å®¡æī¹": 5253,
      "å¿Į": 5254,
      "å§ļ": 5255,
      "éĤ£æł·": 5256,
      "è´ŁåĢº": 5257,
      "å¥¥è¿Ĳ": 5258,
      "æī©å¼ł": 5259,
      "å®¶éĩĮ": 5260,
      "èĦ¸ä¸Ĭ": 5261,
      "å¤©æ°Ķ": 5262,
      "æĻ´": 5263,
      "ä»£çłģ": 5264,
      "çº³åħ¥": 5265,
      "è¡¥è´´": 5266,
      "ç»ĻäºĨ": 5267,
      "äºĨä¸Ģä¸ĭ": 5268,
      "ä¿ĿåŃĺ": 5269,
      "çŃ¾è®¢": 5270,
      "æīĭæľ¯": 5271,
      "ä¸įè§ģ": 5272,
      "éŁµ": 5273,
      "åŃ¦èĢħ": 5274,
      "é«ĺæł¡": 5275,
      "éģĵå¾·": 5276,
      "åı¤ä»£": 5277,
      "è¥¿å®ī": 5278,
      "åĲĪæ³ķ": 5279,
      "è®©ä»ĸ": 5280,
      "éĢıéľ²": 5281,
      "é©°": 5282,
      "ï¼ĮåıĹ": 5283,
      "çļĦç½ĳç»ľ": 5284,
      "ä¸ĺ": 5285,
      "çĿĢä¸Ģ": 5286,
      "ï¼ĮæĹłè®º": 5287,
      "çŃĸåĪĴ": 5288,
      "å¤¹": 5289,
      "Ch": 5290,
      "çļĦæĬķèµĦ": 5291,
      "å¤±è´¥": 5292,
      "è¾©": 5293,
      "åľ°çĤ¹": 5294,
      "èģĮè´£": 5295,
      "é¢Ħç®Ĺ": 5296,
      "èĵĦ": 5297,
      "é£Łçī©": 5298,
      "ï¼ĮæıĲåįĩ": 5299,
      "å±Ī": 5300,
      "äººå·¥æĻºèĥ½": 5301,
      "æ¹ĺ": 5302,
      "ä¸ĩç¾İåħĥ": 5303,
      "èĩªæ²»åĮº": 5304,
      "åįĹæĸ¹": 5305,
      "èĢģæĿ¿": 5306,
      "æ·®": 5307,
      "èĳĽ": 5308,
      "åĪļæīį": 5309,
      "è¯´æĺ¯": 5310,
      "ãĢĤå®ĥ": 5311,
      "US": 5312,
      "åħĨ": 5313,
      "å®ļæľŁ": 5314,
      "çī²": 5315,
      "ãĢĤæĪªèĩ³": 5316,
      "ĠæĹ¥": 5317,
      "åĵ¦": 5318,
      "å¤ļäºĨ": 5319,
      "åģľæŃ¢": 5320,
      "ï¼ĮåĲĮ": 5321,
      "çłĶç©¶çĶŁ": 5322,
      "ä¸ŃåĽ½çļĦ": 5323,
      "èĳ£äºĭä¼ļ": 5324,
      "æĹŃ": 5325,
      "åı£æ°Ķ": 5326,
      "äºĮæīĭ": 5327,
      "æŀļ": 5328,
      "æĳĦå½±": 5329,
      "ave": 5330,
      "éªĤ": 5331,
      "ast": 5332,
      "æ¬º": 5333,
      "è®¼": 5334,
      "æĶ¯åĩº": 5335,
      "îĢ": 5336,
      "éĹ¨åºĹ": 5337,
      "ãĢĬåħ³äºİ": 5338,
      "åļ": 5339,
      "ç»Ļä½ł": 5340,
      "åĩºåıĳ": 5341,
      "æľºåĻ¨äºº": 5342,
      "é¢ģ": 5343,
      "å¯¹æŃ¤": 5344,
      "è®¤åı¯": 5345,
      "æ¸¸å®¢": 5346,
      "èĪŁ": 5347,
      "ï¼Įå¯¼èĩ´": 5348,
      "å¦®": 5349,
      "ï¼Įä¸»": 5350,
      "ä¸īåŃ£åº¦": 5351,
      "å®¶éķ¿": 5352,
      "ï¼īãĢĤĊ": 5353,
      "Ġä½ł": 5354,
      "æĥħåĨµä¸ĭ": 5355,
      "åĲĵ": 5356,
      "éĺ²çĸ«": 5357,
      "åħ¨çľģ": 5358,
      "ä¸°å¯ĮçļĦ": 5359,
      "å¿«éĢĴ": 5360,
      "æĥ§": 5361,
      "åįģç«ł": 5362,
      "åĪĻæĺ¯": 5363,
      "çľŁæŃ£çļĦ": 5364,
      "ï¼ĮåĬłå¼º": 5365,
      "æ£ĢéªĮ": 5366,
      "æł¸éħ¸æ£Ģæµĭ": 5367,
      "è¯´äºĨ": 5368,
      "ä¼ĺæĥł": 5369,
      "IS": 5370,
      "åĲŀ": 5371,
      "èĩ´åĬĽäºİ": 5372,
      "å»¶ç»Ń": 5373,
      "æŁľ": 5374,
      "èĶ¬": 5375,
      "å¨ĥ": 5376,
      "çħ¤çĤŃ": 5377,
      "çĨĻ": 5378,
      "çļĦä»·æł¼": 5379,
      "ï¼Įä¿ĥè¿Ľ": 5380,
      "çº²": 5381,
      "æµ·æ´ĭ": 5382,
      "ER": 5383,
      "çĶŁéķ¿": 5384,
      "æ¸ħæĻ°": 5385,
      "å¼Ĥå¸¸": 5386,
      "é¹°": 5387,
      "ï¼īï¼Ľ": 5388,
      "å»Ĭ": 5389,
      "å¤įåĲĪ": 5390,
      "Ġne": 5391,
      "æľ¬æĸĩ": 5392,
      "åłª": 5393,
      "çĨŁæĤī": 5394,
      "ï¼Įåħ¨çĲĥ": 5395,
      "åĳ¼åĲ¸": 5396,
      "MA": 5397,
      "æĺİæĺŁ": 5398,
      "äº¤ä»ĺ": 5399,
      "çļĦæĥħ": 5400,
      "ub": 5401,
      "èĭıå·ŀ": 5402,
      "ä¸²": 5403,
      "å¤©åľ°": 5404,
      "å£¤": 5405,
      "æŃ¤åĲĮæĹ¶": 5406,
      "çİ°æľī": 5407,
      "ç¨İæĶ¶": 5408,
      "çļĦä¸Ģç§į": 5409,
      "æ½ĺ": 5410,
      "åħ±æľī": 5411,
      "æĸ°èĥ½æºĲæ±½è½¦": 5412,
      "ä¾ĽåºĶåķĨ": 5413,
      "ï¼Įè°ģ": 5414,
      "åº¦çļĦ": 5415,
      "/åĲ¨": 5416,
      "ä¸ªæĢ§": 5417,
      "æĸ°ä¸Ģ": 5418,
      "å¹¶éĿŀ": 5419,
      "å¼ĺ": 5420,
      "æľŁéĻĲ": 5421,
      "è½¬è®©": 5422,
      "æľºéģĩ": 5423,
      "ä¿¡æģ¯åĮĸ": 5424,
      "åŁİä¹¡": 5425,
      "ãĢĤä¸ºäºĨ": 5426,
      "å¼ĢäºĨ": 5427,
      "æĸĩçī©": 5428,
      "æĢ§è´¨": 5429,
      "é½¿": 5430,
      "ï¼Įéļı": 5431,
      "åı¯èĥ½æĺ¯": 5432,
      "åį¿": 5433,
      "æµģéĢļ": 5434,
      "é£ŀè¡Į": 5435,
      "pe": 5436,
      "çļĦåĽ¾ä¹¦": 5437,
      "åĪĽå§ĭäºº": 5438,
      "å¼ºçĥĪ": 5439,
      "éĻ¢éķ¿": 5440,
      "ww": 5441,
      "æĦ¤": 5442,
      "æĤĦ": 5443,
      "çĲ³": 5444,
      "åĢ¡": 5445,
      "æ¯ħ": 5446,
      "ãĢĭĊ": 5447,
      "ä¼ª": 5448,
      "ç´łè´¨": 5449,
      "è½¬åıĺ": 5450,
      "éĺ²æŃ¢": 5451,
      "çŁĽçĽ¾": 5452,
      "ï¼Įåĳ¨": 5453,
      "åĲ¦åĪĻ": 5454,
      "éĴ¢éĵģ": 5455,
      "åĽŀè´Ń": 5456,
      "ç¼Ŀ": 5457,
      "é©¬ä¸Ĭ": 5458,
      "å¥´": 5459,
      "ä»ªå¼ı": 5460,
      "å¯¨": 5461,
      "è·ŁçĿĢ": 5462,
      "æĬĢå·§": 5463,
      "æ¼ł": 5464,
      "å®¡è®¡": 5465,
      "çİ²": 5466,
      "ãĢģä¸į": 5467,
      "å½ĵä¸Ń": 5468,
      "HK": 5469,
      "ãģı": 5470,
      "ä¸įåıĬ": 5471,
      "æĿ¡ä¾ĭ": 5472,
      "lo": 5473,
      "çĥĤ": 5474,
      "åĤ¨å¤ĩ": 5475,
      "age": 5476,
      "ä¼ļåľ¨": 5477,
      "æĹ¥çļĦ": 5478,
      "æ¤ħ": 5479,
      "åįģåĽĽäºĶ": 5480,
      "ç¬¬åħ«": 5481,
      "å±ķçİ°": 5482,
      "ç§ĳåĪĽ": 5483,
      "éĹ´çļĦ": 5484,
      "ç»ĨèĬĤ": 5485,
      "çľģçº§": 5486,
      "æ¢¦æĥ³": 5487,
      "è½¬åĮĸ": 5488,
      "æĹ¥åŃĲ": 5489,
      "æĦŁè°¢": 5490,
      "çľł": 5491,
      "åĩŃåĢŁ": 5492,
      "æĪĪ": 5493,
      "çĵ·": 5494,
      "åİŁåĪĽ": 5495,
      "èĲĦ": 5496,
      "ç§¯ç´¯": 5497,
      "æĬĬæı¡": 5498,
      "éĩĳèŀįæľºæŀĦ": 5499,
      "ï¼ĮæīĵéĢł": 5500,
      "å¥ĸåĬ±": 5501,
      "é¢ľèī²": 5502,
      "è§ģåĪ°": 5503,
      "ãĢĤéļıçĿĢ": 5504,
      "ä»ĸäºº": 5505,
      "IN": 5506,
      "åı¯æĮģç»Ń": 5507,
      "ç»Īç«¯": 5508,
      "åŁ¹èĤ²": 5509,
      "ï¼Įäº¦": 5510,
      "è£ħç½®": 5511,
      "ä¸Ĭçº¿": 5512,
      "åĽŀå½Ĵ": 5513,
      "åĩºåı°": 5514,
      "èĽĭçĻ½": 5515,
      "çļĦæĸ¹æ³ķ": 5516,
      "éģĤ": 5517,
      "è¿ĽäºĨ": 5518,
      "ĠæĿİ": 5519,
      "èĳ¡èĲĦ": 5520,
      "åĭĥ": 5521,
      "ï¼Įå°¤åħ¶æĺ¯": 5522,
      ")ãĢĤ": 5523,
      "................": 5524,
      "äººæ°ĳæ³ķéĻ¢": 5525,
      "å°Ĩäºİ": 5526,
      "æµģè¡Į": 5527,
      "æĿĤå¿Ĺ": 5528,
      "íķ": 5529,
      "å¤Ħç½®": 5530,
      "çĶµè·¯": 5531,
      "åĬłä¸Ĭ": 5532,
      "æĢĿè·¯": 5533,
      "St": 5534,
      "--------": 5535,
      "éľŀ": 5536,
      "ne": 5537,
      "ãĢģä¸ī": 5538,
      "Ġknow": 5539,
      "å¼ºå¤§çļĦ": 5540,
      "ç²®é£Ł": 5541,
      "åħ¶å®ĥ": 5542,
      "è®¤å®ļ": 5543,
      "æĲľç´¢": 5544,
      "åħ»æ®ĸ": 5545,
      "æĸĩçĮ®": 5546,
      "äºĮæĺ¯": 5547,
      "è¯īè®¼": 5548,
      "åįĥä¸ĩ": 5549,
      "Ġal": 5550,
      "çļĦç¥ŀ": 5551,
      "ä¿®æĶ¹": 5552,
      "ç«ŀäºīåĬĽ": 5553,
      "ç¡¬ä»¶": 5554,
      "è¿Ŀåıį": 5555,
      "èŁ": 5556,
      "åħ¹": 5557,
      "åīĬ": 5558,
      "åģļçļĦ": 5559,
      "å¹¿æĴŃ": 5560,
      "æ³Ħ": 5561,
      "å¾®åįļ": 5562,
      "è½¬æį¢": 5563,
      "ĠZ": 5564,
      "ä¹ĭè·¯": 5565,
      "ĠX": 5566,
      "çŃ¾çº¦": 5567,
      "äºĭå®ŀä¸Ĭ": 5568,
      "æĸ°é«ĺ": 5569,
      "éĿĴæĺ¥": 5570,
      "åĪĨæŀĲå¸Ī": 5571,
      "å¸¸åĬ¡": 5572,
      "åĲĮå¿Ĺ": 5573,
      "è¡¨æĥħ": 5574,
      "çļĦæĬĢæľ¯": 5575,
      "çļĦæķħäºĭ": 5576,
      "è§Ĩè§ī": 5577,
      "è®²è¿°": 5578,
      "å¤§ä¼Ĺ": 5579,
      "ç§ģåĭŁ": 5580,
      "ao": 5581,
      "å§Ķæīĺ": 5582,
      "ç¦ģæŃ¢": 5583,
      "èī²å½©": 5584,
      "æ³¨éĩį": 5585,
      "æĭľçĻ»": 5586,
      "æĺ¯æĮĩ": 5587,
      "ç§ĳæĬĢæľīéĻĲåħ¬åı¸": 5588,
      "ãĢĤä¸ī": 5589,
      "å°ļæľª": 5590,
      "ime": 5591,
      "æ¯«æĹł": 5592,
      "ï¼Įå¿ĥ": 5593,
      "In": 5594,
      "å®´": 5595,
      "ãģĵ": 5596,
      "è±«": 5597,
      "ial": 5598,
      "é¢Ī": 5599,
      "æŃ»äºĨ": 5600,
      "åĩıæĮģ": 5601,
      "åŃ¦åİĨ": 5602,
      "ãĢĤè¿Ļç§į": 5603,
      "ike": 5604,
      "åķ¡": 5605,
      "å¥½åĥı": 5606,
      "æĪĸè®¸": 5607,
      "èĶļ": 5608,
      "æŀ«": 5609,
      "å¤§å¤ļæķ°": 5610,
      "æĴĴ": 5611,
      "æ¶Īéĺ²": 5612,
      "ç¼ĸåĪ¶": 5613,
      "ä¹Łæ²¡": 5614,
      "ä¹Łè®¸": 5615,
      "æĹ¥åľ¨": 5616,
      "åį´æĺ¯": 5617,
      "ï¼Įåħ¨åĽ½": 5618,
      "ï¼ĮæĮīçħ§": 5619,
      "çĶ³æĬ¥": 5620,
      "ä»¥ä¸ĭç®Ģç§°": 5621,
      "å¦»åŃĲ": 5622,
      "ä¹Łåı¯ä»¥": 5623,
      "èŀº": 5624,
      "è´«åĽ°": 5625,
      "åĴ¬": 5626,
      "ost": 5627,
      "ç©¶ç«Ł": 5628,
      "åĽŀåİ»": 5629,
      "åįģä¸Ģç«ł": 5630,
      "çĶŁæĦı": 5631,
      "åĳ½ä»¤": 5632,
      "ä¿Ŀåģ¥": 5633,
      "çłĤ": 5634,
      "æľĪèĩ³": 5635,
      "çļĦå¤ĸ": 5636,
      "è¿ĺæ²¡æľī": 5637,
      "èµĮ": 5638,
      "èĩªè¡Į": 5639,
      "åİŁæĸĻ": 5640,
      "Ġby": 5641,
      "çĪ½": 5642,
      "Ġçİĭ": 5643,
      "Ġno": 5644,
      "æĸľ": 5645,
      "æĺŃ": 5646,
      "åīįæĻ¯": 5647,
      "äººåĬĽ": 5648,
      "æī¶è´«": 5649,
      "æĺ¯æĪĳ": 5650,
      "é¡¹çĽ®çļĦ": 5651,
      "è¯ģæį®": 5652,
      "ãĢĭï¼ĮãĢĬ": 5653,
      "çīĪæĿĥ": 5654,
      "ãĢĤåı¦å¤ĸ": 5655,
      "åľ°è¯´": 5656,
      "åĩºçİ°åľ¨": 5657,
      "è¾£": 5658,
      "ç¨»": 5659,
      "çĽ¸åħ³çļĦ": 5660,
      "éĥ¨çļĦ": 5661,
      "ä¸ľåįĹ": 5662,
      "éĹ¨åı£": 5663,
      "å¾ĹåĪ°äºĨ": 5664,
      "çĻ¾å¹´": 5665,
      "æĬ¤çĲĨ": 5666,
      "Ġ/": 5667,
      "åı¦ä¸Ģä¸ª": 5668,
      "å®ĹæķĻ": 5669,
      "ï¼ļä¸Ģ": 5670,
      "æĺİçļĦ": 5671,
      "ç¼ºä¹ı": 5672,
      "ah": 5673,
      "åĿĳ": 5674,
      "çĽ¯": 5675,
      "éĥ½èĥ½": 5676,
      "æĪ¿ä¼ģ": 5677,
      "æ£ĭ": 5678,
      "åħļçļĦ": 5679,
      "çŃīäºº": 5680,
      "çĶ¨åľ°": 5681,
      "å°±åĥı": 5682,
      "å¹¼åĦ¿åĽŃ": 5683,
      "ï¼ĮçĽ´æİ¥": 5684,
      "æĶ¶éĽĨ": 5685,
      "ç²¤": 5686,
      "æĮ¤": 5687,
      "æ·±åľ³å¸Ĥ": 5688,
      "å¼ºå¤§": 5689,
      "å¯ĨåĪĩ": 5690,
      "äººåĿĩ": 5691,
      "ä¸įåı¯èĥ½": 5692,
      "åħ³èģĶ": 5693,
      "ä¸´æĹ¶": 5694,
      "Ġå°ı": 5695,
      "åĭ¾": 5696,
      "èµĦè®¯": 5697,
      "ä¼ĺåħĪ": 5698,
      "å±±ä¸ľçľģ": 5699,
      "æľŁçļĦ": 5700,
      "éĺ³å¸Ĥ": 5701,
      "ĉĉ": 5702,
      "éĢ¢": 5703,
      "ç¬¬ä¸ĢçĻ¾": 5704,
      "çŃ¾ç½²": 5705,
      "å½±è§Ĩ": 5706,
      "åįľ": 5707,
      "ä¾¦": 5708,
      "å¤ªå¹³": 5709,
      "éĻĦå±ŀ": 5710,
      "æ´»è·ĥ": 5711,
      "çºªå½ķ": 5712,
      "åľ°éĵģ": 5713,
      "ãĢĤåħ¨": 5714,
      "åħ¬äº¤": 5715,
      "ï¼Įä¸įèĥ½": 5716,
      "çļ±": 5717,
      "åĮºåĿĹ": 5718,
      "ãĤĬ": 5719,
      "éª¤": 5720,
      "åĴĸåķ¡": 5721,
      "ç³ķ": 5722,
      "ç»ıæµİåıĳå±ķ": 5723,
      "åĬ¨çĶ»": 5724,
      "æĹħè¡Į": 5725,
      "å¨ģèĥģ": 5726,
      "å¤§å¸Ī": 5727,
      "æĢĸ": 5728,
      "è§Ħå¾ĭ": 5729,
      "å¦ĥ": 5730,
      "åįģäºĮç«ł": 5731,
      "ä¸Ńåħ±": 5732,
      "è¯¾é¢ĺ": 5733,
      "ï¼Įå»ºç«ĭ": 5734,
      "ç»ĵå©ļ": 5735,
      "å¾Īå¥½": 5736,
      "éŁ¦": 5737,
      "å§ĳå¨ĺ": 5738,
      "ff": 5739,
      "ame": 5740,
      "è´§å¸ģæĶ¿çŃĸ": 5741,
      "æĺ¯æľī": 5742,
      "è®°å¾Ĺ": 5743,
      "èĬ¬": 5744,
      "ç¡®è¯ĬçĹħä¾ĭ": 5745,
      "åį«æĺŁ": 5746,
      "æĬĢæľ¯çļĦ": 5747,
      "åıįå¯¹": 5748,
      "ï¼ĮåĽ½åĨħ": 5749,
      "å®ļä»·": 5750,
      "çĳ¶": 5751,
      "Ġch": 5752,
      "ä¿ĿçķĻ": 5753,
      "è´ŃæĪ¿": 5754,
      "æĵİ": 5755,
      "åįļçī©é¦Ĩ": 5756,
      "åĪ«çļĦ": 5757,
      "ï¼ĮåĽĽ": 5758,
      "æ°§åĮĸ": 5759,
      "åŁĭ": 5760,
      "ãĢĤå°ı": 5761,
      "èµĽéģĵ": 5762,
      "ï¼ĮéĻ¤": 5763,
      "è¡į": 5764,
      "èĹ¤": 5765,
      "èŃ¦å¯Ł": 5766,
      "ä¸ĩäº¿åħĥ": 5767,
      "ï¼ĮåħĪ": 5768,
      "ä¸įåĩº": 5769,
      "æ°ĳçĶŁ": 5770,
      "æ¯Ķçī¹å¸ģ": 5771,
      "ï¼Įèĥ½å¤Ł": 5772,
      "ç´§æĢ¥": 5773,
      "æ¨¡æĭŁ": 5774,
      "äººæ°ĳåħ±åĴĮåĽ½": 5775,
      "ä¼°è®¡": 5776,
      "æŀ¶æŀĦ": 5777,
      "é¦Ī": 5778,
      "åĴĮå¹³": 5779,
      "åĿ¤": 5780,
      "å®¹éĩı": 5781,
      "ä¼łæī¿": 5782,
      "æ·±åĪ»": 5783,
      "æĸĩèīº": 5784,
      "è¢ĸ": 5785,
      "ï¼ŁæĪĳ": 5786,
      "çģµæ´»": 5787,
      "éĥ½è¦ģ": 5788,
      "åĲīæŀĹ": 5789,
      "ä¼Ĺäºº": 5790,
      "ï¼Įå¹¶åľ¨": 5791,
      "èĬĿ": 5792,
      "èĮĥåĽ´åĨħ": 5793,
      "ç§°åı·": 5794,
      "åĳ½è¿Ĳ": 5795,
      "çļĦåĨħå®¹": 5796,
      "æĸĮ": 5797,
      "åİŁæłĩé¢ĺ": 5798,
      "å¿ħçĦ¶": 5799,
      "åģľè½¦": 5800,
      "éĥ¡": 5801,
      "Ġlove": 5802,
      "ï¼Įåħ·æľī": 5803,
      "æĢ§æł¼": 5804,
      "æıĲåĪ°": 5805,
      "çŁ¥è¯Ĩäº§æĿĥ": 5806,
      "ies": 5807,
      "ä½ĵåĪ¶": 5808,
      "åĪĩå®ŀ": 5809,
      "ï¼Įæ°´": 5810,
      "çĶŁåŃĺ": 5811,
      "ç¬ĳéģĵ": 5812,
      "èĭ±æĸĩ": 5813,
      "âĢķâĢķ": 5814,
      "éļľç¢į": 5815,
      "åĴĮç¤¾ä¼ļ": 5816,
      "æŃ¤æĹ¶": 5817,
      "ç©´": 5818,
      "åıĻ": 5819,
      "éĻĮ": 5820,
      "åĨĽéĺŁ": 5821,
      "å¾®å¾®": 5822,
      "åİŁæľ¬": 5823,
      "uc": 5824,
      "åĽŀæĬ¥": 5825,
      "ä¸įå¤ļ": 5826,
      "åĪĿæŃ¥": 5827,
      "çİ°ä»£åĮĸ": 5828,
      "å¢ĥå¤ĸ": 5829,
      "æľīåı¯èĥ½": 5830,
      "å½ĵå¹´": 5831,
      "å®¶ä¼Ļ": 5832,
      "æĹ¬": 5833,
      "çīº": 5834,
      "å±±åĮº": 5835,
      "ä¹¾": 5836,
      "çĪ¬": 5837,
      "çİĩä¸º": 5838,
      "ç»´ä¿®": 5839,
      "ass": 5840,
      "åĲ¸æĶ¶": 5841,
      "ä¸ļåĨħ": 5842,
      "çŁ£": 5843,
      "æĺ¾å¾Ĺ": 5844,
      "ï¼Įéģĵ": 5845,
      "è¾ĥé«ĺ": 5846,
      "åħ¥äºĨ": 5847,
      "çĹĽèĭ¦": 5848,
      "æĮ¯åħ´": 5849,
      "ï¼Įå¿ħé¡»": 5850,
      "ï¼īï¼ļ": 5851,
      "ort": 5852,
      "å¤§æ¦Ĥ": 5853,
      "åĴĮåħ¶ä»ĸ": 5854,
      "ä¼ļåĦ¿": 5855,
      "èĳ¬": 5856,
      "èĢĮä¸Ķ": 5857,
      "æ¸Ĺ": 5858,
      "ãĢĤèĩª": 5859,
      "æħĮ": 5860,
      "ï¼ĮåĿĩ": 5861,
      "åĶĩ": 5862,
      "æĺ¾çĿĢ": 5863,
      "åĴ±ä»¬": 5864,
      "èĤ¾": 5865,
      "çº¿è·¯": 5866,
      "æŀ¢": 5867,
      "èº²": 5868,
      "ä¸įè¶ħè¿ĩ": 5869,
      "è¯ģçĽĳä¼ļ": 5870,
      "çīºçī²": 5871,
      "çº¦ä¸º": 5872,
      "é¡¾éĹ®": 5873,
      "ï¼Įçľ¼": 5874,
      "ãĢĤéĢļè¿ĩ": 5875,
      "æĸĳ": 5876,
      "æĶĢ": 5877,
      "ï¼ĮæĿ¥": 5878,
      "ï¼Įæĺİ": 5879,
      "èİ·å¥ĸ": 5880,
      "ä¹Łå°±": 5881,
      "æĸ¯çī¹": 5882,
      "åĥ§": 5883,
      "ï¼ĮåĪĨåĪ«": 5884,
      "åıĳæĶ¾": 5885,
      "æĸ¹çļĦ": 5886,
      "è¡¨éĿ¢": 5887,
      "çĹķ": 5888,
      "æĪĲç«ĭäºİ": 5889,
      "ï¼Įè¿Ļä¸Ģ": 5890,
      "ä½Ĳ": 5891,
      "çĶµæºĲ": 5892,
      "é»ĳèī²": 5893,
      "æĢĢçĸĳ": 5894,
      "ä¾į": 5895,
      "æŁĲäºĽ": 5896,
      "æ¬ł": 5897,
      "ï¼ĮåĪĺ": 5898,
      "çŁ©": 5899,
      "è¿Ľç¨ĭ": 5900,
      "äºĪä»¥": 5901,
      "her": 5902,
      "éĦ": 5903,
      "çļĦåİĨåı²": 5904,
      "ï¼ĮæĤ¨": 5905,
      "âĢľå¤§": 5906,
      "ï¼Įäººä»¬": 5907,
      "æľŁåĨħ": 5908,
      "èĸĩ": 5909,
      "èĥľåĪ©": 5910,
      "æĪ¿äº§": 5911,
      "ï¼Įè½¦": 5912,
      "æľºçļĦ": 5913,
      "App": 5914,
      "æ»ĭ": 5915,
      "å°Ŀè¯ķ": 5916,
      "å®¶å±ħ": 5917,
      "ä¸Ńæľī": 5918,
      "åĽŀå¿Ĩ": 5919,
      "å®Ŀå®Ŀ": 5920,
      "å«ģ": 5921,
      "åĪ¸åķĨ": 5922,
      "éī´å®ļ": 5923,
      "æ±ª": 5924,
      "Ġun": 5925,
      "ãĢĤä½ľä¸º": 5926,
      "æĬ¹": 5927,
      "åİĮ": 5928,
      "æľĪåºķ": 5929,
      "Ġdo": 5930,
      "é¡¾å®¢": 5931,
      "çļĦåŁºç¡Ģä¸Ĭ": 5932,
      ".com": 5933,
      "æİ©": 5934,
      "ä¸ĵæ³¨": 5935,
      "æ¡Ĩæŀ¶": 5936,
      "ä¸ļä¸»": 5937,
      "æĪĲçļĦ": 5938,
      "åģļæ³ķ": 5939,
      "è¾ĵåĩº": 5940,
      "ä¼ļçļĦ": 5941,
      "æķĮäºº": 5942,
      "è·¨å¢ĥ": 5943,
      "ä¸Ģè¾¹": 5944,
      "ä¿±ä¹Ĳ": 5945,
      "éĿŀæ³ķ": 5946,
      "èĬ±åĽŃ": 5947,
      "è£ħé¥°": 5948,
      "æ¬§åħĥ": 5949,
      "æĹ¥åĨħ": 5950,
      "æĸ°åħ´": 5951,
      "ç®¡çĲĨçļĦ": 5952,
      "éĺ²æĬ¤": 5953,
      "åķĨå®¶": 5954,
      "åįıåĬ©": 5955,
      "é«ĺåħ´": 5956,
      "ãģĤ": 5957,
      "æĦıå¤§åĪ©": 5958,
      "èħĬ": 5959,
      "åĩłå¤©": 5960,
      "å®ŀçĶ¨": 5961,
      "å®ĺåĳĺ": 5962,
      "å°ĳæķ°": 5963,
      "è¦ģç´ł": 5964,
      "ï¼Įè¿Ľ": 5965,
      "æĺ¯è°ģ": 5966,
      "ä¾Ŀæīĺ": 5967,
      "è°¨æħİ": 5968,
      "éķ¿æ±Ł": 5969,
      "æīĢå±ŀ": 5970,
      "æľªæĿ¥çļĦ": 5971,
      "æ¯ıæĹ¥": 5972,
      "çļĦæķ°æį®": 5973,
      "åĪĽæĦı": 5974,
      "è¥¿éĥ¨": 5975,
      "ĠåĽĽ": 5976,
      "æĶ¶è´¹": 5977,
      "ï¼Įæīįèĥ½": 5978,
      "æıĲäº¤": 5979,
      "åį³ä½¿": 5980,
      "ãĢģåī¯": 5981,
      "åĨ¬å¥¥": 5982,
      "PC": 5983,
      "æľįåĬ¡çļĦ": 5984,
      "ï¼ĮéĻĪ": 5985,
      "æģĲæĢĸ": 5986,
      "è©": 5987,
      "æ°ĳéĹ´": 5988,
      "âĶĢ": 5989,
      "æ³ķå®ļ": 5990,
      "æľĢå¥½çļĦ": 5991,
      "çĥ¤": 5992,
      "åĲĪä¼Ļ": 5993,
      "çī©çļĦ": 5994,
      "çĤ¹çļĦ": 5995,
      "åĪ¶åĵģ": 5996,
      "è¿ĺèĥ½": 5997,
      "âĢľæĪĳ": 5998,
      "é«ĺä¸Ń": 5999,
      "æ¸Ĭ": 6000,
      "èĥĮæĻ¯ä¸ĭ": 6001,
      "åĩºæīĭ": 6002,
      "åįģä¸īç«ł": 6003,
      "æ£ī": 6004,
      "å·¥ç¨ĭå¸Ī": 6005,
      "çĶ¨åĵģ": 6006,
      "æłĩçļĦ": 6007,
      "Ġpro": 6008,
      "ä¹Łå°Ĩ": 6009,
      "çĶŁæ´»çļĦ": 6010,
      "ï¼ĮæĢİä¹Ī": 6011,
      "ç®¡æİ§": 6012,
      "çĽĳæİ§": 6013,
      "ãģł": 6014,
      "å®Įç¾İ": 6015,
      "ä¸ŃåĴĮ": 6016,
      "æµĳ": 6017,
      "åŁºéĩĳç®¡çĲĨäºº": 6018,
      "ï¼ĮæĹ©": 6019,
      "åĽ½å¤ĸ": 6020,
      "èĪªå¤©": 6021,
      "ç§©": 6022,
      "é¥±": 6023,
      "å¹¶ä¸Ķ": 6024,
      "ãĢĤçİ°": 6025,
      "ä¸ºä½ķ": 6026,
      "åħ³å¿ĥ": 6027,
      "AM": 6028,
      "ment": 6029,
      "ï¼ĮçŃī": 6030,
      "ï¼Įåı¯èĥ½": 6031,
      "çļĦä½ľçĶ¨": 6032,
      "è·¯ä¸Ĭ": 6033,
      "çļĦè¦ģæ±Ĥ": 6034,
      "è·¯çº¿": 6035,
      "ç°": 6036,
      "ä¸Ģçľ¼": 6037,
      "ä¸įåĬ¨": 6038,
      "å®ļåĪ¶": 6039,
      "çĻ¾ä¸ĩ": 6040,
      "ç²¾å½©": 6041,
      "Ġå¼ł": 6042,
      "å¦¥": 6043,
      "çķľ": 6044,
      "èģļéĽĨ": 6045,
      "åıĳçļĦ": 6046,
      "éĺ²æ²»": 6047,
      "å¤ĸæ±ĩ": 6048,
      "åĬ¿åĬĽ": 6049,
      "åĲĪå¹¶": 6050,
      "ä¸Ģåº¦": 6051,
      "çĸ²": 6052,
      "å½ĵä»£": 6053,
      "æĴ°": 6054,
      "æ¨±": 6055,
      "ä¼łéĢĴ": 6056,
      "æŁ¥è¯¢": 6057,
      "åĺĽ": 6058,
      "æ¼Ķåĩº": 6059,
      "åĮ»å¸Ī": 6060,
      "Ġç¬¬ä¸ĢèĬĤ": 6061,
      "åİĺç±³": 6062,
      "å¯Ĥ": 6063,
      "æıĲåĩºäºĨ": 6064,
      "è¾½å®ģ": 6065,
      "éħ¬": 6066,
      "éĻĨç»Ń": 6067,
      "èĶ¬èıľ": 6068,
      "ç¾İå¥½": 6069,
      "å´©": 6070,
      "æª": 6071,
      "ï¼ĮæĮī": 6072,
      "åµ": 6073,
      "åĩºåĶ®": 6074,
      "æĹ¥èĩ³": 6075,
      "åĲįçļĦ": 6076,
      "æĸ¯åĿ¦": 6077,
      "æ¸©æļĸ": 6078,
      "æĺ¯çĶ±": 6079,
      "ï¼Įåıĳçİ°": 6080,
      "æµĭéĩı": 6081,
      "éľľ": 6082,
      "å¤ĸåĽ½": 6083,
      "ï¼Įè¿ĳ": 6084,
      "ç¬¼": 6085,
      "è§Ĥå¿µ": 6086,
      "ç»µ": 6087,
      "åįģåĽĽç«ł": 6088,
      "å¤ĩæ¡Ī": 6089,
      "Ġç¬¬äºĮèĬĤ": 6090,
      "çĲĥéĺŁ": 6091,
      "ç®Ĺæ³ķ": 6092,
      "åıī": 6093,
      "ä¸įå¤Ł": 6094,
      "éħ±": 6095,
      "ex": 6096,
      "ï¼Įæīĭ": 6097,
      "æī¿è®¤": 6098,
      "è¿Ļä½į": 6099,
      "æļĤæĹ¶": 6100,
      "è®©ä½ł": 6101,
      "æīĵç®Ĺ": 6102,
      "æ§½": 6103,
      "å·¨å¤´": 6104,
      "æ½ľåĬĽ": 6105,
      "ä¸Ģåľº": 6106,
      "ä¿¡ä»»": 6107,
      "è¿ŀè½½": 6108,
      "äºĨä¸ĢäºĽ": 6109,
      "GDP": 6110,
      "å¤§å°ı": 6111,
      "åĲĮæŃ¥": 6112,
      "å°Ĩåħ¶": 6113,
      "ï¼ĮçĶŁ": 6114,
      "æĽĿ": 6115,
      "æĸ°æĬĢæľ¯": 6116,
      "ä½¿å¾Ĺ": 6117,
      "å¤±åİ»": 6118,
      "çļĦæľįåĬ¡": 6119,
      "çļĦåħ³ç³»": 6120,
      "____": 6121,
      "çģµéŃĤ": 6122,
      "ãĢģçľģ": 6123,
      "çī©èµĦ": 6124,
      "ï¼Įä¸įæĺ¯": 6125,
      "çªĦ": 6126,
      "Ġç¬¬åħŃ": 6127,
      "ase": 6128,
      "äººä¸º": 6129,
      "æĮĸæİĺ": 6130,
      "å¯¹æ¯Ķ": 6131,
      "ä¸įå¦Ĥ": 6132,
      "ï¼ĮåĪĨ": 6133,
      "é¢ĸ": 6134,
      "æ·ĭ": 6135,
      "è¥¿åįĹ": 6136,
      "ï¼Įåİ»": 6137,
      "å°ıç±³": 6138,
      "çĥŃæĥħ": 6139,
      "ord": 6140,
      "ĠĠĠĠĠĠĠĠĠĠĠĠ": 6141,
      "æľ¬ç§ĳ": 6142,
      "å³¡": 6143,
      "åľ°åĮºçļĦ": 6144,
      "å¤§éģĵ": 6145,
      "æĹłçº¿": 6146,
      "ï¼Įåį³ä½¿": 6147,
      "åĤ»": 6148,
      "ï¼Įåģļ": 6149,
      "Ġpl": 6150,
      "è¿ĺä¼ļ": 6151,
      "Ġat": 6152,
      "ä¸»åĬĽ": 6153,
      "èµĦæľ¬å¸Ĥåľº": 6154,
      "è¾ħåĬ©": 6155,
      "ãĢĤèĭ¥": 6156,
      "å»ºçŃĳéĿ¢ç§¯": 6157,
      "åıĺåĬ¨": 6158,
      "çĶµåĻ¨": 6159,
      "æĻºèĥ½åĮĸ": 6160,
      "èĦĨ": 6161,
      "ç¬¬ä¹Ŀ": 6162,
      "æľ¬åľ°": 6163,
      "çļĦé£İéĻ©": 6164,
      "ç»ŁçŃ¹": 6165,
      "æĪªæŃ¢": 6166,
      "form": 6167,
      "çº½çº¦": 6168,
      "ä¼ĳæģ¯": 6169,
      "ãĢĤæĿİ": 6170,
      "å®ª": 6171,
      "éĵŃ": 6172,
      "åħ¬å¹³": 6173,
      "æľīå¤ļ": 6174,
      "æĽ´é«ĺ": 6175,
      "æ·Ģ": 6176,
      "æĢ»éĥ¨": 6177,
      "AS": 6178,
      "ear": 6179,
      "æ¸ħæ´ģ": 6180,
      "ï¼Įä¹Łå°±æĺ¯": 6181,
      "âĢĿä¸º": 6182,
      "åŃĲéĩĮ": 6183,
      "åĽ½å®¶çļĦ": 6184,
      "æĺı": 6185,
      "æĻ¯è§Ĥ": 6186,
      "å¼ķè¿Ľ": 6187,
      "ä¹¦æ³ķ": 6188,
      "ï¼Įä½łä»¬": 6189,
      "ï¼Įå°½ç®¡": 6190,
      "ä¹Łè¦ģ": 6191,
      "éĩįçļĦ": 6192,
      "æĶ¿åįı": 6193,
      "ä¸ĸçķĮä¸Ĭ": 6194,
      "åıĳè¨Ģ": 6195,
      "åĲĮä¸Ģ": 6196,
      "èĮħåı°": 6197,
      "çļĦèĥ½åĬĽ": 6198,
      "çĶµä¿¡": 6199,
      "ç¥ŀç§ĺ": 6200,
      "çĪ¸çĪ¸": 6201,
      "ä¸Ĭåĳ¨": 6202,
      "ä¹Łå°±æĺ¯": 6203,
      "æĹłæķ°": 6204,
      "çķĻä¸ĭ": 6205,
      "æ¬§çĽŁ": 6206,
      "éģŃéģĩ": 6207,
      "çĭ®": 6208,
      "ç¿ł": 6209,
      "ian": 6210,
      "ä¸Ģå®ļè¦ģ": 6211,
      "éĳ": 6212,
      "è¿ĲåĬ¨åĳĺ": 6213,
      "æķ²": 6214,
      "ï¼Įæ·±": 6215,
      "åĮºéĹ´": 6216,
      "ãĢĤå½ĵçĦ¶": 6217,
      "èµ°è¿Ľ": 6218,
      "çĶµè§Ĩåī§": 6219,
      "èµ·çĤ¹": 6220,
      "ï¼ĮåºĶå½ĵ": 6221,
      "ound": 6222,
      "na": 6223,
      "é¹¤": 6224,
      "%ä»¥ä¸Ĭ": 6225,
      "éĢļæĬ¥": 6226,
      "éĨĩ": 6227,
      "ire": 6228,
      "èĬĤèĥ½": 6229,
      "èİ·å¾ĹäºĨ": 6230,
      ";amp": 6231,
      "ä¸Ģçº§": 6232,
      "é¹¿": 6233,
      "é¡¿æĹ¶": 6234,
      "ãĤĵ": 6235,
      "ç§©åºı": 6236,
      "å¤§æķ°æį®": 6237,
      "//": 6238,
      "çĽĨ": 6239,
      "è¯ģä¹¦": 6240,
      "ä¸įèī¯": 6241,
      "äºĨä»ĸ": 6242,
      "%åĴĮ": 6243,
      "æĹ¢çĦ¶": 6244,
      "ï¼Įèĭı": 6245,
      "æ¯ĽåĪ©çİĩ": 6246,
      "EC": 6247,
      "ï¼Įçī¹åĪ«æĺ¯": 6248,
      "æµ¸": 6249,
      "ä¼łè¯´": 6250,
      "æ±ģ": 6251,
      "ä¸ĩè¾Ĩ": 6252,
      "æ»ŀ": 6253,
      "ï¼½": 6254,
      "è¡Ķ": 6255,
      "ç©ºä¸Ń": 6256,
      "ä¸ĩå¹³æĸ¹ç±³": 6257,
      "æķĪçĽĬ": 6258,
      "åĨ²çªģ": 6259,
      "å·¥äºº": 6260,
      "ï¼īåĴĮ": 6261,
      "ç»Ļä»ĸ": 6262,
      "è¶ħè¶Ĭ": 6263,
      "æ±Łèĭıçľģ": 6264,
      "ãĢĤä¸Ń": 6265,
      "åĽ½åĨħå¤ĸ": 6266,
      "åįģäºĶç«ł": 6267,
      "ä¿±ä¹Ĳéĥ¨": 6268,
      "ï¼Įä¸ĢçĽ´": 6269,
      "Ġnot": 6270,
      "çĶŁæĢģçİ¯å¢ĥ": 6271,
      "æīĢå¾Ĺ": 6272,
      "é«ĺä½į": 6273,
      "ç¬ĳçĿĢ": 6274,
      "åĲĪçº¦": 6275,
      "ï¼ĮæĶ¯æĮģ": 6276,
      "å·²æľī": 6277,
      "å¯¹è¯Ŀ": 6278,
      "ãĢĤæ¯Ķå¦Ĥ": 6279,
      "å½°": 6280,
      "åŁºéĩĳç»ıçĲĨ": 6281,
      "ç²īä¸Ŀ": 6282,
      "æĸ°çĸĨ": 6283,
      "ï¼ĮåĨħ": 6284,
      "æ£Ĵ": 6285,
      "å¤§èµĽ": 6286,
      "AT": 6287,
      "æľĪçļĦ": 6288,
      "éļ¶": 6289,
      "æ¶¯": 6290,
      "ĠAnd": 6291,
      "ï¼»": 6292,
      "åĲĦèĩª": 6293,
      "ä¸ĬéĿ¢": 6294,
      "ä¿©": 6295,
      "åĪ©äºļ": 6296,
      "è§Ħå®ļçļĦ": 6297,
      "ber": 6298,
      "åĦĴ": 6299,
      "å®ģæ³¢": 6300,
      "åĵĪåĵĪ": 6301,
      "),": 6302,
      "æ°ĶçļĦ": 6303,
      "ä¸įå¾Ĺä¸į": 6304,
      "èĢĮä¸į": 6305,
      "é©¬åħĭ": 6306,
      "ov": 6307,
      "æ¦Ĥè¿°": 6308,
      "è°ĥèĬĤ": 6309,
      "æīĩ": 6310,
      "å¼¦": 6311,
      "å¼ºåĬ²": 6312,
      "ï¼Įå¸®åĬ©": 6313,
      "é»ĳé¾Ļ": 6314,
      "æľ´": 6315,
      "æ»©": 6316,
      "ng": 6317,
      "çļĦæľºä¼ļ": 6318,
      "è¯´æ³ķ": 6319,
      "çĶĺèĤĥ": 6320,
      "éĥ¨ä»¶": 6321,
      "ï¼Įä¸ĢèĪ¬": 6322,
      "èĸĽ": 6323,
      "éĤ£ç§į": 6324,
      "è¿ĶåĽŀ": 6325,
      "åıĳçĶŁäºĨ": 6326,
      "own": 6327,
      "å±ĤéĿ¢": 6328,
      "ä¸Ĭè¡Į": 6329,
      "ä¾ĿéĿł": 6330,
      "ï¼Įä¼ģä¸ļ": 6331,
      "ä¹ĭå¤Ħ": 6332,
      "åľ¨æŃ¤": 6333,
      "æ²³åįĹçľģ": 6334,
      "æ²«": 6335,
      "ä¹Łèĥ½": 6336,
      "å¼Ģåı£": 6337,
      "æŁĲç§į": 6338,
      "ä¾Ŀèµĸ": 6339,
      "âĨĴ": 6340,
      "Ġso": 6341,
      "éĳ«": 6342,
      "åĩĢåĢ¼": 6343,
      "æĢģåĬ¿": 6344,
      "å¤§åŃ¦çĶŁ": 6345,
      "ï¼Įæĭ¥æľī": 6346,
      "çłĸ": 6347,
      "åį°è±¡": 6348,
      "æŁ¯": 6349,
      "æĽ¿ä»£": 6350,
      "ran": 6351,
      "å¤´éĥ¨": 6352,
      "åįģåħŃç«ł": 6353,
      "è½¬åĲĳ": 6354,
      "æĹ¥æ¶Īæģ¯": 6355,
      "æĤĶ": 6356,
      "éĢĤçĶ¨": 6357,
      "è´§çī©": 6358,
      "ï¼Įå®ī": 6359,
      "æĭħä¿Ŀ": 6360,
      "å¼ŁåŃĲ": 6361,
      "æľĢå¥½": 6362,
      "ä¸Ģçīĩ": 6363,
      "Ġare": 6364,
      "å¹ħåº¦": 6365,
      "è¯»ä¹¦": 6366,
      "åĬŀäºĭ": 6367,
      "åħ¬ä¼Ĺåı·": 6368,
      "åĨĻä½ľ": 6369,
      "ãĢĤè¿Ļæĺ¯": 6370,
      "åĲİç»Ń": 6371,
      "å¸¦é¢Ĩ": 6372,
      "ãĢĤèĢĮä¸Ķ": 6373,
      "å¥¹ä»¬": 6374,
      "æĶ¾å¿ĥ": 6375,
      "åĮºåĿĹéĵ¾": 6376,
      "è½¨éģĵ": 6377,
      "è¥¿åĮĹ": 6378,
      "æľĢå¤ļ": 6379,
      "ç¥¸": 6380,
      "ï¼Įä¸įå¾Ĺ": 6381,
      "æĸ¹ä½į": 6382,
      "è¿Ľåİ»": 6383,
      "å§»": 6384,
      "ãĥ¼": 6385,
      "åı¯è§ģ": 6386,
      "ç¼ĸåĨĻ": 6387,
      "æĭįåįĸ": 6388,
      "åĮºåĪ«": 6389,
      "ç»§æī¿": 6390,
      "èľĤ": 6391,
      "ä¹ĭä¸Ĭ": 6392,
      "ï¼Įæ±ī": 6393,
      "å¹´æľ«": 6394,
      "åĲĪèĤ¥": 6395,
      "é«ĺè´¨éĩıåıĳå±ķ": 6396,
      "è´ª": 6397,
      "åħ¬å¯ĵ": 6398,
      "ä¼łæĦŁ": 6399,
      "ould": 6400,
      "ç¢Ĺ": 6401,
      "é¤Ĳåİħ": 6402,
      "çĻ½éħĴ": 6403,
      "åĻ¨çļĦ": 6404,
      ".HK": 6405,
      "ä¼łåªĴ": 6406,
      "èĦ¸èī²": 6407,
      "ï¼Įåħ¨éĿ¢": 6408,
      "çļĦåħ¨": 6409,
      "åĨ¥": 6410,
      "èİ·æĤī": 6411,
      "å¢ŀåĬłäºĨ": 6412,
      "èĪ±": 6413,
      "çİĩåħĪ": 6414,
      "åĴĮè°Ĳ": 6415,
      "äº§çĶŁçļĦ": 6416,
      "æĳĩå¤´": 6417,
      "å¿«æīĭ": 6418,
      "åĨħå®¹ç®Ģä»ĭ": 6419,
      "iz": 6420,
      "çİ°çĬ¶": 6421,
      "éĺ²èĮĥ": 6422,
      "èĦ±è´«": 6423,
      "ãĢģæĬĢæľ¯": 6424,
      "æĢ»æĶ¶åħ¥": 6425,
      "èµ°åĪ°": 6426,
      "oug": 6427,
      "äº§ä¸ļåıĳå±ķ": 6428,
      "çļĦåħ¬åı¸": 6429,
      "ï¼ĮåĲ¦åĪĻ": 6430,
      "ï¼ĮĊ": 6431,
      "åĵ¥åĵ¥": 6432,
      "å¸½": 6433,
      "æł¡éķ¿": 6434,
      "åħįçĸ«": 6435,
      "OP": 6436,
      "åĪ°è¾¾": 6437,
      "åįģä¸ĥç«ł": 6438,
      "çī©åĵģ": 6439,
      "ä¸Īå¤«": 6440,
      "old": 6441,
      "èį£èİ·": 6442,
      "æĺ¯å¯¹": 6443,
      "ark": 6444,
      "å¨ĩ": 6445,
      "éĢĤå½ĵ": 6446,
      "ä¸ŃéĹ´": 6447,
      "Ġas": 6448,
      "çĶ»éĿ¢": 6449,
      "æľīæľº": 6450,
      "åĬłå¯Ĩ": 6451,
      "ä¸¾æİª": 6452,
      "ï¼ĮæĿ¨": 6453,
      "å§¬": 6454,
      "è¿ĺæ²¡": 6455,
      "çļĦè¡Įä¸º": 6456,
      "æµİåįĹ": 6457,
      "Ġwas": 6458,
      "è´¢æĬ¥": 6459,
      "çļĦä¸ĢäºĽ": 6460,
      "å¤§åĬĽ": 6461,
      "åĲĪæł¼": 6462,
      "æĸ°åįİç¤¾": 6463,
      "ç¼ł": 6464,
      "ãģį": 6465,
      ",åľ¨": 6466,
      "âĢľä¸ŃåĽ½": 6467,
      "åıĳè¾¾": 6468,
      "åłµ": 6469,
      "çĳŁ": 6470,
      "AN": 6471,
      "ï¼Įåĥı": 6472,
      "çĦ°": 6473,
      "ï¼Įç»ĵæŀľ": 6474,
      "ä¸ĵçĶ¨": 6475,
      "ï¼Įä¸ĩ": 6476,
      "ç²ĺ": 6477,
      "å®ŀçİ°äºĨ": 6478,
      "èŃ¦æĸ¹": 6479,
      "è¾¾åĪ°äºĨ": 6480,
      "very": 6481,
      "çŃĭ": 6482,
      "éĹ·": 6483,
      "éĵĥ": 6484,
      "æİ¥ä¸ĭæĿ¥": 6485,
      "èĿ¶": 6486,
      "ä¸ĵé¢ĺ": 6487,
      "å½¦": 6488,
      "å¼ıçļĦ": 6489,
      "ä¸Ģä½ĵåĮĸ": 6490,
      "çĸ¯çĭĤ": 6491,
      "æ¯ıä¸Ģ": 6492,
      "åįģåħ«ç«ł": 6493,
      "ãĢģå¤ļ": 6494,
      "è¾¹çļĦ": 6495,
      "âĢĿãĢģ": 6496,
      "è®¿éĹ®": 6497,
      "ec": 6498,
      "æĹ¶æĬ¥": 6499,
      "è¿Ĳä½ľ": 6500,
      "å½±çīĩ": 6501,
      "çºº": 6502,
      "åĹ¯": 6503,
      "ĠYou": 6504,
      "ï¼Įå¸¸": 6505,
      "æķĳæı´": 6506,
      "æĸ¥": 6507,
      "æ¿ĢçĥĪ": 6508,
      "è®¤çŁ¥": 6509,
      "èĨĢ": 6510,
      "æĪĲå¹´": 6511,
      "æī©å±ķ": 6512,
      "ç¿»è¯ĳ": 6513,
      "ä»İæĿ¥": 6514,
      "ä¸Ģæī¹": 6515,
      "éĢļçĶ¨": 6516,
      "å¹¶æľª": 6517,
      "Hz": 6518,
      "çļĦåĬĽéĩı": 6519,
      "èĲĮ": 6520,
      "ï¼ļä¸ŃåĽ½": 6521,
      "è·¯å¾Ħ": 6522,
      "çĶµæ°Ķ": 6523,
      "åĬ£": 6524,
      "å¹´ä¸ŃåĽ½": 6525,
      "æµĨ": 6526,
      "åģ¥åħ¨": 6527,
      "ä¹ĭæīĢä»¥": 6528,
      "è°ĪåĪ¤": 6529,
      "éº»çĥ¦": 6530,
      "ï¼Įéĺ¿": 6531,
      "åı¯éĿł": 6532,
      "å¥ĩæĢª": 6533,
      "ï¼Įä¸Ģå®ļ": 6534,
      "çľĭåĩº": 6535,
      "ä½¿åĳ½": 6536,
      "åıĽ": 6537,
      "å°Ĩç»§ç»Ń": 6538,
      "äº¤æį¢": 6539,
      "æĬĵä½ı": 6540,
      "æ°ĳä¼Ĺ": 6541,
      "é»ĳæļĹ": 6542,
      "ç¼ĵè§£": 6543,
      "åŀĦ": 6544,
      "åĳ¨å¹´": 6545,
      "ĠTh": 6546,
      "æ´»åĬĽ": 6547,
      "Ġthis": 6548,
      "ä¸¨": 6549,
      "ä¼ļéķ¿": 6550,
      "åĬ©äºİ": 6551,
      "ï¼ĮåıĮ": 6552,
      "ç»ĵç®Ĺ": 6553,
      "ick": 6554,
      "æĪĳè¯´": 6555,
      "ond": 6556,
      "æĹłéĻĲ": 6557,
      "åĽĽå·Ŀçľģ": 6558,
      "æ·»åĬł": 6559,
      "çļĦèĢģ": 6560,
      "éĶĢåĶ®é¢Ŀ": 6561,
      "èĩªåĬ¨é©¾é©¶": 6562,
      "éĢĻ": 6563,
      "ãĢĬä¸ŃåĽ½": 6564,
      "æģ¼": 6565,
      "æ¯«ç±³": 6566,
      "ãĢĤçİĭ": 6567,
      "ï¼ĮæĹ¥": 6568,
      "ä¹Łå¾Ī": 6569,
      "è´¼": 6570,
      "æľĢä¸º": 6571,
      "ä¸ĭæ¸¸": 6572,
      "çĻ½èī²": 6573,
      "ä¸»ç®¡éĥ¨éĹ¨": 6574,
      "çļĦæł¸å¿ĥ": 6575,
      "ï¼Įä¸įè¦ģ": 6576,
      "æ³Ĭ": 6577,
      "ĠëĤ": 6578,
      "Ġä¸Ń": 6579,
      "è½»è½»": 6580,
      "åķĨæłĩ": 6581,
      "å¸Ĩ": 6582,
      "åĨįåº¦": 6583,
      "ä¸»æµģ": 6584,
      "å½ĵå¤©": 6585,
      "io": 6586,
      "ä»ĸåľ¨": 6587,
      "æ»¤": 6588,
      "æ¤Ĵ": 6589,
      "ï¼ĮåºĶè¯¥": 6590,
      "åįģå¤§": 6591,
      "å°ĳå¥³": 6592,
      "ç¨ĭåº¦ä¸Ĭ": 6593,
      "åĨľæĪ·": 6594,
      "å´Ķ": 6595,
      "çļĦç¡®": 6596,
      "å¤§è§Ħæ¨¡": 6597,
      "æĥħæĦŁ": 6598,
      "çħ®": 6599,
      "å§Ĳå§Ĳ": 6600,
      "Ġä¸į": 6601,
      "çĶ¨éĢĶ": 6602,
      "è½¦ç«Ļ": 6603,
      "Ġab": 6604,
      "éĢĶå¾Ħ": 6605,
      "åİ¦éĹ¨": 6606,
      "å¹³ç¨³": 6607,
      "å®¤åĨħ": 6608,
      "ï¼Įå°½": 6609,
      "çŃĶåºĶ": 6610,
      "CD": 6611,
      "èĤ¿çĺ¤": 6612,
      "é¢ĳéģĵ": 6613,
      "èĪŀåı°": 6614,
      "æ¯Ķäºļ": 6615,
      "æİĪäºĪ": 6616,
      "åįģä¹Ŀç«ł": 6617,
      "æĳĦåĥı": 6618,
      "èĳĹä½ľ": 6619,
      "Ġus": 6620,
      "ä¸ĭè¡Į": 6621,
      "èĦ¾": 6622,
      "çĥŃçĤ¹": 6623,
      "Ġqu": 6624,
      "ï¼Įç¬¬": 6625,
      "ä¸¤å¤§": 6626,
      "åĽĽå¤§": 6627,
      "èĪĮ": 6628,
      "ä¸¸": 6629,
      "åľ°åĽ¾": 6630,
      "ï¼ĮåĿļæĮģ": 6631,
      "æĬ¥ä»·": 6632,
      "ï¼Įå¦Ĥä»Ĭ": 6633,
      "å¤ĸäº¤": 6634,
      "è½¦çļĦ": 6635,
      "è¡Ģç®¡": 6636,
      "ç¦ħ": 6637,
      "ç§ĳæĬĢåĪĽæĸ°": 6638,
      "ãĢģç¤¾ä¼ļ": 6639,
      "åıĺæĽ´": 6640,
      "ï¼Įæ¯ķç«Ł": 6641,
      "ï¼Įèº«": 6642,
      "åĽ¾ä¹¦é¦Ĩ": 6643,
      "å®¶çĶµ": 6644,
      "åĽŀåįĩ": 6645,
      "æĹ©æľŁ": 6646,
      "åĭŁéĽĨ": 6647,
      "éĿĴå°ĳå¹´": 6648,
      "æĭ¾": 6649,
      "ãĢĤãĢĮ": 6650,
      "çİīç±³": 6651,
      "çºłçº·": 6652,
      "çĶµè§Ĩåı°": 6653,
      "æ¯ķä¸ļäºİ": 6654,
      "çļĦæ°´": 6655,
      "ä¸įä¸Ĭ": 6656,
      "æīĭç»Ń": 6657,
      "æĶ¶èİ·": 6658,
      "èĮ¨": 6659,
      "âĢ¦âĢ¦Ċ": 6660,
      "ï¼Įåįķ": 6661,
      "å®łçī©": 6662,
      "Ġcom": 6663,
      "âħ": 6664,
      "åĲ»": 6665,
      "çĶŁèĤ²": 6666,
      "ĠãĢĤ": 6667,
      "è§£è¯»": 6668,
      "å®ĮæĪĲäºĨ": 6669,
      "ge": 6670,
      "ãĢĤç¬¬äºĮ": 6671,
      "è¦ĨçĽĸ": 6672,
      "ä¸ļåĬ¡çļĦ": 6673,
      "åı£ç½©": 6674,
      "ä¸ĸçķĮçļĦ": 6675,
      "ï¼Įä»Ĭå¤©": 6676,
      "èµĶåģ¿": 6677,
      "åıĳèµ·": 6678,
      "å¾ĹçŁ¥": 6679,
      "å±ķè§Ī": 6680,
      "è®°è½½": 6681,
      "ãĢģæĹł": 6682,
      "çĽ²": 6683,
      "è°¦": 6684,
      "ï¼Łä½ł": 6685,
      "å¼Ģå·¥": 6686,
      "æģŃ": 6687,
      "åĪ©æģ¯": 6688,
      "æĬķæĶ¾": 6689,
      "æĳĬ": 6690,
      "æŃĮæīĭ": 6691,
      "ÂłÂłÂł": 6692,
      "ï¼Įéĩį": 6693,
      "èµĭèĥ½": 6694,
      "åīįæľŁ": 6695,
      "æ¨¡åĿĹ": 6696,
      "æĭħå¿§": 6697,
      "PS": 6698,
      "æĦģ": 6699,
      "ä¸įåıĺ": 6700,
      "éĿĸ": 6701,
      "ãĢĤåı¯æĺ¯": 6702,
      "å·©": 6703,
      "ï¼ģâĢľ": 6704,
      "ä»Ķç»Ĩ": 6705,
      "çĽĳå¯Ł": 6706,
      "çĩĥæĸĻ": 6707,
      "æĸ°åĨłçĹħæ¯Ĵ": 6708,
      "å°ıå¿ĥ": 6709,
      "ä¸»è¦ģæĺ¯": 6710,
      "å®ļäºĨ": 6711,
      "ï¼ĮæĮģç»Ń": 6712,
      "ä»ĸè¯´": 6713,
      "æĮĤçīĮ": 6714,
      "çļĦå¤©": 6715,
      "æ°ĽåĽ´": 6716,
      "æŃī": 6717,
      "æĮ£": 6718,
      "æīĭä¸Ń": 6719,
      "ï¼ĮåħħåĪĨ": 6720,
      "æĪĲåĪĨ": 6721,
      "è·Łè¸ª": 6722,
      "ï¼ĮèĩªçĦ¶": 6723,
      "Ġç¬¬äºĮåįģ": 6724,
      "éģ£": 6725,
      "îĢĲ": 6726,
      "IC": 6727,
      "ï¼ĮæĬķèµĦ": 6728,
      "æ°Ķæģ¯": 6729,
      "ï¼Įç»§ç»Ń": 6730,
      "æ¯ıä¸Ģä¸ª": 6731,
      "äº²èĩª": 6732,
      "é¥¼": 6733,
      "åĽ½äº§": 6734,
      "æľīä¸ĢäºĽ": 6735,
      "æĿĥåĬĽ": 6736,
      "çĽĳçĿ£ç®¡çĲĨ": 6737,
      "äºĨè§£åĪ°": 6738,
      "ä¿¡è´·": 6739,
      "éŃĶæ³ķ": 6740,
      "åıĳåĬ¨æľº": 6741,
      "ï¼ĮçľŁ": 6742,
      "ä¸ŃåĮ»": 6743,
      "äºĮçº§": 6744,
      "éķ¿æ²Ļ": 6745,
      "è¯ķåĽ¾": 6746,
      "åıĳæĺİ": 6747,
      "å¾Īå¤§çļĦ": 6748,
      "åı¯ä»¥åľ¨": 6749,
      "ï¼Įä½ķ": 6750,
      "å·®è·Ŀ": 6751,
      "éĵ¸": 6752,
      "åĵįåºĶ": 6753,
      "å¸¸å§Ķ": 6754,
      "èĤļ": 6755,
      "æĭĽèģĺ": 6756,
      "åľ°éĿ¢": 6757,
      "èĪĴéĢĤ": 6758,
      "çħĮ": 6759,
      "ï¼Įä¼¼ä¹İ": 6760,
      "åĪł": 6761,
      "åĲĦçº§": 6762,
      "éħįå¤ĩ": 6763,
      "åıĳå¸ĥäºĨ": 6764,
      "éĢĢåĩº": 6765,
      "åŀĦæĸŃ": 6766,
      "æľ¬æĿ¥": 6767,
      "åģ¥èº«": 6768,
      "æ¾³å¤§åĪ©": 6769,
      "æĬ¥åĲį": 6770,
      "sh": 6771,
      "æµĻæ±Łçľģ": 6772,
      "æĺ¯ä¸ŃåĽ½": 6773,
      "èį£èĢĢ": 6774,
      "æ¶¨åģľ": 6775,
      "åĬŁçİĩ": 6776,
      "çĶ±æŃ¤": 6777,
      "éĢīä¸¾": 6778,
      "ç£·": 6779,
      "ä¸Ģç³»åĪĹ": 6780,
      "å¤ĦçļĦ": 6781,
      "åĲĬ": 6782,
      "ï¼Įé©¬": 6783,
      "èĥĸ": 6784,
      "åľ°éĿ¢ç§¯": 6785,
      "æľ¬åľŁ": 6786,
      "ä¸ĩäº¿": 6787,
      "ä¿±": 6788,
      "åĲ¬è¯´": 6789,
      "å©·": 6790,
      "æĶ»åĿļ": 6791,
      "çļĦç½ĳç»ľå°ıè¯´": 6792,
      "æ¾³å¤§åĪ©äºļ": 6793,
      "ä½ľæĪĺ": 6794,
      "çŃĽ": 6795,
      "çļĦæł·åŃĲ": 6796,
      "æł½": 6797,
      "å¯¹æİ¥": 6798,
      "å¯¹åºĶ": 6799,
      "å®ŀæĹ¶": 6800,
      "åıĹçĽĬ": 6801,
      "åıĳå¸ĥåħ¬åĳĬ": 6802,
      "AC": 6803,
      "ï¼ĮåĪ«": 6804,
      "æĽ´å¥½çļĦ": 6805,
      "è¯¦æĥħ": 6806,
      "åĪĽä¸ļæĿ¿": 6807,
      "çľ¼åīį": 6808,
      "å¸ĿåĽ½": 6809,
      "ï¼Įæ¸ħ": 6810,
      "èºº": 6811,
      "æ¸Ĳæ¸Ĳ": 6812,
      "ï¼Įå¸Ĥ": 6813,
      "åĲĪéĢĤ": 6814,
      "æķ´æ²»": 6815,
      ".SZ": 6816,
      "åħ¨åĬĽ": 6817,
      "ç¦ıåĪ©": 6818,
      "å°±æľī": 6819,
      "åıįé¦Ī": 6820,
      "äºĨåĩł": 6821,
      "ä¸įä¹ħ": 6822,
      "ä¸ľäº¬": 6823,
      "æ¢³": 6824,
      "äº¤æĺĵæĹ¥": 6825,
      "âĢĤâĢĤâĢĤâĢĤĊ": 6826,
      "å°¼äºļ": 6827,
      "çªĹåı£": 6828,
      "åĽ¢ä½ĵ": 6829,
      "çłĶç©¶ä¸Ńå¿ĥ": 6830,
      "ç»ĳ": 6831,
      "ä¸įç®¡": 6832,
      "èµ¶ç´§": 6833,
      "åĴ¸": 6834,
      "å¤¸": 6835,
      "è°ĥæİ§": 6836,
      "çļĦä¿¡æģ¯": 6837,
      "ï¼Įéĥ¨åĪĨ": 6838,
      "äººåĴĮ": 6839,
      "ä¸ĢçĽ´åľ¨": 6840,
      "åŃ¦å®¶": 6841,
      "å¹´ä»¥æĿ¥": 6842,
      "åĵĢ": 6843,
      "è£ħä¿®": 6844,
      "åı¯èĥ½æĢ§": 6845,
      "æľ¬è´¨": 6846,
      "èķ´": 6847,
      "å¼ºåº¦": 6848,
      "çĺ¦": 6849,
      "åĿļåĨ³": 6850,
      "éĻ·åħ¥": 6851,
      "åĵĪå°Ķ": 6852,
      "ib": 6853,
      "äºĮäºº": 6854,
      "ä»ħä»ħ": 6855,
      "çļĦç®¡çĲĨ": 6856,
      "ãĢĤä»Ĭå¹´": 6857,
      "ï¼Īä¸Ģ": 6858,
      "éĽĢ": 6859,
      "ï¼Įä½¿å¾Ĺ": 6860,
      "ï¼Ľï¼Ī": 6861,
      "Ġfrom": 6862,
      "çļĦåħ³éĶ®": 6863,
      "ï¼ĮåĬłå¿«": 6864,
      "çĶ¨æĿ¥": 6865,
      "ç²¾åĵģ": 6866,
      "åĽ¾åĥı": 6867,
      "æĥ©": 6868,
      "æ¸´": 6869,
      "è¯¸å¤ļ": 6870,
      "è¿ĩå¹´": 6871,
      "åħ³éĹŃ": 6872,
      "å¤´çļĦ": 6873,
      "ps": 6874,
      "ï¼Įå¼Ģå§ĭ": 6875,
      "ï¼Įåı¶": 6876,
      "å¥½å¥½": 6877,
      "éļ¾åº¦": 6878,
      "åĨľäº§åĵģ": 6879,
      "ä¹°åįĸ": 6880,
      "Ġlike": 6881,
      "èµĽåŃ£": 6882,
      "ï¼Įç»ıè¿ĩ": 6883,
      "ä¸Ĭæ¸¸": 6884,
      "éĽĨåĽ¢æľīéĻĲåħ¬åı¸": 6885,
      "ON": 6886,
      "çī¹æľĹ": 6887,
      "âĳł": 6888,
      "cl": 6889,
      "åıįå¤į": 6890,
      "ä¸¤ä½į": 6891,
      "âĢĿæĺ¯": 6892,
      "ä¸»äºº": 6893,
      "æľīåºı": 6894,
      "èĢĥå¯Ł": 6895,
      "æģĴå¤§": 6896,
      "éĥĳå·ŀ": 6897,
      "ï¼ĮéĿŀ": 6898,
      "æī¹è¯Ħ": 6899,
      "éĢĿ": 6900,
      "é¦¨": 6901,
      "éºŁ": 6902,
      "ä¸ªä½ĵ": 6903,
      "ä¸ĭéĿ¢": 6904,
      "çŃīåľ°": 6905,
      "èļģ": 6906,
      "æģĲæĢķ": 6907,
      "å¤ļæł·": 6908,
      "ç§įåŃĲ": 6909,
      "æ¶īå«Į": 6910,
      "çĿ¿": 6911,
      "å¸¦æĿ¥äºĨ": 6912,
      "è¡¥åģ¿": 6913,
      "è¤": 6914,
      "åĶ®ä»·": 6915,
      "åĪĳäºĭ": 6916,
      "çļĦä¸ī": 6917,
      "æĽ´å¤§": 6918,
      "æĿĥå¨ģ": 6919,
      "é»ĳé¾Ļæ±Ł": 6920,
      "ä¸ĢåŃ£åº¦": 6921,
      "æĲŃè½½": 6922,
      "çļĦç¬¬ä¸Ģ": 6923,
      "å¹´èĩ³": 6924,
      "LED": 6925,
      "é²į": 6926,
      "å¥ĭæĸĹ": 6927,
      "pt": 6928,
      "éªĮè¯ģ": 6929,
      "å°¹": 6930,
      "èĬĤå¥ı": 6931,
      "ä¼¼çļĦ": 6932,
      "æ¡©": 6933,
      "å¹´åľ¨": 6934,
      "ç»£": 6935,
      "æĢľ": 6936,
      "å®¶åºĦ": 6937,
      "å±ĢéĿ¢": 6938,
      "é¥®æĸĻ": 6939,
      "ãĢı": 6940,
      "ç¡®å®ļæĢ§": 6941,
      "æ¯ıèĤ¡": 6942,
      "å¤®è§Ĩ": 6943,
      "âĹı": 6944,
      "Ġç¬¬ä¸īèĬĤ": 6945,
      "ï¼ĮæľīäºĽ": 6946,
      "ãĢİ": 6947,
      "åı¸æľº": 6948,
      "åħ¥éĢī": 6949,
      "ï¼Įåıªèĥ½": 6950,
      "ä¸įå¤ª": 6951,
      "ãĤĪ": 6952,
      "åĽŀå¤į": 6953,
      "æļĤåģľ": 6954,
      "åħīæĺİ": 6955,
      "ç®ĢçĽ´": 6956,
      "ãĢĤæĺ¯": 6957,
      "æįī": 6958,
      "æ¶µçĽĸ": 6959,
      "åĩ°": 6960,
      "èģĶéĤ¦": 6961,
      "çıĬ": 6962,
      "´ë": 6963,
      "åī§æĥħ": 6964,
      "IPO": 6965,
      "æĮĩåįĹ": 6966,
      "å¼ķåħ¥": 6967,
      "çļĦä¸ĢåĪĩ": 6968,
      "èµļéĴ±": 6969,
      "ç¢³ä¸ŃåĴĮ": 6970,
      "åįµ": 6971,
      "åĽ½å®¶çº§": 6972,
      "ï¼ĮæıĲä¾Ľ": 6973,
      "çļĦè®¾è®¡": 6974,
      "ä¸Ģäºº": 6975,
      "åľ¨åĨħ": 6976,
      "å¿ĹæĦ¿èĢħ": 6977,
      "ãĢĤå°±": 6978,
      "ï¼Įä¹Łæľī": 6979,
      "ect": 6980,
      "åıĺéĿ©": 6981,
      "æ³ķå¾ĭæ³ķè§Ħ": 6982,
      "çº¦å®ļ": 6983,
      "å®¢è§Ĥ": 6984,
      "éĻ¢æł¡": 6985,
      "åħĶ": 6986,
      "ä¹Łä¸įä¼ļ": 6987,
      "åĪ¶èį¯": 6988,
      "ä½¿çĶ¨çļĦ": 6989,
      "ile": 6990,
      "äºĨä¸ª": 6991,
      "ä¸ĭåįĬå¹´": 6992,
      "çľĭåĪ°äºĨ": 6993,
      "çļĦåıĺåĮĸ": 6994,
      "ãĢģåįĹ": 6995,
      "å»¶ä¼¸": 6996,
      "åĽŀæĶ¶": 6997,
      "å¾Īæľī": 6998,
      "ä¹ĭéĻħ": 6999,
      "çļĦçľ¼": 7000,
      "çĢ": 7001,
      "ãĢĤæĸ°": 7002,
      "ãĢģä¼ģä¸ļ": 7003,
      "åħ¨ä½ĵ": 7004,
      "çĲ¼": 7005,
      "oh": 7006,
      "åıĳå°Ħ": 7007,
      "çĶµç«Ļ": 7008,
      "å°Ĭéĩį": 7009,
      "ãģĳ": 7010,
      "ä¸¤æ¬¡": 7011,
      "ï¼Įåħ¶ä»ĸ": 7012,
      "éķ¿å®ī": 7013,
      "ç§ī": 7014,
      "çī¹æľĹæĻ®": 7015,
      "ï¼Įé»Ħ": 7016,
      "ï¼Įåĵª": 7017,
      "æ½ľåľ¨": 7018,
      "æĪĳæĺ¯": 7019,
      "è¢«äºº": 7020,
      "æ¼Ĥäº®": 7021,
      "å¢ŀåĢ¼": 7022,
      "èħº": 7023,
      "ï¼Įåĩłä¹İ": 7024,
      "ä»İä¸ļ": 7025,
      "ence": 7026,
      "æĹ©å°±": 7027,
      "æĪĺå£«": 7028,
      "ETF": 7029,
      "åħ¬æĸ¤": 7030,
      "éĩįç»Ħ": 7031,
      "æ±ŁåįĹ": 7032,
      "å¤ªå¤ļ": 7033,
      "å¹´åĨħ": 7034,
      "åĲİéĿ¢": 7035,
      "ãĢģçĶŁäº§": 7036,
      "æĸ¼": 7037,
      "èĥ½åĲ¦": 7038,
      "æŀľçĦ¶": 7039,
      "ï¼ļãĢĮ": 7040,
      "çļĦä¸ŃåĽ½": 7041,
      "å¤ªå¤ª": 7042,
      "çĩ¥": 7043,
      "å¡ĳæĸĻ": 7044,
      "ä¹ĭåľ°": 7045,
      "è¯Ħä¸º": 7046,
      "%èĩ³": 7047,
      "æĻ¯æ°Ķ": 7048,
      "åįłæį®": 7049,
      "è®¤è´Ń": 7050,
      "ï¼ĮæŀĹ": 7051,
      "çķĻåľ¨": 7052,
      "ãĢģåįİ": 7053,
      "ç¬¬ä¸īæĸ¹": 7054,
      "ï¼Įåħ±åĲĮ": 7055,
      "éĺĲ": 7056,
      "ï¼Ľè´Łè´£": 7057,
      "é¢¤": 7058,
      "åıĺæĪĲäºĨ": 7059,
      "åİŁæĿĲæĸĻ": 7060,
      "åķ¥": 7061,
      "ï¼ĮæīĢæľī": 7062,
      "è¾ħå¯¼": 7063,
      "æĭ¿å¤§": 7064,
      "æĵħéķ¿": 7065,
      "ãĢģä¸Ĭæµ·": 7066,
      "ä¸įå¤§": 7067,
      "åĵ¼": 7068,
      "ç½ĳæĺĵ": 7069,
      "èĲ¥éĢł": 7070,
      "åĩºå¸Ń": 7071,
      "å¾ĹäºĨ": 7072,
      "åĿĿ": 7073,
      "æĢ¡": 7074,
      "åŃ¦çļĦ": 7075,
      "èµ°åĩº": 7076,
      "æĢ»çĽĳ": 7077,
      "ä¸ĳ": 7078,
      "ï¼ĮäºĶ": 7079,
      "ç±»çļĦ": 7080,
      "ä¹Ĳè§Ĥ": 7081,
      "èµĲ": 7082,
      "èĵ¬": 7083,
      "æĹ©å·²": 7084,
      "çľ¸": 7085,
      "éļ¾é¢ĺ": 7086,
      "ech": 7087,
      "ä¸įå¼Ģ": 7088,
      "è¾Ĳ": 7089,
      "ç©ºè°ĥ": 7090,
      "åĬ©çĲĨ": 7091,
      "ä¾Ĩ": 7092,
      "æĪĲä¸ºäºĨ": 7093,
      "æĺ¨å¤©": 7094,
      "):": 7095,
      "æĹħå®¢": 7096,
      "ink": 7097,
      "æĸ°åĨłçĸ«èĭĹ": 7098,
      "éĹ¯": 7099,
      "åĩºç§Ł": 7100,
      "çĥŃéĹ¨": 7101,
      "é¦ĸæī¹": 7102,
      "ä¸Ľä¹¦": 7103,
      "æĢ»éĩı": 7104,
      "åĨ¶": 7105,
      "ç©¿è¶Ĭ": 7106,
      "éģĵçĲĨ": 7107,
      "æ¥¼å¸Ĥ": 7108,
      "ï¼Įè·Ł": 7109,
      "èĲĿ": 7110,
      "å¼ºåĬ¿": 7111,
      "åĸ»": 7112,
      "å¤ĸéĥ¨": 7113,
      "ä¹°æĪ¿": 7114,
      "ï¼Įè§ģ": 7115,
      "å¦ĩå¥³": 7116,
      "æ¡£æ¡Ī": 7117,
      "é¥®é£Ł": 7118,
      "å®³æĢķ": 7119,
      "éĶ»": 7120,
      "èİŀ": 7121,
      "å¸ĪèĮĥå¤§åŃ¦": 7122,
      "çµ": 7123,
      "çº¿çļĦ": 7124,
      "éĢłåŀĭ": 7125,
      "CEO": 7126,
      "RE": 7127,
      "æĹ¶ä»£çļĦ": 7128,
      "çļĦæĦŁè§ī": 7129,
      "çļĦèº«": 7130,
      "çº¬": 7131,
      "éĵ¾æİ¥": 7132,
      "é¥°æ¼Ķ": 7133,
      "ï¼Įè½¬": 7134,
      "çªĿ": 7135,
      "å½¼æŃ¤": 7136,
      "è¾ĥä½İ": 7137,
      "æ°´æ³¥": 7138,
      "å®¢æĪ¿": 7139,
      "ï¼Įå½ĵæĹ¶": 7140,
      "ãĢģéĩĳ": 7141,
      "ä¸Ńä»ĭ": 7142,
      "ä¸Ģç¬ĳ": 7143,
      "å¯»æ±Ĥ": 7144,
      "ä¼łæĦŁåĻ¨": 7145,
      "çļĦçĽ®æłĩ": 7146,
      "ç¾İèĤ¡": 7147,
      "ï¼Įè¦ģæ±Ĥ": 7148,
      "ç¼ĸåı·": 7149,
      "åıĸå¾ĹäºĨ": 7150,
      "çŃīå¤ļ": 7151,
      "åĲĦå¤§": 7152,
      "âĢĿï¼Ľ": 7153,
      "æ¸¯åı£": 7154,
      "å½Ĵå±ŀäºİ": 7155,
      ")ãĢĭ": 7156,
      "æĦ£": 7157,
      "è¯Ŀé¢ĺ": 7158,
      "èĽ®": 7159,
      "æľ¬åĳ¨": 7160,
      "å®ĺç½ĳ": 7161,
      "ãĢģæĿİ": 7162,
      "è¶ģ": 7163,
      "å·«": 7164,
      "åĲĥé¥Ń": 7165,
      "ä»£è¡¨å¤§ä¼ļ": 7166,
      "åĪ°æĿ¥": 7167,
      "æĦıçļĦ": 7168,
      "èĲį": 7169,
      "æ¼«çĶ»": 7170,
      "ä¸ŃåĽ½åħ±äº§åħļ": 7171,
      "-Ċ": 7172,
      "é¢ł": 7173,
      "æĻ®åıĬ": 7174,
      "æĺ¯ä¸Ģå®¶": 7175,
      "roid": 7176,
      "çķĮçļĦ": 7177,
      "BA": 7178,
      "ãĢģå¼ł": 7179,
      "äººåĬĽèµĦæºĲ": 7180,
      "åħ¬åı¸åľ¨": 7181,
      "å·´é»İ": 7182,
      "åŁºéĩĳçļĦ": 7183,
      "åĴĮæľįåĬ¡": 7184,
      "int": 7185,
      "äºĴçĽ¸": 7186,
      "åİ¿å§Ķ": 7187,
      "å¿įä¸įä½ı": 7188,
      "è¿ĽæĿ¥": 7189,
      "ç»ıæµİçļĦ": 7190,
      "çĬ¬": 7191,
      "çŀ§": 7192,
      "éĢĢä¼ĳ": 7193,
      "ä¸Ģåıª": 7194,
      "act": 7195,
      "é¥²": 7196,
      "ç¬ĳäºĨ": 7197,
      "æľĢæĹ©": 7198,
      "æĹĹèĪ°": 7199,
      "ï¼ĮçĽ¸": 7200,
      "çĶ³è´Ń": 7201,
      "ç¬ĳå®¹": 7202,
      "ãĢĤä¾ĭå¦Ĥ": 7203,
      "éĺ¿å°Ķ": 7204,
      "èªĵ": 7205,
      "Ġç¬¬ä¸ĥ": 7206,
      "åĮ¹éħį": 7207,
      "ç²¾éĢī": 7208,
      "æĭĽæłĩ": 7209,
      "ãĢĤä»ĸçļĦ": 7210,
      "çħ§é¡¾": 7211,
      "ãĢģè¥¿": 7212,
      "ï¼Įå®ĥä»¬": 7213,
      "åħ¨æĸ°": 7214,
      "ä¸Ńå°ıä¼ģä¸ļ": 7215,
      "ï¼ĮéļıåĲİ": 7216,
      "ï¼ĮæĶ¾": 7217,
      "ï¼Įç´¯è®¡": 7218,
      "èµİ": 7219,
      "åĢĴæĺ¯": 7220,
      "å½ĵäºĭ": 7221,
      "ï¼Įä¹Łä¸į": 7222,
      "éķľå¤´": 7223,
      "åĮĸå¦Ĩ": 7224,
      "åĬŀåŃ¦": 7225,
      "ä¹¡éķĩ": 7226,
      "æ³¨æĦıçļĦæĺ¯": 7227,
      "ä¸Ģéģĵ": 7228,
      "ä¼łç»ŁçļĦ": 7229,
      "åħ¬åŃĲ": 7230,
      "ÂłĠÂłĠ": 7231,
      "èģĶèµĽ": 7232,
      "è¯·æ±Ĥ": 7233,
      "æĢ»å±Ģ": 7234,
      "å¼ºåĪ¶": 7235,
      "ï¼ĮèĬ±": 7236,
      "ãĢģæľįåĬ¡": 7237,
      "äººå®¶": 7238,
      "è¾±": 7239,
      "ï¼ĮèĢĮä¸įæĺ¯": 7240,
      "Ġæĸ°": 7241,
      "ãĢģæµ·": 7242,
      "åĽ½åĢº": 7243,
      "åŁºç¡Ģä¸Ĭ": 7244,
      "ï¼Įå½ĵçĦ¶": 7245,
      "æ¶ĪèĢĹ": 7246,
      "åħ¬å®īå±Ģ": 7247,
      "æĺ¯ä»¥": 7248,
      "å¹´ç¬¬": 7249,
      "ç½ķ": 7250,
      "èĢĥèĻĳåĪ°": 7251,
      "è§Ħæł¼": 7252,
      "æī¿åĮħ": 7253,
      "æ²¹ä»·": 7254,
      "å³»": 7255,
      "å©ļå§»": 7256,
      "äºĨåĲĹ": 7257,
      "Ġgot": 7258,
      "ç«ĭæ³ķ": 7259,
      "éģ®": 7260,
      "ãĢĤäºİæĺ¯": 7261,
      "åı¸é©¬": 7262,
      "çłĶç©¶åĳĺ": 7263,
      "çĽ¸å½ĵäºİ": 7264,
      "äººä½ĵ": 7265,
      "è´ŀ": 7266,
      "æ°Ķæ¸©": 7267,
      "èĮ«": 7268,
      "çļĦè§Ħå®ļ": 7269,
      "å¿«çļĦ": 7270,
      "æĸ°åĨłçĸ«æĥħ": 7271,
      "æį®æĤī": 7272,
      "ç§ĳåŃ¦éĻ¢": 7273,
      "åĨħåŃĺ": 7274,
      "åĿļå®ļ": 7275,
      "æľįåĬ¡ä¸Ńå¿ĥ": 7276,
      "ï¼ĮçĽ´åĪ°": 7277,
      "æł¡åĮº": 7278,
      "è®²è¯Ŀ": 7279,
      "æĥħå½¢": 7280,
      "èĳ±": 7281,
      "åıĳå¸ĥä¼ļ": 7282,
      "åĮĨ": 7283,
      "æĹ¥çĶµ": 7284,
      "éļıæĹ¶": 7285,
      "åĬ³åĬ¨åĬĽ": 7286,
      "Ġout": 7287,
      "å¯¹åħ¶": 7288,
      "ãĢĭï¼ļâĢľ": 7289,
      "ç»ĦæĪĲåĳĺ": 7290,
      "çĽ¸åºĶçļĦ": 7291,
      "æĿł": 7292,
      "Ġwill": 7293,
      "çĦĬ": 7294,
      "ï¼Ľåľ¨": 7295,
      "é¦ĸä¸ª": 7296,
      "âĢľåıĮ": 7297,
      "way": 7298,
      "åĬ¨çļĦ": 7299,
      "çľĭèµ·æĿ¥": 7300,
      "æĮĩå®ļ": 7301,
      "å²Ĥ": 7302,
      "æĶ¿åĬ¡": 7303,
      "èĤ¡ä¸ľçļĦ": 7304,
      "pl": 7305,
      "ä¸Ģæµģ": 7306,
      "åĩ¸": 7307,
      "éľ²åĩº": 7308,
      "æĲŃå»º": 7309,
      "éħįéŁ³": 7310,
      "å±ł": 7311,
      "ä¾¨": 7312,
      "æĿī": 7313,
      "ãģªãģĦ": 7314,
      "å¸Ĳ": 7315,
      "åľ¨ä»ĸ": 7316,
      "åĲĪéĩĳ": 7317,
      "å¼ĢåıĳåĮº": 7318,
      "èĩªåĬ¨åĮĸ": 7319,
      "âĢĿï¼ī": 7320,
      "æ½Ń": 7321,
      "Ġdon": 7322,
      "å±±å¸Ĥ": 7323,
      "è¾Ł": 7324,
      "åĪĨç¦»": 7325,
      "æĢİä¹Īæł·": 7326,
      "è¯ŀçĶŁ": 7327,
      "çĶµæ¢¯": 7328,
      "æ´¾åĩº": 7329,
      "é¸Ń": 7330,
      "æİ¢è®¨": 7331,
      "VIP": 7332,
      "é¦Ģé¢Ŀ": 7333,
      "oy": 7334,
      "å··": 7335,
      "ãģķ": 7336,
      "æĹ¥æĻļéĹ´": 7337,
      "ä¸ŃåĮ»èį¯": 7338,
      "èĭĳ": 7339,
      "ä¼łå¥ĩ": 7340,
      "æ±ĩçİĩ": 7341,
      "æľīéĻĲè´£ä»»": 7342,
      "èĵī": 7343,
      "ï¼ĮæīĢ": 7344,
      "åĮĢ": 7345,
      "åħ¬åĭŁ": 7346,
      "ãģĿ": 7347,
      "æ¼Ĩ": 7348,
      "æ¸ħåįķ": 7349,
      "å¿ĺè®°": 7350,
      "åĲİæľŁ": 7351,
      "æľĢåĪĿ": 7352,
      "ï¼Įè¿ĻéĩĮ": 7353,
      "çıŃçīĻ": 7354,
      "ãĢĭåĴĮ": 7355,
      "åĿĩä¸º": 7356,
      "æĺ¯è¦ģ": 7357,
      "ug": 7358,
      "è¯´çĿĢ": 7359,
      "å¾Ĺä»¥": 7360,
      "è§Ĩä¸º": 7361,
      "æľĽçĿĢ": 7362,
      "ĺë": 7363,
      "çķı": 7364,
      "èŀįåħ¥": 7365,
      "æº¯": 7366,
      "æ°Ķè±¡": 7367,
      "å¤§å®Ĺ": 7368,
      "åĪ¶çļĦ": 7369,
      "éĢĤçĶ¨äºİ": 7370,
      "ä½ĽæķĻ": 7371,
      "çº¤ç»´": 7372,
      "è¿Ļä¸ĢçĤ¹": 7373,
      "ç»Ħå»º": 7374,
      "æķ´æĶ¹": 7375,
      "èł": 7376,
      "å¤©çĦ¶æ°Ķ": 7377,
      "AD": 7378,
      "ä¸ºä¾ĭ": 7379,
      "ï¼Įå¹³": 7380,
      "åİīå®³": 7381,
      "çľĭå¥½": 7382,
      "ai": 7383,
      "æĽ´æľī": 7384,
      "èĻ¾": 7385,
      "åŁºéĩĳæīĺç®¡": 7386,
      "å¯¼å¸Ī": 7387,
      "æŀĹä¸ļ": 7388,
      "ï¼Įä½Ĩåľ¨": 7389,
      "å¼ķæĵİ": 7390,
      "æķħéļľ": 7391,
      "æĴŃæĶ¾": 7392,
      "ä¸»è§Ĵ": 7393,
      "æŀģä¸º": 7394,
      "æĺİæĺ¾çļĦ": 7395,
      "ä¸īåįģ": 7396,
      "æĹ¥çĽĬ": 7397,
      "ç»ĵè®º": 7398,
      "èŃ¦åĳĬ": 7399,
      "åĲĦåĽ½": 7400,
      "éŃħåĬĽ": 7401,
      "ï¼Įè¿ľ": 7402,
      "æĬķè¯ī": 7403,
      "ãĢģé»Ħ": 7404,
      "è°Ĭ": 7405,
      "åŁİå¸ĤçļĦ": 7406,
      "å®¡åĪ¤": 7407,
      "per": 7408,
      "FT": 7409,
      "Ġget": 7410,
      "æľīåħ³éĥ¨éĹ¨": 7411,
      "æľªèĥ½": 7412,
      "ï¼Įæķ´ä¸ª": 7413,
      "ãĢĤå¼ł": 7414,
      "æĽĿåħī": 7415,
      "çĽ´åĪ°": 7416,
      "éĶĢåķĨ": 7417,
      "åħħè¶³": 7418,
      "åĢŁåĬ©": 7419,
      "æĬĸéŁ³": 7420,
      "ç¨³åģ¥": 7421,
      "'ll": 7422,
      "è¯Ĺäºº": 7423,
      "åĿª": 7424,
      "ï¼ĮåŁºæľ¬": 7425,
      "åıĪæĺ¯": 7426,
      "å¤±ä¸ļ": 7427,
      "ĠåĴĮ": 7428,
      "æľīä¸ª": 7429,
      "å¤§çº¦": 7430,
      "æµģåĩº": 7431,
      "æĿ¡æ¬¾": 7432,
      "éĻĢ": 7433,
      "åĨ³èµĽ": 7434,
      "âĢľå°ı": 7435,
      "èµĦè´¨": 7436,
      "æįŁå®³": 7437,
      "Ã©": 7438,
      "ãĢĤå°½ç®¡": 7439,
      "æĢ»æķ°": 7440,
      "ock": 7441,
      "ä»Ĩ": 7442,
      "å·¢": 7443,
      "æ°ĳèŃ¦": 7444,
      "å¹³æĸ¹åħ¬éĩĮ": 7445,
      "æĹ¨åľ¨": 7446,
      "RO": 7447,
      "Th": 7448,
      "ax": 7449,
      "æ¯«ä¸į": 7450,
      "çĲĥåĳĺ": 7451,
      "å©ī": 7452,
      "Ġif": 7453,
      "è¾¹ç¼ĺ": 7454,
      "ãĢģçİĭ": 7455,
      "åľ°è´¨": 7456,
      "çī¹å®ļ": 7457,
      "ä¸Ĭè°ĥ": 7458,
      "æ°´åĪ©": 7459,
      "æļ¨": 7460,
      "å¤§äºº": 7461,
      "åĮł": 7462,
      "åĲĪä½ľä¼Ļä¼´": 7463,
      "çº§çļĦ": 7464,
      "ĠÂ·": 7465,
      "ï¼Įç»ĵåĲĪ": 7466,
      "æ°ĳèĲ¥": 7467,
      "äºīè®®": 7468,
      "ãĢĤ[": 7469,
      "ãĢĢåľ¨": 7470,
      "ç»ĨåĪĨ": 7471,
      "çļĦç»ıæµİ": 7472,
      "å®¢æĪ·ç«¯": 7473,
      "ç¿ģ": 7474,
      "åĿĩä»·": 7475,
      "ç»ĪæŃ¢": 7476,
      "ç½ļæ¬¾": 7477,
      "å¦¹å¦¹": 7478,
      "çļĦä¸ĸçķĮ": 7479,
      "éĥ½æ²¡": 7480,
      "è§£éĻ¤": 7481,
      "æĢİä¹ĪåĬŀ": 7482,
      "éĢıæĺİ": 7483,
      "ï¼ĮæĶ¶": 7484,
      "ï¼Įä¸ĢäºĽ": 7485,
      "è¡Ģæ¶²": 7486,
      "ç»Łæ²»": 7487,
      "ï¼Įä»į": 7488,
      "âĢ¢": 7489,
      "æĶ¹è¿Ľ": 7490,
      "å¤·": 7491,
      "éĺĢ": 7492,
      "ä¹¦ä¸Ń": 7493,
      "ç¬¬ä¸ĢèĬĤ": 7494,
      "æĸ°å»º": 7495,
      "æ´»åĬ¨çļĦ": 7496,
      "å¸¸æĢģ": 7497,
      "å®ĪæĬ¤": 7498,
      "ä¸ĢçĻ¾": 7499,
      "ç¾İå®¹": 7500,
      "ork": 7501,
      "ç¬Ķè®°": 7502,
      "éĩįå¤į": 7503,
      "ä»ĭç»įäºĨ": 7504,
      "æĺĬ": 7505,
      "åŃ©åŃĲä»¬": 7506,
      "é£İæĻ¯": 7507,
      "åİļçļĦ": 7508,
      "å»¶éķ¿": 7509,
      "ï¼ĮæĹ¥æľ¬": 7510,
      "åĨĪ": 7511,
      "çĲĨæĢ§": 7512,
      "ä¸»åĬŀ": 7513,
      "åĳĬçŁ¥": 7514,
      "%-": 7515,
      "åħ¬åħĥ": 7516,
      "æŁĦ": 7517,
      "åŀ«": 7518,
      "ows": 7519,
      "åĴ³": 7520,
      "æ³¨æĦıåĪ°": 7521,
      "ï¼Įä¾ĭå¦Ĥ": 7522,
      "ä¸Ģå¼ł": 7523,
      "æºĥ": 7524,
      "äººæĸĩ": 7525,
      "çĶµç½ĳ": 7526,
      "èįĨ": 7527,
      "çĮ´": 7528,
      "æŃ§": 7529,
      "çļĦå®īåħ¨": 7530,
      "å»ºéĢł": 7531,
      "æ®·": 7532,
      "çº¦ç¿°": 7533,
      "æĬĳåĪ¶": 7534,
      "çĪ±å¥½": 7535,
      "Ľèµ·": 7536,
      "å¸¸å§Ķä¼ļ": 7537,
      "åħĭåħ°": 7538,
      "çļĦåħī": 7539,
      "äºĨä¸ĭæĿ¥": 7540,
      "æĥŁ": 7541,
      "åĮ»ä¿Ŀ": 7542,
      "è¾ĸåĮº": 7543,
      "ä¾¿æį·": 7544,
      "æĪĲæķĪ": 7545,
      "ï¼ģæĪĳ": 7546,
      "åĨħåľ°": 7547,
      "æķıæĦŁ": 7548,
      "cm": 7549,
      "æľĪåĪĿ": 7550,
      "åľŁå£¤": 7551,
      "å¹´æĬ¥": 7552,
      "å§¨": 7553,
      "éĸ": 7554,
      "ä¸įå¯¹": 7555,
      "æ¸ĹéĢı": 7556,
      "åħ®": 7557,
      "æľįåĬ¡ä¸ļ": 7558,
      "ï¼Įå¥³": 7559,
      "æŀ¯": 7560,
      "æ¾ľ": 7561,
      "æľīåĵªäºĽ": 7562,
      "çĶµåĬ¨æ±½è½¦": 7563,
      "æ´Ĵ": 7564,
      "è°¢è°¢": 7565,
      "å½±åĥı": 7566,
      "éĵ¶ä¿Ŀ": 7567,
      "âĢĿä¹ĭ": 7568,
      "çĶµåŃĲåķĨåĬ¡": 7569,
      "éĻĦå½ķ": 7570,
      "çł´äº§": 7571,
      "è¯´å®Į": 7572,
      "ï¼Įä½įäºİ": 7573,
      "ç¿ħ": 7574,
      "æį®äºĨè§£": 7575,
      "erv": 7576,
      "æĸ¯åħĭ": 7577,
      "æİ¥åĪ°": 7578,
      "åĨįçĶŁ": 7579,
      "åĨ³å¿ĥ": 7580,
      "ï¼Įå¦Ĥä½ķ": 7581,
      "ä¸»ç¼ĸ": 7582,
      "é¢ĳçİĩ": 7583,
      "è¿ŀéĶģ": 7584,
      "æ¶¨ä»·": 7585,
      "å¹¿å·ŀå¸Ĥ": 7586,
      "éĥ½åı¯ä»¥": 7587,
      "ĠåĪĺ": 7588,
      "ï¼ĮåıĮæĸ¹": 7589,
      "å¹´éĹ´": 7590,
      "æķ°åįģ": 7591,
      "åľ¨ç¾İåĽ½": 7592,
      "èļĢ": 7593,
      "æ³ķæ²»": 7594,
      "åĨħå¿ĥ": 7595,
      "è´Łæĭħ": 7596,
      "æīĵçł´": 7597,
      "è¾Ĳå°Ħ": 7598,
      "æľīéĻĲè´£ä»»åħ¬åı¸": 7599,
      "å¤«å¦»": 7600,
      "å¹´ä¸ĬåįĬå¹´": 7601,
      "ãģĻ": 7602,
      "åĲĳä¸Ĭ": 7603,
      "äºīåıĸ": 7604,
      "åĬłåĿ¡": 7605,
      "ï¼Įæĸ¹": 7606,
      "åħļç»Ħ": 7607,
      "ç³Ł": 7608,
      "ä¹¡æĿĳæĮ¯åħ´": 7609,
      "çŀ³": 7610,
      "å¤§éĩıçļĦ": 7611,
      "åĪ©çļĦ": 7612,
      "ä¸Ģæł·çļĦ": 7613,
      "çĽ¯çĿĢ": 7614,
      "ä¸Ģéĺµ": 7615,
      "åĩĳ": 7616,
      "æŃ¥éª¤": 7617,
      "æĹłæ¯Ķ": 7618,
      "ance": 7619,
      "ì§": 7620,
      "âĢĵ": 7621,
      "ä¸Ģä»½": 7622,
      "åľ¨åĨħçļĦ": 7623,
      "æĬĦ": 7624,
      "æĥ¹": 7625,
      "æľīæ²¡æľī": 7626,
      "å´ĸ": 7627,
      "Ġç¬¬ä¸ĢçĻ¾": 7628,
      "SC": 7629,
      "è¿ĽæĶ»": 7630,
      "å¼ĢåıĳåķĨ": 7631,
      "èĤ¡æľ¬": 7632,
      "ç¬¬äºĮèĬĤ": 7633,
      "éģĹäº§": 7634,
      "æĺ¨æĹ¥": 7635,
      "æĮ«": 7636,
      "æĪĺåľº": 7637,
      "æ¶Īæ¯Ĵ": 7638,
      "æ¿Ģåıĳ": 7639,
      "ä¾µæĿĥ": 7640,
      "ãĢĤæ¯ı": 7641,
      "åĽ¢ç»ĵ": 7642,
      "ä¸ĵä¸ļçļĦ": 7643,
      "äº¨": 7644,
      "ãĥ³": 7645,
      "hy": 7646,
      "éĥĬ": 7647,
      "æł¼å¼ı": 7648,
      "ä¿®çĤ¼": 7649,
      "çİ°åľ¨çļĦ": 7650,
      "æ²³åĮĹçľģ": 7651,
      "ãĢģæĸĩåĮĸ": 7652,
      "æ²¡æĥ³åĪ°": 7653,
      "åĭĺ": 7654,
      "åİ»å¹´åĲĮæľŁ": 7655,
      "è¿Ļä»¶äºĭ": 7656,
      "è¿ĩäºİ": 7657,
      "èı©": 7658,
      "ä½łæĺ¯": 7659,
      "MP": 7660,
      "åħĭæĸ¯": 7661,
      "ï¼ĮåĲİæĿ¥": 7662,
      "èĩªä¿¡": 7663,
      "åħ¥åı£": 7664,
      "æį§": 7665,
      "ï¼Įç¬¬ä¸Ģ": 7666,
      "åĪ¹": 7667,
      "åīįéĿ¢": 7668,
      "çĶ«": 7669,
      "ç½Ĺé©¬": 7670,
      "ä¸ĢæĹ¦": 7671,
      "åı¯æĢķ": 7672,
      "è¹Ī": 7673,
      "åħļå§Ķä¹¦è®°": 7674,
      "æĻķ": 7675,
      "ç§ĳåŃ¦å®¶": 7676,
      "ç®ĢåįķçļĦ": 7677,
      "ä¸«": 7678,
      "ä¸ĭæĿ¥çļĦ": 7679,
      "åĨħèĴĻåı¤": 7680,
      "ä¸»å¯¼": 7681,
      "æ¶ĪéĻ¤": 7682,
      "èģĮèĥ½": 7683,
      "éģµå®Ī": 7684,
      "å¸Ĥéķ¿": 7685,
      "ï¼Įä»Ĭ": 7686,
      "èĢĮæĿ¥": 7687,
      "èĢĮåĩº": 7688,
      "èĬĤçĤ¹": 7689,
      "æķ°æį®åºĵ": 7690,
      "æľĢåĲİä¸Ģ": 7691,
      "çļĦçĽ¸åħ³": 7692,
      "åĲŁ": 7693,
      "ä½£": 7694,
      "ä¸ŃæľŁ": 7695,
      "åĳ³éģĵ": 7696,
      "ï¼ĮæŃ¤æ¬¡": 7697,
      "ï¼Įåıĳ": 7698,
      "æµı": 7699,
      "çº±": 7700,
      "åĵģç±»": 7701,
      "åĴ½": 7702,
      "éĢīæīĭ": 7703,
      "ï¼ĮæĹ¶": 7704,
      "ãĢģæĽ´": 7705,
      "ç»ıçºª": 7706,
      "è¸©": 7707,
      "è°Ń": 7708,
      "è¿ĺä¸į": 7709,
      "å¼Ģæĭĵ": 7710,
      "çł¸": 7711,
      "ç§ĺä¹¦éķ¿": 7712,
      "çļĦç»ĵæŀľ": 7713,
      "çº§åĪ«": 7714,
      "åĢŁæ¬¾": 7715,
      "%å·¦åı³": 7716,
      "çļĦçĶŁäº§": 7717,
      "åĲĪè§Ħ": 7718,
      "ens": 7719,
      "ä»įåľ¨": 7720,
      "âĢľæĸ°": 7721,
      "ç¾İé£Ł": 7722,
      "å·©åĽº": 7723,
      "åıĹä¼¤": 7724,
      "å¾Īå¤ļäºº": 7725,
      "to": 7726,
      "ä¸ĢæıĲ": 7727,
      "å¤§æ¶¨": 7728,
      "åĲĮäºĭ": 7729,
      "åĬłæĭ¿å¤§": 7730,
      "çºªå§Ķ": 7731,
      "åĪ°æľŁ": 7732,
      "å®¶åħ·": 7733,
      "ãĢģæĻºèĥ½": 7734,
      "ï¼ĮçĦ¶èĢĮ": 7735,
      "ï¼Įä¹ĥ": 7736,
      "å»ºè®¾çļĦ": 7737,
      "èĭ±å¯¸": 7738,
      "ä¼¦æķ¦": 7739,
      "Ġè¿Ļ": 7740,
      "å¢ĥçķĮ": 7741,
      "éĺ²å¾¡": 7742,
      "é£ŁçĶ¨": 7743,
      "åŁºå»º": 7744,
      "å·´å·´": 7745,
      "ç»¿åĮĸ": 7746,
      "æĲŃéħį": 7747,
      "åĬłçĽŁ": 7748,
      "éħ¿": 7749,
      "æĤ¨çļĦ": 7750,
      "åħ¬æ°ĳ": 7751,
      "å¨ģå°Ķ": 7752,
      "ä¸ºæŃ¢": 7753,
      "å¥¢": 7754,
      "æĬķèµĦåŁºéĩĳ": 7755,
      "æ³³": 7756,
      "å¤ļäºº": 7757,
      "åĮĹæĸ¹": 7758,
      "å¥ł": 7759,
      "ä¹ĭæĹ¶": 7760,
      "è®©æĪĳä»¬": 7761,
      "åĻª": 7762,
      "æĭīæĸ¯": 7763,
      "æĸĹäºī": 7764,
      "çķĮéĿ¢": 7765,
      "å¼ºèĢħ": 7766,
      "èģªæĺİ": 7767,
      "å±ķæľĽ": 7768,
      "åľ°éľĩ": 7769,
      "åĥµ": 7770,
      "ç¢±": 7771,
      "MI": 7772,
      "éķ¿åŁİ": 7773,
      "ï¼ĽèĢĮ": 7774,
      "......": 7775,
      "ä¾¿å®ľ": 7776,
      "çģ¾å®³": 7777,
      "ç§ĳåĪĽæĿ¿": 7778,
      "è¦ģæĺ¯": 7779,
      "å¢ŀå¹ħ": 7780,
      "å¾Ĺå¾Ī": 7781,
      "é«ĺéĢŁåħ¬è·¯": 7782,
      "æĹģè¾¹": 7783,
      "èĶļæĿ¥": 7784,
      "æĭĽèĤ¡": 7785,
      "å¤ĸéĿ¢": 7786,
      "çļĦæľī": 7787,
      "åĲĪæĪĲ": 7788,
      "éĺŁéķ¿": 7789,
      "ãĢĤæĽ¾": 7790,
      "æī¿åıĹ": 7791,
      "æłĩåĩĨåĮĸ": 7792,
      "ìĹ": 7793,
      "å¼ĢçĽĺ": 7794,
      "è¯ļä¿¡": 7795,
      "éªĳå£«": 7796,
      "éĩįéĩı": 7797,
      "å¼Ģå¿ĥ": 7798,
      "Ġå¤©": 7799,
      "ï¼ļåľ¨": 7800,
      "æ§Ľ": 7801,
      "äººå¿ĥ": 7802,
      "å¹²åĩĢ": 7803,
      "èµĦäº§ç®¡çĲĨ": 7804,
      "è®©å¥¹": 7805,
      "âĢľåįģåĽĽäºĶ": 7806,
      "æ¿Ģåħī": 7807,
      "åģĩæľŁ": 7808,
      "æĭĺ": 7809,
      "çŀª": 7810,
      "âĳ¡": 7811,
      "You": 7812,
      "ä¸Ńæĸ°": 7813,
      "çĲª": 7814,
      "æķħæĦı": 7815,
      "è§Ĩè§Ĵ": 7816,
      "ä¿®è®¢": 7817,
      "æīĢéľĢ": 7818,
      "TC": 7819,
      "ãĢģåĮº": 7820,
      "å·¾": 7821,
      "æįŀ": 7822,
      "æľĿçĿĢ": 7823,
      "æī¯": 7824,
      "åĽŀå¤´": 7825,
      "åĨħå¤ĸ": 7826,
      "åħ´å¥ĭ": 7827,
      "åĩĢæµģåħ¥": 7828,
      "ç½Ĳ": 7829,
      "å¤ļå¹´çļĦ": 7830,
      "å®ŀä¾ĭ": 7831,
      "ä¸»èĲ¥": 7832,
      "æĺ¯ä¸ºäºĨ": 7833,
      "é«ĺå³°": 7834,
      "aus": 7835,
      "ï¼ļD": 7836,
      "æµ¦ä¸ľ": 7837,
      "ãĢģåĽ½å®¶": 7838,
      "å¤ĦçĲĨåĻ¨": 7839,
      "aw": 7840,
      "åĽŀé¡¾": 7841,
      "åĸĤ": 7842,
      "èģĶåĬ¨": 7843,
      "II": 7844,
      "æĻĥ": 7845,
      "ä¸ĭåĪĹ": 7846,
      "aby": 7847,
      "ĠâĢĶâĢĶ": 7848,
      "ãĢĤä¸»è¦ģ": 7849,
      "é¦ĸåıĳ": 7850,
      "åŁºéĩĳä»½é¢Ŀ": 7851,
      "è¯¾åłĤ": 7852,
      "æ¹ĸåĮĹçľģ": 7853,
      "eel": 7854,
      "èĪ¶": 7855,
      "ev": 7856,
      "ä¸įåģľ": 7857,
      "æĭ¦": 7858,
      "å¸Ĥåľºä¸Ĭ": 7859,
      "ES": 7860,
      "ï¼Įä¸ĢæĹ¦": 7861,
      "ĠäºĶ": 7862,
      "æł¼åħ°": 7863,
      "è¾ĥå¤§çļĦ": 7864,
      "çĶµåĬ¨è½¦": 7865,
      "åŃĺåľ¨çļĦ": 7866,
      "ï¼Įç¥ŀ": 7867,
      "è¿ĳå¹³": 7868,
      "å¸ĮèħĬ": 7869,
      "æĹłå¥Ī": 7870,
      "æĲºæīĭ": 7871,
      "ï¼ĪäºĮ": 7872,
      "æİ¥å¾ħ": 7873,
      "éļĲèĹı": 7874,
      "åıĺå¼Ĥ": 7875,
      "å¯¼åĲĳ": 7876,
      "æĸĩåĮĸçļĦ": 7877,
      "åķĨä¸ļéĵ¶è¡Į": 7878,
      "ç¾ŀ": 7879,
      "å¸¸çĶ¨": 7880,
      "è¿ĺå°Ĩ": 7881,
      "ä¸Ģä¸ªæľĪ": 7882,
      "æĥ³èµ·": 7883,
      "ç¬¬ä¸īåŃ£åº¦": 7884,
      "å®½æĿ¾": 7885,
      "ãĢĤæŃ£": 7886,
      "çĿĢåĬĽ": 7887,
      "æĺİå¤©": 7888,
      "è®¾å®ļ": 7889,
      "ï¼ĮæľīæķĪ": 7890,
      "ä»¥å¤ĸ": 7891,
      "çļĦç¤¾ä¼ļ": 7892,
      "æĹ¥ä¸ĬåįĪ": 7893,
      "æĦī": 7894,
      "éĤ£ä¸Ģ": 7895,
      "Ġhave": 7896,
      "è¥¿äºļ": 7897,
      "ä¹łè¿ĳå¹³": 7898,
      "å°ģéĹŃ": 7899,
      "åĸī": 7900,
      "éķ¿æĹ¶éĹ´": 7901,
      "å½ĵä¸ĭ": 7902,
      "æĹłçĸĳ": 7903,
      "æ¶ĪåĮĸ": 7904,
      "éĽĩ": 7905,
      "åįĸåĩº": 7906,
      "ï¼ĮåĲ¬": 7907,
      "çĽ¸ç»ĵåĲĪ": 7908,
      "èĢģå¹´äºº": 7909,
      "èĤ¢": 7910,
      "ä¼łè¾ĵ": 7911,
      "æĶ¯éĥ¨": 7912,
      "ç´§å¯Ĩ": 7913,
      "åŃ©åŃĲçļĦ": 7914,
      "Ġi": 7915,
      "åľ¨è¿Ļä¸ª": 7916,
      "èīĺ": 7917,
      "æĦŁåıĹåĪ°": 7918,
      "ãĢģå®īåħ¨": 7919,
      "åı·çº¿": 7920,
      "ï¼ĮæľīçļĦ": 7921,
      "å¹³åı°çļĦ": 7922,
      "åİĨåı²ä¸Ĭ": 7923,
      "åĢ¾åĲĳ": 7924,
      "é¢ĦèŃ¦": 7925,
      "æķĻèĤ²éĥ¨": 7926,
      "ç§įç±»": 7927,
      "èĭ¥å¹²": 7928,
      "äºĶä¸ª": 7929,
      "æĸĩç«łæĿ¥æºĲ": 7930,
      "ï¼Įä¸įç®¡": 7931,
      "è´Ŀå°Ķ": 7932,
      "éĿŀæ´²": 7933,
      "å®°": 7934,
      "ä½İç¢³": 7935,
      "âĶĢâĶĢ": 7936,
      "è¿Ľåĩºåı£": 7937,
      "å¤ªåŃĲ": 7938,
      "åıĳåĬĽ": 7939,
      "ç£Ĭ": 7940,
      "çĸĳéĹ®": 7941,
      "åľ¨å¤§": 7942,
      "æŃĩ": 7943,
      "è¿Ļä¸¤": 7944,
      "âĢĻï¼Į": 7945,
      "æī®æ¼Ķ": 7946,
      "æĺ¯ä»İ": 7947,
      "åľ¨æĪĳ": 7948,
      "åĨĢ": 7949,
      "å¹´åĲİ": 7950,
      "è¯¢éĹ®": 7951,
      "äºĮæ¬¡": 7952,
      "åİ¨æĪ¿": 7953,
      "Ġæľī": 7954,
      "åİŁå§ĭ": 7955,
      "éĩĩéĽĨ": 7956,
      "ãĢģä¸Ģ": 7957,
      "ï¼ĪåĲ«": 7958,
      "åĭĭ": 7959,
      "äººäºĭ": 7960,
      "åĽŀäºĭ": 7961,
      "Wind": 7962,
      "ãģĪ": 7963,
      "å¯Ĩåº¦": 7964,
      "ï¼ĮåıĬæĹ¶": 7965,
      "é¢Ħçº¦": 7966,
      "è¶³ä»¥": 7967,
      "ï¼ĮåĬªåĬĽ": 7968,
      "å¢ħ": 7969,
      "çĭ¬çī¹çļĦ": 7970,
      "ãĢįï¼Į": 7971,
      "åħ¬å¸ĥçļĦ": 7972,
      "çī©èģĶç½ĳ": 7973,
      "çĿģ": 7974,
      "æľīæķĪçļĦ": 7975,
      "èĩŃ": 7976,
      "è¯ŃéŁ³": 7977,
      "iss": 7978,
      "å®¡è®®": 7979,
      "å¤§äºĨ": 7980,
      "çĿĢçļĦ": 7981,
      "Ġtime": 7982,
      "åĽ½éĺ²": 7983,
      "åŃĲä¸Ĭ": 7984,
      "ä¿®æŃ£": 7985,
      "ä¹łé¢ĺ": 7986,
      "éļĲæĤ£": 7987,
      "æ¸¯æ¾³": 7988,
      "å¤§æĪĺ": 7989,
      "ina": 7990,
      "éĩĮæĸ¯": 7991,
      "ï¼Įä¸ºä»Ģä¹Ī": 7992,
      "æ¹¾åĮº": 7993,
      "æĺ¯ä¸Ģæ¬¾": 7994,
      "ï¼įï¼į": 7995,
      "ä¹ĭäºº": 7996,
      "å¥¥è¿Ĳä¼ļ": 7997,
      "ç¨³æŃ¥": 7998,
      "ç»³": 7999,
      "ï¼Įä¸Ģè¾¹": 8000,
      "ä¸īæĺŁ": 8001,
      "æ¯ķä¸ļçĶŁ": 8002,
      "ãģ£ãģ¦": 8003,
      "åĲ¼": 8004,
      "æıĲä¾ĽçļĦ": 8005,
      "èĶĵ": 8006,
      "é©³": 8007,
      "å¹¶è´Ń": 8008,
      "é«ĺå±Ĥ": 8009,
      "å°ıå¹ħ": 8010,
      "æĸ°åŁİ": 8011,
      "ç«ĭåľº": 8012,
      "è£¤": 8013,
      "å¿ĥæĥħ": 8014,
      "å´Ľèµ·": 8015,
      "çĪĨçĤ¸": 8016,
      "å¢ŀæĮģ": 8017,
      "ç²¹": 8018,
      "åĭī": 8019,
      "éĹ¨æ§Ľ": 8020,
      "è§ģè¿ĩ": 8021,
      "äº¤éĢļè¿Ĳè¾ĵ": 8022,
      "æĬ¥è®°èĢħ": 8023,
      "æĺ¯æľĢ": 8024,
      "å°½å¿«": 8025,
      "çĹħäºº": 8026,
      "å±¡": 8027,
      "åī¥": 8028,
      "æ¾Ħ": 8029,
      "æī¹åıĳ": 8030,
      "çĽ¸ä¼¼": 8031,
      "ä¹¦ç±į": 8032,
      "æĭ¿åĪ°": 8033,
      "æĪĳåľ¨": 8034,
      "é¢ĺæĿĲ": 8035,
      "èĻļåģĩ": 8036,
      "çĹ´": 8037,
      "éħįéĢģ": 8038,
      "æĲı": 8039,
      "æĶ¿çŃĸçļĦ": 8040,
      "æĭĮ": 8041,
      "å¤įåĪ¶": 8042,
      "é¹ħ": 8043,
      "ï¼ĮåĬłä¸Ĭ": 8044,
      "èĦĸ": 8045,
      "ous": 8046,
      "Ġwhat": 8047,
      "hing": 8048,
      "æīĶ": 8049,
      "åıĹçĲĨ": 8050,
      "ãĢĤè¿Ļæł·": 8051,
      "çļĦéĢīæĭ©": 8052,
      "çŁ³å®¶åºĦ": 8053,
      "å®¶ä¸Ń": 8054,
      "èĪ¬çļĦ": 8055,
      "ãĢģåħ¨": 8056,
      "ç§įç§į": 8057,
      "æĬµæĬ¼": 8058,
      "æĮĩä»¤": 8059,
      "Ġjust": 8060,
      "èĤĨ": 8061,
      "æĥħæĬ¥": 8062,
      "æ¡Ĳ": 8063,
      "Ġtr": 8064,
      "åĽŃæŀĹ": 8065,
      "å½±åĵįåĬĽ": 8066,
      "æ¼Ķè®²": 8067,
      "ï¼Įç»Ħç»ĩ": 8068,
      "åĮĻ": 8069,
      "çģ¿": 8070,
      "çīĩåĮº": 8071,
      "èĦĬ": 8072,
      "æ©Ļ": 8073,
      "è®¶": 8074,
      "æ¬¡ä¼ļè®®": 8075,
      "ç¦»åŃĲ": 8076,
      "ĠéĻĪ": 8077,
      "ãĢĤè¿Ļä¸Ģ": 8078,
      "AA": 8079,
      "ä¾ĽéľĢ": 8080,
      "ä¸Ĭå¸Ŀ": 8081,
      "ãĢĭãĢĤĊ": 8082,
      "é¦ĸéĥ½": 8083,
      "://": 8084,
      "çļĦä½įç½®": 8085,
      "äºļé©¬": 8086,
      "åĲ«éĩı": 8087,
      "ï¼Įæŀģ": 8088,
      "çĥ¯": 8089,
      "è£¹": 8090,
      "èĢķåľ°": 8091,
      "å¤ĸç§ĳ": 8092,
      "æ²īé»ĺ": 8093,
      "èĪ¹èĪ¶": 8094,
      "/èĤ¡": 8095,
      "EN": 8096,
      "ï¼ĮæĽ´æĺ¯": 8097,
      "'re": 8098,
      "åıĮæīĭ": 8099,
      "ï¼ģâĢĿĊ": 8100,
      "åįĴ": 8101,
      "é¥¶": 8102,
      "å¾Īå°ĳ": 8103,
      "é£İçĶµ": 8104,
      "ãĢĤæľ¬ä¹¦": 8105,
      "åĪĽç«ĭ": 8106,
      "åĬŁå¤«": 8107,
      "è¡·": 8108,
      "æĬķèµĦçļĦ": 8109,
      "é¥¿": 8110,
      "ï¼ĮåĬ©åĬĽ": 8111,
      "æĪ·åŀĭ": 8112,
      "ãĢĤåĨį": 8113,
      "ä¹Łä¸įæĺ¯": 8114,
      "åį°åıĳ": 8115,
      "ç»©æķĪ": 8116,
      "ê°": 8117,
      "ĠQ": 8118,
      "åŃĲå¥³": 8119,
      "åĨ¬åŃ£": 8120,
      "ãģ¤": 8121,
      "è¿Ń": 8122,
      "å¤ĸèµĦ": 8123,
      "èį¯ä¸ļ": 8124,
      "éĩİçĶŁ": 8125,
      "ìķ": 8126,
      "ï¼Įä»Ģä¹Ī": 8127,
      "çŃīé¢ĨåŁŁ": 8128,
      "çļĦéķ¿": 8129,
      "éĴ¦": 8130,
      "ä¸Ģæ®µæĹ¶éĹ´": 8131,
      "ä¸ĬæĿ¥": 8132,
      "åįİå¤ı": 8133,
      "Ġone": 8134,
      "ãĢģçĻ½": 8135,
      "ä»ĸæĺ¯": 8136,
      "ï¼ĮæĪĳå°±": 8137,
      "å®¶åħ¬åı¸": 8138,
      "åĪĨåĮĸ": 8139,
      "ï¼Įå¾Ĺ": 8140,
      "row": 8141,
      "ç«Ń": 8142,
      "ä¹ĭåĨħ": 8143,
      "ï¼Įå°±åĥı": 8144,
      "çŃīéĹ®é¢ĺ": 8145,
      "åĩ¤åĩ°": 8146,
      "ä»Ĺ": 8147,
      "èĬ½": 8148,
      "æĮĩå¼ķ": 8149,
      "æŃ»çļĦ": 8150,
      "ãĢĤåħ¶å®ŀ": 8151,
      "èĦĳè¢ĭ": 8152,
      "ï¼ĮéĩįçĤ¹": 8153,
      "æ³¨å°Ħ": 8154,
      "æīįä¼ļ": 8155,
      "ãĢĤéĤ£ä¹Ī": 8156,
      "è¢į": 8157,
      "ãĢĤåĲİ": 8158,
      "çĶŁæ´»ä¸Ń": 8159,
      "æľīä¸Ģç§į": 8160,
      "Ġnow": 8161,
      "ï¼Įçº¢": 8162,
      "æŃ¥è¡Į": 8163,
      "åĽ½å®¶åĴĮ": 8164,
      "èĨ¨": 8165,
      "åŀĴ": 8166,
      "ï¼Įè¯¥åħ¬åı¸": 8167,
      "Ġex": 8168,
      "æĦıè¯ĨåĪ°": 8169,
      "å®ŀçļĦ": 8170,
      "éĴī": 8171,
      "æĹ±": 8172,
      "çľŁçĽ¸": 8173,
      "å½Ĵæ¯į": 8174,
      "ï¼Įä¸Ĭæµ·å¸Ĥ": 8175,
      "ï¼Įåħī": 8176,
      "ï¼Įçľģ": 8177,
      "ï¼Įå¼Ģå±ķ": 8178,
      "ãĢĤåīį": 8179,
      "æĹ¶åħī": 8180,
      "è¯´ä»Ģä¹Ī": 8181,
      "çĶ¨æĪ·çļĦ": 8182,
      "æľºæŀĦçļĦ": 8183,
      "æĪıåī§": 8184,
      "åıłåĬł": 8185,
      "ï¼Įä»¤": 8186,
      "åĪĨåħ¬åı¸": 8187,
      "å£¶": 8188,
      "ç¦½": 8189,
      "æİīäºĨ": 8190,
      "éĩıåŃĲ": 8191,
      "å£«åħµ": 8192,
      "æ¦Ĥçİĩ": 8193,
      "æĬ¥åĳĬæľŁåĨħ": 8194,
      "ä¸Ĭä¼ł": 8195,
      "éĹ¨è¯Ĭ": 8196,
      "ç©¿çĿĢ": 8197,
      "çº³ç¨İ": 8198,
      "ï¼ĮåĬĽ": 8199,
      "ä¿¡ä»°": 8200,
      "çº¿ç´¢": 8201,
      "çİ¯çĲĥ": 8202,
      "è¿ľç¨ĭ": 8203,
      "ft": 8204,
      "ä»¥æĿ¥çļĦ": 8205,
      "ä¹¦çĶ»": 8206,
      "åĩłåįģ": 8207,
      "èıĬ": 8208,
      "é£Ļ": 8209,
      "æ¯Ķéĩį": 8210,
      "ÂłĠÂł": 8211,
      "æ²§": 8212,
      "åĸľæ¬¢çļĦ": 8213,
      "å¹³çŃī": 8214,
      "ä¹Įåħĭåħ°": 8215,
      "ç§ĳåŃ¦æĬĢæľ¯": 8216,
      "äºĮæīĭæĪ¿": 8217,
      "eb": 8218,
      "çĶ¨äºĨ": 8219,
      "äººæ°ĳåĮ»éĻ¢": 8220,
      "æİĴéĻ¤": 8221,
      "ä¿¡æģ¯æĬĢæľ¯": 8222,
      "å·´è¥¿": 8223,
      "è¿ĩåº¦": 8224,
      "Android": 8225,
      "æµıè§Ī": 8226,
      "Ġä¸ĭåįĪ": 8227,
      "è´µçļĦ": 8228,
      "ãĢĤãĢĲ": 8229,
      "æĪĳä¸į": 8230,
      "ç¼Ĩ": 8231,
      "æĪĸæĺ¯": 8232,
      "å®īå¾½çľģ": 8233,
      "ç«ĭè¶³": 8234,
      "çº¦æĿŁ": 8235,
      "è§ģéĿ¢": 8236,
      "me": 8237,
      "äººä¹ĭ": 8238,
      "åº·å¤į": 8239,
      "çļĦè¿ĩç¨ĭ": 8240,
      "ä¸Ĭæľī": 8241,
      "ç¤¾ä¼ļçļĦ": 8242,
      "ç´§ç´§": 8243,
      "ï¼ĮåıįèĢĮ": 8244,
      "ãĢģä¸ľ": 8245,
      "æĪļ": 8246,
      "çŃĴ": 8247,
      "è´¨çĸĳ": 8248,
      "å°¤åħ¶æĺ¯": 8249,
      "ãĢģå¤©": 8250,
      "ict": 8251,
      "å¸¸è§Ħ": 8252,
      "æĩĴ": 8253,
      "åľºçļĦ": 8254,
      "ï¼Įè¿Ľè¡Į": 8255,
      "ä¸Ģé¡¹": 8256,
      "è¿Ľåº¦": 8257,
      "åĢ¼å¾Ĺä¸ĢæıĲ": 8258,
      "æĽ´å¥½åľ°": 8259,
      "ãĢĤç¾İåĽ½": 8260,
      "èĲ½åľ¨": 8261,
      "éĺ»æŃ¢": 8262,
      "æĥħèĬĤ": 8263,
      "å©´åĦ¿": 8264,
      "ï¼Įèĩ³": 8265,
      "æĽ´å¤§çļĦ": 8266,
      "äºĨåĲ§": 8267,
      "äº¿æ¸¯åħĥ": 8268,
      "IM": 8269,
      "ï¼īåľ¨": 8270,
      "ough": 8271,
      "çļĦå½¢å¼ı": 8272,
      "é¡·": 8273,
      "èµĽäºĭ": 8274,
      "Ġcont": 8275,
      "å¤§åİ¦": 8276,
      "ä½ľçī©": 8277,
      "ï¼ĪC": 8278,
      "ä¾ĽçĶµ": 8279,
      "çĬ¹è±«": 8280,
      "åĵĪå°Ķæ»¨": 8281,
      "ï¼ĪS": 8282,
      "å®ŀè´¨": 8283,
      "iver": 8284,
      "ï¼ĮåĪ©çĶ¨": 8285,
      "å¹´å¼Ģå§ĭ": 8286,
      "åı¯ä»¥éĢļè¿ĩ": 8287,
      "è½®èŀįèµĦ": 8288,
      "å¤ĸåĩº": 8289,
      "ok": 8290,
      "ï¼Įä¸įå°ĳ": 8291,
      "æİĴæŁ¥": 8292,
      "åĤ¨èĥ½": 8293,
      "ä¸Ģä»£": 8294,
      "ä»¥å¾Ģ": 8295,
      "åĬ¨æīĭ": 8296,
      "è°ľ": 8297,
      "èģĶåĲĪåĽ½": 8298,
      "ik": 8299,
      "ï¼ĮC": 8300,
      "ä¸»å¼ł": 8301,
      "çĶ¸": 8302,
      "çº¢åĪ©": 8303,
      "åİ¿åŁİ": 8304,
      "è¿ľçļĦ": 8305,
      "åŃ£èĬĤ": 8306,
      "é¾Ł": 8307,
      "èĢĥçĶŁ": 8308,
      "ä»ªåĻ¨": 8309,
      "ä¸ĢæĬĬ": 8310,
      "çłį": 8311,
      "åį¸": 8312,
      "è¿ĻæĹ¶": 8313,
      "æİ¨åĩºäºĨ": 8314,
      "ç§¯åĪĨ": 8315,
      "ife": 8316,
      "æĲºå¸¦": 8317,
      "å°±ç®Ĺ": 8318,
      "è¯¥åħ¬åı¸": 8319,
      "ç»ŃèĪª": 8320,
      "çĽĺä¸Ń": 8321,
      "Wh": 8322,
      "ä¸Ģå®ļçļĦ": 8323,
      "åħ¨æĸ°çļĦ": 8324,
      "åĮĹéĥ¨": 8325,
      "ï¼Įç«ŁçĦ¶": 8326,
      "ç¦¹": 8327,
      "æģĲæĥ§": 8328,
      "è¯ĪéªĹ": 8329,
      "å¼ĢéĢļ": 8330,
      "ÂłĊ": 8331,
      "Ġé«ĺ": 8332,
      "ï¼Įå¤ª": 8333,
      "å¦¨": 8334,
      "æĦıå¿Ĺ": 8335,
      "æŁĲä¸ª": 8336,
      "ï¼Įå½ĵåīį": 8337,
      "ï¹": 8338,
      "ä¼Łå¤§": 8339,
      "ãĢĤåĲİæĿ¥": 8340,
      "çĶŁæ¶¯": 8341,
      "ï¼ĮæĭŁ": 8342,
      "çĶŁç´ł": 8343,
      "æĹ¥ä¸ĭåįĪ": 8344,
      "ãĢĭ(": 8345,
      "å«©": 8346,
      "æ¢³çĲĨ": 8347,
      "æĭĲ": 8348,
      "éĢĤå®ľ": 8349,
      "çľĭæ³ķ": 8350,
      "æ±Łæ¹ĸ": 8351,
      "åī¯å±Ģéķ¿": 8352,
      "çĶŁäº§çļĦ": 8353,
      "åĢĭ": 8354,
      "çĪ¹": 8355,
      "èĪĨ": 8356,
      "äºļé©¬éĢĬ": 8357,
      "ä¸Ļ": 8358,
      "ï¼Įåľ°": 8359,
      "ä¸īåĪĨ": 8360,
      "åħ¬ç¤º": 8361,
      "ï¼Īä¸ĭ": 8362,
      "Ġç¬¬åħ«": 8363,
      "èĦļæŃ¥": 8364,
      "æī¶æĮģ": 8365,
      "ï¼Įäº§åĵģ": 8366,
      "å½¢æĪĲäºĨ": 8367,
      "ãĢģéĶĢåĶ®": 8368,
      "æĳĦåĥıå¤´": 8369,
      "äºĨæĪĳ": 8370,
      "çĶµæľº": 8371,
      "åį±å®³": 8372,
      "çļĦä»·åĢ¼": 8373,
      "èīºæľ¯å®¶": 8374,
      "æĥ³çĿĢ": 8375,
      "åħ¬å¼Ģåıĳ": 8376,
      "çĸ«æĥħå½±åĵį": 8377,
      "ï¼ĩ": 8378,
      "è§Ĩéĩİ": 8379,
      "ä¾ĭåŃĲ": 8380,
      "å¤ļå¤ļ": 8381,
      "åº¦åģĩ": 8382,
      "æīĢåľ¨åŁİå¸Ĥ": 8383,
      "çĶŁæķĪ": 8384,
      "ä¸ĭè°ĥ": 8385,
      "ä¹Łè¢«": 8386,
      "ĠUn": 8387,
      "ç»ıæµİå¢ŀéķ¿": 8388,
      "å¾®ç¬ĳ": 8389,
      "æ¸ħåįİ": 8390,
      "ãĢĤãĢĤ": 8391,
      "çĶ·æĢ§": 8392,
      "å¿ĥçģµ": 8393,
      "å®ģå¾·": 8394,
      "ãĢĤå¤©": 8395,
      "æĸ°æĹ¶ä»£": 8396,
      "çĤ¹äºĨ": 8397,
      "ç§ĳæĻ®": 8398,
      "æ°´çļĦ": 8399,
      "åĲģ": 8400,
      "éģŃåĪ°": 8401,
      "ï¼ĮS": 8402,
      "ãĢģåĮĹäº¬": 8403,
      "éŃĦ": 8404,
      "æķĳåĬ©": 8405,
      "ä½ľæĽ²": 8406,
      "äººå¤§å¸¸å§Ķä¼ļ": 8407,
      "ï¼ĮéĴĪå¯¹": 8408,
      "å¸ĤæĶ¿åºľ": 8409,
      "å·¥ä½ľèĢħ": 8410,
      "æĿĥçļĦ": 8411,
      "æºĲäºİ": 8412,
      "ï¼Įèµµ": 8413,
      "åį°åĪ·": 8414,
      "Ġåħĥ": 8415,
      "ï¼Įç¬¬äºĮ": 8416,
      "ãĢĤä¸Ģä¸ª": 8417,
      "åĳ¨ä¸Ģ": 8418,
      "Ġä»İ": 8419,
      "ãĢģå¸Ĥåľº": 8420,
      "ï¼Įè¿Ļæ¬¡": 8421,
      "èļĤ": 8422,
      "ï¼Įè®¤ä¸º": 8423,
      "åĲĳåīį": 8424,
      "éªĦ": 8425,
      "ï¼Įèµ°": 8426,
      "å¤ļé¡¹": 8427,
      "äºĴèģĶ": 8428,
      "ãĢģç®¡çĲĨ": 8429,
      "æĬķç¥¨": 8430,
      "åĩºäºİ": 8431,
      "âĢľä¸į": 8432,
      "æĮ½": 8433,
      "ï¼ĮéĩĩçĶ¨": 8434,
      "åĪĽåĬŀ": 8435,
      "Ġor": 8436,
      "Â°": 8437,
      "ä¸ĢçĶŁ": 8438,
      "è¥¿çıŃçīĻ": 8439,
      "å¥¸": 8440,
      "ï¼Īä»¥ä¸ĭç®Ģç§°": 8441,
      "çĽ¸åıį": 8442,
      "å¤§å¤§": 8443,
      "æĪĳæĥ³": 8444,
      "å»ºç«ĭäºĨ": 8445,
      "ï¼Įå¼ºåĮĸ": 8446,
      "èīĩ": 8447,
      "åģļä»Ģä¹Ī": 8448,
      "itt": 8449,
      "ä¸Ģçľĭ": 8450,
      "åİ¢": 8451,
      "åĬłåī§": 8452,
      "åĩºçİ°çļĦ": 8453,
      "ee": 8454,
      "åıĳçİ°äºĨ": 8455,
      "ï¼Įä½¿çĶ¨": 8456,
      "ç¼ĵç¼ĵ": 8457,
      "ï¼Įèİ·å¾Ĺ": 8458,
      "å¤´åıĳ": 8459,
      "å¸¸å¸¸": 8460,
      "éģĹåĿĢ": 8461,
      "ãĢĤå½ĵæĹ¶": 8462,
      "åĨĴéĻ©": 8463,
      "åºĶè¯¥æĺ¯": 8464,
      "\",": 8465,
      "è°£": 8466,
      "æīĢè°ĵçļĦ": 8467,
      "æŀ£": 8468,
      "æİ§èĤ¡èĤ¡ä¸ľ": 8469,
      "Ġä¸ĩ": 8470,
      ".SH": 8471,
      "å¾ģæĶ¶": 8472,
      "æĻĴ": 8473,
      "æ¥ł": 8474,
      "åĬłæģ¯": 8475,
      "ç±»åĪ«": 8476,
      "åº¸": 8477,
      "åįķä¸Ģ": 8478,
      "å¢ŀéĩı": 8479,
      "ä½ĳ": 8480,
      "è¯´è¿ĩ": 8481,
      "æ¹ĸåįĹçľģ": 8482,
      "ï¼Įä»·æł¼": 8483,
      "æĪĲåĬŁçļĦ": 8484,
      "âĢ¦âĢ¦âĢĿâĢľ": 8485,
      "èī°éļ¾": 8486,
      "Ġï¼ļ": 8487,
      "ï¼Įä½İ": 8488,
      "äº§åĢ¼": 8489,
      "åįıåķĨ": 8490,
      "ä»»èģĮ": 8491,
      "åĽĽå¹´": 8492,
      "åĪ©å¥½": 8493,
      "å±Ģéĥ¨": 8494,
      "åĩºè´§": 8495,
      "åĿĩè¡¡": 8496,
      "TV": 8497,
      "è°·æŃĮ": 8498,
      "ìĸ": 8499,
      "çŁ³å¤´": 8500,
      "éĩĳèŀįæľįåĬ¡": 8501,
      "çĨĶ": 8502,
      "æĥĬè®¶": 8503,
      "åİ¿çº§": 8504,
      "åıĬåħ¶ä»ĸ": 8505,
      "æĺĶ": 8506,
      "ç§ģäºº": 8507,
      "æľºåĬ¨": 8508,
      "ç¡«": 8509,
      "æ²¡æľīä»»ä½ķ": 8510,
      "éĥ½è¢«": 8511,
      "æĿĢäºº": 8512,
      "ï¼Įèµ·": 8513,
      "ï¼Įåİ»å¹´": 8514,
      "åķ¤": 8515,
      "æ£ļ": 8516,
      "ï¼Īè®°èĢħ": 8517,
      "å½ĵåĪĿ": 8518,
      "èĢĥéªĮ": 8519,
      "åī¯æĢ»è£ģ": 8520,
      "ï½ľ": 8521,
      "DA": 8522,
      "åĪĨè¡Į": 8523,
      "æ¿ĢåĬ¨": 8524,
      "æ¸©æŁĶ": 8525,
      "åĢ¼å¾Ĺä¸ĢæıĲçļĦæĺ¯": 8526,
      "æĦŁåĬ¨": 8527,
      "æ¯ıæ¬¡": 8528,
      "çļĦå°±æĺ¯": 8529,
      "å½¬": 8530,
      "èŁ¹": 8531,
      "åįķçĭ¬": 8532,
      "æĺ¾èĳĹ": 8533,
      "åħ³èĬĤ": 8534,
      "æ¸ħçĲĨ": 8535,
      "å®īåħ¨çĶŁäº§": 8536,
      "Ġcon": 8537,
      "äººåĳĺçļĦ": 8538,
      "å½ĵäºĭäºº": 8539,
      "ç²¾ç»Ĩ": 8540,
      "çĭ¬å®¶": 8541,
      "çĩĥçĥ§": 8542,
      "æ¸Ŀ": 8543,
      "æķĻç»ĥ": 8544,
      "æŀģåħ¶": 8545,
      "ä¹ĸ": 8546,
      "æĺ¯ä»ĸ": 8547,
      "éŁ§": 8548,
      "çļĦæľĭåıĭ": 8549,
      "æ³µ": 8550,
      "ä¼łæĿ¥": 8551,
      "ï¼Įæł¹æľ¬": 8552,
      "ä¸¾æĬ¥": 8553,
      "âī": 8554,
      "æ³ķçļĦ": 8555,
      "è¯¥æĿĳ": 8556,
      "è®¸åı¯è¯ģ": 8557,
      "ï¼Įç»Īäºİ": 8558,
      "éĺŁåĳĺ": 8559,
      "ath": 8560,
      "åįıä½ľ": 8561,
      "åįĥå¹´": 8562,
      "æĭ¿çĿĢ": 8563,
      "ç¬¬äºĮçĻ¾": 8564,
      "Ġla": 8565,
      "åĢ¼å¾Ĺæ³¨æĦıçļĦæĺ¯": 8566,
      "ä¸ľéĥ¨": 8567,
      "æĶ¾æĿ¾": 8568,
      "ç¤¾åĽ¢": 8569,
      "ï¼Įå°±ä¼ļ": 8570,
      "ãĢĤå¦Ĥä»Ĭ": 8571,
      "åĴĴ": 8572,
      "é¢Ŀåº¦": 8573,
      "ç¬¬ä¸īèĬĤ": 8574,
      "çĭŃ": 8575,
      "ï¼ĮçĪ±": 8576,
      "è®²è§£": 8577,
      "æħ¨": 8578,
      "åºĹéĵº": 8579,
      "çĵ£": 8580,
      "åģĩè®¾": 8581,
      "åĪĥ": 8582,
      "äº¤äºĴ": 8583,
      "æ¬£èµı": 8584,
      "ï¼ĮçľĭçĿĢ": 8585,
      "æµªè´¹": 8586,
      "è¶ĬæĿ¥è¶Ĭå¤ļ": 8587,
      "äºĶå¤§": 8588,
      "âĢ¦âĢ¦âĢ¦âĢ¦": 8589,
      "åĵģçīĮçļĦ": 8590,
      "å¼Ģè®¾": 8591,
      "åŁİçļĦ": 8592,
      "æĴķ": 8593,
      "ical": 8594,
      "Ġdown": 8595,
      "æ»´æ»´": 8596,
      "ress": 8597,
      "çŁŃç¼º": 8598,
      "ade": 8599,
      "ose": 8600,
      "ãĢĤçĻ½": 8601,
      "çĽ¼": 8602,
      "æĪĳå°±": 8603,
      "åŁºåĩĨ": 8604,
      "è±¡å¾ģ": 8605,
      "éĩįè¦ģçļĦæĺ¯": 8606,
      "ä»ĺæ¬¾": 8607,
      "ĬĶ": 8608,
      "ï¼Įåįİä¸º": 8609,
      "ä¸ĭæĸ¹": 8610,
      "æľīè¶£": 8611,
      "åįĳ": 8612,
      "éķ¿èĢģ": 8613,
      "èĵĿèī²": 8614,
      "ï¼ĮæĮĩ": 8615,
      "ï¼Įåħ·ä½ĵ": 8616,
      "ä¸Ģåĳ¨": 8617,
      "hu": 8618,
      "èİ¹": 8619,
      "ä¸Ģå®ļä¼ļ": 8620,
      "odel": 8621,
      "ä¸įè¡Į": 8622,
      "çŃīæĸ¹å¼ı": 8623,
      "èĬ¦": 8624,
      "å½ĵæĹ¥": 8625,
      "è¯ģå®ŀ": 8626,
      "éľī": 8627,
      "èĥ½åĬĽçļĦ": 8628,
      "åĪĨæķ£": 8629,
      "åĿł": 8630,
      "åħļç»ĦæĪĲåĳĺ": 8631,
      "Ġway": 8632,
      "ãĢĤä¸Ĭ": 8633,
      "ãĢĭä¸Ģ": 8634,
      "çĲĨå·¥": 8635,
      "çªĥ": 8636,
      "éĢģåĪ°": 8637,
      "çļĦæ¶Īæģ¯": 8638,
      "çĳ°": 8639,
      "Ġonly": 8640,
      "åĽ¾çīĩæĿ¥æºĲ": 8641,
      "æīĭéĩĮ": 8642,
      "éĴ©": 8643,
      "å¦ĤåĲĮ": 8644,
      "ç¤¼çī©": 8645,
      "å¹´æľŁ": 8646,
      "è¦ģçĤ¹": 8647,
      "åĩĢåĪ©": 8648,
      "æŁĲæŁĲ": 8649,
      "æ²Īéĺ³": 8650,
      "çľĭåĲĳ": 8651,
      "Ġä¸º": 8652,
      "çĶ¨è½¦": 8653,
      "ï¼Įè¿ĺè¦ģ": 8654,
      "éĥ½å¾Ī": 8655,
      "æ·¡æ·¡": 8656,
      "Ġx": 8657,
      "äºĨå¾Īå¤ļ": 8658,
      "å®ģå¤ı": 8659,
      "èĪŀè¹Ī": 8660,
      "æĺĨæĺİ": 8661,
      "æĦıæĦ¿": 8662,
      "æĶ¾ç¼ĵ": 8663,
      "ç²¾å¿ĥ": 8664,
      "çĶ·åŃ©": 8665,
      "åŁºæľ¬éĿ¢": 8666,
      "man": 8667,
      "ç¦ıå»ºçľģ": 8668,
      "åĪ°ä½į": 8669,
      "è¯Ħå®¡": 8670,
      "çĮªèĤī": 8671,
      "Ġä¸»è¦ģ": 8672,
      "åħ¬ç§¯": 8673,
      "ä»İæľª": 8674,
      "ï¼Įä¸¤äºº": 8675,
      "ï¼ĮåĨ³å®ļ": 8676,
      "ä¸ĢåĿĹ": 8677,
      "åŃ¦æĬ¥": 8678,
      "åĲµ": 8679,
      "ãĢģåĮ»çĸĹ": 8680,
      "å¸ĸ": 8681,
      "åŃ¦çĶŁçļĦ": 8682,
      "æĦ§": 8683,
      "DR": 8684,
      "å®Ľ": 8685,
      "ï¼ŁãĢį": 8686,
      "ï¼Įçº¦": 8687,
      "ï¼ĮåĲ´": 8688,
      "æĿ¡ä»¶çļĦ": 8689,
      "åĩıè½»": 8690,
      "hi": 8691,
      "ä¹ĭæĹ¥èµ·": 8692,
      "åĺ¿": 8693,
      "ç£ħ": 8694,
      "èº«åĲİ": 8695,
      "å¿ĥèĦı": 8696,
      "æĮģä»ĵ": 8697,
      "éŁ³é¢ĳ": 8698,
      "åĴĮç®¡çĲĨ": 8699,
      "èľĢ": 8700,
      "çĪ·çĪ·": 8701,
      "éĩįåºĨå¸Ĥ": 8702,
      "åŁºéĩĳæīĺç®¡äºº": 8703,
      "åĪĹè½¦": 8704,
      "å°ĨæĪĲä¸º": 8705,
      "ï¼Įä»¿ä½Ľ": 8706,
      "å¹³éĿĻ": 8707,
      "ï¼Įæķ´ä½ĵ": 8708,
      "ä¸įå®ī": 8709,
      "å¤§åľ°": 8710,
      "æłĩçŃ¾": 8711,
      "ç»Ħç»ĩçļĦ": 8712,
      "å¼ĵ": 8713,
      "ï¼Įéģ¿åħį": 8714,
      "Ġäºº": 8715,
      "çļĦä½¿çĶ¨": 8716,
      "åĨħæ¶µ": 8717,
      "éĴ¥": 8718,
      "ç¦¾": 8719,
      "åİĨç¨ĭ": 8720,
      "Ġany": 8721,
      "ï¼īï¼Ī": 8722,
      "å¯ĨéĽĨ": 8723,
      "èķ¾": 8724,
      "èĳĹåĲįçļĦ": 8725,
      "mer": 8726,
      "ãĢĤæľĢåĲİ": 8727,
      "ãĢĤéĻ¤äºĨ": 8728,
      "åĩºèµĦ": 8729,
      "æ°ĳåĽ½": 8730,
      "åĨĻçļĦ": 8731,
      "å¯¹ä»ĸ": 8732,
      "ï¼Įå®ŀ": 8733,
      "EM": 8734,
      "kg": 8735,
      "å¤§äºİ": 8736,
      "è§Ĥçľĭ": 8737,
      "ï¼Įå°±ç®Ĺ": 8738,
      "æĺ¥ç§ĭ": 8739,
      "ï¼Įå®Įåħ¨": 8740,
      "âĢĿï¼ĮâĢľ": 8741,
      "æĦ¤æĢĴ": 8742,
      "èļĤèļģ": 8743,
      "ä¸īäºº": 8744,
      "ï¼Įæľ¬æ¬¡": 8745,
      "äºĨåĩºæĿ¥": 8746,
      "å¸®å¿Ļ": 8747,
      "åįĵè¶Ĭ": 8748,
      "ï¼Įç§°": 8749,
      "ãĢĤåĪĺ": 8750,
      "ä¸Ģåº§": 8751,
      "ãĢĤäºĮ": 8752,
      "ä¹¦éĿ¢": 8753,
      "ç»ıæµİç¤¾ä¼ļ": 8754,
      "ä»įæľī": 8755,
      "ä»·åĢ¼çļĦ": 8756,
      "az": 8757,
      "æ½ĩ": 8758,
      "ãĢģæķĻèĤ²": 8759,
      "å¹´åĲĮæľŁ": 8760,
      "ãĢĤåĽł": 8761,
      "éĺŁçļĦ": 8762,
      "ï¼ĮéĤ£äºĽ": 8763,
      "ï¼Įèĩ³å°ĳ": 8764,
      "æ°¨": 8765,
      "ç²¾èĭ±": 8766,
      "æ±īè¯Ń": 8767,
      "ä¸ĬéĻĲ": 8768,
      "å¯¹å¾ħ": 8769,
      "ä½įå±ħ": 8770,
      "ãĢĤä¸¤": 8771,
      "è±¹": 8772,
      "å®ĹæĹ¨": 8773,
      "å·®ä¸įå¤ļ": 8774,
      "éģĵçļĦ": 8775,
      "å¤Ħéķ¿": 8776,
      "è´¨æĬ¼": 8777,
      "çĽ¸åħ³éĥ¨éĹ¨": 8778,
      "ï¼ĮåŃ¦æł¡": 8779,
      "ç§Łéĩĳ": 8780,
      "é«ĺæīĭ": 8781,
      "åĪĿæľŁ": 8782,
      "ç¢³æİĴæĶ¾": 8783,
      "ãĢĤåĲĮ": 8784,
      "ä¸Ģä»¶": 8785,
      "å¯¹æĪĳ": 8786,
      "ï¼Įè¿Ļä¹Łæĺ¯": 8787,
      "æĿĢäºĨ": 8788,
      "åĩºè®©": 8789,
      "æıĲéĹ®": 8790,
      "åħ±è®¡": 8791,
      "å±Ģå±Ģéķ¿": 8792,
      "æķ°çłģ": 8793,
      "ç«ĭæĸ¹": 8794,
      "åĻ¨æ¢°": 8795,
      "æĵįä½ľç³»ç»Ł": 8796,
      "è±ªåįİ": 8797,
      "ï¼ĮçľĭåĪ°": 8798,
      "æĦŁæŁĵèĢħ": 8799,
      "éļ§": 8800,
      "æ¾İ": 8801,
      "èµĦäº§çļĦ": 8802,
      "ï¼Įå»ºè®®": 8803,
      "æĶ¾å¤§": 8804,
      "èģĮä½į": 8805,
      "æī¾åĪ°äºĨ": 8806,
      "yst": 8807,
      "ãĢĤéĻ¤": 8808,
      "çļĦäººçĶŁ": 8809,
      "è®¾è®¡çļĦ": 8810,
      "éĤµ": 8811,
      "ï¼Įæİ¨è¿Ľ": 8812,
      "ä¸ºä¸Ńå¿ĥ": 8813,
      "ç»ıè´¹": 8814,
      "è·ª": 8815,
      "ï¼ĮéĤ£å°±æĺ¯": 8816,
      "çŁŃè§Ĩé¢ĳ": 8817,
      "ä¸ŃåĽ½äººæ°ĳ": 8818,
      "éł": 8819,
      "ãĢģçĶµ": 8820,
      "åīįåĲİ": 8821,
      "èģĶæĥ³": 8822,
      "äº§çĶŁäºĨ": 8823,
      "ä¸Ĭå¹´åĲĮæľŁ": 8824,
      "ä¸ĵæ³¨äºİ": 8825,
      "ä¹ĭåĬĽ": 8826,
      "åİ»ä¸ĸ": 8827,
      "è§£æŀĲ": 8828,
      "çħİ": 8829,
      "ãĢĤåıĪ": 8830,
      "è¿Ļåľº": 8831,
      "å°±å·²ç»ı": 8832,
      "ãĢģç¾İ": 8833,
      "åįĥç±³": 8834,
      "éĺ¶çº§": 8835,
      "æĬĹçĸ«": 8836,
      "app": 8837,
      "ï¼Įè®¸å¤ļ": 8838,
      "åµĮ": 8839,
      "çļĦä¸Ģéĥ¨åĪĨ": 8840,
      "ï¼ŁâĢĿĊ": 8841,
      "ä¸¥éĩįçļĦ": 8842,
      "æĨ¾": 8843,
      "ìĿ´": 8844,
      "åĩĿèģļ": 8845,
      "ä¸ºäºº": 8846,
      "æĶ¶åıĸ": 8847,
      "åĲįä¹ī": 8848,
      "è°ĥè§£": 8849,
      "å¤´ä¸Ĭ": 8850,
      "ï¼Įé£İ": 8851,
      "æ·±æ·±": 8852,
      "æ®ĭçĸ¾": 8853,
      "Īë": 8854,
      "çļĦä¸¤": 8855,
      "æİ¥æĶ¶": 8856,
      "æ¨¡æł·": 8857,
      "çŁ³åĮĸ": 8858,
      "æĭħå½ĵ": 8859,
      "ï¼ĮåħĪåĲİ": 8860,
      "ä¸Ģæ¬¾": 8861,
      "åĭ¿": 8862,
      "ï¼Įå¢ŀéķ¿": 8863,
      "çĶŁæĹ¥": 8864,
      "éĵ¶è¡Įä¸ļ": 8865,
      "Ġcl": 8866,
      "Ġro": 8867,
      "ä¸Ģå¤§": 8868,
      "æīĵåį°": 8869,
      "åİĭç¼©": 8870,
      "ï¼ĮçĶ¨æĪ·": 8871,
      "äºĨä¸¤": 8872,
      "çĦķ": 8873,
      "å¤ªéĺ³èĥ½": 8874,
      "å·ħ": 8875,
      "ï¼Įä½Ĩä»ĸ": 8876,
      "å¼Łå¼Ł": 8877,
      "Ġå¯¹": 8878,
      "åīįæĿ¥": 8879,
      "ail": 8880,
      "ç¬¬ä¸ĢåŃ£åº¦": 8881,
      "æī£éĻ¤": 8882,
      "çİ°è´§": 8883,
      "åĸĺ": 8884,
      "é¢ĦåĳĬ": 8885,
      "å¥¶å¥¶": 8886,
      "å±¯": 8887,
      "æ¸£": 8888,
      "æŃ¤åĪ»": 8889,
      "ach": 8890,
      "è¯Ģ": 8891,
      "ï¼Įä¹Łåı¯ä»¥": 8892,
      "äºĭä¸ļåįķä½į": 8893,
      ",å¹¶": 8894,
      "æ²Ĳ": 8895,
      "å¤ĸè§Ĥ": 8896,
      "å¼Ĭ": 8897,
      "æµ·åħ³": 8898,
      "æ©¡": 8899,
      "æĿłæĿĨ": 8900,
      "çļĦæĢģåº¦": 8901,
      "ä¸Ńä¿¡": 8902,
      "åĲİæŀľ": 8903,
      "å¹³æĹ¶": 8904,
      "çļĦåħ¶ä»ĸ": 8905,
      "åĿİ": 8906,
      "éĩĮç¨ĭ": 8907,
      "æīĵè½¦": 8908,
      "åŀĭåı·": 8909,
      "åįĩèĩ³": 8910,
      "æĮª": 8911,
      "åŃ¦åĳĺ": 8912,
      "éĽ¶éĥ¨ä»¶": 8913,
      "åľ¨ä¸Ģä¸ª": 8914,
      "åħ¥ä½ı": 8915,
      "ary": 8916,
      "æ¹¿åľ°": 8917,
      "çººç»ĩ": 8918,
      "çļĦç²¾ç¥ŀ": 8919,
      "tern": 8920,
      "ãĢģéķ¿": 8921,
      "ä¸ºæł¸å¿ĥ": 8922,
      "urn": 8923,
      "æķ°åŃĹåĮĸè½¬åŀĭ": 8924,
      "Ġsee": 8925,
      "Ġä¸Ĭ": 8926,
      "ï¼Įæ±īæĹı": 8927,
      "çĶŁæ°Ķ": 8928,
      "åĪ¶éĢłåķĨ": 8929,
      "éĺ´éĺ³": 8930,
      "ï¼ĮåĪĩå®ŀ": 8931,
      "å¦Ħ": 8932,
      "ĠãĢģ": 8933,
      "ãĢģäº§åĵģ": 8934,
      "éĤ®ä»¶": 8935,
      "ï¼Įä¸¥": 8936,
      "ç»Ħä»¶": 8937,
      "ory": 8938,
      "ction": 8939,
      "ï¼Įé¡¹çĽ®": 8940,
      "ç«ĭä½ĵ": 8941,
      "çļĦè¡¨çİ°": 8942,
      "å¤ļä¹ħ": 8943,
      "è´¦åı·": 8944,
      "ï¼Įè·Ŀç¦»": 8945,
      "ä¸įå®ļ": 8946,
      "éĽģ": 8947,
      "æ°Ķä½ĵ": 8948,
      "ĠHe": 8949,
      "ï¼Įå±±": 8950,
      "ï¼Įä¸ĢåĪĩ": 8951,
      "æĦŁè§īåĪ°": 8952,
      "è¿ĺåı¯ä»¥": 8953,
      "éĻįèĩ³": 8954,
      "ä¸ļæĢģ": 8955,
      "æĪĳè¦ģ": 8956,
      "ï¼Įæ¯ıå¤©": 8957,
      "ï¼Įè¶Ĭ": 8958,
      "çĲ¦": 8959,
      "åķ¤éħĴ": 8960,
      "ï¼Įå¿ħ": 8961,
      "ä¸Ńèį¯": 8962,
      "ï¼Įé¡º": 8963,
      "çļĦåºĶçĶ¨": 8964,
      "æİĢ": 8965,
      "www": 8966,
      "çĶ·å¥³": 8967,
      "âĨĵ": 8968,
      "åĺ±": 8969,
      "çİ«": 8970,
      "å°ıåŃĲ": 8971,
      "åĢºæĿĥ": 8972,
      "âĸ²": 8973,
      "æľīå¾Īå¤ļ": 8974,
      "äºĭåĬ¡æīĢ": 8975,
      "ä¸Ģæ®µ": 8976,
      "å«Įçĸĳ": 8977,
      "åĨ¬å¥¥ä¼ļ": 8978,
      "åı·çłģ": 8979,
      "åĽ°å¢ĥ": 8980,
      "æµģåŁŁ": 8981,
      "äºĨä¸Ģå£°": 8982,
      "èı±": 8983,
      "æ¦Ĥå¿µèĤ¡": 8984,
      "ï¼ĮçļĨ": 8985,
      "éĺ³æĢ§": 8986,
      "ä¿¡çĶ¨åį¡": 8987,
      "¬ë": 8988,
      "ï¼Įè´Łè´£": 8989,
      "åľ¨åĮĹäº¬": 8990,
      "é«ĺèĢĥ": 8991,
      "æĸĩæľ¬": 8992,
      "è¯įæĿ¡": 8993,
      "æłĳç«ĭ": 8994,
      "PPO": 8995,
      "æºľ": 8996,
      "ï¼ĮæŃ£åľ¨": 8997,
      "ä¸įæĪĲ": 8998,
      "åĵªä¸ª": 8999,
      "ä¸Ģå¸¦": 9000,
      "åĥıç´ł": 9001,
      "èĶ½": 9002,
      "å§ĵåĲį": 9003,
      "çļĦç¾İ": 9004,
      "ä»ķ": 9005,
      "ï¼ģä½ł": 9006,
      "æĦŁçŁ¥": 9007,
      "åıĤæ¼Ķ": 9008,
      "ãĢĤåĽĽ": 9009,
      "å¾®ä¼ģä¸ļ": 9010,
      "åľ¨åħ¨åĽ½": 9011,
      "å¸Ĥåľºä»½é¢Ŀ": 9012,
      "==": 9013,
      "low": 9014,
      "çļĦåĽ½å®¶": 9015,
      "è¾ĥé«ĺçļĦ": 9016,
      "æĲľçĭĲ": 9017,
      "ï¼ĮæĪĸè®¸": 9018,
      "åĽŀè°ĥ": 9019,
      "èħ»": 9020,
      "å°ī": 9021,
      "å·²æĪĲä¸º": 9022,
      "è£Ļ": 9023,
      "ç¦»å©ļ": 9024,
      "orld": 9025,
      "çļĦåľ°": 9026,
      "æıĲåıĸ": 9027,
      "äºĶåįģ": 9028,
      "å¹¿éĺĶ": 9029,
      "CC": 9030,
      "ãĢģåı¯": 9031,
      "å¥İ": 9032,
      "å®¶ä¹¡": 9033,
      "åıĤè§Ĥ": 9034,
      "ï¼Įå¿«": 9035,
      "åħ¬åĬ¡": 9036,
      "éĥ¨ä½į": 9037,
      "éħ¶": 9038,
      "ï¼Ĳ": 9039,
      "ä¸ĢçŃīå¥ĸ": 9040,
      "æ²¡ä»Ģä¹Ī": 9041,
      "æĹ©åľ¨": 9042,
      "å¤«å¦ĩ": 9043,
      "ï¼Įå¢ŀå¼º": 9044,
      "ä¸įéľĢè¦ģ": 9045,
      "æľīåĪ©äºİ": 9046,
      "æĪĲäº¤é¢Ŀ": 9047,
      "æµ·ä¸Ĭ": 9048,
      "ings": 9049,
      "çĳľ": 9050,
      "éĶĤçĶµæ±ł": 9051,
      "æĳĶ": 9052,
      "ite": 9053,
      "åĬłä»¥": 9054,
      "èĪħ": 9055,
      "èĥ½åľ¨": 9056,
      "ï¼Įè¡Įä¸ļ": 9057,
      "éĩıåĮĸ": 9058,
      "æ¹ĥ": 9059,
      "åŃ£æĬ¥": 9060,
      "çģ«ç®Ń": 9061,
      "åĴĮåıĳå±ķ": 9062,
      "åıĳéĢģ": 9063,
      "ãĢģå¯¹": 9064,
      "æľĪåĩºçĶŁ": 9065,
      "ä¹ĺå®¢": 9066,
      ",æĺŁæľŁ": 9067,
      "èµ·èº«": 9068,
      "åİŁæĸĩ": 9069,
      "ç»ĺçĶ»": 9070,
      "éľĢæ±ĤçļĦ": 9071,
      "ç¼´çº³": 9072,
      "éĻķè¥¿çľģ": 9073,
      ",ä½Ĩ": 9074,
      "ãĢĤåĪ°": 9075,
      "åħ¬ç§¯éĩĳ": 9076,
      "çļĦå¥³": 9077,
      "åĴĮä»ĸ": 9078,
      "å¼Ģå¹ķ": 9079,
      "å¾Īå¥½çļĦ": 9080,
      "åľ°æĸ¹æĶ¿åºľ": 9081,
      "åĲĦæĸ¹": 9082,
      "è¿ľè¿ľ": 9083,
      "??": 9084,
      "ãĢĤçĦ¶åĲİ": 9085,
      "æĬķæłĩ": 9086,
      "Ġen": 9087,
      "å»ºæĿĲ": 9088,
      "çĦī": 9089,
      "åĻ¨ä»¶": 9090,
      "æĺ¯æĢİä¹Ī": 9091,
      "éªĮæĶ¶": 9092,
      "çļĦçī¹çĤ¹": 9093,
      "åĮª": 9094,
      "æĪĲäºº": 9095,
      "åī¯ä¸»å¸Ń": 9096,
      "ä»·æł¼ä¸Ĭæ¶¨": 9097,
      "è©¹": 9098,
      "åīĸ": 9099,
      "è´ŁéĿ¢": 9100,
      "çļĦåŁİå¸Ĥ": 9101,
      "æĦļ": 9102,
      "å®īç½®": 9103,
      "ãĢĤç»ıè¿ĩ": 9104,
      "æĲħ": 9105,
      "ï¼Įç½Ĺ": 9106,
      "çŃīäºİ": 9107,
      "ood": 9108,
      "æĸ¯çļĦ": 9109,
      "ç«ŀèµĽ": 9110,
      "ï¼ĮéĿ¢å¯¹": 9111,
      "äº¿åħĥäººæ°ĳå¸ģ": 9112,
      "å®¢æĪ·çļĦ": 9113,
      "è¿ĲèĲ¥åķĨ": 9114,
      "åľĨå½¢": 9115,
      "ix": 9116,
      "ï¼Įè¡Į": 9117,
      "æĺ¯ä½ł": 9118,
      "å£¹": 9119,
      "æļĳ": 9120,
      "è®¾è®¡å¸Ī": 9121,
      "æ£Ģå¯ŁéĻ¢": 9122,
      "NA": 9123,
      "ãĢĤç»ı": 9124,
      "äººéĹ´": 9125,
      "ç»ĵæŀĦæĢ§": 9126,
      "éĿłè¿ĳ": 9127,
      "ause": 9128,
      "LP": 9129,
      "ä¸Ģåı¥": 9130,
      "ãĢĤä¸İæŃ¤åĲĮæĹ¶": 9131,
      "ci": 9132,
      "æľĪä¸Ń": 9133,
      "çŁ¥éģĵäºĨ": 9134,
      "è¾ĪåŃĲ": 9135,
      "æīĭæĮĩ": 9136,
      "å±ħå®¶": 9137,
      "éĢłæĪĲçļĦ": 9138,
      "âĢĿä¸İ": 9139,
      "å¾®è½¯": 9140,
      "èıĩ": 9141,
      "åĪĿä¸Ń": 9142,
      "æŃ¦è£ħ": 9143,
      "Ġman": 9144,
      "æĭ¿åĩº": 9145,
      "ics": 9146,
      "æĬ±çĿĢ": 9147,
      "äº¤ç»Ļ": 9148,
      "å®¢äºº": 9149,
      "åºĶçĶ¨äºİ": 9150,
      "æĬķäº§": 9151,
      "çªģåıĳ": 9152,
      "ï¼ĮåĲĮæ¯Ķä¸ĭéĻį": 9153,
      "éĺ¿éĩĮå·´å·´": 9154,
      "ï¼Įæĭī": 9155,
      "è°İ": 9156,
      "ï¼Įä¹Łè®¸": 9157,
      "è¿Ŀçº¦": 9158,
      "eg": 9159,
      "ä»·æ¯Ķ": 9160,
      "åįłæľī": 9161,
      "æ³½ä¸ľ": 9162,
      "ä¸įæ¸ħ": 9163,
      "çºªå¾ĭ": 9164,
      "ä½ĵåĨħ": 9165,
      "è®¾æľī": 9166,
      "æŃ¥ä¼Ĳ": 9167,
      "çļĦåıĮ": 9168,
      "å¹³éĿ¢": 9169,
      "æĺİå¹´": 9170,
      "æĶ¶ç´§": 9171,
      "å¸ĪåĤħ": 9172,
      "å»ºè®¾é¡¹çĽ®": 9173,
      "å°½éĩı": 9174,
      "è½¿": 9175,
      "å°Ĩæĺ¯": 9176,
      "éĻĲäºİ": 9177,
      "çĻ»éĻĨ": 9178,
      "èº¯": 9179,
      "æİĴè¡Į": 9180,
      "ï¼Įæĥ³è¦ģ": 9181,
      "åħ¨èº«": 9182,
      "å¸ĥç½®": 9183,
      "æ¥¼çĽĺ": 9184,
      "æĥĬåĸľ": 9185,
      "ï¼Įèİ·": 9186,
      "æľĪåıĤåĬł": 9187,
      "åħ¨èµĦ": 9188,
      "ï¼īçŃī": 9189,
      "ä»Ģä¹Īæĺ¯": 9190,
      "è¿Ļä¸ªéĹ®é¢ĺ": 9191,
      "çī¹å°Ķ": 9192,
      "æıĲä¾Ľä¿¡æģ¯": 9193,
      "è¿ĩåİ»çļĦ": 9194,
      "èĨ¨èĥĢ": 9195,
      "ä¸ĢåįĬ": 9196,
      "èĨĿ": 9197,
      "ä¼ĺç§ĢçļĦ": 9198,
      ")ï¼ļ": 9199,
      "åīįè¿Ľ": 9200,
      "ä»£ä»·": 9201,
      "æĪ¿æºĲ": 9202,
      "æ¾³éĹ¨": 9203,
      ",ä»ĸ": 9204,
      "ä»Ģä¹ĪæĹ¶åĢĻ": 9205,
      "éģµå¾ª": 9206,
      "åĮĸè§£": 9207,
      "æ°¸ä¹ħ": 9208,
      "å¤§å¤ļ": 9209,
      "å¸¦æľī": 9210,
      "èªª": 9211,
      "ï¼ĮM": 9212,
      "ï¼Įæ¯ıä¸ª": 9213,
      "çļĦè¿ĩç¨ĭä¸Ń": 9214,
      "åĴĮå°ı": 9215,
      "ï¼ļåħ¬åı¸": 9216,
      "éĢļè´¢ç»ı": 9217,
      "ï¼ģï¼ģ": 9218,
      "æı½": 9219,
      "æİ¨åĩºçļĦ": 9220,
      "ï¼ĮåĽ½éĻħ": 9221,
      "ãĢĤéĻĪ": 9222,
      "éªļ": 9223,
      "å½Ĵæ¯įåĩĢåĪ©æ¶¦": 9224,
      "å¤±æľĽ": 9225,
      "ï¼Įçī¹æĸ¯æĭī": 9226,
      "å¥½å¥ĩ": 9227,
      "åķĨåºĹ": 9228,
      "é¢ĳç¹ģ": 9229,
      "ï¼Įé¾Ļ": 9230,
      "ç¾İåĽ½çļĦ": 9231,
      "æįı": 9232,
      "åįģåĩł": 9233,
      "ãĢģéĻĪ": 9234,
      "æ¯Ľæ³½ä¸ľ": 9235,
      "åĪ«å¢ħ": 9236,
      "åĲ«æľī": 9237,
      "å°±æ²¡æľī": 9238,
      "çŃīå·¥ä½ľ": 9239,
      "èį·åħ°": 9240,
      "OPPO": 9241,
      "ï¼ļï¼Ī": 9242,
      "å¸ĪçĶŁ": 9243,
      "ä»ĺåĩº": 9244,
      "æĪĺçķ¥åĲĪä½ľ": 9245,
      "æ¥ļè½©": 9246,
      "ç¼ĸåī§": 9247,
      "ä¹ĥèĩ³": 9248,
      "ä¸ºåŁºç¡Ģ": 9249,
      "åĪĨè¾¨": 9250,
      "åįĹåĮĹ": 9251,
      "åħ¨æĸ¹ä½į": 9252,
      "æķ°åŃĹç»ıæµİ": 9253,
      "ĠLi": 9254,
      "ï¼ĮB": 9255,
      "æĹ¶æľº": 9256,
      "ç¤¾ä¿Ŀ": 9257,
      "æ¢¨": 9258,
      "å°¬": 9259,
      "æĬĬä»ĸ": 9260,
      "åĩĮæĻ¨": 9261,
      "åĮĸå¦Ĩåĵģ": 9262,
      "åĬ¡å·¥": 9263,
      "èĭıèģĶ": 9264,
      "æĻĤ": 9265,
      "æıĲèµ·": 9266,
      "ï¼ĮæĪĳçļĦ": 9267,
      "äººæ°ĳä»£è¡¨å¤§ä¼ļ": 9268,
      "æıĲåĩºçļĦ": 9269,
      "çļĦåīįæıĲ": 9270,
      "ï¼Įä¹ĭåĲİ": 9271,
      "çĶ¨çĶµ": 9272,
      "å·¥ä¼ļ": 9273,
      "æ¸ħç®Ĺ": 9274,
      "Ġwant": 9275,
      "çģ«çĦ°": 9276,
      "çĶŁçĮª": 9277,
      "éĻĦåĬł": 9278,
      "htt": 9279,
      "å¤§äºĭ": 9280,
      "æľįé¥°": 9281,
      "åĨĽçļĦ": 9282,
      "Ġbut": 9283,
      "åĲĪèµĦ": 9284,
      "æ¶¨è¶ħ": 9285,
      "æ¬§éĺ³": 9286,
      "æľªç»ı": 9287,
      "ä¾Ŀçħ§": 9288,
      "åıĳçĶŁçļĦ": 9289,
      "ï¼Įå»ºè®¾": 9290,
      "ä¸Ńå±±": 9291,
      "æĶ¶èĹı": 9292,
      "å¤±åİ»äºĨ": 9293,
      "ï¼ħï¼Į": 9294,
      "èµİåĽŀ": 9295,
      "ï¼ĮçªģçĦ¶": 9296,
      "ãĢģäºĶ": 9297,
      "âĢĿåŃĹ": 9298,
      "äºĮå¹´": 9299,
      "æŀģç«¯": 9300,
      "æľīåħ³è§Ħå®ļ": 9301,
      "åĽ½çİĭ": 9302,
      "åĬĽåĴĮ": 9303,
      "çļĦäººçī©": 9304,
      "ï¼ĮåĶĲ": 9305,
      "è®½": 9306,
      "åŃ¦å£«": 9307,
      "æ²ĥå°Ķ": 9308,
      "ï¼ĮæľįåĬ¡": 9309,
      "æ³¼": 9310,
      "ï¼Įå¹¶å°Ĩ": 9311,
      "æľīä¸Ģå®ļ": 9312,
      "ãĢĭãĢģ": 9313,
      "æ·ĺå®Ŀ": 9314,
      "ä¸Ĭæĸ¹": 9315,
      "çĪª": 9316,
      "äººæ°ĳç¾¤ä¼Ĺ": 9317,
      "è¸¢": 9318,
      "ãĢģç»ıæµİ": 9319,
      "ä»ĺè´¹": 9320,
      "ä¸ĬéĹ¨": 9321,
      "æĶ¶å½ķ": 9322,
      "æŀ¢çº½": 9323,
      "ï¼ĮçłĶç©¶": 9324,
      "æ°¯": 9325,
      "éĽĨç¾¤": 9326,
      "å®Įæ¯ķ": 9327,
      "çļĦé£İ": 9328,
      "è´¿": 9329,
      "æīĵçĶµè¯Ŀ": 9330,
      "é»Ħæ²³": 9331,
      "æŃ£ä¹ī": 9332,
      "è¢«ç§°ä¸º": 9333,
      "ream": 9334,
      "èħķ": 9335,
      "æĽ²çº¿": 9336,
      "çĽĬäºİ": 9337,
      "ç¹ģèį£": 9338,
      "ç»ıåİĨäºĨ": 9339,
      "æĮģæľīçļĦ": 9340,
      "èĢ³æľº": 9341,
      "çīµå¤´": 9342,
      "Ġç¬¬ä¹Ŀ": 9343,
      "èµĭäºĪ": 9344,
      "çŀ»": 9345,
      "æĻºèĥ½æīĭæľº": 9346,
      "æľĢåħ·": 9347,
      "éĨĭ": 9348,
      "æµªæ¼«": 9349,
      "CO": 9350,
      "çļĦçĽ®çļĦ": 9351,
      "è¯¡": 9352,
      "åĪĨå±Ģ": 9353,
      "å¾Ĺå¤ļ": 9354,
      "ï¼Įè¿Ľåħ¥": 9355,
      "æĸ¹éĴĪ": 9356,
      "åĪĩæį¢": 9357,
      "æĽ¾åľ¨": 9358,
      "ç¬¦åı·": 9359,
      "ç¼ĵæħ¢": 9360,
      "åĲĪæ³ķæĿĥçĽĬ": 9361,
      "çļĦæĸ¹åĲĳ": 9362,
      "çŀĴ": 9363,
      "çıłæµ·": 9364,
      "ï¼ĮæŃ¤æĹ¶": 9365,
      "%èĤ¡æĿĥ": 9366,
      "ãĢĤèĩ³äºİ": 9367,
      "å¼Ģä¸ļ": 9368,
      "ç²¾å¯Ĩ": 9369,
      "è¿ĽåĮĸ": 9370,
      "èģĤ": 9371,
      "we": 9372,
      "éķĳ": 9373,
      "æ³¨åĨĮèµĦæľ¬": 9374,
      "éĶ»çĤ¼": 9375,
      "äºĨè¿Ļ": 9376,
      "ç¦Ħ": 9377,
      "æ¹Ľ": 9378,
      "ç®¡éģĵ": 9379,
      "è¯ĦéĢī": 9380,
      "co": 9381,
      "æ°´æŀľ": 9382,
      "æĭĽçĶŁ": 9383,
      "æ±¡æ°´": 9384,
      "å®ŀä¸ļ": 9385,
      "åįģåŃĹ": 9386,
      "ï¼Įåıĳå±ķ": 9387,
      "ï¼Įç§¦": 9388,
      "ç½ĳçº¢": 9389,
      "æĬķèµĦå»ºè®®": 9390,
      "è½¬åĢº": 9391,
      "åĺ²": 9392,
      "ï¼Įç«Ł": 9393,
      "ãĢģåİ¿": 9394,
      "ä½łåľ¨": 9395,
      "çĦ¦èĻĳ": 9396,
      "ĠæĳĦ": 9397,
      "åĪĹåħ¥": 9398,
      "èºģ": 9399,
      "PE": 9400,
      "é©¬åħĭæĢĿ": 9401,
      "ãİ": 9402,
      "å¤©ç©º": 9403,
      "åķĨåľº": 9404,
      "alk": 9405,
      "çŁŃçº¿": 9406,
      "nal": 9407,
      "Ġä»ĸ": 9408,
      "ãĢģäºº": 9409,
      "ä¸įå·²": 9410,
      "ï¼Įä¸įä¼ļ": 9411,
      "çļĦå¤ļ": 9412,
      "æĹ¥è®¯": 9413,
      "ä¹ĭå®¶": 9414,
      "è°ħ": 9415,
      "ï¼Įè¿Ļå°±æĺ¯": 9416,
      "éĵ¶è¡ĮçļĦ": 9417,
      "ult": 9418,
      "Ġäº¿åħĥ": 9419,
      "Ģë": 9420,
      "ãĢĤâĢĶâĢĶ": 9421,
      "ç²¥": 9422,
      "éĩĩè®¿æĹ¶": 9423,
      "å¯¹æĬĹ": 9424,
      "å§Ķåĳĺä¼ļå§Ķåĳĺ": 9425,
      "ï¼Įåı«": 9426,
      "ãĢĤåıª": 9427,
      "ãĢģåĽ½éĻħ": 9428,
      "ç¬¬äºĮæ¬¡": 9429,
      "Ġ=": 9430,
      "æ±°": 9431,
      "å¸Ĥåľºè§Ħæ¨¡": 9432,
      "åŃĺéĩı": 9433,
      "è¡¥åĬ©": 9434,
      "ï¼Įä¸Ńåħ±": 9435,
      "èĬĤæĹ¥": 9436,
      "å½¢å®¹": 9437,
      "è¯ģåĪ¸äº¤æĺĵæīĢ": 9438,
      "çĸ«èĭĹæİ¥ç§į": 9439,
      "æħĪåĸĦ": 9440,
      "åħ¶æ¬¡": 9441,
      "ier": 9442,
      "åĴĮæĬĢæľ¯": 9443,
      "æľĿéĺ³": 9444,
      "çľ¼éķľ": 9445,
      "æ¬§ç¾İ": 9446,
      "æĶ¹éĿ©å¼ĢæĶ¾": 9447,
      "æ¾İæ¹ĥ": 9448,
      "å±ģ": 9449,
      "ç¥ŀè¯Ŀ": 9450,
      "åĿļå®Ī": 9451,
      "ï¼Įå»º": 9452,
      "ï¼ĮåİĨ": 9453,
      "ä¸ĢæĹ¶": 9454,
      "æľīåĬĽ": 9455,
      "å¥½åıĭ": 9456,
      "å¾®ä¿¡åħ¬ä¼Ĺåı·": 9457,
[...]
