{
  "version": "1.0",
  "truncation": null,
  "padding": null,
  "added_tokens": [
    {
      "id": 0,
      "content": "<|endoftext|>",
      "single_word": false,
      "lstrip": false,
      "rstrip": false,
      "normalized": false,
      "special": true
    },
    {
      "id": 1,
      "content": "<|im_start|>",
      "single_word": false,
      "lstrip": false,
      "rstrip": false,
      "normalized": false,
      "special": true
    },
    {
      "id": 2,
      "content": "<|im_end|>",
      "single_word": false,
      "lstrip": false,
      "rstrip": false,
      "normalized": false,
      "special": true
    }
  ],
  "normalizer": {
    "type": "NFC"
  },
  "pre_tokenizer": {
    "type": "Sequence",
    "pretokenizers": [
      {
        "type": "Split",
        "pattern": {
          "String": "(?i:'s|'t|'re|'ve|'m|'ll|'d)|[^\\r\\n\\p{L}\\p{N}]?\\p{L}+|\\p{N}| ?[^\\s\\p{L}\\p{N}]+[\\r\\n]*|\\s*[\\r\\n]+|\\s+(?!\\S)|\\s+"
        },
        "behavior": "Isolated",
        "invert": false
      },
      {
        "type": "ByteLevel",
        "add_prefix_space": false,
        "trim_offsets": true,
        "use_regex": false
      }
    ]
  },
  "post_processor": {
    "type": "ByteLevel",
    "add_prefix_space": false,
    "trim_offsets": true,
    "use_regex": false
  },
  "decoder": {
    "type": "ByteLevel",
    "add_prefix_space": true,
    "trim_offsets": true,
    "use_regex": true
  },
  "model": {
    "type": "BPE",
    "dropout": null,
    "unk_token": null,
    "continuing_subword_prefix": "",
    "end_of_word_suffix": null,
    "fuse_unk": false,
    "byte_fallback": false,
    "ignore_merges": false,
    "vocab": {
      "<|endoftext|>": 0,
      "<|im_start|>": 1,
      "<|im_end|>": 2,
      "!": 3,
      "\"": 4,
      "#": 5,
      "$": 6,
      "%": 7,
      "&": 8,
      "'": 9,
      "(": 10,
      ")": 11,
      "*": 12,
      "+": 13,
      ",": 14,
      "-": 15,
      ".": 16,
      "/": 17,
      "0": 18,
      "1": 19,
      "2": 20,
      "3": 21,
      "4": 22,
      "5": 23,
      "6": 24,
      "7": 25,
      "8": 26,
      "9": 27,
      ":": 28,
      ";": 29,
      "<": 30,
      "=": 31,
      ">": 32,
      "?": 33,
      "@": 34,
      "A": 35,
      "B": 36,
      "C": 37,
      "D": 38,
      "E": 39,
      "F": 40,
      "G": 41,
      "H": 42,
      "I": 43,
      "J": 44,
      "K": 45,
      "L": 46,
      "M": 47,
      "N": 48,
      "O": 49,
      "P": 50,
      "Q": 51,
      "R": 52,
      "S": 53,
      "T": 54,
      "U": 55,
      "V": 56,
      "W": 57,
      "X": 58,
      "Y": 59,
      "Z": 60,
      "[": 61,
      "\\": 62,
      "]": 63,
      "^": 64,
      "_": 65,
      "`": 66,
      "a": 67,
      "b": 68,
      "c": 69,
      "d": 70,
      "e": 71,
      "f": 72,
      "g": 73,
      "h": 74,
      "i": 75,
      "j": 76,
      "k": 77,
      "l": 78,
      "m": 79,
      "n": 80,
      "o": 81,
      "p": 82,
      "q": 83,
      "r": 84,
      "s": 85,
      "t": 86,
      "u": 87,
      "v": 88,
      "w": 89,
      "x": 90,
      "y": 91,
      "z": 92,
      "{": 93,
      "|": 94,
      "}": 95,
      "~": 96,
      "¡": 97,
      "¢": 98,
      "£": 99,
      "¤": 100,
      "¥": 101,
      "¦": 102,
      "§": 103,
      "¨": 104,
      "©": 105,
      "ª": 106,
      "«": 107,
      "¬": 108,
      "®": 109,
      "¯": 110,
      "°": 111,
      "±": 112,
      "²": 113,
      "³": 114,
      "´": 115,
      "µ": 116,
      "¶": 117,
      "·": 118,
      "¸": 119,
      "¹": 120,
      "º": 121,
      "»": 122,
      "¼": 123,
      "½": 124,
      "¾": 125,
      "¿": 126,
      "À": 127,
      "Á": 128,
      "Â": 129,
      "Ã": 130,
      "Ä": 131,
      "Å": 132,
      "Æ": 133,
      "Ç": 134,
      "È": 135,
      "É": 136,
      "Ê": 137,
      "Ë": 138,
      "Ì": 139,
      "Í": 140,
      "Î": 141,
      "Ï": 142,
      "Ð": 143,
      "Ñ": 144,
      "Ò": 145,
      "Ó": 146,
      "Ô": 147,
      "Õ": 148,
      "Ö": 149,
      "×": 150,
      "Ø": 151,
      "Ù": 152,
      "Ú": 153,
      "Û": 154,
      "Ü": 155,
      "Ý": 156,
      "Þ": 157,
      "ß": 158,
      "à": 159,
      "á": 160,
      "â": 161,
      "ã": 162,
      "ä": 163,
      "å": 164,
      "æ": 165,
      "ç": 166,
      "è": 167,
      "é": 168,
      "ê": 169,
      "ë": 170,
      "ì": 171,
      "í": 172,
      "î": 173,
      "ï": 174,
      "ð": 175,
      "ñ": 176,
      "ò": 177,
      "ó": 178,
      "ô": 179,
      "õ": 180,
      "ö": 181,
      "÷": 182,
      "ø": 183,
      "ù": 184,
      "ú": 185,
      "û": 186,
      "ü": 187,
      "ý": 188,
      "þ": 189,
      "ÿ": 190,
      "Ā": 191,
      "ā": 192,
      "Ă": 193,
      "ă": 194,
      "Ą": 195,
      "ą": 196,
      "Ć": 197,
      "ć": 198,
      "Ĉ": 199,
      "ĉ": 200,
      "Ċ": 201,
      "ċ": 202,
      "Č": 203,
      "č": 204,
      "Ď": 205,
      "ď": 206,
      "Đ": 207,
      "đ": 208,
      "Ē": 209,
      "ē": 210,
      "Ĕ": 211,
      "ĕ": 212,
      "Ė": 213,
      "ė": 214,
      "Ę": 215,
      "ę": 216,
      "Ě": 217,
      "ě": 218,
      "Ĝ": 219,
      "ĝ": 220,
      "Ğ": 221,
      "ğ": 222,
      "Ġ": 223,
      "ġ": 224,
      "Ģ": 225,
      "ģ": 226,
      "Ĥ": 227,
      "ĥ": 228,
      "Ħ": 229,
      "ħ": 230,
      "Ĩ": 231,
      "ĩ": 232,
      "Ī": 233,
      "ī": 234,
      "Ĭ": 235,
      "ĭ": 236,
      "Į": 237,
      "į": 238,
      "İ": 239,
      "ı": 240,
      "Ĳ": 241,
      "ĳ": 242,
      "Ĵ": 243,
      "ĵ": 244,
      "Ķ": 245,
      "ķ": 246,
      "ĸ": 247,
      "Ĺ": 248,
      "ĺ": 249,
      "Ļ": 250,
      "ļ": 251,
      "Ľ": 252,
      "ľ": 253,
      "Ŀ": 254,
      "ŀ": 255,
      "Ł": 256,
      "ł": 257,
      "Ń": 258,
      "ä¸": 259,
      "ï¼": 260,
      "ï¼Į": 261,
      "çļ": 262,
      "çļĦ": 263,
      "äº": 264,
      "čĊ": 265,
      "æĺ": 266,
      "è¿": 267,
      "åı": 268,
      "æĺ¯": 269,
      "ãĢ": 270,
      "æľ": 271,
      "ä»": 272,
      "æĪ": 273,
      "å¤": 274,
      "äºĨ": 275,
      "ä¸į": 276,
      "ãĢĤ": 277,
      "åĲ": 278,
      "ä½": 279,
      "ä¹": 280,
      "åħ": 281,
      "ĥ½": 282,
      "å°": 283,
      "ä¸Ģ": 284,
      "åĪ": 285,
      "å®": 286,
      "è¯": 287,
      "âĢ": 288,
      "åľ": 289,
      "æī": 290,
      "è¿Ļ": 291,
      "åĽ": 292,
      "ç»": 293,
      "æľī": 294,
      "ä¸ª": 295,
      "èĥ½": 296,
      "æĿ": 297,
      "æĪĳ": 298,
      "äºº": 299,
      "çĶ": 300,
      "åľ¨": 301,
      "ä¼": 302,
      "èµ": 303,
      "åĨ": 304,
      "åĬ": 305,
      "çľ": 306,
      "ãĢĤčĊ": 307,
      "åŃ": 308,
      "å¹": 309,
      "è®": 310,
      "å¼": 311,
      "æĹ": 312,
      "çİ": 313,
      "æĢ": 314,
      "éĢ": 315,
      "æĸ": 316,
      "åį": 317,
      "ï¼Ł": 318,
      "å¯": 319,
      "å°±": 320,
      "éĹ": 321,
      "å¾": 322,
      "åĩ": 323,
      "åĴ": 324,
      "åı¯": 325,
      "èĢ": 326,
      "æ²": 327,
      "è§": 328,
      "å¥": 329,
      "åĴĮ": 330,
      "âĢĿ": 331,
      "æĬ": 332,
      "å·": 333,
      "ä½ł": 334,
      "éĩ": 335,
      "âĢľ": 336,
      "æĿ¥": 337,
      "ç§": 338,
      "¦ģ": 339,
      "è¡": 340,
      "åĵ": 341,
      "è¦ģ": 342,
      "å¸": 343,
      "å¤§": 344,
      "ä¸º": 345,
      "ä¹Ī": 346,
      "æīĵ": 347,
      "é¢": 348,
      "è¾": 349,
      "éĥ½": 350,
      "å¯¹": 351,
      "æŃ": 352,
      "åİ": 353,
      "çĽ": 354,
      "åº": 355,
      "æ²¡": 356,
      "ä¸Ĭ": 357,
      "åĪ°": 358,
      "ä»ĸ": 359,
      "æİ": 360,
      "æ¯": 361,
      "éĹ®": 362,
      "æĥ": 363,
      "è¿ĺ": 364,
      "ä¹Ł": 365,
      "è¯´": 366,
      "ä¸Ń": 367,
      "éĺ": 368,
      "æł": 369,
      "æĪĸ": 370,
      "ä»¥": 371,
      "èĩ": 372,
      "çľĭ": 373,
      "çī": 374,
      "éĿ": 375,
      "åı¯èĥ½": 376,
      "çŃ": 377,
      "ä¼ļ": 378,
      "æķ": 379,
      "æĦ": 380,
      "å¿": 381,
      "é¢ĺ": 382,
      "ä¸ĭ": 383,
      "å½": 384,
      "ç§į": 385,
      "æĭ": 386,
      "åĩº": 387,
      "çĶ¨": 388,
      "å¹´": 389,
      "æŀ": 390,
      "æ³": 391,
      "è´": 392,
      "ï¼ŁčĊ": 393,
      "éĹ®é¢ĺ": 394,
      "åĮ": 395,
      "äºĨï¼Į": 396,
      "åĳ": 397,
      "å¦": 398,
      "åŃĲ": 399,
      "ä»¬": 400,
      "è¿ĩ": 401,
      "åĲİ": 402,
      "äºĨčĊ": 403,
      "è¢": 404,
      "èµĽ": 405,
      "çº": 406,
      "ãĢģ": 407,
      "å¥½": 408,
      "è·": 409,
      "å¤ļ": 410,
      "æĶ": 411,
      "éĤ": 412,
      "æĮ": 413,
      "çĤ": 414,
      "æĹ¶": 415,
      "çľŁ": 416,
      "è¢«": 417,
      "åī": 418,
      "åķ": 419,
      "åĽ½": 420,
      "éĤ£": 421,
      "å¤©": 422,
      "å¾Ĺ": 423,
      "æ°": 424,
      "çĲ": 425,
      "çİ°": 426,
      "å±": 427,
      "ç¬": 428,
      "éģ": 429,
      "å®ŀ": 430,
      "ï¼ļ": 431,
      "èĩª": 432,
      "ä¿": 433,
      "æľĢ": 434,
      "æ¬": 435,
      "æ¯Ķ": 436,
      "è°": 437,
      "éĻ": 438,
      "ä¸Ģä¸ª": 439,
      "åİ»": 440,
      "åıĳ": 441,
      "éľ": 442,
      "éĿ¢": 443,
      "çĤ¹": 444,
      "è¡Į": 445,
      "åĲ§": 446,
      "æı": 447,
      "ä¸įæĺ¯": 448,
      "æĪĲ": 449,
      "éĺŁ": 450,
      "æīĭ": 451,
      "å°ı": 452,
      "åģ": 453,
      "èĢĮ": 454,
      "å¦Ĥ": 455,
      "å®ļ": 456,
      "æĬĬ": 457,
      "çĦ": 458,
      "çĲĨ": 459,
      "åĪĨ": 460,
      "åĽł": 461,
      "ä»Ģ": 462,
      "çŁ": 463,
      "ä»Ģä¹Ī": 464,
      "åĬĽ": 465,
      "åħ³": 466,
      "ä½Ĩ": 467,
      "æµ": 468,
      "åħ¶": 469,
      "ï¼ĮæĪĳ": 470,
      "åĽŀ": 471,
      "çŃĶ": 472,
      "æį": 473,
      "çĦ¶": 474,
      "åĲĹ": 475,
      "æŁ": 476,
      "æĹł": 477,
      "æĸ¹": 478,
      "åīį": 479,
      "ç½": 480,
      "åĢ": 481,
      "å¼Ģ": 482,
      "äºİ": 483,
      "çĿ": 484,
      "çĶŁ": 485,
      "è§£": 486,
      "å°±æĺ¯": 487,
      "è¡¨": 488,
      "æĽ": 489,
      "åĵ¥": 490,
      "éľĢ": 491,
      "æ´": 492,
      "ç¡": 493,
      "ï¼Įè¿Ļ": 494,
      "æĺİ": 495,
      "ä¾": 496,
      "æĢ§": 497,
      "æİ¥": 498,
      "ç»Ļ": 499,
      "æľ¬": 500,
      "æıĲ": 501,
      "è½": 502,
      "æĥ³": 503,
      "ç»ı": 504,
      "ç®": 505,
      "æł·": 506,
      "åķĬ": 507,
      "çĪ": 508,
      "é£": 509,
      "æ¸": 510,
      "åħ¨": 511,
      "å®¶": 512,
      "æģ": 513,
      "æ¡": 514,
      "èĥ": 515,
      "åıª": 516,
      "äºĭ": 517,
      "è¯Ŀ": 518,
      "çĿĢ": 519,
      "éģĵ": 520,
      "æĦı": 521,
      "éĶ": 522,
      "ç¾": 523,
      "æĥħ": 524,
      "20": 525,
      "æľº": 526,
      "éľĢè¦ģ": 527,
      "ä½ĵ": 528,
      "åºĶ": 529,
      "éļ": 530,
      "ç«": 531,
      "å¿ĥ": 532,
      "çĽ´": 533,
      "çİ©": 534,
      "åħĪ": 535,
      "è¿Ľ": 536,
      "å¼º": 537,
      "æĪĺ": 538,
      "ä¹ĭ": 539,
      "èĤ": 540,
      "åĸ": 541,
      "ç¤": 542,
      "æĦŁ": 543,
      "èĢħ": 544,
      "åľ°": 545,
      "æ³ķ": 546,
      "è¶": 547,
      "ä½ľ": 548,
      "æ²¡æľī": 549,
      "æ»": 550,
      "ç¬¬": 551,
      "å¾Ī": 552,
      "åĲĪ": 553,
      "éĽ": 554,
      "æŁĲ": 555,
      "ðŁ": 556,
      "çĭ": 557,
      "çļĦï¼Į": 558,
      "çŁ¥": 559,
      "ç¡®": 560,
      "è¿Ļä¸ª": 561,
      "åı¯ä»¥": 562,
      "çķ": 563,
      "èĻ": 564,
      "æŀľ": 565,
      "ç¥": 566,
      "å¤ª": 567,
      "å·±": 568,
      "åĬ¨": 569,
      "èĦ": 570,
      "é¦": 571,
      "åĨł": 572,
      "æĽ´": 573,
      "èĩªå·±": 574,
      "å¤´": 575,
      "åĨĽ": 576,
      "ä¸¤": 577,
      "æĻ": 578,
      "åĪ«": 579,
      "5-": 580,
      "å½ĵ": 581,
      "ï¼Įä½Ĩ": 582,
      "éĢī": 583,
      "äºĽ": 584,
      "èģ": 585,
      "ä¸İ": 586,
      "åº¦": 587,
      "è·¯": 588,
      "éĩĮ": 589,
      "ç»ĵ": 590,
      "bl": 591,
      "åı¯èĥ½æĺ¯": 592,
      "èĪ": 593,
      "é«": 594,
      "æ¡Ī": 595,
      "é«ĺ": 596,
      "æ¬¡": 597,
      "æ¶": 598,
      "æīĢ": 599,
      "éĢļ": 600,
      "ä¸ī": 601,
      "å¸¸": 602,
      "åįķ": 603,
      "ç³": 604,
      "é»": 605,
      "è§ī": 606,
      "æŃ£": 607,
      "åĿ": 608,
      "å¸¦": 609,
      "ï¼ģ": 610,
      "æ±": 611,
      "blg": 612,
      "èµ·": 613,
      "ä¸»": 614,
      "è¾ĵ": 615,
      "ç²": 616,
      "çŃĶæ¡Ī": 617,
      "é©": 618,
      "æĪ·": 619,
      "èµ¢": 620,
      "è¾¾": 621,
      "åŁ": 622,
      "æĢİ": 623,
      "èĬ": 624,
      "åŃ¦": 625,
      "èĭ": 626,
      "é¦ĸ": 627,
      "å¹¶": 628,
      "ç¨": 629,
      "çİ°åľ¨": 630,
      "åĨħ": 631,
      "çŃī": 632,
      "éª": 633,
      "åĲĮ": 634,
      "éĩİ": 635,
      "æĢİä¹Ī": 636,
      "è¯¥": 637,
      "åĮĸ": 638,
      "ï¼ĮèĢĮ": 639,
      "åĥ": 640,
      "æĸ°": 641,
      "åľº": 642,
      "åı¥": 643,
      "äºĮ": 644,
      "èº": 645,
      "èĢģ": 646,
      "ä¿¡": 647,
      "åĩł": 648,
      "æ°´": 649,
      "ç©": 650,
      "éĴ": 651,
      "åıį": 652,
      "æŃ¤": 653,
      "è®º": 654,
      "éĹ´": 655,
      "çĥ": 656,
      "ä½į": 657,
      "ç¥ŀ": 658,
      "éķ": 659,
      "çº¿": 660,
      "éĩį": 661,
      "åĬł": 662,
      "è®©": 663,
      "å¤ĸ": 664,
      "è¿Ļç§į": 665,
      "è¿ĺæĺ¯": 666,
      "æļ": 667,
      "å§": 668,
      "æĸĩ": 669,
      "å¢": 670,
      "ç¾İ": 671,
      "åıĪ": 672,
      "çł": 673,
      "è¯Ń": 674,
      "åĢĻ": 675,
      "çĻ": 676,
      "çī¹": 677,
      "ä¸ĸ": 678,
      "202": 679,
      "èī": 680,
      "çī©": 681,
      "æľŁ": 682,
      "æĮĩ": 683,
      "åıĭ": 684,
      "æĭ¿": 685,
      "çĶ¨æĪ·": 686,
      "çĽ¸": 687,
      "å¼ı": 688,
      "åĽłä¸º": 689,
      "å®Į": 690,
      "æ´»": 691,
      "éĹ®é¢ĺçļĦ": 692,
      "ç³»": 693,
      "å®¹": 694,
      "æŃ»": 695,
      "ä¸Ģç§į": 696,
      "in": 697,
      "æĢĿ": 698,
      "èº«": 699,
      "é¦ĸåħĪ": 700,
      "çľŁçļĦ": 701,
      ".Ġ": 702,
      "å°¿": 703,
      "åĥı": 704,
      "è®¤": 705,
      "éĥ": 706,
      "éĥ½æĺ¯": 707,
      "çķĮ": 708,
      "çļĦčĊ": 709,
      "åĮº": 710,
      "èĢĥ": 711,
      "å·²": 712,
      "èĲ": 713,
      "é¡": 714,
      "çģ": 715,
      "ä»£": 716,
      "é©¬": 717,
      "æ®": 718,
      "è¡¨è¾¾": 719,
      "ç®Ĺ": 720,
      "åĲį": 721,
      "åįļ": 722,
      "åıĬ": 723,
      "æĸ¯": 724,
      ":Ġ": 725,
      "çĸ": 726,
      "ä¸ļ": 727,
      "çŁ¥éģĵ": 728,
      "å¹³": 729,
      "åĽĽ": 730,
      "æį¢": 731,
      "éķ¿": 732,
      "éĩı": 733,
      "æķ°": 734,
      "åĪ¶": 735,
      "æĲ": 736,
      "ç¤º": 737,
      "éĢģ": 738,
      "éŁ": 739,
      "è±": 740,
      "æĪĳä»¬": 741,
      "ä»İ": 742,
      "å°ĳ": 743,
      "æĹ¶åĢĻ": 744,
      "çĬ": 745,
      "ä»Ĭ": 746,
      "åĽ¢": 747,
      "çĮ": 748,
      "é£ŀ": 749,
      "çĽ´æİ¥": 750,
      "æīį": 751,
      "æ·": 752,
      "èģĶ": 753,
      "å±Ģ": 754,
      "è·Ł": 755,
      "çĲĨè§£": 756,
      "åıĺ": 757,
      "å·¥": 758,
      "æ¸¸": 759,
      "åĨ³": 760,
      "ä¹ī": 761,
      "åĽŀçŃĶ": 762,
      "éĥ¨": 763,
      "ç±": 764,
      "è°ĥ": 765,
      "å¥³": 766,
      "æĢģ": 767,
      "ä¼¼": 768,
      "çĶµ": 769,
      "ï¼Įä¸į": 770,
      "00": 771,
      "ä¸ĸçķĮ": 772,
      "ç¢": 773,
      "ç½ĳ": 774,
      "å¦Ĥæŀľ": 775,
      "åĨį": 776,
      "è°ģ": 777,
      "éħ": 778,
      "ä¿Ŀ": 779,
      "ï¼Įä½ł": 780,
      "åħ¬": 781,
      "åĨłåĨĽ": 782,
      "åģļ": 783,
      "ä¸ľ": 784,
      "çİī": 785,
      "é¾": 786,
      "è£": 787,
      "è¯Ħ": 788,
      "ä½¿": 789,
      "æĴ": 790,
      "æ°Ķ": 791,
      "ç´": 792,
      "ç¼": 793,
      "å»": 794,
      "es": 795,
      "æ¯ĶèµĽ": 796,
      "2025-": 797,
      "åħ¥": 798,
      "å£": 799,
      "ï¼Ī": 800,
      "åĲ¦": 801,
      "ç¬ĳ": 802,
      "åĺ": 803,
      "ï¼ī": 804,
      "åĵª": 805,
      "ä»ĸä»¬": 806,
      "å½±": 807,
      "å®³": 808,
      "æĹ¥": 809,
      "åĳ¢": 810,
      "è¿Ļä¹Ī": 811,
      "èĭ±": 812,
      "å¯¼": 813,
      "æĶ¾": 814,
      "**": 815,
      "èİ": 816,
      "åĽ¾": 817,
      "çĽ®": 818,
      "ç¬¬ä¸Ģ": 819,
      "æŁĲç§į": 820,
      "éĢļè¿ĩ": 821,
      "éĩĳ": 822,
      "æ»¡": 823,
      "ç²ī": 824,
      "ä¸įä¼ļ": 825,
      "å·²ç»ı": 826,
      "é¸": 827,
      "åĽłæŃ¤": 828,
      "å·®": 829,
      "æĿĢ": 830,
      "åŀ": 831,
      "åħ·": 832,
      "åºĶè¯¥": 833,
      "æĮģ": 834,
      "è§Ĩ": 835,
      "ï¼ĮæĪĳä»¬": 836,
      "éĿŀ": 837,
      "éļ¾": 838,
      "åĩºæĿ¥": 839,
      "èµĦ": 840,
      "åİŁ": 841,
      "å¨": 842,
      "è¡Įä¸º": 843,
      "çĭĹ": 844,
      "çĹ": 845,
      "åŁº": 846,
      "å®ī": 847,
      "çļĦ,": 848,
      "æĢ»": 849,
      "èĩ³": 850,
      "åĩ»": 851,
      "æł¸": 852,
      "ä½ķ": 853,
      "ç¨ĭ": 854,
      "ä»¶": 855,
      "æµģ": 856,
      "åĬ©": 857,
      "æľĢåĲİ": 858,
      "æĪı": 859,
      "æİ¨": 860,
      "2025-5-": 861,
      "æį®": 862,
      "è®¸": 863,
      "æĬĢ": 864,
      "è´¨": 865,
      "æģ¯": 866,
      "åĪ©": 867,
      "æĭī": 868,
      "æŀĲ": 869,
      "æĿ¡": 870,
      "éĵ": 871,
      "è±¡": 872,
      "æĺ¯åĲ¦": 873,
      "åŃĻ": 874,
      "ä»·": 875,
      "åĵĪ": 876,
      "çİĭ": 877,
      "åĪĻ": 878,
      "è¾¹": 879,
      "è¿Ļæł·": 880,
      "ig": 881,
      "èį": 882,
      "åģĩ": 883,
      "é£İ": 884,
      "åĪĨæŀĲ": 885,
      "¥¿": 886,
      "åħ¶ä»ĸ": 887,
      "å°Ĩ": 888,
      "ç¦": 889,
      "åı·": 890,
      "é»ĳ": 891,
      "åĲĥ": 892,
      "åĸľ": 893,
      "å»º": 894,
      "ä¸ŃåĽ½": 895,
      "æ®µ": 896,
      "bin": 897,
      "åıĹ": 898,
      "åı£": 899,
      "tes": 900,
      "èı": 901,
      "å¡": 902,
      "è§ģ": 903,
      "çļĦæĺ¯": 904,
      "æ³¢": 905,
      "è¿Ĳ": 906,
      "ä¹İ": 907,
      "ä¸įèĥ½": 908,
      "äºĶ": 909,
      "ç©º": 910,
      "æĬĹ": 911,
      "èĬĤ": 912,
      "éĽĦ": 913,
      "è¿ĺæľī": 914,
      "æĺ¥": 915,
      "è¥¿": 916,
      "è®¡": 917,
      "æĦŁè§ī": 918,
      "çĪĨ": 919,
      "ç¡®å®ŀ": 920,
      "èī²": 921,
      "å¤Ħ": 922,
      "ä¸ªäºº": 923,
      "ä¸ºä»Ģä¹Ī": 924,
      "è¿ŀ": 925,
      "ä¹Łæĺ¯": 926,
      "æĸ¹å¼ı": 927,
      "pl": 928,
      "ä¸ŃçļĦ": 929,
      "åĬ¿": 930,
      "æ¬¢": 931,
      "éĴ±": 932,
      "æľĪ": 933,
      "è§īå¾Ĺ": 934,
      "æº": 935,
      "æİĴ": 936,
      "æļĹ": 937,
      "éĻħ": 938,
      "æīĵéĩİ": 939,
      "ç¤¾": 940,
      "ãĢĤè¿Ļ": 941,
      "åĦ": 942,
      "é¾Ļ": 943,
      "æķ´": 944,
      "åĲĹï¼Ł": 945,
      "æľį": 946,
      "å®ĥ": 947,
      "è§Ĥ": 948,
      "å¤į": 949,
      "çļĦäºº": 950,
      "er": 951,
      "è®¾": 952,
      "å¿«": 953,
      "åĲ§čĊ": 954,
      "èĥĮ": 955,
      "æ¸¸æĪı": 956,
      "2025-5-1": 957,
      "èŀ": 958,
      "åħĭ": 959,
      "åĲ«": 960,
      "è½¬": 961,
      "åķĬčĊ": 962,
      "äº§": 963,
      "åį¡": 964,
      "åĵģ": 965,
      "åķ¥": 966,
      "å§ĭ": 967,
      "ä»»": 968,
      "æĶ¹": 969,
      "ä¸Ŀ": 970,
      "ä¸Ģæł·": 971,
      "èµ°": 972,
      "èĭ±éĽĦ": 973,
      "åĻ": 974,
      "è¶Ĭ": 975,
      "è¶ħ": 976,
      "å¹²": 977,
      "æľª": 978,
      "ä¼¤": 979,
      "çº§": 980,
      "çĻ½": 981,
      "ç®¡": 982,
      "æĬ¥": 983,
      "éĤ£ä¹Ī": 984,
      "an": 985,
      "æľĽ": 986,
      "è¨": 987,
      "åĶ": 988,
      "è¨Ģ": 989,
      "æ±Ĥ": 990,
      "å¤Ł": 991,
      "æĸŃ": 992,
      "ç»Ł": 993,
      "æľ¯": 994,
      "åıĮ": 995,
      "æĺ¾": 996,
      "çĪ±": 997,
      "ä¼ĺ": 998,
      "æķĻ": 999,
      "å¢ĥ": 1000,
      "åİĭ": 1001,
      "äº¤": 1002,
      "æıĲåĪ°": 1003,
      "çļĩ": 1004,
      "æī¾": 1005,
      "çĦ¶åĲİ": 1006,
      "æ¯ı": 1007,
      "åĨµ": 1008,
      "ä½İ": 1009,
      "è¿°": 1010,
      "åĵį": 1011,
      "ä¸Ķ": 1012,
      "æĶ¯": 1013,
      "äºļ": 1014,
      "ad": 1015,
      "çª": 1016,
      "ä¹Ĳ": 1017,
      "æļĹç¤º": 1018,
      "çļĦæĹ¶åĢĻ": 1019,
      "æł¹": 1020,
      "æ¢": 1021,
      "æĤ": 1022,
      "åŃĺ": 1023,
      "ä¼ł": 1024,
      "ä¼¼ä¹İ": 1025,
      "çĶ·": 1026,
      "åĦ¿": 1027,
      "åĬŁ": 1028,
      "èĦ¸": 1029,
      "ç±»": 1030,
      "çīĩ": 1031,
      "åĲĹčĊ": 1032,
      "èĩ´": 1033,
      "ðŁĲ": 1034,
      "çīĪ": 1035,
      "æĹ¶éĹ´": 1036,
      "çĲĥ": 1037,
      "éĺµ": 1038,
      "åĸľæ¬¢": 1039,
      "åĵ¦": 1040,
      "è£ħ": 1041,
      "æĴŃ": 1042,
      "åĮħ": 1043,
      "èĬ±": 1044,
      "ä¼į": 1045,
      "é¥": 1046,
      "æŃ¥": 1047,
      "åĳ³": 1048,
      "æ¸ħ": 1049,
      "çĬ¶": 1050,
      "æīĢä»¥": 1051,
      "å²": 1052,
      "åĨħå®¹": 1053,
      "æ»Ķ": 1054,
      "å¼Ģå§ĭ": 1055,
      "Ġ1": 1056,
      "åĲĹï¼ŁčĊ": 1057,
      "çľ¼": 1058,
      "æĪĸèĢħ": 1059,
      "åįģ": 1060,
      "å¿ħ": 1061,
      "å½±åĵį": 1062,
      "ç¾¤": 1063,
      "åıĸ": 1064,
      "æĵ": 1065,
      "èĽ": 1066,
      "è¾ħ": 1067,
      "æĶ¿": 1068,
      "èıľ": 1069,
      "æĻ¯": 1070,
      "å¤ĩ": 1071,
      "å¼ł": 1072,
      "éħį": 1073,
      "éĺŁä¼į": 1074,
      "æ²Ļ": 1075,
      "éĥ½ä¸į": 1076,
      "ä¸Ģåı¥": 1077,
      "æł¼": 1078,
      "æ¨": 1079,
      "å¾·": 1080,
      "éĶĻ": 1081,
      "å¤±": 1082,
      "æ³¨": 1083,
      "ï¼Įä»¥": 1084,
      "æĳ": 1085,
      "å·¦": 1086,
      "ç«ĭ": 1087,
      "è®°": 1088,
      "åı«": 1089,
      "èħ": 1090,
      "åİĨ": 1091,
      "åĻ¨": 1092,
      "å·Ŀ": 1093,
      "al": 1094,
      "ç²īä¸Ŀ": 1095,
      "æ¥": 1096,
      "æĺ¯çľŁçļĦ": 1097,
      "ç»Ħ": 1098,
      "è¸": 1099,
      "åı¯èĥ½æĺ¯åľ¨": 1100,
      "åŃĹ": 1101,
      "åŃ£": 1102,
      "èŀº": 1103,
      "ãģ": 1104,
      "ç§ĳ": 1105,
      "å½¢": 1106,
      "æ¼": 1107,
      "åķĬï¼Į": 1108,
      "BL": 1109,
      "æºĲ": 1110,
      "æ£": 1111,
      "åı°": 1112,
      "è¿ĻäºĽ": 1113,
      "éĻ¤": 1114,
      "è¯Ĩ": 1115,
      "éĺŁåıĭ": 1116,
      "éĢĢ": 1117,
      "æķĪ": 1118,
      "æĩ": 1119,
      ",æĪĸ": 1120,
      "åĲĳ": 1121,
      "ä¸ĭæĿ¥": 1122,
      "ï¼ģčĊ": 1123,
      "éĢĤ": 1124,
      "éĢł": 1125,
      "åĲ§ï¼Į": 1126,
      "èµ·æĿ¥": 1127,
      "åĲ¹": 1128,
      "éĢŁ": 1129,
      "æµ·": 1130,
      "lpl": 1131,
      "ä¾ĥ": 1132,
      "çĶ±": 1133,
      "çº¯": 1134,
      "è°ĥä¾ĥ": 1135,
      "åĽłæŃ¤ï¼Į": 1136,
      "æĶ¶": 1137,
      "BLG": 1138,
      "åĳĺ": 1139,
      "ç»ĥ": 1140,
      "åºķ": 1141,
      "10": 1142,
      "æĥħåĨµ": 1143,
      "åĬ¡": 1144,
      "éŁ©": 1145,
      "åĮĹ": 1146,
      "ä¿¡æģ¯": 1147,
      "éĢīæīĭ": 1148,
      "æĪĳä¹Ł": 1149,
      "äººçļĦ": 1150,
      "è¿ĳ": 1151,
      "å¥¹": 1152,
      "æŀģ": 1153,
      "åħ³ç³»": 1154,
      "å±ķ": 1155,
      "éĻĲ": 1156,
      "ä»Ĭå¹´": 1157,
      "åı¥è¯Ŀ": 1158,
      "è¯ķ": 1159,
      "æĢĿèĢĥ": 1160,
      "éĶ®": 1161,
      "è®®": 1162,
      "å¾®": 1163,
      "ï¼Įä½Ĩæĺ¯": 1164,
      "åŀĭ": 1165,
      "ðŁĺ": 1166,
      "é¦ĸåħĪï¼Į": 1167,
      "çİĩ": 1168,
      "ä¾Ľ": 1169,
      "æĪĳçļĦ": 1170,
      "å¼ķ": 1171,
      "é»ĺ": 1172,
      "äºī": 1173,
      "éŃ": 1174,
      "äºĨãĢĤ": 1175,
      "æ§": 1176,
      "åĩĨ": 1177,
      "ä½ı": 1178,
      "æĹ©": 1179,
      "si": 1180,
      "è¯į": 1181,
      "æ°ĳ": 1182,
      "åİ»å¹´": 1183,
      "âĢĿï¼Įè¿Ļ": 1184,
      "ç»ľ": 1185,
      "ä¸įè¿ĩ": 1186,
      "å¯¹éĿ¢": 1187,
      "èĦĳ": 1188,
      "ä¸ĢçĽ´": 1189,
      "çīĽ": 1190,
      "è§Ĵ": 1191,
      "ä¸ĩ": 1192,
      "åĲ¬": 1193,
      "âĢĿçļĦ": 1194,
      "æħ": 1195,
      "èĥ½åĬĽ": 1196,
      "è´´": 1197,
      "æī¹": 1198,
      "un": 1199,
      "ä¹Łè®¸": 1200,
      "çģ«": 1201,
      "ä½¿çĶ¨": 1202,
      "ç¦»": 1203,
      "éªĤ": 1204,
      "ç¾İåĽ½": 1205,
      "äºĨĠ": 1206,
      "åı²": 1207,
      "çº¢": 1208,
      "èĥİ": 1209,
      "è¯¯": 1210,
      "æł¸å¿ĥ": 1211,
      "éļı": 1212,
      "ï¼ļčĊ": 1213,
      "æķ¢": 1214,
      "ç½ĳç»ľ": 1215,
      "ç»ĵæŀľ": 1216,
      "æĸĹ": 1217,
      "åįĬ": 1218,
      "æĲŀ": 1219,
      "ä¸ĸçķĮèµĽ": 1220,
      "åħī": 1221,
      "å¼Ł": 1222,
      "åĢ¼": 1223,
      "éļĲ": 1224,
      "çİ¯": 1225,
      "è¯ģ": 1226,
      "éĹ¨": 1227,
      "æ¨¡": 1228,
      "ï¼ĮæĪĳä»¬éľĢè¦ģ": 1229,
      "åį³": 1230,
      "æļ´": 1231,
      "ä¸Ģä¸ĭ": 1232,
      "ä¾¿": 1233,
      "ä¹ĭåīį": 1234,
      "è½¦": 1235,
      "ï¼Įå¹¶": 1236,
      "æłĩ": 1237,
      "åĲĦ": 1238,
      "è§Ħ": 1239,
      "å¸Ī": 1240,
      "æµİ": 1241,
      "çļĦ,ä¸įæĺ¯": 1242,
      "ä¹°": 1243,
      "è¾ĥ": 1244,
      "æĺ¯çļĦ,ä¸įæĺ¯": 1245,
      "ä¸įå¦Ĥ": 1246,
      ",æĪĸä¹Łè®¸": 1247,
      "æĺ¯çļĦ,ä¸įæĺ¯,æĪĸä¹Łè®¸": 1248,
      "æĺ¯çļĦ,ä¸įæĺ¯,æĪĸä¹Łè®¸ï¼ŁčĊ": 1249,
      "ç¢§": 1250,
      "èĻ½": 1251,
      "ç»Ń": 1252,
      "çĸĳ": 1253,
      "å¸®": 1254,
      "ä¸¤ä¸ª": 1255,
      "è¿ľ": 1256,
      "æĺ¯åľ¨": 1257,
      "åĪº": 1258,
      "è¿Ľè¡Į": 1259,
      "èĲ¥": 1260,
      "éĺ¿": 1261,
      "å¤º": 1262,
      "éŁ³": 1263,
      "è®¤ä¸º": 1264,
      "ç¬¬äºĮ": 1265,
      "åŃĺåľ¨": 1266,
      "on": 1267,
      "ç²¾": 1268,
      "ç»Ŀ": 1269,
      "çĹħ": 1270,
      "ç¤¾ä¼ļ": 1271,
      "æĵį": 1272,
      "éĤ£ä¸ª": 1273,
      "t1": 1274,
      "ï¼ļâĢľ": 1275,
      "æģ¶": 1276,
      "æĶ»": 1277,
      "åħ³éĶ®": 1278,
      "å¸Ĥ": 1279,
      "å°½": 1280,
      "åĽŀåºĶ": 1281,
      "èĩªå·±çļĦ": 1282,
      "æİ§": 1283,
      "ä½łçļĦ": 1284,
      "æĺ¯ä¸Ģä¸ª": 1285,
      "èĲ½": 1286,
      "é¢Ĩ": 1287,
      "è®¨": 1288,
      "åįĹ": 1289,
      "åħ°": 1290,
      "æ²¹": 1291,
      "æ¶ī": 1292,
      "æµĭ": 1293,
      "æ¥¼": 1294,
      "é¬": 1295,
      "dg": 1296,
      "æĺŁ": 1297,
      "å°Ķ": 1298,
      "ç»ıæµİ": 1299,
      "ä¸Ĭåįķ": 1300,
      "å½¹": 1301,
      "æ¯į": 1302,
      "èĻİ": 1303,
      "é¬¼": 1304,
      "çļĦéĹ®é¢ĺ": 1305,
      "å¦Ĥä½ķ": 1306,
      "æıĲä¾Ľ": 1307,
      "å¯¼èĩ´": 1308,
      "ä¼¤å®³": 1309,
      "èĻ½çĦ¶": 1310,
      "å¸Į": 1311,
      "å¥¶": 1312,
      "æľīçĤ¹": 1313,
      "ï¼Įä»ĸ": 1314,
      "åıªèĥ½": 1315,
      "è¯´ä¸Ģåı¥": 1316,
      "å¹½": 1317,
      "çİīçİī": 1318,
      "åł": 1319,
      "èĥľ": 1320,
      "é¸¡": 1321,
      "åħ«": 1322,
      "ä¸ĢçĤ¹": 1323,
      "èĮ": 1324,
      "çı": 1325,
      "éĿł": 1326,
      "ä¸ºäºĨ": 1327,
      "msi": 1328,
      "ç»ª": 1329,
      "çļĦä¸į": 1330,
      "èĪª": 1331,
      "èĥĮæĻ¯": 1332,
      "è®½": 1333,
      "åĭ": 1334,
      "æ¶īåıĬ": 1335,
      "åĲ«ä¹ī": 1336,
      "çĥŃ": 1337,
      "ä¸Ģå®ļ": 1338,
      "çħ": 1339,
      "æ²»": 1340,
      "åĨ°": 1341,
      "éº": 1342,
      "å¹½é»ĺ": 1343,
      "åĵ¥åĵ¥": 1344,
      "æĪĳä¹Łè¯´ä¸Ģåı¥": 1345,
      "è´¥": 1346,
      "ç«Ļ": 1347,
      "çīĪæľ¬": 1348,
      "éĿ¢çļĦ": 1349,
      "æĥħç»ª": 1350,
      "åĳ½": 1351,
      "åĵĪåĵĪ": 1352,
      "ãĢĭ": 1353,
      "å¨ģ": 1354,
      "ãĢĬ": 1355,
      "å·¦æīĭ": 1356,
      "æ¦": 1357,
      "æĹłæ³ķ": 1358,
      "ç¿": 1359,
      "æĺİç¡®": 1360,
      "èĤ¯": 1361,
      "åı¸": 1362,
      "ç»¼": 1363,
      "ç¢§èŀº": 1364,
      "ei": 1365,
      "åħŃ": 1366,
      "æ¶ħ": 1367,
      "ç¢§èŀºæĺ¥": 1368,
      "æ¶Ī": 1369,
      "xun": 1370,
      "ç´ł": 1371,
      "å¼¹": 1372,
      "çľŁæĺ¯": 1373,
      "æĩĤ": 1374,
      "äººï¼Į": 1375,
      "ä¸įäºĨ": 1376,
      "æĺĵ": 1377,
      "ä¹Łä¸į": 1378,
      "æŃ£å¸¸": 1379,
      "ä¸ĵ": 1380,
      "æĭ©": 1381,
      "è½»": 1382,
      "çªģ": 1383,
      "éªĮ": 1384,
      "æİ¥ä¸ĭæĿ¥": 1385,
      "åħ±": 1386,
      "åĨ²": 1387,
      "èĻĳ": 1388,
      "åĩłä¸ª": 1389,
      "åįİ": 1390,
      "ï¼Įæľī": 1391,
      "è¶³": 1392,
      "å£«": 1393,
      "è¾ħåĬ©": 1394,
      "ä»ħ": 1395,
      "æĬĢæľ¯": 1396,
      "çľĭåĪ°": 1397,
      "èģĮ": 1398,
      "ç¨³": 1399,
      "çĬ¶æĢģ": 1400,
      "åıªæľī": 1401,
      "èĤī": 1402,
      "çĵ": 1403,
      "æĿĥ": 1404,
      "éģ¿": 1405,
      "è¯·": 1406,
      "éĢīæĭ©": 1407,
      "12": 1408,
      "åĽ½å®¶": 1409,
      "å¦¹": 1410,
      "çł´": 1411,
      "ç§°": 1412,
      "å·¥ä½ľ": 1413,
      "é©¬å¤´": 1414,
      "åħµ": 1415,
      "è¡Ģ": 1416,
      "æŃ¦": 1417,
      "å©": 1418,
      "çĶŁæ´»": 1419,
      "å®¢": 1420,
      "æ§ĥ": 1421,
      "Ġ:": 1422,
      "ï¼Ľ": 1423,
      "çĽĺ": 1424,
      "åķĨ": 1425,
      "äº¬": 1426,
      "æ¶ħæ§ĥ": 1427,
      "æŁĲä¸ª": 1428,
      "ä¸»è¦ģ": 1429,
      "ï¼Įåı¯èĥ½": 1430,
      "åħ·ä½ĵ": 1431,
      "æ»Ķåįļ": 1432,
      "ä¼Ĺ": 1433,
      "èĤ²": 1434,
      "ç½Ĳ": 1435,
      "æıĲåĪ°âĢľ": 1436,
      "69": 1437,
      "ï¼Įå°±": 1438,
      ":ĠĠ": 1439,
      "el": 1440,
      "è´¹": 1441,
      "äº²": 1442,
      "ak": 1443,
      "æĢķ": 1444,
      "å¯¹æĸ¹": 1445,
      "åĲ¸": 1446,
      "å®ŀéĻħ": 1447,
      "23": 1448,
      "ä¸įåĪ°": 1449,
      "ç¼º": 1450,
      "æľīäºº": 1451,
      "å·´": 1452,
      "Ġ0": 1453,
      "æİī": 1454,
      "æĺ¯ä¸įæĺ¯": 1455,
      "èĤ¯å®ļ": 1456,
      "çĶļ": 1457,
      "æĵįä½ľ": 1458,
      "æĶ¯æĮģ": 1459,
      "ç»´": 1460,
      "å±±": 1461,
      "ä»Ĭå¤©": 1462,
      "åħ¶å®ŀ": 1463,
      "çŃĸ": 1464,
      "ï¼Įä¸Ģ": 1465,
      "éĢ¼": 1466,
      "å¢ŀ": 1467,
      "ï¼Įè¿ĺ": 1468,
      "é¦ĸåħĪï¼ĮæĪĳä»¬éľĢè¦ģ": 1469,
      "æĺ¯ä¸Ģç§į": 1470,
      "å¾Īå¤ļ": 1471,
      "çĽ¸åħ³": 1472,
      "æ½": 1473,
      "æ·±": 1474,
      "çłģ": 1475,
      "åĪĹ": 1476,
      "ç½®": 1477,
      "å¤§çļĦ": 1478,
      "è¿Ļä¸Ģ": 1479,
      "è¡¨æĺİ": 1480,
      "çĶļèĩ³": 1481,
      "å£°": 1482,
      "é±": 1483,
      "è¿ĩç¨ĭ": 1484,
      "çĻ¾": 1485,
      "âĢ¦": 1486,
      "å¸ĥ": 1487,
      "åĪ«äºº": 1488,
      "æĸĩåĮĸ": 1489,
      "åĬŀ": 1490,
      "çłĶ": 1491,
      "æ··": 1492,
      "æĮº": 1493,
      "çļ®": 1494,
      "å¸ĮæľĽ": 1495,
      "ç»©": 1496,
      "é£Ł": 1497,
      "åĨ³èµĽ": 1498,
      "ä¸ĬçļĦ": 1499,
      "æĦıæĢĿ": 1500,
      "ip": 1501,
      "èİ·": 1502,
      "ä¸ĢæŃ¥": 1503,
      "å®ŀåĬĽ": 1504,
      "åħį": 1505,
      "ä¹ł": 1506,
      "åĪļ": 1507,
      "åĸ·": 1508,
      "é±¼": 1509,
      "wb": 1510,
      "æĬĵ": 1511,
      "æĬ¤": 1512,
      "åħĥ": 1513,
      "é¡¶": 1514,
      "ä½Ĩæĺ¯": 1515,
      "æĦıåĳ³": 1516,
      "åİĨåı²": 1517,
      "19": 1518,
      "æķ°æį®": 1519,
      "ç®Ģ": 1520,
      "å¾Ģ": 1521,
      "äºĭä»¶": 1522,
      "å±ŀ": 1523,
      "æ°¸": 1524,
      "ä¸Ńåįķ": 1525,
      "è¾ĵåĩº": 1526,
      "ng": 1527,
      "éº»": 1528,
      "éĹ®é¢ĺçļĦæł¸å¿ĥ": 1529,
      "åĳĬ": 1530,
      "æŁ¥": 1531,
      "ä¸įçŁ¥éģĵ": 1532,
      "åŁºæľ¬": 1533,
      "50": 1534,
      "ç»Ī": 1535,
      "ï¼ĮæĪĳéľĢè¦ģ": 1536,
      "è®½åĪº": 1537,
      "çīĮ": 1538,
      "å¾ħ": 1539,
      "å¾®åįļ": 1540,
      "æĢª": 1541,
      "æĭĽ": 1542,
      "å»ºè®®": 1543,
      "ï¼ĮéĤ£": 1544,
      "ç«ŀ": 1545,
      "éĩįè¦ģ": 1546,
      "å¿µ": 1547,
      "jdg": 1548,
      "é²": 1549,
      "äºĨä¸Ģ": 1550,
      "èĢĥèĻĳ": 1551,
      "ĠĠ": 1552,
      "ä¸Ńï¼Į": 1553,
      "åıĤ": 1554,
      "å¦Ī": 1555,
      "ä¸ľè¥¿": 1556,
      "æ´Ĺ": 1557,
      "çķ¥": 1558,
      "çļĦè¯Ŀ": 1559,
      "æĪĳä¹Łè¯´ä¸Ģåı¥čĊ": 1560,
      "âĢĿï¼Į": 1561,
      "vp": 1562,
      "ä¸ĭè·¯": 1563,
      "åĹ": 1564,
      "æĻº": 1565,
      "å°ģ": 1566,
      "æĿ¥çľĭ": 1567,
      "æ²Ļçļĩ": 1568,
      "åįĩ": 1569,
      "åĢĴ": 1570,
      "åĲĮæĹ¶": 1571,
      "éĢĢå½¹": 1572,
      "æĿĤ": 1573,
      "ä½łä»¬": 1574,
      "çĥĤ": 1575,
      "ç±³": 1576,
      "11": 1577,
      "mvp": 1578,
      "æĬ½": 1579,
      "äºĨãĢĤčĊ": 1580,
      "ä½ľä¸º": 1581,
      "éĽĨ": 1582,
      "ç»ĵåĲĪ": 1583,
      "äºĴ": 1584,
      "æıĲéĹ®": 1585,
      "å¡Ķ": 1586,
      "ä»ĸçļĦ": 1587,
      "æķĮ": 1588,
      "ä¹ĭéĹ´": 1589,
      "å¤ºåĨł": 1590,
      "é¢ĳ": 1591,
      "PL": 1592,
      "éĢļå¸¸": 1593,
      "çļĦãĢĤ": 1594,
      "çļĦä¸Ģ": 1595,
      "çħ§": 1596,
      "çī¹å®ļ": 1597,
      "åĨ·": 1598,
      "è¿Ľä¸ĢæŃ¥": 1599,
      "ä»¥ä¸º": 1600,
      "bo": 1601,
      "wbg": 1602,
      "æ¦Ĥ": 1603,
      "åıĳçİ°": 1604,
      "âĢĿï¼Ł": 1605,
      "æĻļ": 1606,
      "ä¹±": 1607,
      "å¤§é£ŀ": 1608,
      "æ¼Ķ": 1609,
      "éĹ®é¢ĺçļĦçŃĶæ¡Ī": 1610,
      "é¢Ħ": 1611,
      "ç«¯": 1612,
      "å¹¿": 1613,
      "âĢĿï¼Łæĺ¯çļĦ,ä¸įæĺ¯,æĪĸä¹Łè®¸ï¼ŁčĊ": 1614,
      "ï¼Įçİ°åľ¨": 1615,
      "æľºä¼ļ": 1616,
      "å±Ĥ": 1617,
      "åŁİ": 1618,
      "åģ·": 1619,
      "è¿Ļæĺ¯": 1620,
      "çĬ¯": 1621,
      "è´Ł": 1622,
      "æ°´å¹³": 1623,
      "å¸¦æľī": 1624,
      "æľĭ": 1625,
      "å®ļâĢľ": 1626,
      "ä¸įåĲĮ": 1627,
      "wei": 1628,
      "å¥½çļĦ": 1629,
      "å®Įåħ¨": 1630,
      "åĸ»": 1631,
      "éĺ²": 1632,
      "æ¬¾": 1633,
      "ä¸¥": 1634,
      "è¯Ħä»·": 1635,
      "å³": 1636,
      "å®Ļ": 1637,
      "æľĭåıĭ": 1638,
      "çĽ´æĴŃ": 1639,
      "çĭĤ": 1640,
      "LPL": 1641,
      "å¥ı": 1642,
      "èĽĭ": 1643,
      "çĨ": 1644,
      "çļĦæĸ¹å¼ı": 1645,
      "ç¬¦": 1646,
      "çĭ¬": 1647,
      "è¯»": 1648,
      "åĪĴ": 1649,
      "æĮ¥": 1650,
      "æĦŁåĪ°": 1651,
      "éĥ¨åĪĨ": 1652,
      "åį´": 1653,
      "å¥¥": 1654,
      "è¡¨çİ°": 1655,
      "é¥Ń": 1656,
      "çıŃ": 1657,
      "å¯¹çº¿": 1658,
      "åĳĹ": 1659,
      "ç¡¬": 1660,
      "èļ": 1661,
      "åĨĻ": 1662,
      "æıĲéĹ®èĢħ": 1663,
      "æıı": 1664,
      "elk": 1665,
      "è¡¨è¾¾äºĨ": 1666,
      "èģĶèµĽ": 1667,
      "æĿ¿": 1668,
      "å°¿ç½Ĳ": 1669,
      "âĢĿåı¯èĥ½æĺ¯": 1670,
      "æŀĦ": 1671,
      "åıªæĺ¯": 1672,
      "æ¬¡ï¼Į": 1673,
      "åĺ´": 1674,
      "åŃĲï¼Į": 1675,
      "éĥ½èĥ½": 1676,
      "è¿ĺèĥ½": 1677,
      "åįĸ": 1678,
      "æĿİ": 1679,
      "æľĢåĲİï¼Į": 1680,
      "åŃ©": 1681,
      "ä¸įå¥½": 1682,
      "éĺ³": 1683,
      "æĢģåº¦": 1684,
      "æł¹æį®": 1685,
      "å¼±": 1686,
      "ç§»": 1687,
      "æİ¥çĿĢ": 1688,
      "å®Ī": 1689,
      "ä¸ĢæĬĬ": 1690,
      "ä¼ĺåĬ¿": 1691,
      "éĻ¤äºĨ": 1692,
      "ï¼ĮåĽłä¸º": 1693,
      "aker": 1694,
      "éĹª": 1695,
      "ä¸Ģèµ·": 1696,
      "åº·": 1697,
      "åĪ°äºĨ": 1698,
      "è´£": 1699,
      "çİ¯å¢ĥ": 1700,
      "æīĵçļĦ": 1701,
      "åģ¥": 1702,
      "è¯´ï¼Į": 1703,
      "åĪĽ": 1704,
      "åıĳå±ķ": 1705,
      "æģ©": 1706,
      "èĪ°": 1707,
      "åĽ½éĻħ": 1708,
      "å°Ħ": 1709,
      "1.Ġ": 1710,
      "2.Ġ": 1711,
      "éŁ©åĽ½": 1712,
      "ï¼ĮæĪĸèĢħ": 1713,
      "éĩĩ": 1714,
      "è®¨è®º": 1715,
      "48": 1716,
      "æŁĲäºĽ": 1717,
      "nip": 1718,
      "æĥħæĦŁ": 1719,
      "ï¼Įä¹Ł": 1720,
      "å¤ļå°ĳ": 1721,
      "åĽŀæĿ¥": 1722,
      "åľĪ": 1723,
      "ä¾Ŀ": 1724,
      "çĮª": 1725,
      "èĬĤå¥ı": 1726,
      "lo": 1727,
      "å¥Ĺ": 1728,
      "å¤§å®¶": 1729,
      "21": 1730,
      "èĿ": 1731,
      "æ¯ķ": 1732,
      "åĽŀçŃĶèĢħ": 1733,
      "æĬķ": 1734,
      "å®Ŀ": 1735,
      "æĿ¾": 1736,
      "æĶ»åĩ»": 1737,
      "ï¼Įåı¯ä»¥": 1738,
      "ä¼°": 1739,
      "å¤¸": 1740,
      "å¾ĭ": 1741,
      "ä¹¦": 1742,
      "æĪĲè¯Ń": 1743,
      "ï¼Įåľ¨": 1744,
      "è¯¢": 1745,
      "äºĨï¼ŁčĊ": 1746,
      "å¯»": 1747,
      "åĪ·": 1748,
      "è¦ģæĺ¯": 1749,
      "è´´åĲ§": 1750,
      "å¹¶ä¸į": 1751,
      "è¿Ļåı¥è¯Ŀ": 1752,
      "åĮ»": 1753,
      "çŁŃ": 1754,
      "ä¸ĢäºĽ": 1755,
      "å¤ı": 1756,
      "çº¦": 1757,
      "æĻ®": 1758,
      "ä¸²": 1759,
      "çĶ»": 1760,
      "æĺ¯å¯¹": 1761,
      "ä»½": 1762,
      "æĢ¥": 1763,
      "åĪĩ": 1764,
      "éģĩ": 1765,
      "è¸¢": 1766,
      "éŃĶ": 1767,
      "æııè¿°": 1768,
      "ç©¶": 1769,
      "æĪ¿": 1770,
      "éĶħ": 1771,
      "ck": 1772,
      "æĺ¯âĢľ": 1773,
      "èĦļ": 1774,
      "å®ĺ": 1775,
      "é»Ħ": 1776,
      "çŁ³": 1777,
      "**ï¼ļ": 1778,
      "åįĥ": 1779,
      "åĤ": 1780,
      "èµĦæºĲ": 1781,
      "å¯Ĵ": 1782,
      "èģĮä¸ļ": 1783,
      "3.Ġ": 1784,
      "ä¸Ģæ¬¡": 1785,
      "æ¯Ľ": 1786,
      "..": 1787,
      "éĶĢ": 1788,
      "åħ¸": 1789,
      "æķħ": 1790,
      "å¥ĩ": 1791,
      "éĻį": 1792,
      "åĴĮâĢľ": 1793,
      "å¤©å¤©": 1794,
      "åĪĢ": 1795,
      "ï¼ĮçĦ¶åĲİ": 1796,
      "åı¤": 1797,
      "åİŁåĽł": 1798,
      ":0": 1799,
      "åĲİéĿ¢": 1800,
      "ç¤¼": 1801,
      "ç¿»": 1802,
      "éĨ": 1803,
      "åĽ´": 1804,
      "éĿŀå¸¸": 1805,
      "15": 1806,
      "åĳ¢čĊ": 1807,
      "id": 1808,
      "äºĨï¼Ł": 1809,
      "éĻ©": 1810,
      "è·¯è¾¹": 1811,
      "13": 1812,
      "äºĨè§£": 1813,
      "æĮĳ": 1814,
      "ä¸½": 1815,
      "å³°": 1816,
      "å¤«": 1817,
      "é¦Ļ": 1818,
      "æĪĲç»©": 1819,
      "ç©¿": 1820,
      "å¤ĦçĲĨ": 1821,
      "æ¸©": 1822,
      "èĸ": 1823,
      "åħ³äºİ": 1824,
      "æŃ£ç¡®": 1825,
      "le": 1826,
      "ç§¯": 1827,
      "çĽĬ": 1828,
      "çļĦãĢĤčĊ": 1829,
      "æŀª": 1830,
      "æľĢè¿ĳ": 1831,
      "ï¼Įåı¯èĥ½æĺ¯": 1832,
      "éĥ½æ²¡": 1833,
      "éĹ¹": 1834,
      "âĢĿåĴĮâĢľ": 1835,
      "èĹ": 1836,
      "è½®": 1837,
      "è®¾è®¡": 1838,
      "ç¦ı": 1839,
      "å¸ĸ": 1840,
      "æ¿": 1841,
      "ç¢°": 1842,
      "ç»§": 1843,
      "è¿½": 1844,
      "ç»ĻæĪĳ": 1845,
      "äºĳ": 1846,
      "ç´§": 1847,
      "åŃĻåĵ¥": 1848,
      "å·¨": 1849,
      "ï¼Įæĺ¯": 1850,
      "Ġ#": 1851,
      "ä¹ĭåĲİ": 1852,
      "å¾ģ": 1853,
      "éĥ½æľī": 1854,
      "äº¬ä¸ľ": 1855,
      "åİĭåĬĽ": 1856,
      "æĽ´å¤ļ": 1857,
      "æľªçŁ¥": 1858,
      "è·ĳ": 1859,
      "çľĭçľĭ": 1860,
      "æ¬§": 1861,
      "åĵªä¸ª": 1862,
      "ä¹ħ": 1863,
      "åĺĽ": 1864,
      "èĳ": 1865,
      "åį°": 1866,
      "å°±ä¸į": 1867,
      "èµ¢äºĨ": 1868,
      "éĵ¶": 1869,
      "è¡¥": 1870,
      "åĳ¨": 1871,
      "çĤ¸": 1872,
      "æ¿Ģ": 1873,
      "åĬŁèĥ½": 1874,
      "é¸Ł": 1875,
      "çŁ¥è¯Ĩ": 1876,
      "æŃ¦åĻ¨": 1877,
      "çļĦâĢľ": 1878,
      "åħ»": 1879,
      "å¥½åĥı": 1880,
      "éĵģ": 1881,
      "ï¸": 1882,
      "æĲı": 1883,
      "é¼": 1884,
      "è¿Ļä¸ªéĹ®é¢ĺ": 1885,
      "æī¿": 1886,
      "è¹": 1887,
      "ç³»ç»Ł": 1888,
      "ä»¥åīį": 1889,
      "âŀ": 1890,
      "è·Ŀ": 1891,
      "16": 1892,
      "åħ³æ³¨": 1893,
      "å¯Ĩ": 1894,
      "ï¸ı": 1895,
      "åľ¨äºİ": 1896,
      "âĢĿæĪĳä»¬": 1897,
      "14": 1898,
      "ä»»ä½ķ": 1899,
      "ï¼ĮæīĢä»¥": 1900,
      "æģ¶å¿ĥ": 1901,
      "IG": 1902,
      "è¯Ħè®º": 1903,
      "åİī": 1904,
      "åŁŁ": 1905,
      "æĺ¯çľŁ": 1906,
      "èµŀ": 1907,
      "éĢĨ": 1908,
      "çĪ¹": 1909,
      "ç½Ĺ": 1910,
      "æĺ¯ä»Ģä¹Ī": 1911,
      "çķĻ": 1912,
      "è§Ĩé¢ĳ": 1913,
      "åĩı": 1914,
      "æīĢæľī": 1915,
      "è¾Ī": 1916,
      "è¾ĳ": 1917,
      "âĢĶ": 1918,
      "äººčĊ": 1919,
      "æĭħ": 1920,
      "æľªçŁ¥ï¼ŁčĊ": 1921,
      "çĦ¶èĢĮ": 1922,
      "åĵ¦ðŁĺ": 1923,
      "om": 1924,
      "æĹłæķĮ": 1925,
      "åħĦ": 1926,
      "åļ": 1927,
      "ï¼ĮèĢĮä¸įæĺ¯": 1928,
      "èŃ": 1929,
      "ç£": 1930,
      "å±ħ": 1931,
      "èŃ¦": 1932,
      "éĺµå®¹": 1933,
      "åĳ¼": 1934,
      "æĦıåĳ³çĿĢ": 1935,
      "æĭ¬": 1936,
      "ç»Ļå®ļâĢľ": 1937,
      "ï¼Įæīĵ": 1938,
      "ï¼ĮæļĹç¤º": 1939,
      "æľĿ": 1940,
      "æĬ¢": 1941,
      "è§£è¯´": 1942,
      "âĢĿåĪĻ": 1943,
      "æ¹": 1944,
      "ãĤ": 1945,
      "ä¸¾": 1946,
      "ä½įç½®": 1947,
      "ie": 1948,
      "ä¹Łæ²¡": 1949,
      "æ¯Ķè¾ĥ": 1950,
      "åıªè¦ģ": 1951,
      "18": 1952,
      "ç»Ļä½ł": 1953,
      "å¯ĴåĨ°": 1954,
      "T1": 1955,
      "åĪ¤": 1956,
      "ï¼Įå¤§": 1957,
      "èĥ½å¤Ł": 1958,
      "èĭ¦": 1959,
      "ç½ª": 1960,
      "ä¸įè¦ģ": 1961,
      "ãĢĤâĢĿ": 1962,
      "åī§": 1963,
      "åħ¶æ¬¡ï¼Į": 1964,
      "åħ¬åı¸": 1965,
      "æ¶īåıĬåĪ°": 1966,
      "faker": 1967,
      "æĿ¯": 1968,
      "å¯Į": 1969,
      "çİ°è±¡": 1970,
      "éĴŁ": 1971,
      "24": 1972,
      "åŃĿ": 1973,
      "è´Ń": 1974,
      "ä¾ĭ": 1975,
      "åĿı": 1976,
      "çŀ": 1977,
      "æľ¬æĿ¥": 1978,
      "æĿ°": 1979,
      "æĮī": 1980,
      "æĢ»ç»ĵ": 1981,
      "æĬ¥çĤ¹": 1982,
      "è¯¢éĹ®": 1983,
      "çļĦè¡Įä¸º": 1984,
      "éĽ·": 1985,
      "å°¸": 1986,
      "22": 1987,
      "å½ĵæĹ¶": 1988,
      "åľ£": 1989,
      "è¯´è¯Ŀ": 1990,
      "å¡ŀ": 1991,
      "æŀ¶": 1992,
      "åĮħæĭ¬": 1993,
      "æĦ¿": 1994,
      "æĺİæĺ¾": 1995,
      "ç«Ł": 1996,
      "zi": 1997,
      "æī£": 1998,
      "çľŁå®ŀ": 1999,
      "è´¨çĸĳ": 2000,
      "å®¹æĺĵ": 2001,
      "æīĭæľº": 2002,
      "è¾ĵäºĨ": 2003,
      "æĽ¿": 2004,
      "ç»Ĩ": 2005,
      "æĸĻ": 2006,
      "æ¢¦": 2007,
      "ç»¼åĲĪ": 2008,
      "æľīä»Ģä¹Ī": 2009,
      "çļĦäºĭ": 2010,
      "èĩŃ": 2011,
      "è§£åĨ³": 2012,
      "æĦıä¹ī": 2013,
      "æĹ¥æľ¬": 2014,
      "ç¾¤ä½ĵ": 2015,
      "åĶ¯": 2016,
      "jk": 2017,
      "çļĦãĢģ": 2018,
      "åĪĿ": 2019,
      "ES": 2020,
      "åħħ": 2021,
      "åĢŁ": 2022,
      "ï¼Įè¿Ļä¸ª": 2023,
      "lck": 2024,
      "éĽ¶": 2025,
      "tt": 2026,
      "çĽ®åīį": 2027,
      "âĢĿåı¯èĥ½": 2028,
      "bo5": 2029,
      "ç¨³å®ļ": 2030,
      "æĮĩçļĦæĺ¯": 2031,
      "æīĵä¸įè¿ĩ": 2032,
      "æķĳ": 2033,
      "æĢĢ": 2034,
      "åĨĽäºĭ": 2035,
      "æĤ¨": 2036,
      "å¥ĸ": 2037,
      "è¯´çļĦ": 2038,
      "åĿĹ": 2039,
      "å°¿ç½ĲåŃĲ": 2040,
      "âĢĿãĢĤčĊ": 2041,
      "æīįèĥ½": 2042,
      "åľŁ": 2043,
      "ï¼Įè®©": 2044,
      "å®Ļæĸ¯": 2045,
      "éĩĬ": 2046,
      "ï¼ĮçĶļèĩ³": 2047,
      "æĹłåħ³": 2048,
      "é¡¹": 2049,
      "åı¦": 2050,
      "çºª": 2051,
      "æĸ¹éĿ¢": 2052,
      "ä»¥ä¸Ĭ": 2053,
      "èį£": 2054,
      "DG": 2055,
      "æ¾": 2056,
      "åİīå®³": 2057,
      "æ¤": 2058,
      "åı¯èĥ½ä¼ļ": 2059,
      "éľ²": 2060,
      "TES": 2061,
      "åŀĥ": 2062,
      ":4": 2063,
      "ä¸Ĭè·¯": 2064,
      "çĭł": 2065,
      "èµĸ": 2066,
      "åĥµ": 2067,
      "çļĦĠ": 2068,
      "ç§ģ": 2069,
      "ç½¢": 2070,
      "æĬĹåĲ§": 2071,
      "æİ¥çĿĢï¼Į": 2072,
      "åĪ»": 2073,
      "èĻļ": 2074,
      "å¹»": 2075,
      "äº«": 2076,
      "å°ıå¤©": 2077,
      "åĽ°": 2078,
      "æ¯Ļ": 2079,
      "åıĳçĶŁ": 2080,
      "æĬĢèĥ½": 2081,
      "ç¥¨": 2082,
      "æ´»åĬ¨": 2083,
      "å®īåħ¨": 2084,
      "æİ¨æµĭ": 2085,
      "ä½łæĺ¯": 2086,
      "èĻĲ": 2087,
      "åľ¾": 2088,
      "ä¸ĭï¼Į": 2089,
      "çİ°å®ŀ": 2090,
      "-Ġ": 2091,
      "__": 2092,
      "å¤ľ": 2093,
      "å°¿å°¿": 2094,
      "çĶ¨æĪ·çļĦéĹ®é¢ĺ": 2095,
      "åŀĥåľ¾": 2096,
      "æŃ¢": 2097,
      "å¤ĸæĪĺ": 2098,
      "åĽłç´ł": 2099,
      "çłĶç©¶": 2100,
      "ï¼Łï¼Ł": 2101,
      "åģ¥åº·": 2102,
      "éĢ»": 2103,
      "ä¿®": 2104,
      "æĢ§ãĢĤčĊ": 2105,
      "èº«ä½ĵ": 2106,
      "æ¢Ĺ": 2107,
      "ä¸įè¡Į": 2108,
      "æ²¡äºº": 2109,
      "çĻ»": 2110,
      "éģ¿åħį": 2111,
      ":3": 2112,
      "å½©": 2113,
      "çŃĶæ¡ĪâĢľ": 2114,
      "æĶ¿æ²»": 2115,
      "æĪĲä¸º": 2116,
      "æ»ĶæĲı": 2117,
      "ãĢĤè¿Ļç§į": 2118,
      "ä¸Ńè·¯": 2119,
      "åĿĳ": 2120,
      "åľ°æĸ¹": 2121,
      "èĴ": 2122,
      "éĿĴ": 2123,
      "åĮĹå·Ŀ": 2124,
      "ï¼Įs": 2125,
      "è¿Ļä¸¤": 2126,
      "å¼Ĥ": 2127,
      "æ¯Ĵ": 2128,
      "æĪĳè§īå¾Ĺ": 2129,
      "ä¿©": 2130,
      "çļĦ,æĪĸ": 2131,
      "è°Ī": 2132,
      "æĺ¯çľŁçļĦâĢľ": 2133,
      "çİ©çļĦ": 2134,
      "è®Ń": 2135,
      "é¦ĸåħĪï¼ĮæĪĳä»¬éľĢè¦ģçĲĨè§£": 2136,
      "éĻ¢": 2137,
      "ç»ıå¸¸": 2138,
      "ï¼ĮèĢĮæĺ¯": 2139,
      "çĮĽ": 2140,
      "bp": 2141,
      "åħ´": 2142,
      "å®«": 2143,
      "è´§": 2144,
      "ï¼Įè¿Ļç§į": 2145,
      "ç»§ç»Ń": 2146,
      "éĢ»è¾ĳ": 2147,
      "å½ķ": 2148,
      "å¥½ï¼Į": 2149,
      "æĿ¥çļĦ": 2150,
      "å¸Ŀ": 2151,
      "2025-5-17": 2152,
      "æīĢè¿°": 2153,
      "å½Ĵ": 2154,
      "binåĵ¥": 2155,
      "å²ģ": 2156,
      "âŀĹ": 2157,
      "å²Ľ": 2158,
      "ãĢĤåĽłæŃ¤ï¼Į": 2159,
      "æĪĲåĬŁ": 2160,
      "çģµ": 2161,
      "ä¿ĿæĮģ": 2162,
      "å¸®åĬ©": 2163,
      "èĤ¡": 2164,
      "åĲİæľŁ": 2165,
      "ï¼ĮéľĢè¦ģ": 2166,
      "æĿ¥çľĭï¼Į": 2167,
      "ãĢĤå¦Ĥæŀľ": 2168,
      "èĵ": 2169,
      "èģĶç³»": 2170,
      "ar": 2171,
      "åŃ£èµĽ": 2172,
      "ç»¼ä¸Ĭ": 2173,
      "åħĦå¼Ł": 2174,
      "ä¸įå¤ļ": 2175,
      "çī¹åĪ«": 2176,
      "æ»ļ": 2177,
      "ä¸īä¸ª": 2178,
      "ãĢĤåľ¨": 2179,
      "çĪ¶": 2180,
      "jkl": 2181,
      "000": 2182,
      "å¿ĺ": 2183,
      "åģľ": 2184,
      "ç»¼ä¸ĬæīĢè¿°": 2185,
      "ç»ĵè®º": 2186,
      "å·ŀ": 2187,
      "åŃ©åŃĲ": 2188,
      "ï¼Įå¦Ĥæŀľ": 2189,
      "æĹı": 2190,
      "èį¯": 2191,
      "èħ¿": 2192,
      "ä¹ĭéĹ´çļĦ": 2193,
      "ï¼Įåį³": 2194,
      "å°ıèĻİ": 2195,
      "æ´²": 2196,
      "å¹³åı°": 2197,
      "ä½ľçĶ¨": 2198,
      "369": 2199,
      "çľĭä¸į": 2200,
      "å¹´çļĦ": 2201,
      "åħ¨æĺ¯": 2202,
      "ç¬¦åĲĪ": 2203,
      "æľīæ²¡æľī": 2204,
      "ðŁĲ¦": 2205,
      "200": 2206,
      "è¿ĻæĬĬ": 2207,
      "ï¼ĮéĤ£ä¹Ī": 2208,
      "æĺ¨": 2209,
      "ç®Ģåįķ": 2210,
      "ä¹ı": 2211,
      "ä¼°è®¡": 2212,
      "æĸ¹æ³ķ": 2213,
      "å°Ĭ": 2214,
      "è·³": 2215,
      "å´": 2216,
      "åĳĢ": 2217,
      "åıįåºĶ": 2218,
      "æĢ§åĴĮ": 2219,
      "è¸©": 2220,
      "ï¼Įæ²¡": 2221,
      "ä¹Į": 2222,
      "ï¼ŁâĢĿ": 2223,
      "åīĳ": 2224,
      "è°¢": 2225,
      "è¿Ļä¹Īå¤ļ": 2226,
      "æĸ½": 2227,
      "è¿ĲèĲ¥": 2228,
      "åĨľ": 2229,
      "èİ·å¾Ĺ": 2230,
      "çģ¯": 2231,
      "æĢĿèĢĥè¿ĩç¨ĭ": 2232,
      "çľĭçīĩ": 2233,
      "éľĢæ±Ĥ": 2234,
      "çļĦå¤§": 2235,
      "çĥĪ": 2236,
      "äº®": 2237,
      "è¿ĺåľ¨": 2238,
      "æīįæĺ¯": 2239,
      "éļĲåĸ»": 2240,
      "ä¸ĥ": 2241,
      "å¸½": 2242,
      "èµĽåĮº": 2243,
      "ä»·åĢ¼": 2244,
      "âĢĿæĺ¯": 2245,
      "åª": 2246,
      "åĩ¯": 2247,
      "çļĦæĥħåĨµ": 2248,
      "å¹´ï¼Į": 2249,
      "çĹĽ": 2250,
      "é¡º": 2251,
      "é£ŀæľº": 2252,
      "æĹ¶ï¼Į": 2253,
      "èµļ": 2254,
      "ç³ĸ": 2255,
      "èĪĴ": 2256,
      "æľįåĬ¡": 2257,
      "åĲĦç§į": 2258,
      "éĹ¹éº»": 2259,
      "æħ¢": 2260,
      "ç§Ĵ": 2261,
      "æľ¬èº«": 2262,
      "èĥ½ä¸įèĥ½": 2263,
      "ç¼ºä¹ı": 2264,
      "çľŁæŃ£": 2265,
      "å¯¹è¯Ŀ": 2266,
      "éĹ®é¢ĺï¼Į": 2267,
      "è¿ĻéĩĮ": 2268,
      "åĩºçİ°": 2269,
      "åī²": 2270,
      "æķĪæŀľ": 2271,
      "é¦ĸåħĪï¼ĮæĪĳéľĢè¦ģ": 2272,
      "AD": 2273,
      "å°±è¡Į": 2274,
      "äººç±»": 2275,
      "ç®¡çĲĨ": 2276,
      "å¤įæĿĤ": 2277,
      ":5": 2278,
      "æł¹æľ¬": 2279,
      "th": 2280,
      "çĳ": 2281,
      "æĺł": 2282,
      "å°¤": 2283,
      "åĪĺ": 2284,
      "è¢ħ": 2285,
      "ãĢĤèĢĮ": 2286,
      "è·ª": 2287,
      "çĮ´": 2288,
      "å¼ºè°ĥ": 2289,
      "èĪ¹": 2290,
      "æİ§åĪ¶": 2291,
      "å¸ģ": 2292,
      "æĬ±": 2293,
      "ä»¥åıĬ": 2294,
      "å¤ªå¤ļ": 2295,
      "ala": 2296,
      "ç»Ŀå¯¹": 2297,
      "å·ħ": 2298,
      "ä¿Ħ": 2299,
      "æł¡": 2300,
      "æ³½": 2301,
      "æĪĳæĺ¯": 2302,
      "åĲĹï¼Į": 2303,
      "æµģéĩı": 2304,
      "æĹ¢": 2305,
      "æĭ³": 2306,
      "ez": 2307,
      "åĴĭ": 2308,
      "èª": 2309,
      "åĲĪçĲĨ": 2310,
      "æĺ¯è¿Ļæł·": 2311,
      "åĲİï¼Į": 2312,
      "å¤ļåħ°": 2313,
      "å°±ç®Ĺ": 2314,
      "èĪ¬": 2315,
      "è£ħå¤ĩ": 2316,
      "åĪ°åºķ": 2317,
      "ãĢĤéĹ®é¢ĺ": 2318,
      "èĥĮæĻ¯åĴĮ": 2319,
      "ä¸´": 2320,
      "æ²³": 2321,
      "åıĺåĮĸ": 2322,
      "è®°å¾Ĺ": 2323,
      "è´¢": 2324,
      "uzi": 2325,
      "è°ĥä¾ĥæĪĸ": 2326,
      "4.Ġ": 2327,
      "en": 2328,
      "æĿŁ": 2329,
      "æĪĳçľĭ": 2330,
      "è®²": 2331,
      "éĢı": 2332,
      "éĥ½åľ¨": 2333,
      "éħĴ": 2334,
      "äº§çĶŁ": 2335,
      "å·ħå³°": 2336,
      "èĹı": 2337,
      "2-": 2338,
      "æĪĺæĸĹ": 2339,
      "æŃĮ": 2340,
      "éªĹ": 2341,
      "èĦĳåŃĲ": 2342,
      "ä¸ŃæıĲåĪ°âĢľ": 2343,
      "çĶ²": 2344,
      "æīĵåĽ¢": 2345,
      "éĨĴ": 2346,
      "gala": 2347,
      "å°¼": 2348,
      "è¶£": 2349,
      "ä¸įåı¯èĥ½": 2350,
      "çĤ®": 2351,
      "æĢ§çļĦ": 2352,
      "å®¶åº": 2353,
      "éĴĪ": 2354,
      "èĵĿ": 2355,
      "èĭı": 2356,
      "çĨŁ": 2357,
      "ä»į": 2358,
      "éĢĤåĲĪ": 2359,
      "ho": 2360,
      "ä¸Ģä¸ªäºº": 2361,
      "åį¢": 2362,
      "ä¸Ĭä¸ĭ": 2363,
      "éĶĭ": 2364,
      "è¡ĮåĬ¨": 2365,
      "ä»£è¡¨": 2366,
      "sg": 2367,
      "è¿ĺè¦ģ": 2368,
      "æĪĺéĺŁ": 2369,
      "æİ¢": 2370,
      "è¯´æĺİ": 2371,
      "åį¡èİ": 2372,
      "æİĺ": 2373,
      "å¤¸å¼ł": 2374,
      "éĻĪ": 2375,
      "å¢ĵ": 2376,
      "è¡¨è¾¾äºĨå¯¹": 2377,
      "åĶ¯ä¸Ģ": 2378,
      "ti": 2379,
      "äºĨâĢľ": 2380,
      "åħ³èģĶ": 2381,
      "è½½": 2382,
      "30": 2383,
      "eĠ": 2384,
      "çĸ¯": 2385,
      "æľīä¸Ģ": 2386,
      "æ²Ł": 2387,
      "åĸĿ": 2388,
      "åħ³éĶ®è¯į": 2389,
      "hz": 2390,
      "çĽĸ": 2391,
      "æĺ¯ä¸Ģ": 2392,
      "äººå®¶": 2393,
      "éļıä¾¿": 2394,
      "æĶ¹åıĺ": 2395,
      "ä¸¢": 2396,
      "èªī": 2397,
      "±ä¹Ĳ": 2398,
      "éĤ£äºĽ": 2399,
      "ï¼Įä»¥åıĬ": 2400,
      "æİ¥ä¸ĭæĿ¥ï¼Į": 2401,
      "éĺħ": 2402,
      "å¤ĸï¼Į": 2403,
      "æ³¨æĦı": 2404,
      "çĽŁ": 2405,
      "ï¼ĮèĢĮä¸Ķ": 2406,
      "ç»¼ä¸ĬæīĢè¿°ï¼Į": 2407,
      "åıĳæĮ¥": 2408,
      "éĶĻè¯¯": 2409,
      "é¢Ŀ": 2410,
      "ä¸įæ»¡": 2411,
      "è½¯": 2412,
      "è¡¨è¾¾å¯¹": 2413,
      "sèµĽ": 2414,
      "åįł": 2415,
      "NG": 2416,
      "hy": 2417,
      "äºĨâĢĿ": 2418,
      "å¥¶æ²¹": 2419,
      "æģ¨": 2420,
      "å¡«": 2421,
      "å®ŀéĻħä¸Ĭ": 2422,
      "åĿĩ": 2423,
      "å°¤åħ¶": 2424,
      "æŀĹ": 2425,
      "rng": 2426,
      "åĪĨéĴŁ": 2427,
      "æ°¸è¿ľ": 2428,
      "çĽĹ": 2429,
      "åľ°åĮº": 2430,
      "ï¼Įå¦Ĥ": 2431,
      "ä¸İéĹ®é¢ĺ": 2432,
      "çļĦè¯Ń": 2433,
      "åıªä¼ļ": 2434,
      "å¢ŀåĬł": 2435,
      "å¤§ï¼Į": 2436,
      "ï¼Įä»İ": 2437,
      "èĪŀ": 2438,
      "éĢĥ": 2439,
      "ãĢĤãĢĤ": 2440,
      "æľīåħ³": 2441,
      "ä¹Łèĥ½": 2442,
      "åķ¦": 2443,
      "åłĤ": 2444,
      "èĩªçĦ¶": 2445,
      "è§£éĩĬ": 2446,
      "çīĽéĢ¼": 2447,
      "è½»æĿ¾": 2448,
      "è¾ĪåŃĲ": 2449,
      "åģı": 2450,
      "è¯ī": 2451,
      "åĬ³": 2452,
      "ä¿ĿæĬ¤": 2453,
      "çľģ": 2454,
      "çīĻ": 2455,
      "è¡¨ç¤º": 2456,
      "é¡»": 2457,
      "ç»ıåħ¸": 2458,
      "ç¬¬ä¸ī": 2459,
      "æķĻç»ĥ": 2460,
      "ro": 2461,
      "ä¹Ŀ": 2462,
      "ï¼Įè¢«": 2463,
      "èµ¶": 2464,
      "åĸĦ": 2465,
      "èģĬ": 2466,
      "å®£": 2467,
      "ä»¥åĲİ": 2468,
      "èĤ¤": 2469,
      "ï¼Įæ¯Ķ": 2470,
      "äººä»¬": 2471,
      "æĥĬ": 2472,
      "æķĻèĤ²": 2473,
      "å°±èĥ½": 2474,
      "åĥµå°¸": 2475,
      "é¦ĸåħĪï¼ĮæĪĳä»¬éľĢè¦ģæĺİç¡®": 2476,
      "ä¸įå¤Ł": 2477,
      "æĺ¾çĦ¶": 2478,
      "éŀ": 2479,
      "å¸Ĥåľº": 2480,
      "æĽ´æĸ°": 2481,
      "è¿ĩåİ»": 2482,
      "éģĵçĲĨ": 2483,
      ",åģĩ": 2484,
      "ï¼Įåħ¶": 2485,
      "æĥ³åĪ°": 2486,
      "æ½ľ": 2487,
      "éªĳ": 2488,
      "å¯Ł": 2489,
      "è§Ĵåº¦": 2490,
      "çļĦ,æĪĸæľªçŁ¥ï¼ŁčĊ": 2491,
      ",åģĩçļĦ,æĪĸæľªçŁ¥ï¼ŁčĊ": 2492,
      "ç¯": 2493,
      "æķ£": 2494,
      "èĥİæīĭ": 2495,
      "ä¼ģ": 2496,
      "æĽ¾": 2497,
      "åºĶè¯¥æĺ¯": 2498,
      "ï¼ĮåĽłæŃ¤": 2499,
      "è¿ĺæ²¡": 2500,
      "å·®ä¸įå¤ļ": 2501,
      "ä¸Ĭåİ»": 2502,
      "åŃ¦ä¹ł": 2503,
      "å«": 2504,
      "js": 2505,
      "æĪĳå°±": 2506,
      "çº³": 2507,
      "æĺ¨å¤©": 2508,
      "éĹ»": 2509,
      "ï¼ĮåıĪ": 2510,
      "å©ļ": 2511,
      "å¯¹äºİ": 2512,
      "åĿļ": 2513,
      "åĿ¦": 2514,
      "ä¸įçĶ¨": 2515,
      "æĸ©": 2516,
      "ç´¢": 2517,
      "åĩºäºĨ": 2518,
      "æĺİçĻ½": 2519,
      "åĪ«çļĦ": 2520,
      "å¤ªå®Ī": 2521,
      "æ°´é¬¼": 2522,
      "æİĺå¢ĵ": 2523,
      "èĮĥ": 2524,
      "ä¸įæĥ³": 2525,
      "æ±Ł": 2526,
      "ä¸ŃçļĦâĢľ": 2527,
      "jie": 2528,
      "ä¸įæķ¢": 2529,
      "çĽ¾": 2530,
      "çŃ¾": 2531,
      "èµĽæ®µ": 2532,
      "çĿ¡": 2533,
      "åĩłå¹´": 2534,
      "èĿĮ": 2535,
      "èĨ": 2536,
      "ä¸Ģæ³¢": 2537,
      "æľīäºĽ": 2538,
      "å¾ª": 2539,
      "çļĦè¡¨è¾¾": 2540,
      "å¤©ç¥ŀ": 2541,
      "èįī": 2542,
      "è¯¯è§£": 2543,
      "åī©": 2544,
      "åªĴ": 2545,
      "åħ·æľī": 2546,
      "17": 2547,
      "ä¸įä»ħ": 2548,
      "æĿ¥èĩª": 2549,
      "éŃĤ": 2550,
      "åīįæľŁ": 2551,
      "èī¯": 2552,
      "ï¼ĮåĲĮæĹ¶": 2553,
      "ä¸įä½ı": 2554,
      "åı¯èĥ½åľ¨": 2555,
      "çĪ½": 2556,
      "æĮĳæĪĺ": 2557,
      "éĹŃ": 2558,
      "2025-5-18": 2559,
      "è¯Ŀé¢ĺ": 2560,
      "åĢĻéĢī": 2561,
      "å¨ľ": 2562,
      "åıįæĺł": 2563,
      "ä¼¼ä¹İåľ¨": 2564,
      "åĳľ": 2565,
      "æĮĤ": 2566,
      "åĿĲ": 2567,
      "ç¼ĸ": 2568,
      "è¦ģæ±Ĥ": 2569,
      "ç«ł": 2570,
      "ä»»åĬ¡": 2571,
      "è¡£": 2572,
      "æ³°": 2573,
      "çĽ®æłĩ": 2574,
      "æļ´æ¯Ļ": 2575,
      "äººçī©": 2576,
      "ä½łè¯´": 2577,
      "ç§Ģ": 2578,
      "å®ĥä»¬": 2579,
      "ä»ĺ": 2580,
      "å¹ķ": 2581,
      "è§Ĵèī²": 2582,
      "å±ŀäºİ": 2583,
      "å¼ºï¼Į": 2584,
      "èļª": 2585,
      "èĿĮèļª": 2586,
      "ä½Ļ": 2587,
      "æ´Ľ": 2588,
      "4-": 2589,
      "ï¼ģï¼ģ": 2590,
      "èº«ä»½": 2591,
      "åŁºäºİ": 2592,
      "åı³": 2593,
      "è®©æĪĳ": 2594,
      "é¾Ł": 2595,
      "å¾Īéļ¾": 2596,
      "æľĢç»Ī": 2597,
      "å·®è·Ŀ": 2598,
      "æĭį": 2599,
      "æģĲ": 2600,
      "ä»ĸä»¬çļĦ": 2601,
      "çĺ": 2602,
      "æįķ": 2603,
      "çİīçİīï¼Į": 2604,
      "åłĨ": 2605,
      "ap": 2606,
      "åį¡èİİ": 2607,
      "éĥ½æ²¡æľī": 2608,
      "åºľ": 2609,
      "ï¼ĮèĢĮâĢľ": 2610,
      "è¯ģæĺİ": 2611,
      "ç»¿": 2612,
      "èĲ¥éĶĢ": 2613,
      "æıĲåįĩ": 2614,
      "è§ĤçĤ¹": 2615,
      "åĳ¢ï¼Ł": 2616,
      "åºı": 2617,
      "å¿ħé¡»": 2618,
      "åŃķ": 2619,
      "å¾Ĺåĩº": 2620,
      "æķ´ä¸ª": 2621,
      "40": 2622,
      "æĺ¯ä¸ª": 2623,
      "æĢ»æĺ¯": 2624,
      "åıĹåĪ°": 2625,
      "ä¸ĢæĿ¡": 2626,
      "25": 2627,
      "ç¡®è®¤": 2628,
      "ç»ĵæĿŁ": 2629,
      "åģĩè®¾": 2630,
      "åĶĲ": 2631,
      "ä¸Ģå®ļçļĦ": 2632,
      "è°±": 2633,
      "ç¬ĳå·Ŀ": 2634,
      "ä¼Ļ": 2635,
      "çĮ«": 2636,
      "çİĽ": 2637,
      "çļĦåĲ«ä¹ī": 2638,
      "æķ´ä½ĵ": 2639,
      "ä¼łç»Ł": 2640,
      "æĪĳè¯´": 2641,
      "ä¸Ĭï¼Į": 2642,
      "çĦ¶èĢĮï¼Į": 2643,
      "æīĵå®Į": 2644,
      "éĥ½è¦ģ": 2645,
      "æ¨¡å¼ı": 2646,
      "3-": 2647,
      "å¿ĥçĲĨ": 2648,
      "ä½Ľ": 2649,
      "æ¯ķç«Ł": 2650,
      "åĨ³å®ļ": 2651,
      "é¦ĸåħĪï¼ĮéĹ®é¢ĺ": 2652,
      "è´´åĲ§çĶ¨æĪ·": 2653,
      "åºŁ": 2654,
      "åŃ¦çĶŁ": 2655,
      "çļ®èĤ¤": 2656,
      "èį£èªī": 2657,
      "ä¸įå¾Ĺ": 2658,
      "è¾Ľ": 2659,
      "çľĭčĊ": 2660,
      "ï¼Įç»ĵæŀľ": 2661,
      "æ´¾": 2662,
      "è¿ĲåĬ¨": 2663,
      "é¢ĨåŁŁ": 2664,
      "âĢ¦âĢ¦": 2665,
      "hle": 2666,
      "ä¸¥éĩį": 2667,
      "å°½åĬĽ": 2668,
      "äºļè¿Ĳ": 2669,
      "ä¼Ł": 2670,
      "å§Ĳ": 2671,
      "æĺİæĺŁ": 2672,
      "ç»ıéªĮ": 2673,
      "æ¦Ĥçİĩ": 2674,
      "éĿ¢å¯¹": 2675,
      "VP": 2676,
      "ä¹Łæľī": 2677,
      "éģĵå¾·": 2678,
      "æ³ķå¾ĭ": 2679,
      "æī¾åĪ°": 2680,
      "åıįæŃ£": 2681,
      "ç»Ļä»ĸ": 2682,
      "eng": 2683,
      "åį«": 2684,
      "è´´åĲ§çĶ¨æĪ·_": 2685,
      "æ£®": 2686,
      "çĶ±äºİ": 2687,
      "äºĨä¸ª": 2688,
      "æĭ¥": 2689,
      "æĢ§ï¼Į": 2690,
      "èľ": 2691,
      "æ±ł": 2692,
      "æī¹è¯Ħ": 2693,
      "å®ŀè¯Ŀ": 2694,
      "çŃĸçķ¥": 2695,
      "é²ľ": 2696,
      "æ¸¯": 2697,
      "ä½ĵç³»": 2698,
      "éĽ¨": 2699,
      "å°±ä¼ļ": 2700,
      "åľ¨åĵª": 2701,
      "çĶ¨äºİ": 2702,
      "å®¢æĪ·": 2703,
      "æĿĳ": 2704,
      "åĴĮçŃĶæ¡Ī": 2705,
      "èµĽåŃ£": 2706,
      "æ»ĳ": 2707,
      "åĽ¢æĪĺ": 2708,
      "é²ģ": 2709,
      "éģĩåĪ°": 2710,
      "èĶ": 2711,
      "ï¼Įæ²¡æľī": 2712,
      "è°ĵ": 2713,
      "èīº": 2714,
      "åį±": 2715,
      "å¼ºéĺŁ": 2716,
      "é¹": 2717,
      "åŃĲčĊ": 2718,
      "èĸª": 2719,
      "å¤§æĭĽ": 2720,
      "è´µ": 2721,
      "èĢģå¸Ī": 2722,
      "åŃ£åĲİ": 2723,
      "åĽ½åĨħ": 2724,
      "ç²¾ç¥ŀ": 2725,
      "èĳĹ": 2726,
      "fp": 2727,
      "å¯¹æ¯Ķ": 2728,
      "ç¥Ŀ": 2729,
      "æĶ¿çŃĸ": 2730,
      "å¥Ī": 2731,
      "åĩºåİ»": 2732,
      "çİ©æĦı": 2733,
      "é¥®": 2734,
      "MVP": 2735,
      "è´¦": 2736,
      "æįŀ": 2737,
      "èĲ¨": 2738,
      "åŃ£åĲİèµĽ": 2739,
      "äº¿": 2740,
      "æĥ³è¦ģ": 2741,
      "å¼ķåıĳ": 2742,
      "æľīæķĪ": 2743,
      "ä¹Łå°±": 2744,
      "è¿ĩæĿ¥": 2745,
      "å¾ĹåĪ°": 2746,
      "æĲľ": 2747,
      "ä¸ĵä¸ļ": 2748,
      "âĢĿè¿Ļä¸Ģ": 2749,
      "å·¥åħ·": 2750,
      "è¨Ģè®º": 2751,
      "ï¼Įåı¯èĥ½æĺ¯åľ¨": 2752,
      "çĸĹ": 2753,
      "åĬª": 2754,
      "èĪªæ¯į": 2755,
      "ï¼ĮæĹł": 2756,
      "âĢĿãĢĤè¿Ļ": 2757,
      "éĺ´": 2758,
      "éĻĢ": 2759,
      "æ®µèĲ½": 2760,
      "æ¯ıå¤©": 2761,
      "èĬ±åĳĹ": 2762,
      "åĩĨå¤ĩ": 2763,
      "éķľ": 2764,
      "æĳĨ": 2765,
      "ï¼ĮèĢĮçŃĶæ¡Ī": 2766,
      "çİ©å®¶": 2767,
      "åĽĽä¸ª": 2768,
      "çļĦä¸įæ»¡": 2769,
      "çİīçİīï¼ĮéĢĢå½¹": 2770,
      "us": 2771,
      "ï¼Įå¯¼èĩ´": 2772,
      "ï¼Įblg": 2773,
      "äº¡": 2774,
      "ï¼Łä½ł": 2775,
      "åĩĨç¡®": 2776,
      "å®ĺæĸ¹": 2777,
      "æ¤į": 2778,
      "åħ¨çĲĥ": 2779,
      "æľªæĿ¥": 2780,
      "ï¼Įåı¯": 2781,
      "æĭ¼": 2782,
      "äº§åĵģ": 2783,
      "æĺ¯åĽłä¸º": 2784,
      "åŃĲçļĦ": 2785,
      "å®¶åºŃ": 2786,
      "ï¼ĮâĢľ": 2787,
      "ä¸Ģå¹´": 2788,
      "ä¸ĢèĪ¬": 2789,
      "èĩ³äºİ": 2790,
      "åªĴä½ĵ": 2791,
      "æİ¥åıĹ": 2792,
      "åįķæĿĢ": 2793,
      "éĹ®é¢ĺçļĦèĥĮæĻ¯åĴĮ": 2794,
      "plk": 2795,
      "Ã·": 2796,
      "å¥½å¥½": 2797,
      "ing": 2798,
      "éĴĪå¯¹": 2799,
      "åıĺæĪĲ": 2800,
      "æľ¨": 2801,
      "å¯¹ä½į": 2802,
      "å®ŀçİ°": 2803,
      "èĢĮä¸Ķ": 2804,
      "æ±ī": 2805,
      "çŃīçĿĢ": 2806,
      "ï¼ģçİīçİīï¼ĮéĢĢå½¹": 2807,
      "çĽ¸ä¿¡": 2808,
      "ĠæĪĳ": 2809,
      "æĥľ": 2810,
      "éĻĢèŀº": 2811,
      "æĮĩæĮ¥": 2812,
      "è¿Ļæł·çļĦ": 2813,
      "æĨ": 2814,
      "é³": 2815,
      "åĪł": 2816,
      "çĥ§": 2817,
      "ç¨ĭåº¦": 2818,
      "è¿·": 2819,
      "åľĨ": 2820,
      "ä¸ĭçļĦ": 2821,
      "å¸¸è§Ħ": 2822,
      "èĤ¥": 2823,
      "åľ°ä½į": 2824,
      "27": 2825,
      "ä¼ĳ": 2826,
      "è§¦": 2827,
      "æľĢå¼º": 2828,
      "åĵĪåĵĪåĵĪåĵĪ": 2829,
      "åıªèĥ½è¯´": 2830,
      "æ¶Īæģ¯": 2831,
      "å»¶": 2832,
      "ç§ĳåŃ¦": 2833,
      "é¦ĸåħĪï¼ĮæĪĳéľĢè¦ģçĲĨè§£": 2834,
      "ï¼Įçľĭ": 2835,
      "çİ°ä»£": 2836,
      "ï¼ģçİīçİīï¼ĮéĢĢå½¹ï¼ģçİīçİīï¼ĮéĢĢå½¹": 2837,
      "ãĢĤâĢľ": 2838,
      "è¯ķåĽ¾": 2839,
      "æľºçļĦ": 2840,
      "çĶµç«ŀ": 2841,
      "æ¹¾": 2842,
      "å°Ĭéĩį": 2843,
      "éľŀ": 2844,
      "ä½ĵéªĮ": 2845,
      "ä¹ĭä¸Ģ": 2846,
      "æ®ĭ": 2847,
      "æ¥¼ä¸»": 2848,
      "çĵ¦": 2849,
      "JDG": 2850,
      "Â·": 2851,
      "âĢĶâĢĶ": 2852,
      "æµª": 2853,
      "or": 2854,
      "åĵ¦åĵ¦": 2855,
      "åĳĬè¯ī": 2856,
      "2.": 2857,
      "éĺħè¯»": 2858,
      "ï¼ĮæĽ´": 2859,
      "çĶµå½±": 2860,
      "ç¬Ķ": 2861,
      "çĥŁ": 2862,
      "å¸ĸåŃĲ": 2863,
      "åŃĿåŃĲ": 2864,
      "å¿į": 2865,
      "ç¬¬åĽĽ": 2866,
      "åĪ©çĽĬ": 2867,
      "èĪĴæľį": 2868,
      "è¡¡": 2869,
      "å±İ": 2870,
      "åĬªåĬĽ": 2871,
      "æīĺ": 2872,
      "åŃĻç¬ĳå·Ŀ": 2873,
      "èĥģ": 2874,
      "è§Ĥä¼Ĺ": 2875,
      "ä¸įåİ»": 2876,
      "éĢĲ": 2877,
      "âĢĿæĺ¯çľŁçļĦ": 2878,
      "äºĭæĥħ": 2879,
      "åĨłåĨĽï¼Į": 2880,
      "RNG": 2881,
      "åĺ²": 2882,
      "åĬŀæ³ķ": 2883,
      "1.": 2884,
      "èĢ³": 2885,
      "åºĹ": 2886,
      "ï¼ĮæĪĳä»¬åı¯ä»¥": 2887,
      "éŀĭ": 2888,
      "æī§": 2889,
      "éģį": 2890,
      "æīĢè°ĵ": 2891,
      "100": 2892,
      "ä»¤": 2893,
      "28": 2894,
      "å¨ģèĥģ": 2895,
      "çªģçĦ¶": 2896,
      "åıįæĺłäºĨ": 2897,
      "å¤©åĵ¥": 2898,
      "æĶ¿åºľ": 2899,
      "ãĢĤæĪĳ": 2900,
      "å±ģ": 2901,
      "è¯´æ³ķ": 2902,
      "çĶ¨è¯Ń": 2903,
      "åºĶçĶ¨": 2904,
      "ç¡®å®ļ": 2905,
      "ç¦ģ": 2906,
      "éĤ£ç§į": 2907,
      "é©±": 2908,
      "ãĥ": 2909,
      "çļĦå½±åĵį": 2910,
      "å¤§æ»¡": 2911,
      "éļĶ": 2912,
      "ç¼ĺ": 2913,
      "ä¸Ģæł·ï¼Į": 2914,
      "éħ¸": 2915,
      "ç¤¾äº¤": 2916,
      "ä¼¼ä¹İæĺ¯åľ¨": 2917,
      "æľĢå¤§": 2918,
      "åĬ£": 2919,
      "åįı": 2920,
      "éĥ½ä¼ļ": 2921,
      "æĥ¯": 2922,
      "äºĨä¸Ģä¸ª": 2923,
      "å®ģ": 2924,
      "ç»ĩ": 2925,
      "æĿ¥è¯´": 2926,
      "åĳ¢ï¼ŁčĊ": 2927,
      "èĥİçĽĺ": 2928,
      "åĵ¦ðŁĺ®": 2929,
      "å°º": 2930,
      "çļĦæĢģåº¦": 2931,
      "æįŁ": 2932,
      "æľīä¸ª": 2933,
      "ä¸ĭåİ»": 2934,
      "æĹłäºº": 2935,
      "åħĪéĶĭ": 2936,
      "ç¡®ä¿Ŀ": 2937,
      "äºĴåĬ¨": 2938,
      "å½ĵçĦ¶": 2939,
      "è¯Ńå¢ĥ": 2940,
      "çģŃ": 2941,
      "å¿½": 2942,
      "ç»ĵæŀĦ": 2943,
      "çĩ": 2944,
      "æĺ¯è°ģ": 2945,
      "çŁĽ": 2946,
      "ç«ŀäºī": 2947,
      "éģµ": 2948,
      "åĬłåħ¥": 2949,
      "35": 2950,
      "å¿Ĺ": 2951,
      "éĢłæĪĲ": 2952,
      "æ¯ıæ¬¡": 2953,
      "éļĲèº«": 2954,
      "éĹ®é¢ĺãĢĤčĊ": 2955,
      "ï¼ĮĠ": 2956,
      "ä¸ºåķ¥": 2957,
      "æ£Ĵ": 2958,
      "çĶ¨æĪ·çļĦ": 2959,
      "æİĴä½į": 2960,
      "//": 2961,
      "è¿ĺçľŁ": 2962,
      "äºĭå®ŀ": 2963,
      "é£İéĻ©": 2964,
      "ä¸Ĭä¸ĭæĸĩ": 2965,
      "åĵ¦ðŁĺ®åĵ¦ðŁĺ®": 2966,
      "?čĊ": 2967,
      "æĪĺäºī": 2968,
      "éĩįæĸ°": 2969,
      "åĪĴçº¿": 2970,
      "åĮºåĪ«": 2971,
      "åĳ¢ï¼Į": 2972,
      "çĵ·": 2973,
      "ä½łè¿Ļä¸ª": 2974,
      "æĪĸè°ĥä¾ĥ": 2975,
      "ï¼Įè¦ģ": 2976,
      "å°¬": 2977,
      "å½¢æĪĲ": 2978,
      "ä¸ĭåĪĴçº¿": 2979,
      "æģĭ": 2980,
      "è¿Ľåİ»": 2981,
      "æŃ¤å¤ĸï¼Į": 2982,
      "åĲįåŃĹ": 2983,
      "å±ĢåĬ¿": 2984,
      "æłĩåĩĨ": 2985,
      "æĪ³": 2986,
      "çĶ¨æĿ¥": 2987,
      "åĸĬ": 2988,
      "ä¼Ĭ": 2989,
      "ts": 2990,
      "æ³¡": 2991,
      "æľºåĻ¨": 2992,
      "éĩĮçļĦ": 2993,
      "èĩ³å°ĳ": 2994,
      "å®¢æĪ·ç«¯": 2995,
      "åĨ²çªģ": 2996,
      "æ¦Ĥå¿µ": 2997,
      "æ²ī": 2998,
      "æľŁå¾ħ": 2999,
      "åĨĴ": 3000,
      "è¾±": 3001,
      "blc": 3002,
      "æĢİä¹Īæł·": 3003,
      "åļ¯": 3004,
      "ä¸įåı¯": 3005,
      "âĢľæĪĳ": 3006,
      "æŃ¼": 3007,
      "éĩĮéĿ¢": 3008,
      "é«ĺçļĦ": 3009,
      "æĺ¯æľĢ": 3010,
      "æ²¡åķ¥": 3011,
      "å·¥èµĦ": 3012,
      "è´£ä»»": 3013,
      "LC": 3014,
      "éĢĨå¤©": 3015,
      "åı¶": 3016,
      "å¼ĥ": 3017,
      "è±¡å¾ģ": 3018,
      "æĿ¥äºĨ": 3019,
      "åĲİçļĦ": 3020,
      "ðŁĲ¶": 3021,
      "æĭ¥æľī": 3022,
      "æĬ¥çĤ¹éĺŁ": 3023,
      "fmvp": 3024,
      "ä¸ĳ": 3025,
      "ä¸Ńéĩİ": 3026,
      "å¤ªéĺ³": 3027,
      "å²©": 3028,
      "ä¼ģä¸ļ": 3029,
      "ï¼Įå°¤åħ¶": 3030,
      "è´¨éĩı": 3031,
      "éĵ¾": 3032,
      "åıĤä¸İ": 3033,
      "è¹Ń": 3034,
      "âĢĿæĺ¯åĲ¦": 3035,
      "åĲĪéĢĤ": 3036,
      "éĹ®é¢ĺçļĦæł¸å¿ĥï¼ļ": 3037,
      "lol": 3038,
      "åĵİ": 3039,
      "å¹¶éĿŀ": 3040,
      "èİ±": 3041,
      "å¸½åŃĲ": 3042,
      "ä¹¡": 3043,
      "å°±æĺ¯ä½ł": 3044,
      "Ġä½ł": 3045,
      "èµµ": 3046,
      "åĴĮä½ł": 3047,
      "æľĢå¤ļ": 3048,
      "ç¾Ĭ": 3049,
      "äºļåĨĽ": 3050,
      "è®Ńç»ĥ": 3051,
      "åĲ¯": 3052,
      "åĩºçļĦ": 3053,
      "av": 3054,
      "å½ĵå¹´": 3055,
      "æĿ¡ä»¶": 3056,
      "ç½ĳç»ľçĶ¨è¯Ń": 3057,
      "kt": 3058,
      "ï¼ĮèĢĮéĿŀ": 3059,
      "é©¬èĦ¸": 3060,
      "èģĶçĽŁ": 3061,
      "æķħäºĭ": 3062,
      "ï¼Įè¯´": 3063,
      "åľ°çĲĥ": 3064,
      "èĦ±": 3065,
      "æİ¨æĸŃ": 3066,
      "å°±æľī": 3067,
      "éĺ¶": 3068,
      "ä»¥ä¸ĭ": 3069,
      "çİ©ç¬ĳ": 3070,
      "åĨ·çŁ¥è¯Ĩ": 3071,
      "åŁİå¸Ĥ": 3072,
      "æīĵå¾Ĺ": 3073,
      "éĢŁåº¦": 3074,
      "éĹªçİ°": 3075,
      "è®©äºº": 3076,
      "çĶ»éĿ¢": 3077,
      "èŀį": 3078,
      "éĿ¢çļĦæ®µèĲ½": 3079,
      "Ġm": 3080,
      "ï¼Įåħ¶ä»ĸ": 3081,
      "åĽ¾çīĩ": 3082,
      "æĦıè¯Ĩ": 3083,
      "èĦ²": 3084,
      "å©´": 3085,
      "kr": 3086,
      "æīĵä¸ª": 3087,
      "èĩªçĶ±": 3088,
      "æ´ĭ": 3089,
      "è°ĥæķ´": 3090,
      "çĹĩ": 3091,
      "åŁºç¡": 3092,
      "è¶ĬåįĹ": 3093,
      "æļĹç¤ºäºĨ": 3094,
      "å®ļä¹ī": 3095,
      "æŁĲäºº": 3096,
      "ï¼Įä¸įè¿ĩ": 3097,
      "è½¬ç§»": 3098,
      "åį³ä½¿": 3099,
      "å¾Ĺåĩºç»ĵè®º": 3100,
      "ï¼Įè®¤ä¸º": 3101,
      "åķĬï¼Ł": 3102,
      "è¯Ńè¨Ģ": 3103,
      "fpx": 3104,
      "ï¼ĮçľŁ": 3105,
      "å°Ŀ": 3106,
      "æĸ°çļĦ": 3107,
      "æĦ¿æĦı": 3108,
      "ä»ĭ": 3109,
      "å¿Ĩ": 3110,
      "åİŁæĿ¥": 3111,
      "ç½Ĺæĸ¯": 3112,
      "çŁĽçĽ¾": 3113,
      "èĥ½èµ¢": 3114,
      "è®¿": 3115,
      "çľĭçĿĢ": 3116,
      "æĹłå¥Ī": 3117,
      "æıĲé«ĺ": 3118,
      "ï¼Įå°±æĺ¯": 3119,
      "éĿ©": 3120,
      "ç¢°çĵ·": 3121,
      "so": 3122,
      "æĹ§": 3123,
      "æŀģç«¯": 3124,
      "æĢĢçĸĳ": 3125,
      "ä¸ŃæıĲåĪ°": 3126,
      "ï¼īï¼Į": 3127,
      "èµĦæľ¬": 3128,
      "ï¼ĮçĤ¹": 3129,
      "ä½³": 3130,
      "æīĭæ®µ": 3131,
      "è´ŁéĿ¢": 3132,
      "å°ıäºº": 3133,
      "å°ıäºĮ": 3134,
      "åıł": 3135,
      "è¿Ľåħ¥": 3136,
      "ï¼Įå¯¹": 3137,
      "æĪĺçķ¥": 3138,
      "è¯º": 3139,
      "è¯Ĺ": 3140,
      "åı¥åŃĲ": 3141,
      "åŁºç¡Ģ": 3142,
      "çļĦæ¯ĶèµĽ": 3143,
      "æĿĲ": 3144,
      "å°±æ²¡": 3145,
      "è·Į": 3146,
      "å¦®": 3147,
      "é¡¹çĽ®": 3148,
      "è¯¾": 3149,
      "å°±çŁ¥éģĵ": 3150,
      "23å¹´": 3151,
      "ï¼ĮåĨį": 3152,
      "è¿Ļäºº": 3153,
      "çĪ¸": 3154,
      "å®ĮæĪĲ": 3155,
      "æĳĺ": 3156,
      "çłģå¤´": 3157,
      "LCK": 3158,
      "is": 3159,
      "æĪĳæĥ³": 3160,
      "ä¸ĭéĿ¢": 3161,
      "æĬĹæĬĹ": 3162,
      "ç±»ä¼¼": 3163,
      "éĩĩåıĸ": 3164,
      "hu": 3165,
      "éĿĻ": 3166,
      "æĭ¿ä¸ĭ": 3167,
      "çĽĳ": 3168,
      "æ³½ä¸½": 3169,
      "é½": 3170,
      "å¸ħ": 3171,
      "è¿ĺä¸į": 3172,
      "éĤ£ä¹Īå¤ļ": 3173,
      "éĻĲåĪ¶": 3174,
      "ç¤¼çī©": 3175,
      "çļĦéĺŁä¼į": 3176,
      "æĹ¶æľŁ": 3177,
      "pe": 3178,
      "æľĹ": 3179,
      "åĴ¬": 3180,
      "ç¥ŀäºº": 3181,
      "è¡Ĺ": 3182,
      "æ´ŀ": 3183,
      "çļĦå°±æĺ¯": 3184,
      "ä¸»æĴŃ": 3185,
      "å¯¼å¼¹": 3186,
      "éĻĨ": 3187,
      "å¿ħè¦ģ": 3188,
      "çĳŀ": 3189,
      "è¾Ľèĭ¦": 3190,
      "âĳ": 3191,
      "åĽŃ": 3192,
      "çĬ¯ç½ª": 3193,
      "æĬĺ": 3194,
      "ä¸ºâĢľ": 3195,
      "ç¦»è°±": 3196,
      "å¹»æĥ³": 3197,
      "çļĦåİŁåĽł": 3198,
      "çĤ«": 3199,
      "æĽ²": 3200,
      "çļĦï¼ŁčĊ": 3201,
      "åĬĽéĩı": 3202,
      "å½ĵåīį": 3203,
      "åĪ©äºļ": 3204,
      "ç¦»å¼Ģ": 3205,
      "å¼Łå¼Ł": 3206,
      "ï¼Įä¸Ģä¸ª": 3207,
      "åĽ¢éĺŁ": 3208,
      "åĤ»": 3209,
      "çī¹å®ļçļĦ": 3210,
      "ä¿Ħç½Ĺæĸ¯": 3211,
      "ãĢĮ": 3212,
      "æīĵåĩº": 3213,
      "æłĳ": 3214,
      "ï¼ĮæĬĬ": 3215,
      "æīĵäºĨ": 3216,
      "å¤ļä¸ª": 3217,
      "å®ļåĪ¶": 3218,
      "ç»Ħç»ĩ": 3219,
      "ï¼ĮåĮħæĭ¬": 3220,
      "çĮľ": 3221,
      "æĮģç»Ń": 3222,
      "ãĢį": 3223,
      "æĥĳ": 3224,
      "æ´ģ": 3225,
      "çİ°åľ¨çļĦ": 3226,
      "èĮ¶": 3227,
      "å±ħçĦ¶": 3228,
      "çĮ´åŃĲ": 3229,
      "ï¼Įèĥ½": 3230,
      "ç´¯": 3231,
      "é¼ĵ": 3232,
      "åĪ¤æĸŃ": 3233,
      "ãĢĤĠ": 3234,
      "æĢĴ": 3235,
      "åıįèĢĮ": 3236,
      "ç¼ĵ": 3237,
      "æ¥ļ": 3238,
      "ä½łå°±æĺ¯": 3239,
      "æĺ¥åŃ£èµĽ": 3240,
      "åħĪéĶĭèµĽ": 3241,
      "åİĤ": 3242,
      "æĬ½è±¡": 3243,
      "ç§¯æŀģ": 3244,
      "ï¼Įè¿ĺæľī": 3245,
      "è¡¨è¾¾ä¸Ģç§į": 3246,
      "è®¡åĪĴ": 3247,
      "åĹ·": 3248,
      "ï¼Įæ¯Ķå¦Ĥ": 3249,
      "èİ·åıĸ": 3250,
      "edg": 3251,
      "æı´": 3252,
      "ä¸»ä¹ī": 3253,
      "åĩłå¤©": 3254,
      "ãĢĤä½Ĩ": 3255,
      "ç¤¾åĮº": 3256,
      "åĭĩ": 3257,
      "å®¤": 3258,
      "ç§ĺ": 3259,
      "ç»ıåİĨ": 3260,
      "ä¸īå¹´": 3261,
      "é£ŀè¡Į": 3262,
      "ä¸ĸçķĮç¬¬ä¸Ģ": 3263,
      "è¡Įä¸ºçļĦ": 3264,
      "å®īæİĴ": 3265,
      "åħ°åįļ": 3266,
      "åİ»äºĨ": 3267,
      "ï¼Įè¿ĻäºĽ": 3268,
      "å¹¶ä¸įæĺ¯": 3269,
      "è¿Ŀ": 3270,
      "ãĢĤæīĢä»¥": 3271,
      "éĹ®é¢ĺï¼ļâĢľ": 3272,
      "éĩİè¾ħ": 3273,
      "æĿ¥è¶Ĭ": 3274,
      "åĬ¨æľº": 3275,
      "æ¶²": 3276,
      "è¯´äºĨ": 3277,
      "é¡µ": 3278,
      "äº¤æµģ": 3279,
      "å°¾": 3280,
      "ä»ĸæĺ¯": 3281,
      "èĦı": 3282,
      "åĿ¨": 3283,
      "æ½®": 3284,
      "åĪ©çĶ¨": 3285,
      "âĢĿï¼Įè¿Ļè¡¨æĺİ": 3286,
      "ä¸įç®Ĺ": 3287,
      "åº§": 3288,
      "æ°Ľ": 3289,
      "ï¼ĮèĢĮçŃĶæ¡ĪåĪĻ": 3290,
      "ä¸įå¤ª": 3291,
      "éĤ£æł·": 3292,
      "æ¸ħç®Ĺ": 3293,
      "èĽĨ": 3294,
      "æĢ§èĥ½": 3295,
      "ä¸İâĢľ": 3296,
      "é¾Ħ": 3297,
      "ä¸įæĩĤ": 3298,
      "ä¸ĭéĿ¢çļĦ": 3299,
      "éľĩ": 3300,
      "æ»´": 3301,
      "æĽ´å¥½": 3302,
      "éļ¾éģĵ": 3303,
      "è¯·éĹ®": 3304,
      "å§Ĩ": 3305,
      "é£İæł¼": 3306,
      "ä¾Ŀèµĸ": 3307,
      "ä¸ĭåĪĴçº¿å¤Ħ": 3308,
      "è´¡": 3309,
      "æ¯Ķåĸ»": 3310,
      "çĬ¬": 3311,
      "ç§ĳæĬĢ": 3312,
      "æ½ĺ": 3313,
      "å°±è¦ģ": 3314,
      "ðŁ¤": 3315,
      "è®¸åĵ¥": 3316,
      "âĢĿåı¯èĥ½æĺ¯æĮĩ": 3317,
      "29": 3318,
      "ok": 3319,
      "ï¼ĮæĢİä¹Ī": 3320,
      "å®¡": 3321,
      "å¯Ħ": 3322,
      "æĺİå¤©": 3323,
      "åħĭæĸ¯": 3324,
      "çļĦå°ı": 3325,
      "è¿ª": 3326,
      "çľĭä¼¼": 3327,
      "éĹ®é¢ĺåĴĮçŃĶæ¡Ī": 3328,
      "æĹ¶ä»£": 3329,
      "åķĬåķĬ": 3330,
      "ä¸¤æĬĬ": 3331,
      "çĦ¦": 3332,
      "åħ¶ä¸Ń": 3333,
      "åºĶå¯¹": 3334,
      "æ»¡è¶³": 3335,
      "2025-5-16": 3336,
      "åĳ¼åĲ¸": 3337,
      "am": 3338,
      "å¹¸": 3339,
      "åĲĪä½ľ": 3340,
      "æ®¡": 3341,
      "åħ·å¤ĩ": 3342,
      "æĺ¾å¾Ĺ": 3343,
      "ç¬¬äºĮæĬĬ": 3344,
      "å¹¿åĳĬ": 3345,
      "åį°è±¡": 3346,
      "è·ªä¸ĭ": 3347,
      "ç¯ĩ": 3348,
      "åģ¶": 3349,
      "æĭīæĸ¯": 3350,
      "èįĴ": 3351,
      "ç©ºéĹ´": 3352,
      "è¶ĬæĿ¥è¶Ĭ": 3353,
      "æ£Ģ": 3354,
      "çļĦåĨħå®¹": 3355,
      "ä¸įç®¡": 3356,
      "åį·": 3357,
      "é¢ľ": 3358,
      "å¼ĢåĽ¢": 3359,
      "æİª": 3360,
      "ï¼Įä¸įçĦ¶": 3361,
      "geng": 3362,
      "éĢĶ": 3363,
      "åĽĽå¼º": 3364,
      "ä¸įåĲĮçļĦ": 3365,
      "ä¾ĭå¦Ĥ": 3366,
      "åħļ": 3367,
      "å±ı": 3368,
      "ä¼ĺåĮĸ": 3369,
      "åŃ¤": 3370,
      "åĩŃ": 3371,
      "åºĵ": 3372,
      "ä¸ĬéĻĲ": 3373,
      "çľĭäºĨ": 3374,
      "æĭĸ": 3375,
      "æľīå¤ļ": 3376,
      "ä¸ĬæĿ¥": 3377,
      "é£İè¯Ħ": 3378,
      "é¦ĸåħĪï¼ĮåĪĨæŀĲ": 3379,
      "å¸¸è§ĦèµĽ": 3380,
      "MS": 3381,
      "ï¼Įè¿ĺæĺ¯": 3382,
      "ï¼Įä»ĸä»¬": 3383,
      "å®Ĺ": 3384,
      "åĬ±": 3385,
      "ä»Ģä¹ĪæĹ¶åĢĻ": 3386,
      "æľīéģĵçĲĨ": 3387,
      "å¤§åŃ¦": 3388,
      "æİĮ": 3389,
      "åĵ¥ä»¬": 3390,
      "ç¢İ": 3391,
      "å¦¹å¦¹": 3392,
      "æŁĵ": 3393,
      "çĮ®": 3394,
      "éĻĪè¿°": 3395,
      "çļĦåĽŀåºĶ": 3396,
      "æĪª": 3397,
      "æīĵæ³ķ": 3398,
      "ä¹łæĥ¯": 3399,
      "åĳľåĳľ": 3400,
      "ä¸įçĦ¶": 3401,
      "å¼ºçļĦ": 3402,
      "é¸¡èĽĭ": 3403,
      "çĪ·": 3404,
      "éª¨": 3405,
      "æ¤įçī©": 3406,
      "ban": 3407,
      "âĢĿčĊ": 3408,
      "è¯´æĺ¯": 3409,
      "æ¶Īè´¹": 3410,
      "çĶŁäº§": 3411,
      "åħŃä»£": 3412,
      "çłĶåıĳ": 3413,
      "ç£¨": 3414,
      "55": 3415,
      "éĥ½è¢«": 3416,
      "è¯´å®ŀè¯Ŀ": 3417,
      "2022-": 3418,
      "çĸ¾": 3419,
      "æĹħ": 3420,
      "åĩĢ": 3421,
      "å¹´è½»": 3422,
      "éļľ": 3423,
      "éķ¿æľŁ": 3424,
      "è´·": 3425,
      "çĤ¹ï¼Į": 3426,
      "èĪĶ": 3427,
      "æ±ĩ": 3428,
      "ä»įçĦ¶": 3429,
      "å¤§æ»¡è´¥": 3430,
      "çľĭèµ·æĿ¥": 3431,
      "éľ¸": 3432,
      "éĶģ": 3433,
      "såĨł": 3434,
      "çļĦæĪĲè¯Ń": 3435,
      "è¿Ł": 3436,
      "åĲĬ": 3437,
      "èĪĨ": 3438,
      "æĭ¿äºĨ": 3439,
      "åĩıå°ĳ": 3440,
      "1-": 3441,
      "ï¼Įåħ¨": 3442,
      "æĺ¯åĲ§čĊ": 3443,
      "äºĨï¼ĮæĪĳ": 3444,
      "æĭīå¤«": 3445,
      "æĹ©å°±": 3446,
      "èĪĨè®º": 3447,
      "co": 3448,
      "æ¬º": 3449,
      "ä¾µ": 3450,
      "èĥ¡": 3451,
      "ç¼©": 3452,
      "ä¸įåľ¨": 3453,
      "åİĮ": 3454,
      "æĸ°éĹ»": 3455,
      "æ¯ıä¸ª": 3456,
      "åĩ¡": 3457,
      "å¯¹æīĭ": 3458,
      "ðŁĳ": 3459,
      "åı¯ä»¥æİ¨æĸŃ": 3460,
      "çļĦæĥħç»ª": 3461,
      "èĢĲ": 3462,
      "æīĵèĥİ": 3463,
      "éģŃ": 3464,
      "æı¡": 3465,
      "éĹ®é¢ĺçļĦæł¸å¿ĥåľ¨äºİ": 3466,
      "htt": 3467,
      "ä¿±ä¹Ĳ": 3468,
      "æįı": 3469,
      "çĶŁåĳ½": 3470,
      "ðŁĩ": 3471,
      "èĮĤ": 3472,
      "çļĦè¯Ńæ°Ķ": 3473,
      "éģµå¾ª": 3474,
      "ä¿±ä¹Ĳéĥ¨": 3475,
      "ä¸įåĩº": 3476,
      "å¼Ħ": 3477,
      "å¤§èħ¿": 3478,
      "ä¼ļè¢«": 3479,
      "ä¸¤å¹´": 3480,
      "èī¾": 3481,
      "çļĦä¸ľè¥¿": 3482,
      "è¿İ": 3483,
      "ä¸Ģéĺµ": 3484,
      "æĪĸè®½åĪº": 3485,
      "ãĢģâĢľ": 3486,
      "èģļ": 3487,
      "è£Ĥ": 3488,
      "éĵ¶è¡Į": 3489,
      "ä¸įä¸Ĭ": 3490,
      "æķı": 3491,
      "å¦ĸ": 3492,
      "å¥½čĊ": 3493,
      "æıĲåĩº": 3494,
      "æŃ»čĊ": 3495,
      "åĽŀçŃĶâĢľ": 3496,
      "æĲŀç¬ĳ": 3497,
      "æĳĺè¦ģ": 3498,
      "ä¼¦": 3499,
      "æĢİä¹ĪåĬŀ": 3500,
      "åĩłæĬĬ": 3501,
      "åĦĴ": 3502,
      "éħįåĲĪ": 3503,
      "è¾£": 3504,
      "æľ¬è´¨": 3505,
      "æľºåĪ¶": 3506,
      "åĨłåĨĽčĊ": 3507,
      "è§Ĩéĩİ": 3508,
      "æĬ¥çĤ¹éĺŁæĬ¥çĤ¹éĺŁ": 3509,
      "äººæ°ĳ": 3510,
      "åıĳæĿ¡": 3511,
      "çĿĽ": 3512,
      "å¼ºåº¦": 3513,
      "éļ¾ä»¥": 3514,
      "çŀİ": 3515,
      "http": 3516,
      "ãĢĲ": 3517,
      "æĦıåĽ¾": 3518,
      "èĢħçļĦ": 3519,
      "ï¼ĮçĤ¹åĩ»": 3520,
      "ht": 3521,
      "äºĨï¼Įè¿Ļ": 3522,
      "åıĳèĤ²": 3523,
      "å¼ºçĥĪ": 3524,
      "èĻ«": 3525,
      "å£ģ": 3526,
      "æĶ¾å¼Ģ": 3527,
      "ï¼ŀ": 3528,
      "åĭ¾": 3529,
      "ï¼Įå°Ĩ": 3530,
      "å°ļ": 3531,
      "ðŁį": 3532,
      "ka": 3533,
      "ï¼Įè°ģ": 3534,
      "ä¸įéĶĻ": 3535,
      "å¤ıåŃ£èµĽ": 3536,
      "æĻ®éĢļ": 3537,
      "solo": 3538,
      "3:": 3539,
      "ï¼Įå°ı": 3540,
      "ãĢĳ": 3541,
      "ä¹ĭè·¯": 3542,
      "åľºæĻ¯": 3543,
      "è±Ĩ": 3544,
      "åĺİ": 3545,
      "æ¾¡": 3546,
      "ï¼Įä¸įæĺ¯": 3547,
      "ãĢĤä½ł": 3548,
      "æıĲéĨĴ": 3549,
      "æ¡£": 3550,
      "æĭ¿åĪ°": 3551,
      "æıĲä¾ĽçļĦ": 3552,
      "éĽĢ": 3553,
      "è±ª": 3554,
      "ï¼īčĊ": 3555,
      "çĭ¼": 3556,
      "ä¸įå°±æĺ¯": 3557,
      "ðŁı": 3558,
      "çĽ¸å¯¹": 3559,
      "åĬ²": 3560,
      "è¶ħçº§": 3561,
      "èħĲ": 3562,
      "ä¹±æĸĹ": 3563,
      "æģ°": 3564,
      "æĿ¡ï¼ĮçĤ¹åĩ»": 3565,
      "æĪĳä¹Łè¯´ä¸Ģåı¥è¿ĺæľī": 3566,
      "æŁ¥çľĭčĊ": 3567,
      "çĮªå¦¹": 3568,
      "å¯»æĢĿ": 3569,
      "é²ģæĸ¯": 3570,
      "æĿ¡ï¼ĮçĤ¹åĩ»æŁ¥çľĭčĊ": 3571,
      "çĶµåŃĲ": 3572,
      "èĥľçİĩ": 3573,
      "sĠ": 3574,
      "å¤§çİĭ": 3575,
      "èĢĮå·²": 3576,
      "è£¤": 3577,
      "çĵľ": 3578,
      "å°Ŀè¯ķ": 3579,
      "ta": 3580,
      "çĶŁçī©": 3581,
      "åĶ±": 3582,
      "80": 3583,
      "ï¼ĮæľĢ": 3584,
      "ä¸Ģçľ¼": 3585,
      "ç®Ĺæĺ¯": 3586,
      "æĭħå¿ĥ": 3587,
      "çļĦäºĭæĥħ": 3588,
      "å½¢è±¡": 3589,
      "æľīçļĦ": 3590,
      "æĥ©": 3591,
      "ç¬¬äºĶ": 3592,
      "åı¯èĥ½æĺ¯ä¸Ģç§į": 3593,
      "èĬĤçĽ®": 3594,
      "ï¼Įå¹¶ä¸Ķ": 3595,
      "æĻºèĥ½": 3596,
      "åīįéĿ¢": 3597,
      "æĽ´åĬł": 3598,
      "èĭ¥": 3599,
      "çľŁæĺ¯ä¸ª": 3600,
      "ä¸¾æĬ¥": 3601,
      "æ²ŁéĢļ": 3602,
      "¤Ĳ": 3603,
      "ï½": 3604,
      "ä¸Ģåľº": 3605,
      "åĪ¶éĢł": 3606,
      "ä¸»è¦ģæĺ¯": 3607,
      "ao": 3608,
      "äºĨï¼Įä½ł": 3609,
      "æĢ§ãĢĤ": 3610,
      "å¤§éĩı": 3611,
      "ä»ĸäºº": 3612,
      "ä¸įèµ·": 3613,
      "æ¯«": 3614,
      "çľĭçļĦ": 3615,
      "å¦»": 3616,
      "æĸŃæīĭ": 3617,
      "çľ¼çĿĽ": 3618,
      "åĲ¸å¼ķ": 3619,
      "äººåı£": 3620,
      "å¹¶æ²¡æľī": 3621,
      "ï¼Īå¦Ĥ": 3622,
      "éĵľ": 3623,
      "è¿Ļæł·è¯´": 3624,
      "åıĮæĸ¹": 3625,
      "å¿ħå®ļ": 3626,
      "å£°éŁ³": 3627,
      "ä¹³": 3628,
      "âĢĿãĢģâĢľ": 3629,
      "æīĵæĪĲ": 3630,
      "æ³¢æ¯Ķ": 3631,
      "åģĩè®¾âĢľ": 3632,
      "è¿«": 3633,
      "äºĨåĲ§": 3634,
      "åĲī": 3635,
      "çİ°åľº": 3636,
      "è®¤è¯Ĩ": 3637,
      "é¡¾": 3638,
      "èºº": 3639,
      "åı°æ¹¾": 3640,
      "åĪĽéĢł": 3641,
      "èĮĤåĩ¯": 3642,
      "BG": 3643,
      "ï¼Įéģ¿åħį": 3644,
      "ä¸įå°±": 3645,
      "åºĨ": 3646,
      "ä½ľåĵģ": 3647,
      "ç©·": 3648,
      "æ½ĺæ£®": 3649,
      "ï¼ĮçĽ´æİ¥": 3650,
      "åĴ¯": 3651,
      "æĪĺç»©": 3652,
      "çĥŃåº¦": 3653,
      "é¡¶çº§": 3654,
      "ï¼Įéĥ½": 3655,
      "èĩªæĪĳ": 3656,
      "ðŁĴ": 3657,
      "éĴ¢": 3658,
      "åĩºæĿ¥çļĦ": 3659,
      "éĹ®é¢ĺçļĦçŃĶæ¡ĪâĢľ": 3660,
      "ä¸įè¯´": 3661,
      "æ±¤": 3662,
      "æķ°éĩı": 3663,
      "ï¼ĮæĦŁè§ī": 3664,
      "æĪ´": 3665,
      "æĿ¥è¯´ï¼Į": 3666,
      "å¿Ļ": 3667,
      "çĸ¼": 3668,
      "èĮĥåĽ´": 3669,
      "ff": 3670,
      "æĸ¹åĲĳ": 3671,
      "å·®å¼Ĥ": 3672,
      "èµļéĴ±": 3673,
      "com": 3674,
      "èĩªä¿¡": 3675,
      "åįķçº¯": 3676,
      "è§Ĥå¯Ł": 3677,
      "éģĹ": 3678,
      "æŃ»äºĨ": 3679,
      "åıĺæĢģ": 3680,
      "åĢ¼å¾Ĺ": 3681,
      "çİ¯èĬĤ": 3682,
      "çĪ¶æ¯į": 3683,
      "éªĳå£«": 3684,
      "EDG": 3685,
      "eus": 3686,
      "çľĭè§ģ": 3687,
      "åŃĻçĭĹ": 3688,
      "bu": 3689,
      "vy": 3690,
      "æıĴ": 3691,
      "æ·ĺ": 3692,
      "æĸĮ": 3693,
      "çĲĨæĢ§": 3694,
      "åŃ¦æł¡": 3695,
      "éķĩ": 3696,
      "éĩĳéĩı": 3697,
      "å´©": 3698,
      "æĬĸ": 3699,
      "è¿ĩäºİ": 3700,
      "å¿ĥæĢģ": 3701,
      "36": 3702,
      "ä¸ĢåłĨ": 3703,
      "éĢ®": 3704,
      "çĶµè§Ĩ": 3705,
      "ç¬¬ä¸ĢæĬĬ": 3706,
      "å¹²åĺĽ": 3707,
      "ï¼Įä»¥ä¸ĭ": 3708,
      "éĻĪè¿°ï¼ļâĢľ": 3709,
      "è²": 3710,
      "ä¸°": 3711,
      "ä¸Ģå¤©": 3712,
      "âĢĿè¿Ļåı¥è¯Ŀ": 3713,
      "ä¹Łè¦ģ": 3714,
      "åķĬï¼ŁčĊ": 3715,
      "åħ¨éĥ¨": 3716,
      "ä¸¶": 3717,
      "å°ıæĹ¶": 3718,
      "æ¡¶": 3719,
      "åĲ«éĩĳéĩı": 3720,
      "ä¼łæĴŃ": 3721,
      "è²Į": 3722,
      "://": 3723,
      "we": 3724,
      "âĢĿä¼¼ä¹İ": 3725,
      "çī¢": 3726,
      "çĪĨåıĳ": 3727,
      "æºľ": 3728,
      "æ¯ķä¸ļ": 3729,
      "å¦ĩ": 3730,
      "åī¯": 3731,
      "æį¢ä¸ª": 3732,
      "éĻ¤éĿŀ": 3733,
      "è§ĦåĪĻ": 3734,
      "çĩĥ": 3735,
      "sl": 3736,
      "âľ": 3737,
      "æĿ¥æºĲ": 3738,
      "åĨħéĥ¨": 3739,
      "è®°å½ķ": 3740,
      "çħ§çīĩ": 3741,
      "âĢĿæĪĳä»¬åı¯ä»¥æİ¨æĸŃ": 3742,
      "MSI": 3743,
      "WBG": 3744,
      "§ï¼Ł": 3745,
      "æĺ¯æľī": 3746,
      "æĺ¯æĮĩ": 3747,
      "æīĵï¼Į": 3748,
      "æĥ¨": 3749,
      "åħ¨å±Ģ": 3750,
      "æĲŃ": 3751,
      "åıĮc": 3752,
      "æł¹æį®åīį": 3753,
      "ï¼Įæĥ³": 3754,
      "âĢĿæĪĸ": 3755,
      "å¯¹ä¸ĸçķĮ": 3756,
      "æĺ¯åĲ¦æĺ¯çľŁçļĦâĢľ": 3757,
      "ç£ķ": 3758,
      "éĿ¢çļĦæ®µèĲ½ï¼Įä»¥ä¸ĭ": 3759,
      "æł¹æį®åīįéĿ¢çļĦæ®µèĲ½ï¼Įä»¥ä¸ĭ": 3760,
      "æł¹æį®åīįéĿ¢çļĦæ®µèĲ½ï¼Įä»¥ä¸ĭæĺ¯åĲ¦æĺ¯çľŁçļĦâĢľ": 3761,
      "kc": 3762,
      "ä»Ļ": 3763,
      "åĵŃ": 3764,
      "ä¸Ńæĸĩ": 3765,
      "ä½ľæĪĺ": 3766,
      "ç³»åĪĹ": 3767,
      "æĸ©æĿĢ": 3768,
      "è¿Ļæ¬¡": 3769,
      "è¿Ļæĺ¯ä¸Ģä¸ª": 3770,
      "æ³Ľ": 3771,
      "ãĢĤçĦ¶èĢĮï¼Į": 3772,
      "è¿Ļå°±æĺ¯": 3773,
      "ç»ķ": 3774,
      "å§¬": 3775,
      "çĽ¸åħ³çļĦ": 3776,
      "âĢĿæĪĳä»¬è¿Ļæł·è¯´": 3777,
      "hovy": 3778,
      "æľīéģĵçĲĨåĲĹ": 3779,
      "âĢĿæĪĳä»¬è¿Ļæł·è¯´æľīéģĵçĲĨåĲĹ": 3780,
      "åĽº": 3781,
      "è®¯": 3782,
      "æĸĩç«ł": 3783,
      "èİ«": 3784,
      "éĤ£ä¹Īä¸ĭéĿ¢çļĦ": 3785,
      "æħķ": 3786,
      "ç»Īäºİ": 3787,
      "éĹ¹éº»äºĨčĊ": 3788,
      "éĤ£ä¹Īä¸ĭéĿ¢çļĦéĻĪè¿°ï¼ļâĢľ": 3789,
      "ï¼Įå®ĥ": 3790,
      "åķĬĠ": 3791,
      "ç«¥": 3792,
      "é¦Ĩ": 3793,
      "åĦ¿åŃĲ": 3794,
      "éĹ®é¢ĺçļĦçŃĶæ¡Īæĺ¯âĢľ": 3795,
      "å¡ŀæĭīæĸ¯": 3796,
      "ç»ĳ": 3797,
      "è¾¾åĪ°": 3798,
      "æ°¸æģ©": 3799,
      "ay": 3800,
      "æł·çļĦ": 3801,
      "æīĢäºĨè§£": 3802,
      "è¶ħå¨ģ": 3803,
      "ä¸Ģç¾¤": 3804,
      "æī¯": 3805,
      "åĢį": 3806,
      "è¡¨æĥħ": 3807,
      "åħ«å¼º": 3808,
      "å¯»æī¾": 3809,
      "æ¬§æ´²": 3810,
      "åĵ¦ðŁĺ§ï¼Ł": 3811,
      "ä»¥ä¸Ĭæııè¿°": 3812,
      "tian": 3813,
      "æĪĲæľ¬": 3814,
      "æĹłè®º": 3815,
      "ï¼Įè¿Ļæĺ¯": 3816,
      "æĥħå¢ĥ": 3817,
      "äºķ": 3818,
      "å¹º": 3819,
      "ight": 3820,
      "èĭ±éĽĦæ±ł": 3821,
      "å¿ħçĦ¶": 3822,
      "è¡¨è¾¾äºĨä¸Ģç§į": 3823,
      "de": 3824,
      "ur": 3825,
      "éĥ½çŁ¥éģĵ": 3826,
      "ä»ħä½¿çĶ¨": 3827,
      ",éĶĻè¯¯": 3828,
      "ï¼ĮåĴĮ": 3829,
      "ï¼ĮèĻ½çĦ¶": 3830,
      "ä»ĩ": 3831,
      "çĪ¬": 3832,
      ",æĪĸæľªçŁ¥ï¼ŁčĊ": 3833,
      "æŃ£ç¡®,éĶĻè¯¯": 3834,
      "åĴĮä½łå¯¹ä¸ĸçķĮ": 3835,
      "æīĢäºĨè§£çļĦ,": 3836,
      "ä»¥ä¸Ĭæııè¿°åĴĮä½łå¯¹ä¸ĸçķĮ": 3837,
      "ä»ħä½¿çĶ¨ä»¥ä¸Ĭæııè¿°åĴĮä½łå¯¹ä¸ĸçķĮ": 3838,
      "æŃ£ç¡®,éĶĻè¯¯,æĪĸæľªçŁ¥ï¼ŁčĊ": 3839,
      "ä»ħä½¿çĶ¨ä»¥ä¸Ĭæııè¿°åĴĮä½łå¯¹ä¸ĸçķĮæīĢäºĨè§£çļĦ,": 3840,
      "æĪĲåĪĨ": 3841,
      "ç¥ĸ": 3842,
      "è®¤åı¯": 3843,
      "åºĶè¯¥åģĩ": 3844,
      "åĲĹï¼Łæĺ¯çļĦ,ä¸įæĺ¯,æĪĸä¹Łè®¸ï¼ŁčĊ": 3845,
      "âĢĿæĪĳä»¬åºĶè¯¥åģĩ": 3846,
      "âĢĿæĪĳä»¬åºĶè¯¥åģĩå®ļâĢľ": 3847,
      "âĢĿæł¹æį®åīįéĿ¢çļĦæ®µèĲ½ï¼Įä»¥ä¸ĭæĺ¯åĲ¦æĺ¯çľŁçļĦâĢľ": 3848,
      "ä¼ļæľī": 3849,
      "æŃ£åľ¨": 3850,
      "ä¸»åĬ¨": 3851,
      "å»ºè®¾": 3852,
      "èµ¶ç´§": 3853,
      "ï¼Įä»Ĭå¹´": 3854,
      "çļĦéĩįè¦ģ": 3855,
      "çĦ¶åĲİï¼Į": 3856,
      "è¹²": 3857,
      "åĵ¦ðŁĺ§ï¼Łåĵ¦ðŁĺ§ï¼Ł": 3858,
      "nd": 3859,
      "æľĢå¥½çļĦ": 3860,
      "è°£": 3861,
      "æĳĦ": 3862,
      "åĿ¦åħĭ": 3863,
      "å¾Ĺåĩºç»ĵè®ºï¼ļ": 3864,
      "ï¼ĮåĪ«": 3865,
      "å¤§b": 3866,
      "åıĳå¸ĥ": 3867,
      "è®©ä½ł": 3868,
      "é¡¿": 3869,
      "å¦Ĥä½ķè¯Ħä»·": 3870,
      "é¤Ĳ": 3871,
      "åĬłå¼º": 3872,
      "å¥³çļĦ": 3873,
      "çĶµèĦĳ": 3874,
      "ç»Łæ²»": 3875,
      "åĹ¨": 3876,
      "æĪĺæĸĹæľº": 3877,
      "å¢Ļ": 3878,
      "åįİçıŃ": 3879,
      "ç»¼åĲĪæĿ¥çľĭï¼Į": 3880,
      "èĥ½æīĵ": 3881,
      "äººåĳĺ": 3882,
      "ä¹Łä¸įæĺ¯": 3883,
      "é£Łçī©": 3884,
      "åĪĺç¥ŀ": 3885,
      "å°±å®Į": 3886,
      "æĥł": 3887,
      "äºĭï¼Į": 3888,
      "éĶ¤": 3889,
      "åĵªéĩĮ": 3890,
      "çĪĨçĤ¸": 3891,
      "åĢĻéĢīæĪĲè¯Ń": 3892,
      "??": 3893,
      "çļĦåľ°æĸ¹": 3894,
      "æĺ¯åħ³äºİ": 3895,
      "æ²¡ä»Ģä¹Ī": 3896,
      "å®¶éĩĮ": 3897,
      "ç¬¬ä¸Ģä¸ª": 3898,
      "è¿Ļä¸ªäºº": 3899,
      "å©Ĩ": 3900,
      "2025-5-17Ġ": 3901,
      "ï¼ŁðŁĺ": 3902,
      "å·§": 3903,
      "è¡¨éĿ¢": 3904,
      "è½°": 3905,
      "èĥĸ": 3906,
      "èĢģå®ŀ": 3907,
      "ank": 3908,
      "å®«æĸĹ": 3909,
      "å½»": 3910,
      "éĽª": 3911,
      "æĪĳä»¬çļĦ": 3912,
      "ä¸ŃåĽ½çļĦ": 3913,
      "éŁ©åįİ": 3914,
      "æĻļä¸Ĭ": 3915,
      "âĢĿæĪĳä»¬åı¯ä»¥æİ¨æĸŃâĢľ": 3916,
      "go": 3917,
      "¹ģ": 3918,
      "ç¹ģ": 3919,
      "ï¼Įå»ºè®®": 3920,
      "æľīä¸Ģä¸ª": 3921,
      "åĴĴ": 3922,
      "èĢ¶": 3923,
      "åİ¿": 3924,
      "è§ģè¿ĩ": 3925,
      "ä¸ģ": 3926,
      "å¤§ä¹±æĸĹ": 3927,
      "å¾Īå¥½": 3928,
      "å°¿åįļ": 3929,
      "ä»·æł¼": 3930,
      "åħ±åĲĮ": 3931,
      "å¯¹æĸ¹çļĦ": 3932,
      "çļĦæĸ¹å¼ıåĽŀåºĶ": 3933,
      "è·Ŀç¦»": 3934,
      "åıĻ": 3935,
      "âĢĿéĤ£ä¹Īä¸ĭéĿ¢çļĦéĻĪè¿°ï¼ļâĢľ": 3936,
      "éĻ·": 3937,
      "æ±¡": 3938,
      "å¤±è´¥": 3939,
      "èĢĥèĻĳåĪ°": 3940,
      "äº«åıĹ": 3941,
      "æİªæĸ½": 3942,
      "æĺ¯åĲ§": 3943,
      "ä¸įå°ĳ": 3944,
      "å¾¡": 3945,
      "å¤§čĊ": 3946,
      "æīĵæ¯ĶèµĽ": 3947,
      "çľŁçļĦ,åģĩçļĦ,æĪĸæľªçŁ¥ï¼ŁčĊ": 3948,
      "ï¼Įä¸İ": 3949,
      "è¿¹": 3950,
      "åĽ½çļĦ": 3951,
      "éľĢè¦ģè¿Ľä¸ĢæŃ¥": 3952,
      "åĨ³çŃĸ": 3953,
      "å¿«éĢŁ": 3954,
      "æĺ¾ç¤º": 3955,
      "åį°åº¦": 3956,
      "26": 3957,
      "ä½łè¿Ļ": 3958,
      "å¿§": 3959,
      "éĶ¡": 3960,
      "å¹³è¡¡": 3961,
      "å¥³æľĭåıĭ": 3962,
      "æĶ¶åħ¥": 3963,
      "âĢĿâĢľ": 3964,
      "éĥ½ä¸įä¼ļ": 3965,
      "åīĬ": 3966,
      "æĳ¸": 3967,
      "é¼ł": 3968,
      "å»ºç«ĭ": 3969,
      "åĽłæŃ¤ï¼Įå®ĥ": 3970,
      "ï¼Įä»İèĢĮ": 3971,
      "âĢĿæĺ¯åĲ¦éģµå¾ª": 3972,
      "do": 3973,
      "æľ«": 3974,
      "æī©": 3975,
      "çĶ¨çļĦ": 3976,
      "æĺİå¹´": 3977,
      "æıĲåīį": 3978,
      "å¸¦çĿĢ": 3979,
      "æ®Ĭ": 3980,
      "éŁ³ä¹Ĳ": 3981,
      "éĩĩè®¿": 3982,
      "ç½¢äºĨčĊ": 3983,
      "åīĳéŃĶ": 3984,
      "çĸ¯çĭĤ": 3985,
      "å¿ħå®ļæĺ¯çľŁçļĦâĢľ": 3986,
      "åĽłæŃ¤ï¼Įå®ĥå¿ħå®ļæĺ¯çľŁçļĦâĢľ": 3987,
      "jb": 3988,
      "ä¸Ģè¾ĪåŃĲ": 3989,
      "âĢĿè¿Ļä¸ª": 3990,
      "æĬ¬": 3991,
      "å¿ĥéĩĮ": 3992,
      "ç½ĳä¸Ĭ": 3993,
      "çĬ¶åĨµ": 3994,
      "åĮ»çĸĹ": 3995,
      "æĽ¿æį¢": 3996,
      "çľŁæŃ£çļĦ": 3997,
      "ï¼Įåıª": 3998,
      "æī«": 3999,
      "èĩªåĬ¨": 4000,
      "çº¿æĿĢ": 4001,
      "2025-5-17Ġ1": 4002,
      "3.": 4003,
      "çļĦéĤ£": 4004,
      "éĹ®é¢ĺčĊ": 4005,
      "å¼ĢæĶ¾": 4006,
      "èº²": 4007,
      "åĬłä¸Ĭ": 4008,
      "åħ¶ä»ĸäºº": 4009,
      "ç«ĭåľº": 4010,
      "æ¼«": 4011,
      "åļ¼": 4012,
      "æ½ľåľ¨": 4013,
      "ï¼Įä¸º": 4014,
      "ä¸ĢèĦļ": 4015,
      "âĢĿä»ħä½¿çĶ¨ä»¥ä¸Ĭæııè¿°åĴĮä½łå¯¹ä¸ĸçķĮæīĢäºĨè§£çļĦ,": 4016,
      "å¤§é¾Ļ": 4017,
      "çī¹å¾ģ": 4018,
      "ï½ŀ": 4019,
      "0.": 4020,
      "äºĨåĲ§čĊ": 4021,
      "éĹ®é¢ĺï¼ļ": 4022,
      "æ¡ĳ": 4023,
      "åĮħåĲ«": 4024,
      "åħ´è¶£": 4025,
      "âĢĿæĪĳä»¬è¿Ļæł·è¯´æľīéģĵçĲĨåĲĹâĢľ": 4026,
      "fo": 4027,
      "çłį": 4028,
      "æŃ»äº¡": 4029,
      "å¨±ä¹Ĳ": 4030,
      "è®¡ç®Ĺ": 4031,
      "æĽ¾ç»ı": 4032,
      "çļĦæĦıæĢĿ": 4033,
      "å¹´é¾Ħ": 4034,
      "çİĭæľĿ": 4035,
      "å¾Ħ": 4036,
      "å¤§æ¦Ĥçİĩ": 4037,
      "æľĢå¤§çļĦ": 4038,
      "åĽŀå®¶": 4039,
      "èīĩ": 4040,
      "è£ģ": 4041,
      "çĭ¬ç«ĭ": 4042,
      "ï¼ĮčĊ": 4043,
      "åĲĵ": 4044,
      "çĶ°": 4045,
      "åįĪ": 4046,
      "æĺ¯ä¸į": 4047,
      "å°±åĥı": 4048,
      "è¿ĺå¾Ĺ": 4049,
      "ç®Ń": 4050,
      "å·¦åı³": 4051,
      "æĽ´å¤ļçļĦ": 4052,
      "æĭ³å¤´": 4053,
      "äºĨåĲĹčĊ": 4054,
      "æľīéĻĲ": 4055,
      "çĽ²": 4056,
      "è¿ĩåº¦": 4057,
      "æĸ¹æ¡Ī": 4058,
      "èİ²": 4059,
      "ç»Łä¸Ģ": 4060,
      "æ¨¡åŀĭ": 4061,
      "jiejie": 4062,
      "ãĢĤä»ĸ": 4063,
      "èµĭ": 4064,
      "å°ıè¯´": 4065,
      "èµ¢čĊ": 4066,
      "æī°": 4067,
      "å¤§æł¸": 4068,
      "å¤ļç§į": 4069,
      "æıŃ": 4070,
      "çĲĨè®º": 4071,
      "æĦŁåıĹ": 4072,
      "æİĴåĲį": 4073,
      "çªģçł´": 4074,
      "æľºåĻ¨äºº": 4075,
      "bb": 4076,
      "ãĢĤ19": 4077,
      "èµı": 4078,
      "å°±å¼Ģå§ĭ": 4079,
      "åĴĸ": 4080,
      "æ¬²": 4081,
      "åħ¨åįİçıŃ": 4082,
      "ç¨İ": 4083,
      "eshy": 4084,
      "ï¼ĮåĲİ": 4085,
      "ä¸įåĬ¨": 4086,
      "ä¸įåĩºæĿ¥": 4087,
      "éĤ£æ³¢": 4088,
      "åĽ¢å»º": 4089,
      "é¦Ļæ¸¯": 4090,
      "çļĦï¼Ł": 4091,
      "æĹĭ": 4092,
      "éĽħ": 4093,
      "æ£ĭ": 4094,
      "åıĤåĬł": 4095,
      "ç½¢äºĨï¼Į": 4096,
      "çļĦç²īä¸Ŀ": 4097,
      "å°±å¥½": 4098,
      "åĮ¹": 4099,
      "çº¸": 4100,
      "å¯»æ±Ĥ": 4101,
      "æĿ°æĸ¯": 4102,
      "æĪĳåľ¨": 4103,
      "âĢĿåľ¨": 4104,
      "å¼ºčĊ": 4105,
      "âĢĿæĪĸâĢľ": 4106,
      "éľĢè¦ģæĺİç¡®": 4107,
      "è®©ä»ĸ": 4108,
      "ç»´æĬ¤": 4109,
      "äºļè¿Ĳä¼ļ": 4110,
      "åļ¯åļ¯": 4111,
      "çļĦå±Ģ": 4112,
      "å®ĭ": 4113,
      "âĢĿéĹ®é¢ĺï¼ļâĢľ": 4114,
      "âĢĿåĽłæŃ¤ï¼Įå®ĥå¿ħå®ļæĺ¯çľŁçļĦâĢľ": 4115,
      "å¤´ï¼Į": 4116,
      "åĩłä¹İ": 4117,
      "éķ¿çļĦ": 4118,
      "æĴŀ": 4119,
      "æ¸ħæ¥ļ": 4120,
      "é¢ĨåħĪ": 4121,
      "å¥½å¤ļ": 4122,
      "å¥³æĢ§": 4123,
      "ä¸ŃåĽ½äºº": 4124,
      "æ§½": 4125,
      "99": 4126,
      "åĩºçĶŁ": 4127,
      "æ¶¯": 4128,
      "åįģåħŃ": 4129,
      "æĬķèµĦ": 4130,
      "940": 4131,
      "èł": 4132,
      "ä¼´": 4133,
      "ä½ĵçİ°": 4134,
      "ç¬ĳè¯Ŀ": 4135,
      "å¨ĺ": 4136,
      "åĶī": 4137,
      "éĺ¶æ®µ": 4138,
      "ul": 4139,
      "æĺ¯æĪĳ": 4140,
      "åĩī": 4141,
      "éĻĦ": 4142,
      "æĴĳ": 4143,
      "ç»ĦåĲĪ": 4144,
      "SèµĽ": 4145,
      "pp": 4146,
      "æĿ¥ï¼Į": 4147,
      "ä¹Łä¼ļ": 4148,
      "æĹłéĻĲ": 4149,
      "åħ¨éĿ¢": 4150,
      "æĦŁè°¢": 4151,
      "æ³ķå¸Ī": 4152,
      "èĻ¾": 4153,
      "åĿ¤": 4154,
      "é©¾": 4155,
      "éªļ": 4156,
      "èº«ä¸Ĭ": 4157,
      "å½±åĵįåĬĽ": 4158,
      "èĪªç©º": 4159,
      "çļĦad": 4160,
      "æĪĲå°±": 4161,
      "å¥¹çļĦ": 4162,
      "å±ķç¤º": 4163,
      "åĲ¬è¯´": 4164,
      "12-": 4165,
      "ï¼Įä¸Ķ": 4166,
      "ä½łå°±": 4167,
      "ä¸¤æ¬¡": 4168,
      "é©´": 4169,
      "éĩİåĮº": 4170,
      "è®¾å¤ĩ": 4171,
      "é³Ħ": 4172,
      "âĢĿä»ħä½¿çĶ¨ä»¥ä¸Ĭæııè¿°åĴĮä½łå¯¹ä¸ĸçķĮæīĢäºĨè§£çļĦ,âĢľ": 4173,
      "ä¸įè¶³": 4174,
      "ç»·": 4175,
      "éĥ½è¯´": 4176,
      "ä¸Ĭæ¬¡": 4177,
      "åľ¨éĤ£": 4178,
      "å¯¹âĢľ": 4179,
      "çľĭæ³ķ": 4180,
      "çľĭæ¯ĶèµĽ": 4181,
      "æ³Ħ": 4182,
      "éĩĮå¥¥": 4183,
      "å¸¦æĿ¥": 4184,
      "äºīè®®": 4185,
      "å¦Īå¦Ī": 4186,
      "å²©éĽĢ": 4187,
      "èµµä¿¡": 4188,
      "âĢĿæĺ¯åĲ¦éģµå¾ªâĢľ": 4189,
      "ï¼Įèĩªå·±": 4190,
      "è°·": 4191,
      "è°Ĳ": 4192,
      "æ²¡æľīçĽ´æİ¥": 4193,
      "çģ°": 4194,
      "æ®µæĹ¶éĹ´": 4195,
      "è¯ģæį®": 4196,
      "æİ¢è®¨": 4197,
      "é½Ĳ": 4198,
      "gsl": 4199,
      "åĪĨäº«": 4200,
      "ç¨į": 4201,
      "åħ¬ä¼Ĺ": 4202,
      "ä¸ĭéĻį": 4203,
      "åıĺå¾Ĺ": 4204,
      "äºı": 4205,
      "ä¹Łå¤ª": 4206,
      "çķľ": 4207,
      "ä¸Ģæł·čĊ": 4208,
      "åĶ®": 4209,
      "æ´Ĺæ¾¡": 4210,
      "...": 4211,
      "éĹ¹éº»äºĨï¼Į": 4212,
      "çļĦèĥ½åĬĽ": 4213,
      "æľīåķ¥": 4214,
      "æĪĸä¸į": 4215,
      "æ³¥": 4216,
      "æķ°åŃĹ": 4217,
      "çļĦå¥½": 4218,
      "éĥ½å¾Ī": 4219,
      "è¢«äºº": 4220,
      "å°ıå¥¶æ²¹": 4221,
      "éļĨ": 4222,
      "èĢģæĿ¿": 4223,
      "å®Įç¾İ": 4224,
      "ä¸ºä»Ģä¹Īä¸į": 4225,
      "ï¼ĮæĹłæ³ķ": 4226,
      "å¤§ä¼Ļ": 4227,
      "æį¢äºº": 4228,
      "éŁ©åĽ½äºº": 4229,
      "ba": 4230,
      "è¿Ļä¸¤ä¸ª": 4231,
      "æĹĹ": 4232,
      "åīįæİĴ": 4233,
      "åħĪè¿Ľ": 4234,
      "èµ·çłģ": 4235,
      "åħ¬å¼Ģ": 4236,
      "æħİ": 4237,
      "ç´§å¼ł": 4238,
      "éĵ¾æİ¥": 4239,
      "g2": 4240,
      "è¿ĺè¡Į": 4241,
      "æŁĲä¸ªäºº": 4242,
      "å§Ķ": 4243,
      "è¯ļ": 4244,
      "èµĮ": 4245,
      "åĬ«": 4246,
      "ä¼ļä¸įä¼ļ": 4247,
      "æĮĩåĩº": 4248,
      "è¡Įä¸ºæĪĸ": 4249,
      "è®¸å¤ļ": 4250,
      "è§īå¾Ĺèĩªå·±": 4251,
      "æĩĴ": 4252,
      "è®¨åİĮ": 4253,
      "èĤ¯å®ļæĺ¯": 4254,
      "1.Ġ**": 4255,
      "2.Ġ**": 4256,
      "çļĦè¡¨è¾¾æĸ¹å¼ı": 4257,
      "se": 4258,
      "è´Ŀ": 4259,
      "blgçļĦ": 4260,
      "è¯Ħä¼°": 4261,
      "åĵªæĢķ": 4262,
      "ko": 4263,
      "éĺŁçļĦ": 4264,
      "å¤ĸåįĸ": 4265,
      "æĮĩè´£": 4266,
      "åħ¬å¹³": 4267,
      "å®īå¦®": 4268,
      "IP": 4269,
      "jd": 4270,
      "shy": 4271,
      "åİķ": 4272,
      "è¯´ä¸Ģ": 4273,
      "æĭŁ": 4274,
      "æ°§": 4275,
      "é¸£": 4276,
      "åı£åĲ§": 4277,
      "2025-5-14": 4278,
      "è¢ħè¢ħ": 4279,
      "æĺ¯è¿Ļæł·çļĦčĊ": 4280,
      "èīºæľ¯": 4281,
      "é³Ħé±¼": 4282,
      "æĪĴ": 4283,
      "æ¯ģ": 4284,
      "å¼Ģåıĳ": 4285,
      "2023-": 4286,
      "ä¸Ģç§įå¹½é»ĺ": 4287,
      "çĶµè¯Ŀ": 4288,
      "ç¬¬ä¸Ģæ¬¡": 4289,
      "æĺ¯åĲ¦æľī": 4290,
      "è´Ńä¹°": 4291,
      "ï¼Įåį³ä½¿": 4292,
      "é¦ĸåħĪï¼ĮæĪĳä»¬éľĢè¦ģæĺİç¡®âĢľ": 4293,
      "å®¾": 4294,
      "æĪĳä¸į": 4295,
      "çĶ³": 4296,
      "è¿ĺçľŁæĺ¯": 4297,
      "åŁ¹": 4298,
      "è±¹": 4299,
      "éĢĤåºĶ": 4300,
      "åĮĹäº¬": 4301,
      "ï¼Įåı¯ä»¥æİ¨æµĭ": 4302,
      "çľĭåĩº": 4303,
      "åĬłéĩĮå¥¥": 4304,
      "ç§ĳçĽ®": 4305,
      "è¶³å¤Ł": 4306,
      "èĨı": 4307,
      "66": 4308,
      "çļĦä¸Ģä¸ª": 4309,
      "ä»¿": 4310,
      "å¯¿": 4311,
      "åı¯æĺ¯": 4312,
      "åĽŀåİ»": 4313,
      "éŁ¦": 4314,
      "è§Ħæ¨¡": 4315,
      "ic": 4316,
      "éī": 4317,
      "å®ľ": 4318,
      "æĬĳ": 4319,
      "ä½łä¸į": 4320,
      "å¦Ļ": 4321,
      "èĩªèº«": 4322,
      "blgĠ": 4323,
      "åĥıæĺ¯": 4324,
      "æĶ¯ä»ĺ": 4325,
      "ï¼ŁĠ": 4326,
      "å¤§æĪĺ": 4327,
      "æĪĺæľ¯": 4328,
      "æĽ´æĺ¯": 4329,
      "é©¬ä¸Ĭ": 4330,
      "æľĢå¥½": 4331,
      "åĲ§åıĭ": 4332,
      "ðŁ¥": 4333,
      "åĬ¨åĬĽ": 4334,
      "åħ·ä½ĵçļĦ": 4335,
      "ï¼ĮæľĢåĲİ": 4336,
      "çļĦçľŁå®ŀ": 4337,
      "ä¸Ģè¾¹": 4338,
      "ä¼ª": 4339,
      "âĢĿãĢĤ": 4340,
      "éĺŁï¼Į": 4341,
      "æĬĬæĬĬ": 4342,
      "è¡¨è¾¾æŁĲç§į": 4343,
      "è¶ħè¿ĩ": 4344,
      "æ°ĽåĽ´": 4345,
      "s12": 4346,
      "çĶ©": 4347,
      "åľ¨è¿Ļ": 4348,
      "åıĪæĺ¯": 4349,
      "ç±į": 4350,
      "ä½İèĥ½": 4351,
      "And": 4352,
      "re": 4353,
      "å¤§éĥ¨åĪĨ": 4354,
      "éĺ»": 4355,
      "çľĭè¿ĩ": 4356,
      "ä½ĵèĤ²": 4357,
      "ä¸¤èĢħ": 4358,
      "çĽ¸å½ĵ": 4359,
      "æĤ£": 4360,
      "roid": 4361,
      "2:0": 4362,
      "è´¬": 4363,
      "åĢ¾": 4364,
      "è½¨": 4365,
      "é¢Ħæµĭ": 4366,
      "äºĨå°±": 4367,
      "åħĪçĶŁ": 4368,
      "æ±°": 4369,
      "å¤±è¯¯": 4370,
      "éī´": 4371,
      "at": 4372,
      "ãĢĤä½Ĩæĺ¯": 4373,
      "éĻª": 4374,
      "3.Ġ**": 4375,
      "åħ¹": 4376,
      "çľĭï¼Į": 4377,
      "chovy": 4378,
      "è¿Ļç¯ĩ": 4379,
      "å°±è¢«": 4380,
      "æĮĸ": 4381,
      "å®ŀåľ¨": 4382,
      "è¡Įä¸ļ": 4383,
      "ï¼Įè¿Ļå°±æĺ¯": 4384,
      "æĢ§è´¨": 4385,
      "è¿ĽæĿ¥": 4386,
      "äºĶä¸ª": 4387,
      "å¾·å·ŀ": 4388,
      "ä¿¡æģ¯ãĢĤčĊ": 4389,
      "æĥħç»ªåĮĸ": 4390,
      "æī¿è®¤": 4391,
      "æ·ĺæ±°": 4392,
      "33": 4393,
      "s8": 4394,
      "s9": 4395,
      "ãĢĤçĶ¨æĪ·": 4396,
      "åľ¨æĦı": 4397,
      "åºĬ": 4398,
      "ç¨Ģ": 4399,
      "ç¨ĭåºı": 4400,
      "æ¬§ç¾İ": 4401,
      "âĢĿæĺ¯çľŁçļĦ,åģĩçļĦ,æĪĸæľªçŁ¥ï¼ŁčĊ": 4402,
      "ä¸Ĭæµ·": 4403,
      "åı¯èĥ½çļĦ": 4404,
      "ä¿ĥ": 4405,
      "åĲ§Ġ": 4406,
      "çĶŁæ¶¯": 4407,
      "æĤĦ": 4408,
      "æļ´æīĵ": 4409,
      "åĬ£åĬ¿": 4410,
      "è¯ĳ": 4411,
      "èĢĹ": 4412,
      "å¯¹æĬĹ": 4413,
      "çī¹æ®Ĭ": 4414,
      "åĵģçīĮ": 4415,
      "æ¨ª": 4416,
      "âĢĿæĺ¯æŃ£ç¡®,éĶĻè¯¯,æĪĸæľªçŁ¥ï¼ŁčĊ": 4417,
      "Android": 4418,
      "88": 4419,
      "ï¼Įçİ©": 4420,
      "æ¡¥": 4421,
      "å¾Īå¤§": 4422,
      "æľŁéĹ´": 4423,
      "åĵ¦ï¼ŁðŁĺ": 4424,
      "Ġ15": 4425,
      "è·¯è¾¹ä¸ĢæĿ¡": 4426,
      "2025-5-18Ġ0": 4427,
      "åĵ¦ï¼ŁðŁĺ¯": 4428,
      "ï¼Įå½ĵ": 4429,
      "æŁĲäººçļĦ": 4430,
      "é«ĺï¼Į": 4431,
      "çī©è´¨": 4432,
      "10-": 4433,
      "èĥľåĪ©": 4434,
      "éªĮè¯ģ": 4435,
      "å¸¦æľīä¸Ģå®ļçļĦ": 4436,
      "æľ¬æĿ¥å°±æĺ¯": 4437,
      "åı¦å¤ĸ": 4438,
      "è¿Ļä¿©": 4439,
      "çľł": 4440,
      "èİī": 4441,
      "å°½ç®¡": 4442,
      "åıĶ": 4443,
      "åı¯æĥľ": 4444,
      "åĨħæĪĺ": 4445,
      "ä¿®å¤į": 4446,
      "åĿļæĮģ": 4447,
      "s13": 4448,
      "ä¸ĢåĪĩ": 4449,
      "æķ¬": 4450,
      "æĪĲäºĨ": 4451,
      "ï¼Įè¿Ļåı¥è¯Ŀ": 4452,
      "å¥¥æģ©": 4453,
      "è¸¢æŃ»": 4454,
      "å½»åºķ": 4455,
      "åĲĽ": 4456,
      "æīĽ": 4457,
      "æĿ¥æĽ¿æį¢": 4458,
      "æ³ī": 4459,
      "å¾ĹäºĨ": 4460,
      "å±Ĭ": 4461,
      "ï¼Įè¿Ļæł·": 4462,
      "è¿Ļä¸ªåı¥åŃĲ": 4463,
      "å¼ķèµ·": 4464,
      "è¿Ļä¸ªéĹ®é¢ĺæ¶īåıĬåĪ°": 4465,
      "4.": 4466,
      "ï¼Įç»Ļ": 4467,
      "å½ĺ": 4468,
      "å¹¶æľª": 4469,
      "çªĿ": 4470,
      "æī§è¡Į": 4471,
      "æķıæĦŁ": 4472,
      "æĺ¯ä½ł": 4473,
      "ä¸ĢåĿ¨": 4474,
      "ç»į": 4475,
      "ä¸ĬéĿ¢": 4476,
      "è§Ĩä¸º": 4477,
      "æĳ©": 4478,
      "éĢĥåħµ": 4479,
      "ï¼ģçİīçİīï¼ĮéĢĢå½¹ï¼ģçİīçİīï¼ĮéĢĢå½¹ï¼ģçİīçİīï¼ĮéĢĢå½¹ï¼ģçİīçİīï¼ĮéĢĢå½¹": 4480,
      "çĽĴ": 4481,
      "è¯´åı¥": 4482,
      "èĤĮ": 4483,
      "ç³Ĭ": 4484,
      "çī©çĲĨ": 4485,
      "çĶ·ï¼ļ": 4486,
      "æ¼ı": 4487,
      "åĵ¦ï¼ŁðŁĺ¯åĵ¦ï¼ŁðŁĺ¯": 4488,
      "st": 4489,
      "åĽ½äº§": 4490,
      "éĿ¢ä¸´": 4491,
      "èĢģå¤´": 4492,
      "AI": 4493,
      "ï¼Įè·Ł": 4494,
      "çļĦåı¯èĥ½": 4495,
      "ä¸įéľĢè¦ģ": 4496,
      "ä¹Łæ²¡æľī": 4497,
      "è°¨": 4498,
      "æ¸Ĳ": 4499,
      "èĢĥè¯ķ": 4500,
      "å¥¶é¾Ļ": 4501,
      "æ·±åħ¥": 4502,
      "éĢ®æįķ": 4503,
      "5.Ġ": 4504,
      "âĢĿæĺ¯çļĦ,ä¸įæĺ¯,æĪĸä¹Łè®¸ï¼ŁčĊ": 4505,
      "æĮ¨": 4506,
      "è¢«åĬ¨": 4507,
      "èµĦæł¼": 4508,
      "æļ´åĬĽ": 4509,
      "90": 4510,
      "å¦ĤæŃ¤": 4511,
      "èĪį": 4512,
      "æŃ£å¼ı": 4513,
      "å®³æĢķ": 4514,
      "oner": 4515,
      "xunåĵ¥": 4516,
      "ä¹Łå¾Ī": 4517,
      "ç½ļ": 4518,
      "å§¿": 4519,
      "æĲģ": 4520,
      "çĲĨè§£âĢľ": 4521,
      "åģļåĪ°": 4522,
      "æĶ¾åľ¨": 4523,
      "å·®çĤ¹": 4524,
      "çļĦæĹ¶åĢĻï¼Į": 4525,
      "å½¢å¼ı": 4526,
      "bo3": 4527,
      "åĽ°éļ¾": 4528,
      "åį±éĻ©": 4529,
      "huan": 4530,
      "OL": 4531,
      "ut": 4532,
      "æľīåı¯èĥ½": 4533,
      "äººåĵģ": 4534,
      "åı¯èĥ½ä¸İ": 4535,
      "åħ³å¿ĥ": 4536,
      "çİ©čĊ": 4537,
      "çĸ²": 4538,
      "åĪĨæŀĲçŃĶæ¡Ī": 4539,
      "ç´łè´¨": 4540,
      "åĪĽæĸ°": 4541,
      "è½¯ä»¶": 4542,
      "å¡«åĨĻ": 4543,
      "å«Į": 4544,
      "åıĻåĪ©äºļ": 4545,
      "Faker": 4546,
      "yz": 4547,
      "çļĦæĹ¶éĹ´": 4548,
      "æŃī": 4549,
      "éĤ£å°±": 4550,
      "çĤ¹èµŀ": 4551,
      "åĬ¨çī©": 4552,
      "å¸¸è§ģ": 4553,
      "ä½¿å¾Ĺ": 4554,
      "ä»¶äºĭ": 4555,
      "çģ«é¾Ļ": 4556,
      "éº¦": 4557,
      "çĨ¬": 4558,
      "è¿½æ±Ĥ": 4559,
      "çĸ¾çĹħ": 4560,
      "éªĳå£«ä¹ĭè·¯": 4561,
      "s6": 4562,
      "Ġ00": 4563,
      "çļĦéĢīæīĭ": 4564,
      "ä¸įç»Ļ": 4565,
      "åĴ±": 4566,
      "åĲĪåĲĮ": 4567,
      "çĭĲ": 4568,
      "é«ĺåº¦": 4569,
      "åįģå¹´": 4570,
      "è°ĥä¾ĥæĪĸè®½åĪº": 4571,
      "æĿ¥æĽ¿æį¢è¿Ļä¸ªåı¥åŃĲ": 4572,
      "s11": 4573,
      "æĿ¨": 4574,
      "å¤§o": 4575,
      "æľĢä½³": 4576,
      "åĬłæ²¹": 4577,
      "èģĮä¸ļéĢīæīĭ": 4578,
      "å·¨å©´": 4579,
      "æĺ¯è¿Ļæł·çļĦï¼Į": 4580,
      "avi": 4581,
      "ãĢĤé¦ĸåħĪï¼Į": 4582,
      "è®¢": 4583,
      "åĲĮæł·": 4584,
      "ç¬¬ä¸ĢèµĽæ®µ": 4585,
      "æĶ¹éĿ©": 4586,
      "å¹¿æ³Ľ": 4587,
      "æľĿé²ľ": 4588,
      "çĪ¶äº²": 4589,
      "cjb": 4590,
      "ä¸įäºĨï¼Į": 4591,
      "ä¸ĢåĲ§": 4592,
      "è¯´čĊ": 4593,
      "åı¯èĥ½æĦıåĳ³çĿĢ": 4594,
      "åĸĤ": 4595,
      "èµ¢äºĨï¼Į": 4596,
      "âĢĿæĺ¯çľŁçļĦåĲĹï¼Łæĺ¯çļĦ,ä¸įæĺ¯,æĪĸä¹Łè®¸ï¼ŁčĊ": 4597,
      "åĺ²è®½": 4598,
      "çļĦå¤ļ": 4599,
      "âĢĿåı¯èĥ½æĺ¯åľ¨": 4600,
      "æľĢé«ĺ": 4601,
      "èĽĩ": 4602,
      "å¾Īå¤ļäºº": 4603,
      "å¼±éĺŁ": 4604,
      "å®£ä¼ł": 4605,
      "æĪĲåĳĺ": 4606,
      "æĹłå°½": 4607,
      "çĶŁæĪĲ": 4608,
      "å®¶äºº": 4609,
      "ç®Ĺæ³ķ": 4610,
      "æį¢æĪĲ": 4611,
      "èħ°": 4612,
      "æ°ĳæĹı": 4613,
      "ðŁı»": 4614,
      "ï¼Įéĥ½æĺ¯": 4615,
      "æĢ¨": 4616,
      "ï¼Įåı¯èĥ½ä¼ļ": 4617,
      "æĻ®éģį": 4618,
      "ï¼Įå°¤åħ¶æĺ¯": 4619,
      "ä¸įæĺİçĻ½": 4620,
      "âĢĿçľŁçļĦ,åģĩçļĦ,æĪĸæľªçŁ¥ï¼ŁčĊ": 4621,
      "çº¿ï¼Į": 4622,
      "å¥³ï¼ļ": 4623,
      "æĺ¾èĳĹ": 4624,
      "Ġc": 4625,
      "äººä½ĵ": 4626,
      "éģĵè¯Ŀ": 4627,
      "é¢Ĩå¯¼": 4628,
      "åĭĴ": 4629,
      "ç§»åĬ¨": 4630,
      "AP": 4631,
      "Ġè¿Ļ": 4632,
      "æĺ¯ä¸ºäºĨ": 4633,
      "ä¸Ģçľĭ": 4634,
      "åĪ°çİ°åľ¨": 4635,
      "æĢ§æł¼": 4636,
      "æ¡Į": 4637,
      "ï¼Įä¸įä¼ļ": 4638,
      "æĻºåķĨ": 4639,
      "éĶ¡å®ī": 4640,
      "çļĦè¡¨çİ°": 4641,
      "ä»ģ": 4642,
      "è¿ĺä»¥ä¸º": 4643,
      "å°±æĺ¯ä¸ª": 4644,
      "æĽ¹": 4645,
      "çĽ¸æ¯Ķ": 4646,
      "binåī²": 4647,
      "ä¾ĿçĦ¶": 4648,
      "åĮ»çĶŁ": 4649,
      "åį¢éĶ¡å®ī": 4650,
      "æĹ¦": 4651,
      "å¹´å¹´": 4652,
      "ä¸»éĺŁ": 4653,
      "åħįè´¹": 4654,
      "ä»ĭç»į": 4655,
      "åĢĻéĢīæĪĲè¯Ńï¼ļ": 4656,
      "07": 4657,
      "çļĦéĥ½æĺ¯": 4658,
      "äºĨåĲĹï¼Ł": 4659,
      "ä¹Łä¸įä¼ļ": 4660,
      "åı¯èĥ½å¯¹": 4661,
      "åīĤ": 4662,
      "ç»ıè¿ĩ": 4663,
      "èĥĥ": 4664,
      "å¾ĪæŃ£å¸¸": 4665,
      "æ±Ĺ": 4666,
      "åģļåĩº": 4667,
      "2025-5-15": 4668,
      "çĻ¾åĪĨ": 4669,
      "éĩĩçĶ¨": 4670,
      "èĴĻ": 4671,
      ",Ġ": 4672,
      "âĢľä½ł": 4673,
      "èµĽäºĭ": 4674,
      "æĸĩåŃĹ": 4675,
      "åıĪä¸įæĺ¯": 4676,
      "çī¹çĤ¹": 4677,
      "æĮĩæľĽ": 4678,
      "éķ¿æĹ¶éĹ´": 4679,
      "ï¼Įä¸įèĥ½": 4680,
      "è¿Ĳæ°Ķ": 4681,
      "ç®ĢçĽ´": 4682,
      "äºĭä»¶çļĦ": 4683,
      "åħħæ»¡": 4684,
      "çĭłçĭł": 4685,
      "ï¼ĮéĢļè¿ĩ": 4686,
      "ï¼Įtes": 4687,
      "è¦ģä¹Ī": 4688,
      "æ¯Ķå¦Ĥ": 4689,
      "åĩłæ¬¡": 4690,
      "å§ĵ": 4691,
      "adc": 4692,
      "æŁĲä¸ªçī¹å®ļ": 4693,
      "æĪĳè®°å¾Ĺ": 4694,
      "çĤĴ": 4695,
      "çĸ«": 4696,
      "éĢģï¼Į": 4697,
      "å¨ĥ": 4698,
      "è¿ŀç»Ń": 4699,
      "Ġ16": 4700,
      "æĽ´æĸ°åĨħå®¹": 4701,
      "rank": 4702,
      "æĪĳéĥ½": 4703,
      "æĪĳä¼ļ": 4704,
      "åı¯çľŁæĺ¯ä¸ª": 4705,
      "æĤ²": 4706,
      "eiko": 4707,
      "åıĤèĢĥ": 4708,
      "åĹ¦": 4709,
      "æŃ£ç¡®çļĦ": 4710,
      "åĵ¦ðŁĺ®åĵ¦ðŁĺ®åĵ¦ðŁĺ®åĵ¦ðŁĺ®": 4711,
      "AL": 4712,
      "èĢ»": 4713,
      "ä¾ı": 4714,
      "èģª": 4715,
      "åĿĽ": 4716,
      "åľºéĿ¢": 4717,
      "åĪ¶åº¦": 4718,
      "è¿ŀèĥľ": 4719,
      "çªĴ": 4720,
      "æĳĩ": 4721,
      "åįĬå¹´": 4722,
      "æĮºå¥½": 4723,
      "å®Ļæ´»": 4724,
      "èĿİ": 4725,
      "ãĢĤå®ĥ": 4726,
      "æĦ¤": 4727,
      "æĢ§ãĢģ": 4728,
      "æļĤ": 4729,
      "åĨ³äºİ": 4730,
      "åıĸåĨ³äºİ": 4731,
      "æ¦ľ": 4732,
      "ä»¥ä¸ĬåĪĨæŀĲ": 4733,
      "ï¼Įä¸ºä»Ģä¹Ī": 4734,
      "ï¼Łï¼ŁčĊ": 4735,
      "å°±åı¯ä»¥": 4736,
      "åĪ°æĹ¶åĢĻ": 4737,
      "éĤĢ": 4738,
      "æĺİæĺİ": 4739,
      "è¶ĭ": 4740,
      "çĥ¦": 4741,
      "ä»İæĿ¥": 4742,
      "åĺ»": 4743,
      "æ¬¢è¿İ": 4744,
      "æºĲäºİ": 4745,
      "éĢĨé£İ": 4746,
      "åĲĲ": 4747,
      "éĢĴ": 4748,
      "è¦ģè¢«": 4749,
      "è¿ĺä¸įå¦Ĥ": 4750,
      "æīĭï¼Į": 4751,
      "åĪĨåĪ«": 4752,
      "å¼Ģå±Ģ": 4753,
      "æĪĺå£«": 4754,
      "å·¥ä¸ļ": 4755,
      "Androidå®¢æĪ·ç«¯": 4756,
      "0-": 4757,
      "5.": 4758,
      "ä¸¹": 4759,
      "éĢĹ": 4760,
      "ä½łåľ¨": 4761,
      "æīĵåĩ»": 4762,
      "æ°ı": 4763,
      "çĶŁåŃĺ": 4764,
      "ç¬ĳäºĨčĊ": 4765,
      "âĢĿåı¯èĥ½æĺ¯ä¸Ģç§į": 4766,
      "åĮ»éĻ¢": 4767,
      "éĽ¶å°ģ": 4768,
      "æĿ¥èĩªAndroidå®¢æĪ·ç«¯": 4769,
      "xx": 4770,
      "æĹłèĦĳ": 4771,
      "å¸¦åĵ¥": 4772,
      "æķ°åŃ¦": 4773,
      "ç½ĳåıĭ": 4774,
      "æĶ¹åĲį": 4775,
      "ä¸İéĹ®é¢ĺæĹłåħ³": 4776,
      "è½¬ç§»è¯Ŀé¢ĺ": 4777,
      "æĿ¥æĽ¿æį¢è¿Ļä¸ªåı¥åŃĲï¼ļčĊ": 4778,
      "VS": 4779,
      "çļĦæīĵéĩİ": 4780,
      "ä¸ŃæľŁ": 4781,
      "å¿ł": 4782,
      "æĹłæīĢè°ĵ": 4783,
      "åĪ«è¯´": 4784,
      "åı¯èĥ½æĺ¯ä¸Ģä¸ª": 4785,
      "è¯Ńæ°Ķ": 4786,
      "é»ĳåŃĲ": 4787,
      "åħ·ä½ĵåĲ«ä¹ī": 4788,
      "æĿİçĭĹ": 4789,
      "å»¶è¿Ł": 4790,
      "åĮ¹éħį": 4791,
      "èł¢": 4792,
      "ãĢĤâĢĿï¼Łæĺ¯çļĦ,ä¸įæĺ¯,æĪĸä¹Łè®¸ï¼ŁčĊ": 4793,
      "èĥ½éĩı": 4794,
      "å¤§å¸Ī": 4795,
      "ä¹Łåı¯ä»¥": 4796,
      "æĭľ": 4797,
      "åıĳåĬĽ": 4798,
      "çĲĨçĶ±": 4799,
      "èįĲ": 4800,
      "è¯įè¯Ń": 4801,
      "ç¾İåĽ½çļĦ": 4802,
      "æİ¥ä¸ĭæĿ¥ï¼ĮæĪĳéľĢè¦ģ": 4803,
      "æ¹ĸ": 4804,
      "æĮīçħ§": 4805,
      "èľľ": 4806,
      "è´¡çĮ®": 4807,
      "ä¾ıåĦĴ": 4808,
      "å®½": 4809,
      "æĭĨ": 4810,
      "ä¾§": 4811,
      "çĭ¸": 4812,
      "æ¶µ": 4813,
      "æĢĿæĥ³": 4814,
      "è·ŁçĿĢ": 4815,
      "ï¼Įä¸įçŁ¥éģĵ": 4816,
      "è½¬ä¼ļ": 4817,
      "è®°å¿Ĩ": 4818,
      "èħ¾": 4819,
      "éļıçĿĢ": 4820,
      "çļĦèĭ±éĽĦ": 4821,
      "å¤®": 4822,
      "æľīéĴ±": 4823,
      "æ²¡éĹ®é¢ĺ": 4824,
      "èĢģäºĶ": 4825,
      "ç¥Ŀç¦ı": 4826,
      "æĹłäººæľº": 4827,
      "å¤ļï¼Į": 4828,
      "è¿ĽæŃ¥": 4829,
      "åĩłä¸ªäºº": 4830,
      "åħĭåħ°": 4831,
      "æķĪçİĩ": 4832,
      "å®¢è§Ĥ": 4833,
      "åĢŁåĳĹ": 4834,
      "âĢĿåı¯èĥ½æĮĩçļĦæĺ¯": 4835,
      "æĨ¨": 4836,
      ".com": 4837,
      "ï¼Įå·¦æīĭ": 4838,
      "æŃª": 4839,
      "æ²¡åĬŀæ³ķ": 4840,
      "æĥ³è±¡": 4841,
      "ä¸īéĺµ": 4842,
      "æķħæĦı": 4843,
      "ä¸°å¯Į": 4844,
      "FP": 4845,
      "çļĦæĥħæĦŁ": 4846,
      "æľīæĹ¶åĢĻ": 4847,
      "æīĵæŀ¶": 4848,
      "åĪ¶ä½ľ": 4849,
      "ç¬ĳæŃ»": 4850,
      "èĥĮåĲİ": 4851,
      "ç»Łè®¡": 4852,
      "åĲ¸è¡Ģ": 4853,
      "3å¹´": 4854,
      "ww": 4855,
      "çļĦå·ħå³°": 4856,
      "ãĢĤåĲĮæĹ¶": 4857,
      "åĪĳ": 4858,
      "å®ĩ": 4859,
      "è¿Ļåĩłä¸ª": 4860,
      "åĴĮä¸į": 4861,
      "éĥ½æ¯Ķ": 4862,
      "æŃ§": 4863,
      "ä¸Ńå¿ĥ": 4864,
      "ç§įåŃĲ": 4865,
      "æ¶¨": 4866,
      "æĮĩä»£": 4867,
      "å¹²åĩĢ": 4868,
      "çļĦæĥħåĨµä¸ĭ": 4869,
      "é¼ĵåĬ±": 4870,
      "Ġ22": 4871,
      "åıĳåĬ¨æľº": 4872,
      "åĬĽçļĦ": 4873,
      "çİ©æ³ķ": 4874,
      "éĩĮçļĦâĢľ": 4875,
      "åĲįäºº": 4876,
      "èµĦéĩĳ": 4877,
      "ç¡®å®ŀæĺ¯": 4878,
      "ãĢĤè¿ĻäºĽ": 4879,
      "ãģ®": 4880,
      "æĥħåĨµä¸ĭ": 4881,
      "ç«ŀæĬĢ": 4882,
      "åĽ°æĥĳ": 4883,
      "é¦ĸåħĪï¼ĮæĪĳä»¬éľĢè¦ģçĲĨè§£éĹ®é¢ĺçļĦèĥĮæĻ¯åĴĮ": 4884,
      "çī¹åĪ«æĺ¯": 4885,
      "lg": 4886,
      "äººåľ¨": 4887,
      "äººå½ĺ": 4888,
      "æĬµ": 4889,
      "ä½łè¦ģ": 4890,
      "è´ª": 4891,
      "çļĦï¼Įä½Ĩ": 4892,
      "æ±½": 4893,
      "ç¥ŀè¯Ŀ": 4894,
      "æ·»": 4895,
      "ï¼Įä¸įå¦Ĥ": 4896,
      "æĴ¤": 4897,
      "ä¸ĢçĽ´åľ¨": 4898,
      "èĹ¤": 4899,
      "è¾Ľèĭ¦äºĨčĊ": 4900,
      "ï¼Įåıªæĺ¯": 4901,
      "çĶľ": 4902,
      "æīĵåĩºæĿ¥": 4903,
      "åİļ": 4904,
      "åīª": 4905,
      "çĶŁçĲĨ": 4906,
      "æĥ³çľĭ": 4907,
      "æļĸ": 4908,
      "åıĪå¼Ģå§ĭ": 4909,
      "èī²åĪĹ": 4910,
      "å¤±åİ»": 4911,
      "èĪĴæľįäºĨ": 4912,
      "ä¸ĢåįĬ": 4913,
      "æĢĸ": 4914,
      "æīĵčĊ": 4915,
      "æĭ¦": 4916,
      "å¤©èµĭ": 4917,
      "çĤ¹čĊ": 4918,
      "éĩĮï¼Į": 4919,
      "æ¶¦": 4920,
      "è®¤çľŁ": 4921,
      "æİ¨èįĲ": 4922,
      "å¤Ħäºİ": 4923,
      "ðŁĲ´": 4924,
      "æ¸ħæĻ": 4925,
      "æµ·åĨĽ": 4926,
      "åĽ½å®¶çļĦ": 4927,
      "åķĨä¸ļ": 4928,
      "å¥ĩæĢª": 4929,
      "æľīåħ³ãĢĤčĊ": 4930,
      "çº³å°Ķ": 4931,
      "å¿½è§Ĩ": 4932,
      "60": 4933,
      "han": 4934,
      "ï¼Įåİ»å¹´": 4935,
      "ä¹Łå¤Ł": 4936,
      "æģ¢": 4937,
      "æľºæŀĦ": 4938,
      "ï¼Įä½ĨæĪĳ": 4939,
      "éĢīåĩº": 4940,
      "åĲįçļĦ": 4941,
      "æ·¡": 4942,
      "èĭ±åĽ½": 4943,
      "ä¼ĺæĥł": 4944,
      "ç±»åŀĭ": 4945,
      "èĬ±çĶŁ": 4946,
      "åŁºæľ¬ä¸Ĭ": 4947,
      "ç¼ĵè§£": 4948,
      "åı¯èĥ½æĺ¯å¯¹": 4949,
      "éĩįçĤ¹": 4950,
      "èĭ±è¯Ń": 4951,
      "æıĲåĪ°äºĨâĢľ": 4952,
      "é¼»": 4953,
      "ï¼Įåĵ¥åĵ¥": 4954,
      "è¯¦": 4955,
      "åį§": 4956,
      "æľĢåĸľæ¬¢": 4957,
      "è§£è¯»": 4958,
      "æĥ³æ³ķ": 4959,
      "ç®±": 4960,
      "ä¸İçŃĶæ¡Ī": 4961,
      "å¹³æĹ¶": 4962,
      "æĹ¥å¸¸": 4963,
      "ä¹Įåħĭåħ°": 4964,
      "éļĲåĸ»æĪĸ": 4965,
      "fw": 4966,
      "ä¸įæĸŃ": 4967,
      "å°ĸ": 4968,
      "éĹ²": 4969,
      "å¯¹è±¡": 4970,
      "ä¸ĬäºĨ": 4971,
      "éĤ£å¹´": 4972,
      "å¤©çĬ¬": 4973,
      "åı¯èĥ½æĺ¯æĮĩ": 4974,
      "ä¸»é¢ĺ": 4975,
      "çĽ¸åĲĮ": 4976,
      "è·Łä½ł": 4977,
      "ï¼Įä½łä»¬": 4978,
      "æıĲä¾ĽäºĨ": 4979,
      "é»Ħéĩĳ": 4980,
      "çīĽéĢ¼čĊ": 4981,
      "1å¹´": 4982,
      "ï¼Įåıªè¦ģ": 4983,
      "è¿ħ": 4984,
      "è¿Ļæ³¢": 4985,
      "æĹģ": 4986,
      "å¤§äºİ": 4987,
      "å¤§è¶ħ": 4988,
      "è¯´ä»ĸ": 4989,
      "æĬĬä½ł": 4990,
      "çŃīãĢĤčĊ": 4991,
      "éĴ»": 4992,
      "å¤ĸåĽ½": 4993,
      "å¦Ĥæŀľæĺ¯": 4994,
      "åĲĥé¥Ń": 4995,
      "çĸĳéĹ®": 4996,
      "åĳĢčĊ": 4997,
      "krd": 4998,
      "æ¸ħæĻ°": 4999,
      "5å¹´": 5000,
      "LOL": 5001,
      "ï¼Įig": 5002,
      "æľīæľºä¼ļ": 5003,
      "åĨłï¼Į": 5004,
      "äºĮåįģ": 5005,
      "***": 5006,
      "æ¼Ĥ": 5007,
      "æ¯«æĹł": 5008,
      "ï¼Įå¤ª": 5009,
      "ï¼ĮçŃī": 5010,
      "ï¼Įä¹Łæĺ¯": 5011,
      "å¼¯": 5012,
      "å·¡": 5013,
      "åĽŀåĪ°": 5014,
      "ãĢĤè¿Ļè¡¨æĺİ": 5015,
      "ä¸Ģå®ļè¦ģ": 5016,
      "äºĭä»¶æĪĸ": 5017,
      "ĠĠĠĠ": 5018,
      "éĺ²å¾¡": 5019,
      "éĻįä½İ": 5020,
      "è¡£æľį": 5021,
      "æģĲæĢĸ": 5022,
      "æıĲä¾ĽçļĦçŃĶæ¡Ī": 5023,
      "çļĦç»ĵæŀľ": 5024,
      "è¿ĻæĿ¡": 5025,
      "ç§Ł": 5026,
      "åĩºéģĵ": 5027,
      "ä»Ģä¹Īï¼ŁčĊ": 5028,
      "èĦĨ": 5029,
      "åĨįæ¬¡": 5030,
      "çļĩæĿĤ": 5031,
      "idi": 5032,
      "theshy": 5033,
      "ä¼ŀ": 5034,
      "å¸Ń": 5035,
      "æīĵè¿ĩ": 5036,
      "å¥½æ´»": 5037,
      "æĸ¹ä¾¿": 5038,
      "èĢģå©Ĩ": 5039,
      "å·²ç»ıæĺ¯": 5040,
      "éĺ¿åį¡": 5041,
      "å¾Ģå¾Ģ": 5042,
      "æ¾³": 5043,
      "car": 5044,
      "dk": 5045,
      "ve": 5046,
      "ä½łçľĭ": 5047,
      "çĽĽ": 5048,
      "å¤ļæķ°": 5049,
      "åıĳçĭĤ": 5050,
      "çŁ¿": 5051,
      "æıĲç¤º": 5052,
      "è¥¿æĸ¹": 5053,
      "å¼¹å¹ķ": 5054,
      "ä¹ĭéĹ´çļĦåħ³ç³»": 5055,
      "è´·æ¬¾": 5056,
      "ï¼Įæ¯ı": 5057,
      "æĪĳæĦŁè§ī": 5058,
      "æĭĴ": 5059,
      "éģĵéķ¿": 5060,
      "ç»ĵå©ļ": 5061,
      "è¾ĵç»Ļ": 5062,
      "ä»ĬæĻļ": 5063,
      "çĶ·äºº": 5064,
      "å½¢å®¹": 5065,
      "ç¬¬äºĮèµĽæ®µ": 5066,
      "çĹħæ¯Ĵ": 5067,
      "æĺİæĺ¾çļĦ": 5068,
      "éļĶå£ģ": 5069,
      "åħŃä»£æľº": 5070,
      "ner": 5071,
      "skt": 5072,
      "äºĨæĪĳ": 5073,
      "äºĨè¿ĺ": 5074,
      "ä¸įå¯¹": 5075,
      "æīİ": 5076,
      "è¿Ļè¾ĪåŃĲ": 5077,
      "èĥ¶": 5078,
      "ç»ĦæĪĲ": 5079,
      "åħ¨å±Ģbp": 5080,
      "çªĴæģ¯": 5081,
      "ry": 5082,
      "up": 5083,
      "æīĵèµ¢": 5084,
      "æ³ª": 5085,
      "èµĽåĲİ": 5086,
      "çķħ": 5087,
      "åĮĸçļĦ": 5088,
      "2024-": 5089,
      "åģĩèµĽ": 5090,
      "Ġ17": 5091,
      "æ¥¼2022-": 5092,
      "éĽ·è¾¾": 5093,
      "çģµæ´»": 5094,
      "åī©ä¸ĭ": 5095,
      "åºŁçī©": 5096,
      "ï¼Įåıªæľī": 5097,
      "ä½©": 5098,
      "èĤł": 5099,
      "æ³ķåĽ½": 5100,
      "æĢİæł·": 5101,
      "è¿ŀè´¥": 5102,
      "èĭ±éĽĦèģĶçĽŁ": 5103,
      "éģ¿åŃķ": 5104,
      "ç»ĨèĬĤ": 5105,
      "éĺ¿åį¡ä¸½": 5106,
      "1:": 5107,
      "4å¹´": 5108,
      "Zeus": 5109,
      "ï¼Įæ¯ķç«Ł": 5110,
      "çļĦæĸ°": 5111,
      "æĺ¯çĶ±": 5112,
      "åħľ": 5113,
      "äººå¤´": 5114,
      "ä¸ĬçıŃ": 5115,
      "çľĭæĿ¥": 5116,
      "çİ°çĬ¶": 5117,
      "æĩ¦": 5118,
      "çł´åĿı": 5119,
      "57": 5120,
      "æľīçĶ¨": 5121,
      "å°±å¾Ĺ": 5122,
      "åıĳå¸ĸ": 5123,
      "åĽŀå¤į": 5124,
      "ðŁĮ": 5125,
      "äºĮåĵĪ": 5126,
      "åĨ·å¤ĦçĲĨ": 5127,
      "å°¬é»ĳ": 5128,
      "#idi": 5129,
      "ma": 5130,
      "Ġ20": 5131,
      "è°ĭ": 5132,
      "åĮĸåŃ¦": 5133,
      "è®¤çŁ¥": 5134,
      "æ·«": 5135,
      "æµģè¡Į": 5136,
      "åħµå½¹": 5137,
      "å¨ľå¡Ķ": 5138,
      "#idiom": 5139,
      "ä»Ķ": 5140,
      "æĪĳå¯»æĢĿ": 5141,
      "åı¯èĥ½å¯¼èĩ´": 5142,
      "åĽŀå½Ĵ": 5143,
      "åľºæ¯ĶèµĽ": 5144,
      "æį¢äºĨ": 5145,
      "é£ŀç§ĳ": 5146,
      "ï¼īçļĦ": 5147,
      "äº¤æĺĵ": 5148,
      "äºĨä¸ĢäºĽ": 5149,
      "åĤ²": 5150,
      "èĸĦ": 5151,
      "æģ¢å¤į": 5152,
      "gg": 5153,
      "ï¼Įä»Ĭå¤©": 5154,
      "ï¼ĮéĢļå¸¸": 5155,
      "äºĨï¼ģ": 5156,
      "ä¸Ĭéĩİ": 5157,
      "æŃ£éĿ¢": 5158,
      "åıĪè¦ģ": 5159,
      "å®Įæķ´": 5160,
      "éĥŃ": 5161,
      "åĵªäºĽ": 5162,
      "æĬĹåİĭ": 5163,
      "Ġ14": 5164,
      "ç§°åĳ¼": 5165,
      "è¿ĩç¨ĭä¸Ń": 5166,
      "åįĩçº§": 5167,
      "æľīä¸Ģè¯´ä¸Ģ": 5168,
      "éŁ¦é²ģæĸ¯": 5169,
      "èŁ": 5170,
      "ï¼Įä¸»è¦ģ": 5171,
      "è¿Ļä¸įæĺ¯": 5172,
      "æİ©": 5173,
      "äºĨï¼Įçİ°åľ¨": 5174,
      "è¢Ń": 5175,
      "ä½ľèĢħ": 5176,
      "æ±ģ": 5177,
      "èģĶåĲĪ": 5178,
      "åħ¬å¼ı": 5179,
      "anavi": 5180,
      "Ġ12": 5181,
      "å¼ķå¯¼": 5182,
      "è¯įæ±ĩ": 5183,
      "éĩįè¦ģçļĦ": 5184,
      "å®Ŀå®Ŀ": 5185,
      "çľĭä¸įæĩĤ": 5186,
      "meiko": 5187,
      "å¹ħ": 5188,
      "æĹłèģĬ": 5189,
      "è·¯äºº": 5190,
      "2025-5-13": 5191,
      "éĥ½ä¸įçŁ¥éģĵ": 5192,
      "åĲ¬åĪ°": 5193,
      "ç§¯åĪĨ": 5194,
      "4.Ġ**": 5195,
      "ç¯®": 5196,
      "FPX": 5197,
      "åľ¨è¿ĻéĩĮ": 5198,
      "åĵ®": 5199,
      "çľŁæľī": 5200,
      "åĪĨéħį": 5201,
      "æĽ¼": 5202,
      "blgčĊ": 5203,
      "æ®ĸ": 5204,
      "åĪĨæŀĲâĢľ": 5205,
      "è¿½çĿĢ": 5206,
      "é¹ħ": 5207,
      "æŃ¹": 5208,
      "æ²¡æĥ³åĪ°": 5209,
      "äºĨï¼Įä»ĸ": 5210,
      "å°ıé¾Ļ": 5211,
      "å¼Ģå¿ĥ": 5212,
      "å¤±æľĽ": 5213,
      "å¾®ä¿¡": 5214,
      "æ²»çĸĹ": 5215,
      "cn": 5216,
      "è¢«æĬĵ": 5217,
      "éĤ£æĬĬ": 5218,
      "æĥ³çĿĢ": 5219,
      "èµ°äºĨ": 5220,
      "çĬ¯çĹħ": 5221,
      "åİķæīĢ": 5222,
      "æĺ¯è¢«": 5223,
      "è¿Ļçİ©æĦı": 5224,
      "è´¼": 5225,
      "ä¿Ĺ": 5226,
      "è¡Įä¸ºãĢĤčĊ": 5227,
      "âĢĿï¼Įè¿Ļåı¥è¯Ŀ": 5228,
      "ï¼Įè¿Ļä¸ªéĹ®é¢ĺ": 5229,
      "çļĦè§Ĵåº¦": 5230,
      "åıĽ": 5231,
      "äºĨåĲĹï¼ŁčĊ": 5232,
      "ä¸įæīĵ": 5233,
      "åº¸": 5234,
      "è´±": 5235,
      "å±ĭ": 5236,
      "éĺŁåĨħ": 5237,
      "èĥĨ": 5238,
      "çĶ¨æĪ·å¯¹": 5239,
      "åĽłæŃ¤,": 5240,
      "æĿ°åħĭ": 5241,
      "åĲĪéĢĤçļĦ": 5242,
      "iss": 5243,
      "ï¼Įè¿ŀ": 5244,
      "ä½łèĥ½": 5245,
      "å¤ļä¹ħ": 5246,
      "æį·": 5247,
      "æĸ¹éĿ¢çļĦ": 5248,
      "çİ©æ¸¸æĪı": 5249,
      "æĲ¬": 5250,
      "å¤įæ´»": 5251,
      "å¢ŀå¼º": 5252,
      "å¾ªçİ¯": 5253,
      "å°ıäººåĽ½": 5254,
      "äººãĢĤ": 5255,
      "å¾Ĳ": 5256,
      "è¿ĺåı¯ä»¥": 5257,
      "èĤĥ": 5258,
      "èµ¢å¾Ĺ": 5259,
      "å¤ĸéĥ¨": 5260,
      "çĮİ": 5261,
      "æ¢ħ": 5262,
      "çĭĲçĭ¸": 5263,
      "ï¼ĮåĲİéĿ¢": 5264,
      "åĲµ": 5265,
      "äººæľº": 5266,
      "ä½łĠ": 5267,
      "éĹ®ï¼ļ": 5268,
      "å¥½çľĭ": 5269,
      "åįķä½į": 5270,
      "éĢģçļĦ": 5271,
      "éĨĭ": 5272,
      "æĹ¢çĦ¶": 5273,
      "dĠ": 5274,
      "è·ĥ": 5275,
      "éĤ£è¾¹": 5276,
      "åīįçļĦ": 5277,
      "åįķå¸¦": 5278,
      "æĵ¦": 5279,
      "çĵ¶": 5280,
      "è´Łè´£": 5281,
      "ç¤¾äº¤åªĴä½ĵ": 5282,
      "æĹħæ¸¸": 5283,
      "http://": 5284,
      "--": 5285,
      "3:0": 5286,
      "500": 5287,
      "800": 5288,
      "eka": 5289,
      "åĩĮ": 5290,
      "æīĵåĪ°": 5291,
      "ç³¯": 5292,
      "çŃīäºİ": 5293,
      "æĹ¥ï¼Į": 5294,
      "éļĲèĹı": 5295,
      "éĺ¿ä¹Ĳ": 5296,
      "aki": 5297,
      "ãĢĤâĢĿčĊ": 5298,
      "ä¸ŃæıĲåĪ°çļĦâĢľ": 5299,
      "è¯·éĹ®ï¼ļ": 5300,
      "ï¼ĮçĶ¨": 5301,
      "ï¼Įä¹Łä¸į": 5302,
      "æīĳ": 5303,
      "åľ¨ä¸ŃåĽ½": 5304,
      "éĹ®é¢ĺä¸ŃçļĦ": 5305,
      "æ¬ł": 5306,
      "åĵ¥çļĦ": 5307,
      "åĬ¨ä½ľ": 5308,
      "æį¢çº¿": 5309,
      "è´Ńçī©": 5310,
      "æĽ´å¥½åľ°": 5311,
      "æ©": 5312,
      "ä¸įæĿ¥": 5313,
      "ä¸Ģæł¹": 5314,
      "åľ¨æŁĲäºĽ": 5315,
      "æ²¡äºĭ": 5316,
      "æĮ¡": 5317,
      "å¤©ä¸ĭ": 5318,
      "çĥ¬": 5319,
      "éĩįå¤į": 5320,
      "æĮĩåĲĳ": 5321,
      "åĲĥäºĨ": 5322,
      "çĶ·çļĦ": 5323,
      "çº¢åĮħ": 5324,
      "çĤ¸å¼¹": 5325,
      "ðŁĴ©": 5326,
      "ï¼ĮèĢģ": 5327,
      "çļĦä¿¡æģ¯": 5328,
      "æĿľ": 5329,
      "åľ¨çº¿": 5330,
      "æĭĶ": 5331,
      "åĲİæİĴ": 5332,
      "åĪĨå¸ĥ": 5333,
      "20åı·": 5334,
      "æĭ¿åĩºæĿ¥": 5335,
      "çľŁçļĦæĺ¯": 5336,
      "è¶ħè¶Ĭ": 5337,
      "æ²Ļåħµ": 5338,
      "è¯ķè¯ķ": 5339,
      "ï¼ĮæĪĸèĢħæĺ¯åľ¨": 5340,
      "å°±å®Įäºĭ": 5341,
      "NIP": 5342,
      "çļĦä¸Ģç§į": 5343,
      "çļĦå·¥ä½ľ": 5344,
      "ä»ª": 5345,
      "è´«": 5346,
      "è´¸": 5347,
      "æį§": 5348,
      "çĭ±": 5349,
      "æľŁæľĽ": 5350,
      "æķ°åĢ¼": 5351,
      "æĭīæī¯": 5352,
      "å¿«ä¹Ĳ": 5353,
      "å¾·åĽ½": 5354,
      "è®°èĢħ": 5355,
      "åĲ¬è§ģ": 5356,
      "çıł": 5357,
      "æĢ»ç»ĵï¼ļ": 5358,
      "èģĬå¤©": 5359,
      "sh": 5360,
      "ï¼Įä»Ģä¹Ī": 5361,
      "ä¹ĪčĊ": 5362,
      "æ³³": 5363,
      "åī¥": 5364,
      "åıĳçļĦ": 5365,
      "ç»ĵå±Ģ": 5366,
      "ç²ĺ": 5367,
      "ç»ĵåĲĪéĹ®é¢ĺåĴĮçŃĶæ¡Ī": 5368,
      "èģĶç³»èµ·æĿ¥": 5369,
      "ID": 5370,
      "by": 5371,
      "¦Ĩ": 5372,
      "ï¼Įä¼ļ": 5373,
      "çļĦæł¸å¿ĥ": 5374,
      "ä¼¯": 5375,
      "æīĵçĪĨ": 5376,
      "ä¸ĬčĊ": 5377,
      "åħ¨éĺŁ": 5378,
      "ink": 5379,
      "çº¯çº¯": 5380,
      "çŁ³æ²¹": 5381,
      "åı¤ä»£": 5382,
      "âĺ": 5383,
      "ä¸įä¿¡": 5384,
      "ãĢĤæŃ¤å¤ĸï¼Į": 5385,
      "ä¹ĺ": 5386,
      "åĳ¦": 5387,
      "è¿ĩï¼Į": 5388,
      "å¤ļäºĨ": 5389,
      "è¿Ľä¸įåİ»": 5390,
      "å¤ªå¤§": 5391,
      "æĻ¶": 5392,
      "èµ¢çļĦ": 5393,
      "å¹¶ä¸Ķ": 5394,
      "åıįå¯¹": 5395,
      "éĩĳèŀį": 5396,
      "èį¡": 5397,
      "åħ³éĶ®åľ¨äºİ": 5398,
      "å¢ŀéķ¿": 5399,
      "çĭ¬çī¹": 5400,
      "åı¦ä¸Ģä¸ª": 5401,
      "ï¼Įåıªèĥ½": 5402,
      "æĺ¯æĢİä¹Ī": 5403,
      "ä¸įäºĨčĊ": 5404,
      "âĢĿæĿ¥": 5405,
      "å¯¹å¾ħ": 5406,
      "æĭĲ": 5407,
      "è¢ĭ": 5408,
      "æĦŁæĥħ": 5409,
      "ä¿¡åı·": 5410,
      "iper": 5411,
      "å¡Ķèµŀ": 5412,
      "é¥ŃåľĪ": 5413,
      "æ¾Ħ": 5414,
      "8å¹´": 5415,
      "tĠ": 5416,
      "çĴ": 5417,
      "çļĦï¼Įè¿Ļ": 5418,
      "ãĢģæĸ°": 5419,
      "æĹ¶åĪ»": 5420,
      "æĢĿè·¯": 5421,
      "ç´«": 5422,
      "æĶ¾å¼ĥ": 5423,
      "æ¢¯": 5424,
      "æĵĴ": 5425,
      "è¾ĥä¸º": 5426,
      "èĴ¸": 5427,
      "åĵ¦åĵ¦åĵ¦åĵ¦": 5428,
      "ä½łčĊ": 5429,
      "æĮ¤": 5430,
      "æĶ¶çĽĬ": 5431,
      "çļĦè¯Ŀï¼Į": 5432,
      "æ¸©åº¦": 5433,
      "âŀķ": 5434,
      "KT": 5435,
      "s14": 5436,
      "ç§ĭ": 5437,
      "æľĢéĢĤåĲĪ": 5438,
      "åīįåĽĽ": 5439,
      "åħ¨åĽ½": 5440,
      "éĿŀè¦ģ": 5441,
      "éŃħ": 5442,
      "è¶³çĲĥ": 5443,
      "æĶ»åĩ»æĢ§": 5444,
      "èĤ¡ä»·": 5445,
      "ï¼Įè¡¨è¾¾äºĨå¯¹": 5446,
      "å¾Ĵ": 5447,
      "èĢĢ": 5448,
      "ä»¥èī²åĪĹ": 5449,
      "åĲİæŀľ": 5450,
      "å¤ļäºĨï¼Į": 5451,
      "å°ıæĺİ": 5452,
      "æĦıè§ģ": 5453,
      "èµ¢ï¼Į": 5454,
      "éĥ½ä¸įæķ¢": 5455,
      "ç»Ŀæ´»": 5456,
      "åĨ²åĩ»": 5457,
      "è¯Ħè®ºåĮº": 5458,
      "ç«ŁçĦ¶": 5459,
      "mo": 5460,
      "çļĦåľ°": 5461,
      "çļĦä¸»è¦ģ": 5462,
      "çļĦæĵįä½ľ": 5463,
      "å®¿": 5464,
      "æī¬": 5465,
      "åĬĿ": 5466,
      "åĲİæĿ¥": 5467,
      "åĢĻčĊ": 5468,
      "æŃ»ï¼Į": 5469,
      "åħ¬åħ±": 5470,
      "åģļçļĦ": 5471,
      "æĴ¸": 5472,
      "èµĦæĸĻ": 5473,
      "åģĩå®ļ": 5474,
      "æĬ¥éģĵ": 5475,
      "èıľçļĦ": 5476,
      "åħĥç´ł": 5477,
      "ç¿»è¯ĳ": 5478,
      "âĢĿãĢĤè¿Ļåı¥è¯Ŀ": 5479,
      "çĦ¦èĻĳ": 5480,
      "é¥¿": 5481,
      "ï¼Įåį´": 5482,
      "çļĦåħ³ç³»": 5483,
      "ä½łè§īå¾Ĺ": 5484,
      "ä»ĸåľ¨": 5485,
      "è·¨": 5486,
      "çĶ¨æĪ·åı¯èĥ½åľ¨": 5487,
      "éĢģäºĨ": 5488,
      "æĭīæ»¡": 5489,
      "èĥĮåĲİçļĦ": 5490,
      "åĤ¨": 5491,
      "æĹłæķĮäºĨčĊ": 5492,
      "2025-5-17Ġ0": 5493,
      "70": 5494,
      "Th": 5495,
      "op": 5496,
      "Ġ@": 5497,
      "ä¸§": 5498,
      "ï¼ĮäºĮ": 5499,
      "äºĪ": 5500,
      "åı¬": 5501,
      "æľ±": 5502,
      "ä¸Ģå±Ģ": 5503,
      "ä»ĸè¯´": 5504,
      "åı¯èĥ½åŃĺåľ¨": 5505,
      "åĲ§ãĢĤčĊ": 5506,
      "äºĭçī©": 5507,
      "åĹ¯": 5508,
      "è§£åĨ³æĸ¹æ¡Ī": 5509,
      "çľĭä¸įèµ·": 5510,
      "å¼ºè°ĥäºĨ": 5511,
      "é©±éĢĲ": 5512,
      "ļåŃĲ": 5513,
      "çļĦæĦıåĳ³": 5514,
      "ãĢĤè¿Ļåı¥è¯Ŀ": 5515,
      "alĠ": 5516,
      "å±ŀå®ŀ": 5517,
      "çŁ³å¤´": 5518,
      "è¯ķåĽ¾éĢļè¿ĩ": 5519,
      "èĪĴæľįäºĨèĪĴæľįäºĨ": 5520,
      "ä¸įè¢«": 5521,
      "åı¯çĪ±": 5522,
      "å¤§èĦĳ": 5523,
      "çľĭä½ł": 5524,
      "ä¸ĭè½½": 5525,
      "å¸¦æģ¶": 5526,
      "é©³": 5527,
      "åŀ«": 5528,
      "æĤī": 5529,
      "éļıæĹ¶": 5530,
      "æĸĹéŃĤ": 5531,
      "æĭħå¿§": 5532,
      "æĢĿèĢĥè¿ĩç¨ĭï¼ļčĊ": 5533,
      "æµªè´¹": 5534,
      "ä»¤äºº": 5535,
      "åĵ®å¤©çĬ¬": 5536,
      "ãĢĤåĽłæŃ¤": 5537,
      "çĤ¼": 5538,
      "æĸĩæĺİ": 5539,
      "ä¿Ŀéļľ": 5540,
      "2025-4-": 5541,
      "èıĮ": 5542,
      "ï¼Įä»¥ä¾¿": 5543,
      "æĶ»éĢŁ": 5544,
      "åĨ°å²Ľ": 5545,
      "ai": 5546,
      "Ġ21": 5547,
      "ï¼Įå¯¹éĿ¢": 5548,
      "çļĦå¥³": 5549,
      "ä¸įåĥı": 5550,
      "ä¸įåĸľæ¬¢": 5551,
      "ãĢĤæĪĳä»¬": 5552,
      "äººéĥ½": 5553,
      "è¿ĩčĊ": 5554,
      "éĤ»": 5555,
      "è®¤åĲĮ": 5556,
      "ç¦ıåĪ©": 5557,
      "çºªå¾ĭ": 5558,
      "æ£ĴåŃĲ": 5559,
      "åĲįäººåłĤ": 5560,
      "gen": 5561,
      "çļĦï¼ĮæĪĳ": 5562,
      "ä¸įåĨį": 5563,
      "å¥¸": 5564,
      "æİı": 5565,
      "è´¯": 5566,
      "åĳĨ": 5567,
      "åĪĨä¹ĭä¸Ģ": 5568,
      "ä¸īæĺŁ": 5569,
      "å¹¶ä¸įèĥ½": 5570,
      "åįļå£«": 5571,
      "æľĢåĲİï¼ĮæĪĳ": 5572,
      "é¥°": 5573,
      "è´¦åı·": 5574,
      "uler": 5575,
      "éģ¿åŃķå¥Ĺ": 5576,
      "æ¾Ħæ¸ħ": 5577,
      "ï¼ĮçŃĶæ¡Ī": 5578,
      "åľ¨ä¸Ģèµ·": 5579,
      "ä»ĸï¼Į": 5580,
      "æĢ§åĪ«": 5581,
      "æ¡ĥ": 5582,
      "é«ĺåħ´": 5583,
      "æīĢæľīäºº": 5584,
      "æ°´åĨĽ": 5585,
      "ä½įäºİ": 5586,
      "ä¸ĸçºª": 5587,
      "æĴĴ": 5588,
      "æĬķåħ¥": 5589,
      "æ¯ĽçĹħ": 5590,
      "24å¹´": 5591,
      "æĨĭ": 5592,
      "peyz": 5593,
      "ï¼Įä¸¤": 5594,
      "çļĦé«ĺ": 5595,
      "äºĨ,": 5596,
      "èĥ½æĬĬ": 5597,
      "âĢľåŃĻåĵ¥": 5598,
      "çĶ¨čĊ": 5599,
      "å¤ļčĊ": 5600,
      "ï¼ļ0": 5601,
      "æł·åŃĲ": 5602,
      "éĢīè´Ń": 5603,
      "æĭ¿ä¸įåĪ°": 5604,
      "æĿĢäºº": 5605,
      "èĥĮéĶħ": 5606,
      "çªĹ": 5607,
      "22å¹´": 5608,
      "å¿ĺè®°": 5609,
      "æ³¨æĦıåĪ°": 5610,
      "å¿½çķ¥": 5611,
      "åĲ¯åĬ¨": 5612,
      "æ±¤åľĨ": 5613,
      "èĿİåŃĲ": 5614,
      "bç«Ļ": 5615,
      "it": 5616,
      "ï¼Įç¡®ä¿Ŀ": 5617,
      "ãĢĤçŃĶæ¡Ī": 5618,
      "âĢĿæĮĩçļĦæĺ¯": 5619,
      "åĲİç»Ń": 5620,
      "èīĺ": 5621,
      "ä¸ªäººçļĦ": 5622,
      "æİ¥ä¸ĭæĿ¥ï¼ĮæĪĳ": 5623,
      "è¯·æ±Ĥ": 5624,
      "ä¸¥æł¼": 5625,
      "åįĥä¸ĩ": 5626,
      "ç¢°åĪ°": 5627,
      "ï¼ĮæĹłè®º": 5628,
      "æĬ¥çĤ¹éĺŁæĬ¥çĤ¹éĺŁæĬ¥çĤ¹éĺŁæĬ¥çĤ¹éĺŁ": 5629,
      "èĤĮèĤī": 5630,
      "BO": 5631,
      "LE": 5632,
      "ï¼Įä¸Ń": 5633,
      "çļĦåıĳå±ķ": 5634,
      "äºĨå¯¹": 5635,
      "ä¸Ģäºº": 5636,
      "æĪĳå¯¹": 5637,
      "åı¯èĥ½çļĦ,æĪĸ": 5638,
      "å¤ļæ¬¡": 5639,
      "å°ıå¿ĥ": 5640,
      "æģŃ": 5641,
      "è¿Ľä¸ĸçķĮèµĽ": 5642,
      "æĢİä¹Īçľĭ": 5643,
      "åĮºåŁŁ": 5644,
      "çļĦ,åı¯èĥ½çļĦ,æĪĸ": 5645,
      "å¾·èİ±": 5646,
      "åħ«åĺİ": 5647,
      "48bin": 5648,
      "ç®¡çĲĨå±Ĥ": 5649,
      "ä¸įåı¯èĥ½ï¼ŁčĊ": 5650,
      "ä¸ĭéĿ¢æĺ¯çľŁçļĦâĢľ": 5651,
      "å¦ĸå§¬": 5652,
      "å¿ħçĦ¶çļĦ,åı¯èĥ½çļĦ,æĪĸ": 5653,
      "æıŃç¤º": 5654,
      "åģĩå®ļä¸ĭéĿ¢æĺ¯çľŁçļĦâĢľ": 5655,
      "å¿ħçĦ¶çļĦ,åı¯èĥ½çļĦ,æĪĸä¸įåı¯èĥ½ï¼ŁčĊ": 5656,
      "6å¹´": 5657,
      "æĪĸè®¸": 5658,
      "çī²": 5659,
      "è¢«è§Ĩä¸º": 5660,
      "æĦŁãĢĤčĊ": 5661,
      "ðŁ§": 5662,
      "åĿĢ": 5663,
      "åį¡å°Ķ": 5664,
      "å±±é¸¡": 5665,
      "åĳĹčĊ": 5666,
      "39": 5667,
      "è¤": 5668,
      "è¦Ĩ": 5669,
      "ï¼Įåīį": 5670,
      "ï¼ĮéĺŁåıĭ": 5671,
      "äº¦": 5672,
      "åħ½": 5673,
      "ä¸Ģè·¯": 5674,
      "æĪĳåİ»": 5675,
      "äºĨï¼Įä½Ĩ": 5676,
      "åıĳè¨Ģ": 5677,
      "åĲ§ï¼Ł": 5678,
      "åĲ§éĩĮ": 5679,
      "åĬĽï¼Į": 5680,
      "æĪĺåľº": 5681,
      "ï¼Įä½Ĩè¿Ļ": 5682,
      "é©»": 5683,
      "åı·ç§įåŃĲ": 5684,
      "ä¸įèĥ½åĨį": 5685,
      "è¿ľåı¤": 5686,
      "åĲ«ä¹īãĢĤčĊ": 5687,
      "åı¸é©¬": 5688,
      "ç½ĲåŃĲ": 5689,
      "å¿ĺäºĨ": 5690,
      "æĦ¤æĢĴ": 5691,
      ".čĊ": 5692,
      "ï¼Įäº¬ä¸ľ": 5693,
      "åħĶ": 5694,
      "è¯ŀ": 5695,
      "å¤§æĿİçĭĹ": 5696,
      "éĥ½åı¯ä»¥": 5697,
      "æİĪ": 5698,
      "æĥ§": 5699,
      "åĬĽãĢĤčĊ": 5700,
      "æĥ³æĥ³": 5701,
      "çŃīçŃī": 5702,
      "è¯¥å¦Ĥä½ķ": 5703,
      "å¤ĸäº¤": 5704,
      "åıĬæĹ¶": 5705,
      "åĲĪçĲĨçļĦ": 5706,
      "åļ¼åļ¼": 5707,
      "èģªæĺİ": 5708,
      "æĭĴç»Ŀ": 5709,
      "çļĦæĦŁè§ī": 5710,
      "æĬĦ": 5711,
      "è¾ŀ": 5712,
      "çģ¾": 5713,
      "æļĹç¤ºæŁĲç§į": 5714,
      "æļ´åĩ»": 5715,
      "åĤ¬": 5716,
      "è®Ńç»ĥèµĽ": 5717,
      "æŃ§è§Ĩ": 5718,
      "2å¹´": 5719,
      "æĺı": 5720,
      "ä¸įå½ĵ": 5721,
      "ãĢĤä»İ": 5722,
      "è¿Ļè¾¹": 5723,
      "æľīå¤ļå°ĳ": 5724,
      "å¹¼": 5725,
      "å¥½æŃ¹": 5726,
      "åıĳå¾®åįļ": 5727,
      "çİ©ï¼Į": 5728,
      "å¸¦èĬĤå¥ı": 5729,
      "åıįæīĭ": 5730,
      "è®ºæĸĩ": 5731,
      "inb": 5732,
      "æľĢåĲİï¼ĮæĪĳéľĢè¦ģ": 5733,
      "ä¸Ģæł·çļĦ": 5734,
      "åĨħå®¹ï¼Į": 5735,
      "åŃĹéĿ¢": 5736,
      "ãģĦ": 5737,
      "éĢĤå½ĵ": 5738,
      "åĽŀæĿ¥äºĨ": 5739,
      "è¿Ļä¹Īå¤ļå¹´": 5740,
      "æľīäºĽäºº": 5741,
      "èįĴéĩİ": 5742,
      "Ġä½Ĩæĺ¯": 5743,
      "ï¼Įäºº": 5744,
      "âĢĿåĽłæŃ¤,": 5745,
      "æīĵblg": 5746,
      "ç¾ŀ": 5747,
      "æĸ°äºº": 5748,
      "è®ºåĿĽ": 5749,
      "æķ´å¤©": 5750,
      "ä¼łå¥ĩ": 5751,
      "åĳĺå·¥": 5752,
      "åĩ¯åįĹ": 5753,
      "ag": 5754,
      "äºĨè¿Ļä¸ª": 5755,
      "ä¸įçľĭ": 5756,
      "å°±çľĭ": 5757,
      "æ¯Ķ0": 5758,
      "ä¿Ŀè¯ģ": 5759,
      "æĿĥå¨ģ": 5760,
      "æ·±å±Ĥ": 5761,
      "ä¸¥èĤĥ": 5762,
      "åĺ´èĦ¸": 5763,
      "æĢģåº¦ãĢĤčĊ": 5764,
      "å´½": 5765,
      "è¸©å¤´": 5766,
      "9-": 5767,
      "9å¹´": 5768,
      "hs": 5769,
      "ï¼ĮåºĶè¯¥": 5770,
      "åĨ¬": 5771,
      "åĪ°å¤Ħ": 5772,
      "ç²¹": 5773,
      "è½¬åĲĳ": 5774,
      "ä¸ĵéĹ¨": 5775,
      "ï¼Įåı¯èĥ½æĺ¯å¯¹": 5776,
      "æĽ¿è¡¥": 5777,
      "è¿Ļä¸¤å¹´": 5778,
      "åį«çĶŁ": 5779,
      "é¢ľèī²": 5780,
      "èħĲä¹³": 5781,
      "ï¼ĮæĿ¥": 5782,
      "ä¸Ģåıª": 5783,
      "æľīéĹ®é¢ĺ": 5784,
      "ï¼Łè¿Ļ": 5785,
      "å°±è¯¥": 5786,
      "æīĵå¼Ģ": 5787,
      "é¢Ĺ": 5788,
      "çľŁæ²¡": 5789,
      "å®ļä½į": 5790,
      "å½ĵåĪĿ": 5791,
      "çĶ¨æĪ·æıĲåĪ°âĢľ": 5792,
      "èĲĮ": 5793,
      "çĬ¹": 5794,
      "çĲĨè§£åħ¶": 5795,
      "ï¼īãĢĤ": 5796,
      "æĶ¯æı´": 5797,
      "ç²¾å½©": 5798,
      "å¡ŀæģ©": 5799,
      "ï¼Įå¸ĮæľĽ": 5800,
      "ï¼Įå¸¦æľī": 5801,
      "éĥ½ä¸įæĺ¯": 5802,
      "å¥½äºĨ": 5803,
      "åĢº": 5804,
      "çĶŁèĤ²": 5805,
      "äºĭčĊ": 5806,
      "éĩİæł¸": 5807,
      "çī¹èī²": 5808,
      "èĦ¸ä¸Ĭ": 5809,
      "å½±åĵįãĢĤčĊ": 5810,
      "èĤīé¸¡": 5811,
      "é¦ĸåħĪï¼ĮéĹ®é¢ĺä¸ŃæıĲåĪ°âĢľ": 5812,
      "3ä¸ª": 5813,
      "hon": 5814,
      "s10": 5815,
      "çļĦåħ·ä½ĵ": 5816,
      "å¥ĭ": 5817,
      "ä½łï¼Į": 5818,
      "æĪĸåħ¶ä»ĸ": 5819,
      "éĤª": 5820,
      "çĶŁæ°Ķ": 5821,
      "åıįé©³": 5822,
      "éķ¿å¾Ĺ": 5823,
      "ðŁĺħ": 5824,
      "æħ§": 5825,
      "æ¯įäº²": 5826,
      "éĵ¶æ²³": 5827,
      "âĳ§": 5828,
      "å¾·èİ±æĸĩ": 5829,
      "300": 5830,
      "il": 5831,
      "zeka": 5832,
      "ä¸įçŁ¥": 5833,
      "éľĢè¦ģå¡«åĨĻ": 5834,
      "çļĦï¼ĮèĢĮ": 5835,
      "ä½įç§»": 5836,
      "å®ĮäºĨ": 5837,
      "æĿ¡åĮº": 5838,
      "çĪĨäºĨ": 5839,
      "Ġ10": 5840,
      "è¯ĨåĪ«": 5841,
      "éĺ´éĺ³": 5842,
      "05": 5843,
      "ĠS": 5844,
      "ï¼ĮæĹ¢": 5845,
      "èĥ½è¢«": 5846,
      "åĩĳ": 5847,
      "åĽ½æľį": 5848,
      "æĬĬèĩªå·±": 5849,
      "ç½²": 5850,
      "ï¼Įä½Ĩåľ¨": 5851,
      "çĻĮ": 5852,
      "ç¢¾": 5853,
      "ç½ĳç«Ļ": 5854,
      "åłª": 5855,
      "ç¿¼": 5856,
      "kd": 5857,
      "äººãĢĤčĊ": 5858,
      "è¿ĺä¸įæĺ¯": 5859,
      "é¸Ń": 5860,
      "æħ°": 5861,
      "åĳ½åĲį": 5862,
      "æ··åŃĲ": 5863,
      "ãĢĤéĹ®é¢ĺä¸ŃæıĲåĪ°âĢľ": 5864,
      "ä»»åĬ¡ãĢĤ": 5865,
      "âĢ¦âĢ¦čĊ": 5866,
      "2827": 5867,
      "é¦ĸåħĪï¼ĮåĪĨæŀĲéĹ®é¢ĺçļĦ": 5868,
      "APP": 5869,
      "ch": 5870,
      "ï¼Įä¹ĭåīį": 5871,
      "ä¸įéħį": 5872,
      "ä¸Ģä»£": 5873,
      "è¿ĺå¥½": 5874,
      "çľĭå¾Ĺ": 5875,
      "çĶ¨éĢĶ": 5876,
      "åĲ§ï¼ŁčĊ": 5877,
      "éĺŁåĳĺ": 5878,
      "ï¼ĮæĪĳçļĦ": 5879,
      "åı¯èĥ½æĺ¯åĽłä¸º": 5880,
      "çº¿ä¸Ĭ": 5881,
      "å®ĮèĽĭ": 5882,
      "åŁºåľ°": 5883,
      "æ²Ļå¨ģ": 5884,
      "ï¼Įæľīä»¥ä¸ĭ": 5885,
      "æĪĲè¯Ńï¼Įæľīä»¥ä¸ĭ": 5886,
      "èģĮä¸ļçĶŁæ¶¯": 5887,
      "å¤įæĿĤçļĦ": 5888,
      "ä¼ĳæģ¯": 5889,
      "è°¨æħİ": 5890,
      "éľĢè¦ģå¡«åĨĻæĪĲè¯Ńï¼Įæľīä»¥ä¸ĭ": 5891,
      "47": 5892,
      "Bin": 5893,
      "ms": 5894,
      "ï¼ĮåıįèĢĮ": 5895,
      "çļĦåŃĺåľ¨": 5896,
      "æľīæīĢ": 5897,
      "åĨĮ": 5898,
      "æĢľ": 5899,
      "åĽ½çİĭ": 5900,
      "éĤ£å°±æĺ¯": 5901,
      "è§£æķ£": 5902,
      "ä¾ł": 5903,
      "å¿ĥæĥħ": 5904,
      "å¸¦æĺİæĺŁ": 5905,
      "çł°": 5906,
      "çĽ¸ä¼¼": 5907,
      "åĭ¤": 5908,
      "ç¿»çĽĺ": 5909,
      "é¦ĸåħĪï¼ĮæĪĳä»¬éľĢè¦ģçĲĨè§£âĢľ": 5910,
      "èĭıèģĶ": 5911,
      "çīĻèĨı": 5912,
      "å®£å¸ĥ": 5913,
      "æĦıè¯ĨåĪ°": 5914,
      "TT": 5915,
      "çļĦéĥ½": 5916,
      "è¿Ķ": 5917,
      "æĪĳæľī": 5918,
      "å°±æ²¡æľī": 5919,
      "ä¸ºä½ķ": 5920,
      "éĹ®é¢ĺä¸İçŃĶæ¡Ī": 5921,
      "åĳĪ": 5922,
      "å¤©ï¼Į": 5923,
      "éľľ": 5924,
      "æĽ´æľī": 5925,
      "åıįæĢĿ": 5926,
      "è§Ĩè§ī": 5927,
      "é©¬å¤´é©¬å¤´": 5928,
      "å²ģæľĪ": 5929,
      "å¤ªå¤ļäºĨï¼Į": 5930,
      "ä¼ĬæľĹ": 5931,
      "im": 5932,
      "çļĦéĤ£ä¸ª": 5933,
      "äºĨåĲ§ï¼Į": 5934,
      "è¿ĻéĺŁ": 5935,
      "æĪĸäºĭä»¶": 5936,
      "ä¸Ģä¸ªčĊ": 5937,
      "æīĭæ¸¸": 5938,
      "è¿ĽæĶ»": 5939,
      "åĪ«äººçļĦ": 5940,
      "ï¼Įä½Ĩå®ŀéĻħä¸Ĭ": 5941,
      "åĨħå¿ĥ": 5942,
      "æĢ»ç»Ł": 5943,
      "æľªæĿ¥çļĦ": 5944,
      "ä¹ĲåŃĲ": 5945,
      "åķĨåĵģ": 5946,
      "ç»´åħĭ": 5947,
      "æī¿æĭħ": 5948,
      "bug": 5949,
      "xt": 5950,
      "ï¼Įæīĵéĩİ": 5951,
      "çļĦçĶŁæ´»": 5952,
      "ä¸Ģå¤§": 5953,
      "è¿ĺæ¬¾": 5954,
      "ä¸Ńåħ±": 5955,
      "åĲĹĠ": 5956,
      "ä¾®": 5957,
      "åķĬãĢĤ": 5958,
      "å¾Īå°ĳ": 5959,
      "æĻķ": 5960,
      "åľºåĲĪ": 5961,
      "ç©ºæ°Ķ": 5962,
      "âĢĿï¼Įè¿Ļä¼¼ä¹İ": 5963,
      "ç»ĵåĲĪä¸Ĭä¸ĭæĸĩ": 5964,
      "ç¬¦åı·": 5965,
      "æ²¡æľīçĽ´æİ¥åħ³èģĶ": 5966,
      "05-": 5967,
      "cs": 5968,
      "ia": 5969,
      "lng": 5970,
      "åĴĮå¹³": 5971,
      "æ²¡äºĨ": 5972,
      "åı¯èĥ½æ¶īåıĬ": 5973,
      "çºł": 5974,
      "åħ³äºĨ": 5975,
      "æµ©": 5976,
      "æİ¥è§¦": 5977,
      "çİ©ä¸ª": 5978,
      "èĢħï¼Į": 5979,
      "ç¢į": 5980,
      "å·²ç»ıè¢«": 5981,
      "éļ¾åº¦": 5982,
      "æĶ¹è¿Ľ": 5983,
      "äº¤éĢļ": 5984,
      "èļĤ": 5985,
      "æħ¢æħ¢": 5986,
      "æįŁå¤±": 5987,
      "è½°çĤ¸": 5988,
      "åīĬå¼±": 5989,
      "ä¾®è¾±": 5990,
      "ï¼Įä¾ĭå¦Ĥ": 5991,
      "åħ¼": 5992,
      "åħģ": 5993,
      "åľ¨å®¶": 5994,
      "åĴĮä»ĸ": 5995,
      "å¼Ģçİ©ç¬ĳ": 5996,
      "åħ¨éĿł": 5997,
      "é»İ": 5998,
      "èµ¢ä¸įäºĨ": 5999,
      "åĲĮåŃ¦": 6000,
      "å²¸": 6001,
      "èļģ": 6002,
      "âĢĿåı¯èĥ½æĺ¯ä¸Ģä¸ª": 6003,
      "omg": 6004,
      "è¶ĭåĬ¿": 6005,
      "æ²Ļå¨ģçİĽ": 6006,
      "Ĺï¼Į": 6007,
      "å®ħ": 6008,
      "è¿Ļç¾¤": 6009,
      "èĥ½æĭ¿": 6010,
      "æĦ§": 6011,
      "å¦Ĩ": 6012,
      "è¡ĮčĊ": 6013,
      "æĪĲçĨŁ": 6014,
      "ä»Ģä¹Īï¼Ł": 6015,
      "éĶ»": 6016,
      "å®ĥçļĦ": 6017,
      "ä¾¿å®ľ": 6018,
      "ä¹ĭåīįçļĦ": 6019,
      "åĽŀæĿ¥äºĨčĊ": 6020,
      "èĸĩ": 6021,
      "æ¹¿": 6022,
      "åĳľåĳľåĳľ": 6023,
      "æħķæĸ¯": 6024,
      "28275": 6025,
      "Ġ23": 6026,
      "äºĨï¼Įä½Ĩæĺ¯": 6027,
      "åİ»æīĵ": 6028,
      "æ´¥": 6029,
      "éĢīä¸ª": 6030,
      "è¾ĵčĊ": 6031,
      "èµ¢è¿ĩ": 6032,
      "æ°´é»ĳ": 6033,
      "ç«ĭåį³": 6034,
      "çº¢èī²": 6035,
      "ä¸Ģä¸ĭï¼Į": 6036,
      "èĲ½åĲİ": 6037,
      "ä¸Ģå®ļæĺ¯": 6038,
      "åĢĴæķ°": 6039,
      "åĺĽčĊ": 6040,
      "ï¸ıâ": 6041,
      "ðŁĲ¦ðŁĲ¦": 6042,
      "ave": 6043,
      "èĢģå¤´æĿ¯": 6044,
      "è¿ħéĢŁ": 6045,
      "==": 6046,
      "me": 6047,
      "ï¼Įä¸ĭ": 6048,
      "æī®": 6049,
      "çŃĳ": 6050,
      "åħ¨ä¸ĸçķĮ": 6051,
      "éĶ¦": 6052,
      "çİ©è¿ĩ": 6053,
      "é©¶": 6054,
      "çĽ´æİ¥åĽŀåºĶ": 6055,
      "å¦Ĥæŀľä½ł": 6056,
      "çĪ±åĽ½": 6057,
      "éĺµé£İ": 6058,
      "èĥ½åĬĽãĢĤčĊ": 6059,
      "ä¸Ģä¸ĭčĊ": 6060,
      "æİ¥ä¸ĭæĿ¥ï¼ĮæĪĳä»¬éľĢè¦ģ": 6061,
      "é£Łåĵģ": 6062,
      "äºĴçĽ¸": 6063,
      "å¤§å®¶éĥ½": 6064,
      "æŃ£ç¡®čĊ": 6065,
      "åĳĬè¯īæĪĳ": 6066,
      "ĠmĠm": 6067,
      "4000": 6068,
      "ï¼Įä½¿": 6069,
      "ãĢĤä¾ĭå¦Ĥ": 6070,
      "åĪ®": 6071,
      "åĨ¥": 6072,
      "æĹ¨": 6073,
      "å¥İ": 6074,
      "âĢľåŃĻ": 6075,
      "å¤§æ¦Ĥ": 6076,
      "åİĦ": 6077,
      "è¿ĺæĥ³": 6078,
      "ä¸Ģä¸ªæľĪ": 6079,
      "ä¸įæĺ¯è¯´": 6080,
      "ï¼ĮæĪĳæĥ³": 6081,
      "ä¸¤å¤©": 6082,
      "åıįåĩ»": 6083,
      "æŃ»äºĨčĊ": 6084,
      "æĤĶ": 6085,
      "æĤŁ": 6086,
      "è°ĥä¾ĥåĴĮ": 6087,
      "éĢīæīĭçļĦ": 6088,
      "åĪļåĪļ": 6089,
      "âĢĿæĺ¯å¿ħçĦ¶çļĦ,åı¯èĥ½çļĦ,æĪĸä¸įåı¯èĥ½ï¼ŁčĊ": 6090,
      "è´¢å¯Į": 6091,
      "å¡«ç©º": 6092,
      "é¥®é£Ł": 6093,
      "æĲľç´¢": 6094,
      "æĬĸéŁ³": 6095,
      "ï¼Įä¸ī": 6096,
      "çļĦèĢģ": 6097,
      "äºĨä¸Ģç§į": 6098,
      "è¯¸": 6099,
      "èµ«": 6100,
      "éĥ½æīĵ": 6101,
      "åĩºäºİ": 6102,
      "æĮ¯": 6103,
      "åķ¡": 6104,
      "çĲī": 6105,
      "æĪĲè¿Ļæł·": 6106,
      "åĽŀå¿Ĩ": 6107,
      "å¼Ģå¤§": 6108,
      "è¡¨æ¼Ķ": 6109,
      "ï¼Įè¿ĻæĬĬ": 6110,
      "æģĴ": 6111,
      "æĦıå¤ĸ": 6112,
      "æ²¡æľīä»»ä½ķ": 6113,
      "éĿŀæ³ķ": 6114,
      "åİŁåĪĻ": 6115,
      "åĩ»æ¯Ļ": 6116,
      "éĺ¿æ°´": 6117,
      "åľ£æŀª": 6118,
      "ç³ĸå°¿": 6119,
      "åĴ¯čĊ": 6120,
      "éĤĢè¯·": 6121,
      "åĨ·å¤ĦçĲĨäºĨčĊ": 6122,
      "ç»´åħĭæīĺ": 6123,
      "nt": 6124,
      "yĠ": 6125,
      "ï¼ĮçľŁæĺ¯": 6126,
      "çļĦä¼¤å®³": 6127,
      "ä¸įè°Ī": 6128,
      "è¿Ļä¸ĭ": 6129,
      "åŃĶ": 6130,
      "ï¼ŁæĪĳ": 6131,
      "æĬĽ": 6132,
      "æĪĸéļĲåĸ»": 6133,
      "è¢«åĸ·": 6134,
      "åİ»çľĭ": 6135,
      "éĿ¢åīį": 6136,
      "åľ°åĽ¾": 6137,
      "åı¯ä»¥éĢļè¿ĩ": 6138,
      "ç¾İåĨĽ": 6139,
      "äºĶä¸ªäºº": 6140,
      "éĢłè°£": 6141,
      "éļĲç§ģ": 6142,
      "æĥħç»ªãĢĤčĊ": 6143,
      "ä»·åĢ¼è§Ĥ": 6144,
      "çĹĽèĭ¦": 6145,
      "æĿĲæĸĻ": 6146,
      "å¹¸ç¦ı": 6147,
      "âĢĿåĽłæŃ¤,âĢľ": 6148,
      "çļĦåıĺåĮĸ": 6149,
      "ãĢĤæł¹æį®": 6150,
      "æľīæĦıæĢĿ": 6151,
      "åĴĮç¤¾ä¼ļ": 6152,
      "åı¯èĥ½éľĢè¦ģ": 6153,
      "è¡¨è¿°": 6154,
      "ç³ķ": 6155,
      "éĹ®é¢ĺçļĦåĲ«ä¹ī": 6156,
      "åĥıæĺ¯ä¸Ģç§į": 6157,
      "ä»£æľº": 6158,
      "å¹³åĿĩ": 6159,
      "å¥³åıĭ": 6160,
      "æĸ¹å¼ıãĢĤčĊ": 6161,
      "æ¯ıå¹´": 6162,
      "åįłæ¯Ķ": 6163,
      "çĽĹåľ£": 6164,
      "ï¼Įåħ¶ä¸Ń": 6165,
      "æİĮæı¡": 6166,
      "åĴ±ä»¬": 6167,
      "¾æ°Ķ": 6168,
      "Ġå°±": 6169,
      "çļĦéĢ»è¾ĳ": 6170,
      "ãĢĤéĢļè¿ĩ": 6171,
      "åĲ´": 6172,
      "ä¹ĥ": 6173,
      "ä¸Ģå¼ł": 6174,
      "å°±ä¸įä¼ļ": 6175,
      "ä¸Ńä¸ľ": 6176,
      "åĩºï¼Į": 6177,
      "åĲ§ãĢĤ": 6178,
      "æĪĲéĥ½": 6179,
      "ç»ıèĲ¥": 6180,
      "ä½ĵçļĦ": 6181,
      "ä¸ĸä¸Ģ": 6182,
      ".Ġ.Ġ": 6183,
      "ä¿Ŀä¸Ģ": 6184,
      "ï¼Įä½łä¼ļ": 6185,
      "åĬŁåĬ³": 6186,
      "åĪºæ¿Ģ": 6187,
      "æµĭè¯ķ": 6188,
      "çŁŃæĸĩ": 6189,
      "å°ºå¸Ŀ": 6190,
      "æĳĺè¦ģï¼ļ": 6191,
      "4ä¸ª": 6192,
      "å°±åľ¨": 6193,
      "æĿ¥ä¸ª": 6194,
      "å¤§èµĽ": 6195,
      "è¢«æīĵ": 6196,
      "è¿Ļç§įè¡Įä¸º": 6197,
      "æĶ¹åĸĦ": 6198,
      "çĪ±çļĦ": 6199,
      "çªĥ": 6200,
      "é¥±": 6201,
      "ç»´æĮģ": 6202,
      "tion": 6203,
      "è´´åĲ§çĶ¨æĪ·_J": 6204,
      ".s6": 6205,
      "s7": 6206,
      "æĺ¯ä»ĸ": 6207,
      "ä»Ĺ": 6208,
      "æĿ¥äºĨï¼Į": 6209,
      "çĶ¨ï¼Į": 6210,
      "å¤ļäºĨčĊ": 6211,
      "çĤ¹çļĦ": 6212,
      "ï¼ĮæĪĳçľĭ": 6213,
      "è¯Ŀè¯´": 6214,
      "è°ĥæŁ¥": 6215,
      "ç½ĳçº¢": 6216,
      "èı²": 6217,
      "æĦŁè§īä¸įå¦Ĥ": 6218,
      "åĳ³éģĵ": 6219,
      "éĥ½ä¸įè¦ģ": 6220,
      "åŀĭåı·": 6221,
      "äºĴæį¢": 6222,
      "é¦ĸåħĪï¼ĮæĪĳä»¬éľĢè¦ģæĺİç¡®éĹ®é¢ĺçļĦæł¸å¿ĥï¼ļ": 6223,
      "è¯ģæĺİèĩªå·±": 6224,
      "é¦ĸåħĪï¼ĮæĪĳéľĢè¦ģçĲĨè§£éĹ®é¢ĺçļĦèĥĮæĻ¯åĴĮ": 6225,
      "åĵ¦ðŁĺ§ï¼Łåĵ¦ðŁĺ§ï¼Łåĵ¦ðŁĺ§ï¼Łåĵ¦ðŁĺ§ï¼Ł": 6226,
      "åĴĸåķ¡": 6227,
      "night": 6228,
      "çļĦéĺŁ": 6229,
      "è¯Ī": 6230,
      "ç»ĺ": 6231,
      "æĮ£": 6232,
      "æĢİä¹Īä¸į": 6233,
      "çľŁçļĦå¾Ī": 6234,
      "åĺ¿": 6235,
      "åıĮåľĪ": 6236,
      "è§Ħå®ļ": 6237,
      "åģ·åģ·": 6238,
      "æıĲéĹ®èĢħçļĦ": 6239,
      "è°ĲéŁ³": 6240,
      "ï¼Įå¥¹": 6241,
      "æĺ¯ï¼ļ": 6242,
      "ä¸įå®ļ": 6243,
      "åľ¨ä¸ĭåĪĴçº¿å¤Ħ": 6244,
      "åĴĮå¯¹": 6245,
      "å¤§å°ı": 6246,
      "æīĵè¾ĵåĩº": 6247,
      "åİ»ä¸ĸ": 6248,
      "æŁľ": 6249,
      "ç¾İåħĥ": 6250,
      "éĢģčĊ": 6251,
      "ç¢³": 6252,
      "åĽ¾åĥı": 6253,
      "Ġ19": 6254,
      "èĽ®": 6255,
      "åĲĦä½į": 6256,
      "ï¼Įä»ĸçļĦ": 6257,
      "æĿĥåĬĽ": 6258,
      "11-": 6259,
      "ä¸²åŃĲ": 6260,
      "é¦Ļåħĭæĸ¯": 6261,
      "å¡«åľ¨ä¸ĭåĪĴçº¿å¤Ħ": 6262,
      "åĨ·çŁ¥è¯Ĩï¼Į": 6263,
      "èļĤèļģ": 6264,
      "din": 6265,
      "äºĨï¼ģčĊ": 6266,
      "ä¸įéĢĤ": 6267,
      "ãĢĤçĦ¶èĢĮ": 6268,
      "åŃĲå¼¹": 6269,
      "éĤ£ä½ł": 6270,
      "æµ®": 6271,
      "åĵ¥čĊ": 6272,
      "çļĦï¼Įä½Ĩæĺ¯": 6273,
      "åıĸå¾Ĺ": 6274,
      "åł¡": 6275,
      "åı¸æľº": 6276,
      "çĨĬ": 6277,
      "åī§æĥħ": 6278,
      "åĽ°å¢ĥ": 6279,
      "åĢ¾åĲĳ": 6280,
      "åħģè®¸": 6281,
      "5æľĪ": 6282,
      "ä¸Ģä½į": 6283,
      "ä¸Ģå¥Ĺ": 6284,
      "å°±å·²ç»ı": 6285,
      "ä¹Łä¸Ń": 6286,
      "è¢«å¼Ģ": 6287,
      "èĢģå¹´": 6288,
      "è¿Ļç§įæĥħåĨµ": 6289,
      "çĽ®çļĦ": 6290,
      "....": 6291,
      "think": 6292,
      "åŃķå¦ĩ": 6293,
      "çĨ¬å¤ľ": 6294,
      "å¡«ç©ºä»»åĬ¡ãĢĤ": 6295,
      "ss": 6296,
      "åįĵ": 6297,
      "åı¯éĿł": 6298,
      "ä¼ļå¯¹": 6299,
      "å¹´ä»£": 6300,
      "èĩªä¸»": 6301,
      "æĪĲç«ĭ": 6302,
      "å®¶çļĦ": 6303,
      "åıĬåħ¶": 6304,
      "çĲĨè§£ãĢĤčĊ": 6305,
      "ä¼ĺåħĪ": 6306,
      "åĭĭ": 6307,
      "å³¡": 6308,
      "ä¸įä»ħä»ħ": 6309,
      "éĢĲæ¸Ĳ": 6310,
      "çļĦå·ħå³°åĲĹï¼Ł": 6311,
      "cfo": 6312,
      "çļĦåĨłåĨĽ": 6313,
      "è¿Ļæ¸¸æĪı": 6314,
      "æĸ¤": 6315,
      "âĢĿçŃī": 6316,
      "è¦ģä¸į": 6317,
      "æ²¡çľĭ": 6318,
      "éĹ®éĹ®": 6319,
      "æĪĸçī¹å®ļ": 6320,
      "éģĵæŃī": 6321,
      "åĨĽéĺŁ": 6322,
      "éĩįè§Ĩ": 6323,
      "å¢¨": 6324,
      "çĶ¨æĪ·åľ¨": 6325,
      "åĨįè¯´": 6326,
      "åĺī": 6327,
      "binĠ": 6328,
      "åı£åıĭ": 6329,
      "åĶ¤": 6330,
      "çĥŃçŁ¥è¯Ĩ": 6331,
      "åĺ´èĩŃ": 6332,
      "åĳ¨çŁ¥": 6333,
      "çĨŁæĤī": 6334,
      "èººèµ¢": 6335,
      "çĶ³è¯·": 6336,
      "ä¿ĥè¿Ľ": 6337,
      "æ±½è½¦": 6338,
      "34": 6339,
      "çļĦä¸Ĭåįķ": 6340,
      "éĥ½å¾Ĺ": 6341,
      "äºĨï¼Įä¸į": 6342,
      "å¦¥": 6343,
      "å®ŀéªĮ": 6344,
      "è¡Įï¼Į": 6345,
      "ä¹ĭç±»": 6346,
      "ä¸¤ç§į": 6347,
      "éķĸ": 6348,
      "éļ¾åıĹ": 6349,
      "çļĦäººï¼Į": 6350,
      "è¿Ľä¸ĢæŃ¥æĢĿèĢĥ": 6351,
      "æĿ¿éŀĭ": 6352,
      "å·¨å¤§": 6353,
      "æ¿ĢçĥĪ": 6354,
      "ä¸¥éĩįçļĦ": 6355,
      "è·ªä¸ĭčĊ": 6356,
      "GE": 6357,
      "åĲ¨": 6358,
      "ä¸ĢçĻ¾": 6359,
      "èµ¤": 6360,
      "éĤ®": 6361,
      "å¼ºåĮĸ": 6362,
      "ä¸īæĬĬ": 6363,
      "éĩİçĭĹ": 6364,
      "èģĶç½ĳ": 6365,
      "åİĭåĪ¶": 6366,
      "æŀģéĻĲ": 6367,
      "æĲŀå¾Ĺ": 6368,
      "çħ§æł·": 6369,
      "åĨľæĿĳ": 6370,
      "é½¿": 6371,
      "think>": 6372,
      "SåĨł": 6373,
      "ï¼ĮæĢ»": 6374,
      "çļĦçĬ¶æĢģ": 6375,
      "ä¸įæĢķ": 6376,
      "æĪĳçŁ¥éģĵ": 6377,
      "æĪĳä¸ĢçĽ´": 6378,
      "ä¼ı": 6379,
      "è¯´è¿ĩ": 6380,
      "ï¼ĮæĪĳè§īå¾Ĺ": 6381,
      "æ¶Ĥ": 6382,
      "é¦ĸé¡µ": 6383,
      "ä¿¡ä»»": 6384,
      "çī©åĵģ": 6385,
      "å±Ģï¼Į": 6386,
      "æĹ¥åŃĲ": 6387,
      "åħ³ç³»ãĢĤčĊ": 6388,
      "çıį": 6389,
      "åĵªä¸ªæĪĲè¯Ń": 6390,
      "ä¸¢äºº": 6391,
      "éķľå¤´": 6392,
      "åĩŃä»Ģä¹Ī": 6393,
      "ç»ĳæŀ¶": 6394,
      "è±¹å¥³": 6395,
      "èķ": 6396,
      "ä¸įæ¸ħ": 6397,
      "æľīäºĨ": 6398,
      "ä¹Łåı¯èĥ½": 6399,
      "æķ²": 6400,
      "ç½ķ": 6401,
      "æ»ĭ": 6402,
      "è¾ĵäºĨï¼Į": 6403,
      "å®ĮäºĨï¼Į": 6404,
      "æ´»è¯¥": 6405,
      "æĢĿç»´": 6406,
      "çĽ´æİ¥åĽŀçŃĶ": 6407,
      "è¿Ļä¹Īè¯´": 6408,
      "çİĭèĢħ": 6409,
      "åĦ¿ç«¥": 6410,
      "èĽĻ": 6411,
      "å±ķçİ°": 6412,
      "çģ«åĬĽ": 6413,
      "æ£ĢæŁ¥": 6414,
      "1000": 6415,
      "ep": 6416,
      "ï¼ĮéĻ¤äºĨ": 6417,
      "çļĦå®ŀåĬĽ": 6418,
      "äºĨå¾Īå¤ļ": 6419,
      "ä¹ĸ": 6420,
      "æĿ¥čĊ": 6421,
      "åİħ": 6422,
      "æľĢæĸ°": 6423,
      "å°ıçģ«é¾Ļ": 6424,
      "åĽŀæĹĭ": 6425,
      "ç³Ļ": 6426,
      "ç²Ĺ": 6427,
      "åĨħçļĦ": 6428,
      "åĥıä¸ª": 6429,
      "äº§ä¸ļ": 6430,
      "è¸ª": 6431,
      "æģ¶æĦı": 6432,
      "åħ¸åŀĭ": 6433,
      "çºªå¿µ": 6434,
      "çļĦæĢģåº¦ãĢĤčĊ": 6435,
      "oke": 6436,
      "å«Įå¼ĥ": 6437,
      "iP": 6438,
      "ï¼ĮBLG": 6439,
      "äºĨðŁĺ": 6440,
      "è¿Ļèĭ±éĽĦ": 6441,
      "ä»ĸå¦Ī": 6442,
      "è¯´ä»Ģä¹Ī": 6443,
      "éĹ®é¢ĺãĢĤ": 6444,
      "å¦Ĥä¸ĭ": 6445,
      "ç»Ļåĩº": 6446,
      "åľ°æ²Ł": 6447,
      "åĨłçİĭ": 6448,
      "èĪħ": 6449,
      "ç¥ŀčĊ": 6450,
      "ä»İä¸Ĭ": 6451,
      "åĬ©äºİ": 6452,
      "tesĠ": 6453,
      "æĤ¬": 6454,
      "æł¼å¼ı": 6455,
      "ç»´é²ģæĸ¯": 6456,
      "çĽ¸åħ³ãĢĤčĊ": 6457,
      "çĽ´æĴŃéĹ´": 6458,
      "æľ¬æĿ¥å°±": 6459,
      "åģľæŃ¢": 6460,
      "æģĲæĥ§": 6461,
      "è¿Ŀæ³ķ": 6462,
      "å®ĹæķĻ": 6463,
      "cout": 6464,
      "åľ°æ²Łæ²¹": 6465,
      "ruler": 6466,
      "ï¼Įä¸Ĭ": 6467,
      "äºĨä½ł": 6468,
      "æĪĳåĽ½": 6469,
      "è¿ĺä¼ļ": 6470,
      "æĪĸè¡Įä¸º": 6471,
      "çľĭä¸įåĪ°": 6472,
      "èĩªåĺ²": 6473,
      "æĸ°é²ľ": 6474,
      "æĶ¶èĹı": 6475,
      "åħŃåĽĽ": 6476,
      "éľĢæ±ĤãĢĤčĊ": 6477,
      "æ»ĳæĿ¿éŀĭ": 6478,
      "åĪłéĻ¤": 6479,
      "çĲĨæĢ§è®¨è®º": 6480,
      "!čĊ": 6481,
      "37": 6482,
      "8U": 6483,
      "be": 6484,
      "poke": 6485,
      "yy": 6486,
      "åĪ¸": 6487,
      "è¿Ļäºĭ": 6488,
      "çľī": 6489,
      "è¡ħ": 6490,
      "çľĭä»ĸ": 6491,
      "ï¼ģĠ": 6492,
      "ä¸ºä»Ģä¹Īè¦ģ": 6493,
      "è§Ĥå¿µ": 6494,
      "å½¢æĢģ": 6495,
      "çĥŃéĹ¨": 6496,
      "å¥¥è¿Ĳ": 6497,
      "leave": 6498,
      "çĻ»å³°": 6499,
      "ç¦ģè¨Ģ": 6500,
      "ä¸ŃæıĲåĪ°äºĨâĢľ": 6501,
      "åĽºå®ļ": 6502,
      "è´¬ä½İ": 6503,
      "HLE": 6504,
      "ï¼Įä¸ĸçķĮèµĽ": 6505,
      "çļĦéĢīæĭ©": 6506,
      "åĲŀ": 6507,
      "æĸ§": 6508,
      "åĴĶ": 6509,
      "éĥ½æīĵä¸įè¿ĩ": 6510,
      "ä¹Łæ¯Ķ": 6511,
      "åĩºåı£": 6512,
      "æĬĬä»ĸ": 6513,
      "éĶĲ": 6514,
      "å¼ºåĬ¿": 6515,
      "åĸµ": 6516,
      "èµ¢äºĨčĊ": 6517,
      "åŁĭ": 6518,
      "ï¼ĮèĢĮåĽŀçŃĶèĢħ": 6519,
      "çĽ®çļĦæĺ¯": 6520,
      "èī²å½©": 6521,
      "è½¬åĮĸ": 6522,
      "èıľčĊ": 6523,
      "éļıæľº": 6524,
      "æļ´éľ²": 6525,
      "åĵĪåĵĪåĵĪ": 6526,
      "ç£ģ": 6527,
      "èĻļæŀĦ": 6528,
      "ï¼Łï¼Łï¼ŁčĊ": 6529,
      "åį¢å¨ľ": 6530,
      "çļĦè¯Ńè¨Ģ": 6531,
      "åĢĻéĢīçļĦæĪĲè¯Ń": 6532,
      "å§Ĳå§Ĳ": 6533,
      "åĵİåĳ¦": 6534,
      "çĽ¸å½ĵäºİ": 6535,
      "åĢĻéĢīçļĦæĪĲè¯Ńï¼ļ": 6536,
      "ft": 6537,
      "Â¿": 6538,
      "ĠVS": 6539,
      "å¤¹": 6540,
      "æ²Ī": 6541,
      "åı¯èĥ½æºĲäºİ": 6542,
      "çº·": 6543,
      "å¾Ĺä¸Ĭ": 6544,
      "æĪĲéķ¿": 6545,
      "2000": 6546,
      "å½ĵåľ°": 6547,
      "ç¥ŀç»ı": 6548,
      "è¿ĺæĺ¯æľī": 6549,
      "èº«è¾¹": 6550,
      "éĥİ": 6551,
      "ãĢĤè¿ĻéĩĮçļĦâĢľ": 6552,
      "å¤įä»ĩ": 6553,
      "åİĭæĬĳ": 6554,
      "msiåĨłåĨĽ": 6555,
      "ï¼Įåı¯èĥ½éľĢè¦ģ": 6556,
      "âĢ¦čĊ": 6557,
      "åİĨåı²ä¸Ĭ": 6558,
      "æĮĳè¡ħ": 6559,
      "åľ¨åĵªéĩĮ": 6560,
      "æ¼Ĥäº®": 6561,
      "çł°çł°": 6562,
      "dinner": 6563,
      "1ãĢģ": 6564,
      "ï¼Įè¡¨ç¤º": 6565,
      "ãĢĤèĻ½çĦ¶": 6566,
      "ä¸Ģå®¶": 6567,
      "è¿Ļæ®µ": 6568,
      "æµĵ": 6569,
      "é«ĺčĊ": 6570,
      "å¸¸å¸¸": 6571,
      "æĢİä¹Īè¿Ļä¹Ī": 6572,
      "æŃ¤å¤ĸ": 6573,
      "éĩĳçīĮ": 6574,
      "é»ĳèī²": 6575,
      "Ġ11": 6576,
      "æ¨¡ç³Ĭ": 6577,
      "åĲĦä¸ª": 6578,
      "ç§°ä¸º": 6579,
      "èļĬ": 6580,
      "éĹªéģ¿": 6581,
      "çİ°è±¡çļĦ": 6582,
      "åĿĹéĴ±": 6583,
      "èĪĴéĢĤ": 6584,
      "ãĢĤãĢĤãĢĤ": 6585,
      "ç»Łæ²»åĬĽ": 6586,
      "ç§ĳçĽ®åĽĽ": 6587,
      "è´¸æĺĵ": 6588,
      "5ä¸ª": 6589,
      "ï¼Įå¥½": 6590,
      "ï¼Įè¯¥": 6591,
      "åĴĮblg": 6592,
      "å¤§å¤ļæķ°": 6593,
      "ä¼ļå¯¼èĩ´": 6594,
      "çĶ¨âĢľ": 6595,
      "åıĳå°Ħ": 6596,
      "åĸ½": 6597,
      "æĽ´å¥½çļĦ": 6598,
      "åıįä¸²": 6599,
      "æ°ĳä¸»": 6600,
      "âĢĿï¼Įè¿Ļæĺ¾çĦ¶": 6601,
      "âĢĿçļĦå®ļä¹ī": 6602,
      "ç¬¬äºĮä¸ª": 6603,
      "Ġ09": 6604,
      "éĶĢæĪ·": 6605,
      "æķ´ä½ĵæĿ¥çľĭï¼Į": 6606,
      "åģ¶å°Ķ": 6607,
      "éĵľçīĮ": 6608,
      "ç¢¾åİĭ": 6609,
      "ĠVSĠ": 6610,
      "JK": 6611,
      "ac": 6612,
      "kanavi": 6613,
      "ï¼ĮæľĢç»Ī": 6614,
      "ä¸įå¤§": 6615,
      "è®¶": 6616,
      "åģ¿": 6617,
      "åĲĪæ³ķ": 6618,
      "åı¯ä»¥è¯´": 6619,
      "ä¸¤äºº": 6620,
      "æŃ»çļĦ": 6621,
      "å·¥ç¨ĭ": 6622,
      "åģļäºĭ": 6623,
      "èĩ³ä»Ĭ": 6624,
      "æĬĢå·§": 6625,
      "2025-5-12": 6626,
      "ç½ĳç»ľæĸĩåĮĸ": 6627,
      "æŃ£å¸¸äºº": 6628,
      "åĢĴæĺ¯": 6629,
      "å®¶åºĹï¼Į": 6630,
      "æĥĬè®¶": 6631,
      "ï¼ģï¼ģï¼ģ": 6632,
      "ä¼Łå¤§": 6633,
      "åĨĴæ³¡": 6634,
      "12-21": 6635,
      "5%": 6636,
      "ik": 6637,
      "ï¼Įå¾Ī": 6638,
      "ï¼Įåħ¶å®ŀ": 6639,
      "çļĦé£İéĻ©": 6640,
      "æľīè¶£": 6641,
      "åįĳ": 6642,
      "ä½łä»Ģä¹Ī": 6643,
      "æĿ¥äºĨčĊ": 6644,
      "ä¹Łå°±æĺ¯": 6645,
      "ä¸Ńå¤®": 6646,
      "çľĭå¾ħ": 6647,
      "çĶ¨äºĨ": 6648,
      "è°ĳ": 6649,
      "æ¸´": 6650,
      "åĬ¨æĢģ": 6651,
      "åŃ¦åİĨ": 6652,
      "æ°Ķæ°Ľ": 6653,
      "åĬ©æīĭ": 6654,
      "åĪĻæĺ¯": 6655,
      "åģĩå¦Ĥ": 6656,
      "çĪ±æĥħ": 6657,
      "æī¾ä¸įåĪ°": 6658,
      "æ¯ıä¸ªäºº": 6659,
      "ãģ¦": 6660,
      "ç¦»äºĨ": 6661,
      "éļıæĦı": 6662,
      "å±ŀæĢ§": 6663,
      "éĽĨä¸Ń": 6664,
      "åħ³éĶ®è¯įï¼ļ": 6665,
      "çĪ¸çĪ¸": 6666,
      "çĳŀåħ¹": 6667,
      "çŀİåŃĲ": 6668,
      "ï¼Įè¿Ļå°±æĺ¯å°¿ç½ĲåŃĲ": 6669,
      "çŁ³æ²¹æĿ¯": 6670,
      "3000": 6671,
      "Ġv": 6672,
      "ä¸Ģæīĵ": 6673,
      "æīĶ": 6674,
      "æĪĳè¦ģ": 6675,
      "éĢĿ": 6676,
      "çľĭç¬ĳäºĨčĊ": 6677,
      "éģ®": 6678,
      "å°ıçº¢": 6679,
      "ä»Ģä¹ĪčĊ": 6680,
      "è¡¨è¾¾æĸ¹å¼ı": 6681,
      "æĶ¾å¿ĥ": 6682,
      "æĪıè°ĳ": 6683,
      "ç©ºåĨĽ": 6684,
      "åįĬå¤©": 6685,
      "é¢ĦæľŁ": 6686,
      "èĪ°èīĩ": 6687,
      "çĶ¨æĪ·çļĦéĹ®é¢ĺæĺ¯åħ³äºİ": 6688,
      "2ãĢģ": 6689,
      "Ġçİ°åľ¨": 6690,
      "ï¼Įå¤©": 6691,
      "ï¼Įç¢§èŀºæĺ¥": 6692,
      "ï¼Įå®ŀéĻħä¸Ĭ": 6693,
      "ãĢĤè¿Ļä¸ª": 6694,
      "å°´": 6695,
      "çĶĺ": 6696,
      "è¡°": 6697,
      "æīĵåĪĨ": 6698,
      "æīĵæ»¡": 6699,
      "ä¸ĭéĻĲ": 6700,
      "å±Ī": 6701,
      "å¼ĢåĲ¯": 6702,
      "åı¯ä»¥æİ¨æµĭ": 6703,
      "æĻĴ": 6704,
      "çĥ¤": 6705,
      "çº¿ä¸ĭ": 6706,
      "çī©èµĦ": 6707,
      "éħ·": 6708,
      "æĢ»åĨ³èµĽ": 6709,
      "è§ģåĪ°": 6710,
      "èĭ±éĽĦï¼Į": 6711,
      "ðŁĲ¢": 6712,
      "å¼ķåħ¥": 6713,
      "æ§Ł": 6714,
      "éļĲåĲ«": 6715,
      "å¥¶å¥¶": 6716,
      "éĢļå¸¸æĮĩçļĦæĺ¯": 6717,
      "ä¾Ŀæį®": 6718,
      "è±¡å¾ģçĿĢ": 6719,
      "åĨĴæ³¡èµĽ": 6720,
      "ï¼Įé«ĺ": 6721,
      "ä¸ĢåĦ¿": 6722,
      "å°±å¾Ī": 6723,
      "âĢĿĠ": 6724,
      "æ²¡èĦĳåŃĲ": 6725,
      "ä¹Łç®Ĺ": 6726,
      "äºĨï¼ĮéĤ£": 6727,
      "å¿ĥèĦı": 6728,
      "åľ°éľĩ": 6729,
      "æŀľçĦ¶": 6730,
      "æĽ´ä¸º": 6731,
      "å§ĳ": 6732,
      "åıĪä¸į": 6733,
      "çī¹æķĪ": 6734,
      "éĹ®é¢ĺçļĦèĥĮæĻ¯": 6735,
      "åĽĽä¿Ŀä¸Ģ": 6736,
      "åı·çłģ": 6737,
      "æºĥ": 6738,
      "ä¼ĺç§Ģ": 6739,
      "é¥¼": 6740,
      "åĨħå®¹çļĦ": 6741,
      "è¿Ľè¡ĮäºĨ": 6742,
      "ï¼Įåı¯èĥ½ä¸İ": 6743,
      "é¥Ńåį¡": 6744,
      "åħħåĪĨ": 6745,
      "é¦ĸåħĪï¼ĮæĪĳéľĢè¦ģæĺİç¡®": 6746,
      "hzhs": 6747,
      "èĶ¡": 6748,
      "èĥİçĽĺåŃĲ": 6749,
      "xtq": 6750,
      "App": 6751,
      "jj": 6752,
      "ï¼Įå½ĵæĹ¶": 6753,
      "çļĦæ°´": 6754,
      "æĺ¯äºº": 6755,
      "è¿Ļb": 6756,
      "è¿Ļä¸ĢçĤ¹": 6757,
      "éĢĽ": 6758,
      "åĵĶ": 6759,
      "æ²¡æ³ķ": 6760,
      "ä¸Ńåįİ": 6761,
      "èµĽåīį": 6762,
      "æĹłæķ°": 6763,
      "åīįä¸ī": 6764,
      "è¿ĽåĨ³èµĽ": 6765,
      "åĬ¨çĶ»": 6766,
      "èµ·é£ŀ": 6767,
      "çŃīãĢĤ": 6768,
      "éĩįå¤§": 6769,
      "å¥³èŃ¦": 6770,
      "åı¯èĥ½æĺ¯åľ¨è¡¨è¾¾å¯¹": 6771,
      "æī¹æįŀ": 6772,
      "ãĢĤèĢĮä¸Ķ": 6773,
      "çĺ¦": 6774,
      "æįŀæī¹æįŀ": 6775,
      "https": 6776,
      "å°´å°¬": 6777,
      "eèĦ¸": 6778,
      "ï¼Įåıĳçİ°": 6779,
      "åĵŁ": 6780,
      "çº¹": 6781,
      "çĿ£": 6782,
      "èĥ¸": 6783,
      "çķª": 6784,
      "è¿ĺæĺ¯è¦ģ": 6785,
      "å§¨": 6786,
      "åĲ¦åĪĻ": 6787,
      "åŀĤ": 6788,
      "æİ¨è¿Ľ": 6789,
      "çĶ·æĢ§": 6790,
      "æł¼æ¸©": 6791,
      "æ³¨éĩį": 6792,
      "ç»Ŀå¢ĥ": 6793,
      "ãĢĭãĢĬ": 6794,
      "21å¹´çļĦ": 6795,
      "å¹¶ä¸įæĦıåĳ³çĿĢ": 6796,
      "çĿ¡è§ī": 6797,
      "åŃ¤åĦ¿": 6798,
      "tp": 6799,
      "ï¼Įæīįèĥ½": 6800,
      "çļĦè¯´æ³ķ": 6801,
      "èĥ½åľ¨": 6802,
      "æĪĳï¼Į": 6803,
      "å°±ä¸ļ": 6804,
      "åĲ§8U": 6805,
      "é¦Ī": 6806,
      "è¯ŃéŁ³": 6807,
      "åħ³ç³»çļĦ": 6808,
      "æĢĿèĢĥå¦Ĥä½ķ": 6809,
      "æĬ½å¥ĸ": 6810,
      "æ¼Ķåĳĺ": 6811,
      "èµŀåĬ©": 6812,
      "èį¯çī©": 6813,
      "å®¶åºĹï¼ĮèĤ¡ä»·": 6814,
      "um": 6815,
      "ï¼Įç¼ºä¹ı": 6816,
      "äººä¸į": 6817,
      "ä½łåı¯ä»¥": 6818,
      "åĵĦ": 6819,
      "æ¬£": 6820,
      "å°ıä¸ĳ": 6821,
      "æį¡": 6822,
      "å¼ºå¤§çļĦ": 6823,
      "å¤´čĊ": 6824,
      "åı¯èĥ½æĺ¯ä¸ºäºĨ": 6825,
      "ä¸»è§Ĵ": 6826,
      "å¤ĸéĿ¢": 6827,
      "æĸĩä»¶": 6828,
      "åģļæ³ķ": 6829,
      "**ï¼ļčĊ": 6830,
      "æ¢ģ": 6831,
      "éĶĻäºĨï¼Į": 6832,
      "æĺŁæľŁ": 6833,
      "å¾ħéģĩ": 6834,
      "å¯Ĩçłģ": 6835,
      "æĹłåħ³ãĢĤčĊ": 6836,
      "å¤ªå¤ļäºĨčĊ": 6837,
      "æĥĬå¤©": 6838,
      "çĿ¡çľł": 6839,
      "æģŃåĸľ": 6840,
      "æıŃç¤ºäºĨ": 6841,
      "zeus": 6842,
      "çļĦåĲį": 6843,
      "ä»°": 6844,
      "ä¸Ģæīĭ": 6845,
      "ä¸Ģå¼Ģå§ĭ": 6846,
      "å¥ĳ": 6847,
      "å¯¹çĿĢ": 6848,
      "çİ©äºĨ": 6849,
      "æĦŁæŁĵ": 6850,
      "å¸¦æĿ¥çļĦ": 6851,
      "æĢİä¹Īè¯´": 6852,
      "é¦ĸåħĪï¼Įè¿Ļä¸ªéĹ®é¢ĺ": 6853,
      "çĭĹčĊ": 6854,
      "çĻ½éĵ¶": 6855,
      "åĨ·éĿĻ": 6856,
      "ç¤¼åĮħ": 6857,
      "èŃ¦å¯Ł": 6858,
      "çŀ¬": 6859,
      "rook": 6860,
      "ï¼Įå°¤åħ¶æĺ¯åľ¨": 6861,
      "aoe": 6862,
      "éĴ»çŁ³": 6863,
      "2:": 6864,
      "âĿ": 6865,
      "Ġ(": 6866,
      "ï¼İ": 6867,
      "çļĦåĨĽäºĭ": 6868,
      "åĲĴ": 6869,
      "æīĴ": 6870,
      "è¾Ĩ": 6871,
      "å¯¹æŃ¤": 6872,
      "çīº": 6873,
      "éĤ£éĩĮ": 6874,
      "åĵ¥ï¼Į": 6875,
      "ï¼Įè¿Ļä¹Ī": 6876,
      "é£ĺ": 6877,
      "æ²¡æľīäºº": 6878,
      "ç¢Ĺ": 6879,
      "åĵ¦čĊ": 6880,
      "Ġ18": 6881,
      "éĥ½ä¸įå¦Ĥ": 6882,
      "åį³å°Ĩ": 6883,
      "æ¶ĪèĢĹ": 6884,
      "ä½ľä¸ºä¸Ģä¸ª": 6885,
      "èģĶèµĽåĨłåĨĽ": 6886,
      "ç»§æī¿": 6887,
      "åı¦ä¸Ģ": 6888,
      "å°±è¡ĮäºĨčĊ": 6889,
      "hope": 6890,
      "ä¸įæķ¢æĥ³": 6891,
      "èĨľ": 6892,
      "ape": 6893,
      "æģĭçĪ±": 6894,
      "ç§ĺå¯Ĩ": 6895,
      "ï¼Ŀ": 6896,
      "çļĦç»ıæµİ": 6897,
      "è¿Ī": 6898,
      "åı¹": 6899,
      "ãĢĤçİ°åľ¨": 6900,
      "ä¸Ģèĩ´": 6901,
      "åĵ©": 6902,
      "è¯´çĻ½": 6903,
      "å¥½åıĭ": 6904,
      "éĤ¦": 6905,
      "æĹ¶çļĦ": 6906,
      "è°ģèĥ½": 6907,
      "å®īæħ°": 6908,
      "è¸ı": 6909,
      "æ£į": 6910,
      "é¦ĸåħĪï¼ĮéľĢè¦ģæĺİç¡®": 6911,
      "è§ĦèĮĥ": 6912,
      "æ¶Īå¤±": 6913,
      "ä¸ĵæ³¨": 6914,
      "buff": 6915,
      "éĻ·åħ¥": 6916,
      "è¯¦ç»Ĩ": 6917,
      "åħľåºķ": 6918,
      "åī¥å¤º": 6919,
      "çīºçī²": 6920,
      "FMVP": 6921,
      "dy": 6922,
      "nm": 6923,
      "çļĦæľºä¼ļ": 6924,
      "è¿ģ": 6925,
      "æīŃ": 6926,
      "å°ıåŃ©": 6927,
      "åīįæıĲ": 6928,
      "åķĬãĢĤčĊ": 6929,
      "èĥŀ": 6930,
      "æĪĺæľº": 6931,
      "åĬ¨ï¼Į": 6932,
      "åĿ¡": 6933,
      "åĲĮäºĭ": 6934,
      "åľºï¼Į": 6935,
      "è¿ĺæĺ¯å¤ª": 6936,
      "æĸĩåŃ¦": 6937,
      "2025-05-": 6938,
      "åĲ¦å®ļ": 6939,
      "**čĊ": 6940,
      "é¸½": 6941,
      "è§Ĩè§Ĵ": 6942,
      "åģĩçļĦ": 6943,
      "å»ºçŃĳ": 6944,
      "ä¼łéĢĴ": 6945,
      "åºķä¸ĭ": 6946,
      "åı²ä¹¦": 6947,
      "éĺ²æŃ¢": 6948,
      "æĺ¯å¯¹çļĦčĊ": 6949,
      "è´§èī²": 6950,
      "åģıè§ģ": 6951,
      "èĶ½": 6952,
      "åĲ¬è§ģä½łè¯´": 6953,
      "åıĮåľĪå¤§æ»¡è´¥": 6954,
      "åĽŀæĹĭéķĸ": 6955,
      "ld": 6956,
      "s5": 6957,
      "æĺ¯çļĦï¼Į": 6958,
      "æĺ¯åĲ§ï¼Į": 6959,
      "ä¸ĢæĹ¦": 6960,
      "å¤§çļĦï¼Į": 6961,
      "å¤§é¸¡èĽĭ": 6962,
      "è¾©": 6963,
      "è¿ĺæ²¡æľī": 6964,
      "ä¹Łåľ¨": 6965,
      "æłĸ": 6966,
      "ä¸ĭæ»ĳ": 6967,
      "èµĽåľº": 6968,
      "çĤİ": 6969,
      "éģ¥": 6970,
      "æľ¬äºº": 6971,
      "åľ°ï¼Į": 6972,
      "è¶ģ": 6973,
      "èĦ¾æ°Ķ": 6974,
      "çĶ¨æĪ·è¯¢éĹ®": 6975,
      "æĪĳä»¬æĺ¯": 6976,
      "å°ĳå¹´": 6977,
      "æ¯ĶèµĽï¼Į": 6978,
      "ç¬ĳčĊ": 6979,
      "åĵªæĿ¥çļĦ": 6980,
      "åĩºæĿ¥čĊ": 6981,
      "ä½ķåĨµ": 6982,
      "èıĬ": 6983,
      "ä¼łè¾¾": 6984,
      "å¼łåĽ¾": 6985,
      "å°ģæİ§": 6986,
      "é¢Ħè¨Ģ": 6987,
      "çŀħ": 6988,
      "hone": 6989,
      "å®¶åºĹï¼ĮèĤ¡ä»·è·Į": 6990,
      "knight": 6991,
      "ï¼Įåİ»": 6992,
      "åįµ": 6993,
      "å°±ä¸įæĺ¯": 6994,
      "å°±è·Ł": 6995,
      "æĬ¹": 6996,
      "ä½Ĩåĩ¡": 6997,
      "åħ¨å®¶": 6998,
      "ä¿¡çĶ¨": 6999,
      "éĴĵ": 7000,
      "çł¸": 7001,
      "åĽŀçŃĶä¸ŃæıĲåĪ°âĢľ": 7002,
      "å¥³äºº": 7003,
      "æīĵéĩİï¼Į": 7004,
      "é»ĺè®¤": 7005,
      "çīĽèĤī": 7006,
      "å¸®æĪĳ": 7007,
      "ç¤¾ä¼ļçļĦ": 7008,
      "çħ¤": 7009,
      "æ»ļèĽĭ": 7010,
      "æİ¥ä¸ĭæĿ¥ï¼ĮéĹ®é¢ĺçļĦçŃĶæ¡Īæĺ¯âĢľ": 7011,
      "ä¸įæ»¡ãĢĤčĊ": 7012,
      "é¢ĨåŁŁçļĦ": 7013,
      "åķĬåķĬåķĬåķĬ": 7014,
      "7å¹´": 7015,
      "iao": 7016,
      "çļĦåĽŀçŃĶ": 7017,
      "æĺ¯ä¸ŃåĽ½": 7018,
      "âĢĿä¸İâĢľ": 7019,
      "ä»ĸčĊ": 7020,
      "è¢«çĪĨ": 7021,
      "åĽ½å¤ĸ": 7022,
      "æīĭčĊ": 7023,
      "å°ıç»Ħ": 7024,
      "å¼ºå¤§": 7025,
      "èĤĨ": 7026,
      "çĭ®": 7027,
      "ç¥¸": 7028,
      "æŃ£ä¹ī": 7029,
      "éĹ´æİ¥": 7030,
      "ä¸ĸçķĮä¸Ĭ": 7031,
      "æĴķ": 7032,
      "åĽłæŃ¤ï¼ĮæĢĿèĢĥè¿ĩç¨ĭ": 7033,
      "çº¢æ¸©": 7034,
      "ç½ĳç»ľæ¢Ĺ": 7035,
      "199": 7036,
      "éĽĨä½ĵ": 7037,
      "æĬķéĻį": 7038,
      "åĵ¦ðŁĺ²": 7039,
      "ï¼ĮæīĵåĽ¢": 7040,
      ":47": 7041,
      "åĬ³åĬ¨": 7042,
      "æ½ľèīĩ": 7043,
      "2025-5-17Ġ23": 7044,
      "2ä¸ª": 7045,
      "ly": 7046,
      "of": 7047,
      "å°±è¯´": 7048,
      "åĵĳ": 7049,
      "ä¸Ĭåĺ´èĦ¸": 7050,
      "åĩºä¸ª": 7051,
      "éĹ®é¢ĺä¸ŃçļĦâĢľ": 7052,
      "çºµ": 7053,
      "å±ł": 7054,
      "å®ŀæĸ½": 7055,
      "ï¼ĮæĪĳæĺ¯": 7056,
      "å®ĮåĸĦ": 7057,
      "ï¼Įä¸įè¦ģ": 7058,
      "ï¼Įä½łçļĦ": 7059,
      "èĭ±æĸĩ": 7060,
      "çļĦæĺ¯âĢľ": 7061,
      "èĬ±éĴ±": 7062,
      "å¤±åİ»äºĨ": 7063,
      "åĲ¹çļĦ": 7064,
      "ä¸ĵå®¶": 7065,
      "å¼±æĻº": 7066,
      "ç¤¼è²Į": 7067,
      "theĠ": 7068,
      "æĳĨçĥĤ": 7069,
      "éī´å®ļ": 7070,
      "å²ģæľĪåı²ä¹¦": 7071,
      "1ä¸ª": 7072,
      "6.": 7073,
      "dd": 7074,
      "ï¼Įå¤ļ": 7075,
      "äºĨä¸į": 7076,
      "ãĢĤåĽŀçŃĶèĢħ": 7077,
      "åı¯æĢľ": 7078,
      "ä»ĸäººçļĦ": 7079,
      "çľŁä¸į": 7080,
      "æµħ": 7081,
      "åľ°çĲĨ": 7082,
      "é«ĺæķĪ": 7083,
      "éĴ©": 7084,
      "éĢģæ®¡": 7085,
      "æīįä¼ļ": 7086,
      "è°ģçļĦ": 7087,
      "çĶ·åĪĢ": 7088,
      "èħĬ": 7089,
      "ale": 7090,
      "çº¯ç²¹": 7091,
      "å¥¹ä»¬": 7092,
      "æ¨¡ä»¿": 7093,
      "è¡¨çİ°åĩº": 7094,
      "æĬķç¥¨": 7095,
      "å§Ĩæĸ¯": 7096,
      "åŀ«åºķ": 7097,
      "âĻ": 7098,
      "çļĨ": 7099,
      "çļĦåİĨåı²": 7100,
      "ãĢĤ200": 7101,
      "äººäºĨčĊ": 7102,
      "ä½łä»¥ä¸º": 7103,
      "ä¸ºï¼ļ": 7104,
      "çĽĲ": 7105,
      "åħ¶æ¬¡": 7106,
      "2020": 7107,
      "è¿ĽåĮĸ": 7108,
      "åı¯ä»¥çĲĨè§£": 7109,
      "èĩªå·±æĺ¯": 7110,
      "ä¸¤è¾¹": 7111,
      "blgï¼Į": 7112,
      "åĪ¶è£ģ": 7113,
      "å·¥æĻºèĥ½": 7114,
      "2025-5-7": 7115,
      "è¿ŀæİ¥": 7116,
      "æ¢°": 7117,
      "çĶ·æŀª": 7118,
      "ãģĹ": 7119,
      "ä¿¡æģ¯ï¼Į": 7120,
      "çº¢ç±³": 7121,
      "å¸®å¿Ļ": 7122,
      "åĪĹå¨ľå¡Ķ": 7123,
      "ç»Ŀå¯¹æĺ¯": 7124,
      "åįıè®®": 7125,
      "ðŁ¤£": 7126,
      "æĤĦæĤĦ": 7127,
      "çļĦåı¯èĥ½æĢ§": 7128,
      "ĠC": 7129,
      "äºĨå¥½": 7130,
      "åĪĥ": 7131,
      "äººæīį": 7132,
      "è§Ī": 7133,
      "çŃ¹": 7134,
      "ç»Ļèĩªå·±": 7135,
      "åĲĪæĪĲ": 7136,
      "çļĦï¼ĮåĽłä¸º": 7137,
      "åŁĥ": 7138,
      "äºĮæ¬¡": 7139,
      "å°¿æ¶²": 7140,
      "è£¸": 7141,
      "åİŁå½¢": 7142,
      "è¶Ĭå¡Ķ": 7143,
      "èĦ¸čĊ": 7144,
      "åĵ¦æ²Ļå¨ģçİĽ": 7145,
      "lplçļĦ": 7146,
      "å¾ĢåĲİ": 7147,
      "äºĴèģĶç½ĳ": 7148,
      "åĽłç´łãĢĤčĊ": 7149,
      "https://": 7150,
      "2Ġ": 7151,
      "EZ": 7152,
      "as": 7153,
      "çļĦä¸»": 7154,
      "ç»Ĭ": 7155,
      "æĪĳéĹ®": 7156,
      "æīĵçº¿": 7157,
      "è¢«éªĤ": 7158,
      "å¾ĹäºĨï¼Į": 7159,
      "å®ŀæĹ¶": 7160,
      "éľį": 7161,
      "çİ©å¾Ĺ": 7162,
      "å¾Īä¹ħ": 7163,
      "æĻ¨": 7164,
      "åĵªåĲĴ": 7165,
      "èıĩ": 7166,
      "å¤įåĪ¶": 7167,
      "æ¸¸æĪıä¸ŃçļĦ": 7168,
      "å¹²æī°": 7169,
      "æĤ¦": 7170,
      "èħ»": 7171,
      "æħĪ": 7172,
      "æĻºæħ§": 7173,
      "æĬ½éĻĢèŀº": 7174,
      "åħ³äºİâĢľ": 7175,
      "å°¤åħ¶æĺ¯": 7176,
      "åī©ä¸ĭçļĦ": 7177,
      "é³į": 7178,
      "çĮľæµĭ": 7179,
      "åį·æ¯Ľ": 7180,
      "åĴĴæ´»": 7181,
      "ä¸ĢèĦļè¸¢æŃ»": 7182,
      "åļ¯åļ¯åļ¯": 7183,
      "å§¿åĬ¿": 7184,
      "å¸¸è§ģçļĦ": 7185,
      "JKL": 7186,
      "3c": 7187,
      "tm": 7188,
      "æľ´": 7189,
      "ä¸Ģä¸ĩ": 7190,
      "æīĵig": 7191,
      "å¯¹å±Ģ": 7192,
      "åĲİæĤĶ": 7193,
      "è¢«åįķæĿĢ": 7194,
      "é«ĺåľ°": 7195,
      "ç²ª": 7196,
      "å¹¶ä¸įä¼ļ": 7197,
      "ç¥ŀç§ĺ": 7198,
      "èī°": 7199,
      "éķ¿ï¼Į": 7200,
      "åģļå¥½": 7201,
      "çļĦæĺ¯ï¼Į": 7202,
      "åıĮæİĴ": 7203,
      "çļĩæĹı": 7204,
      "è¸¹": 7205,
      "èĥ½åĬĽåĴĮ": 7206,
      "å°½åŃĿ": 7207,
      "åĭĥ": 7208,
      "æĢĢåŃķ": 7209,
      "æĬ±æĢ¨": 7210,
      "å±ıå¹ķ": 7211,
      "åĵ¦ï¼ŁðŁĺ¯åĵ¦ï¼ŁðŁĺ¯åĵ¦ï¼ŁðŁĺ¯åĵ¦ï¼ŁðŁĺ¯": 7212,
      "64": 7213,
      "ek": 7214,
      "ï¼Įbin": 7215,
      "çļĦè®¾è®¡": 7216,
      "ãĢĤæľ¬": 7217,
      "å®ı": 7218,
      "å®ł": 7219,
      "æ²¾": 7220,
      "ä½łè¯´çļĦ": 7221,
      "æīĵä¼¤å®³": 7222,
      "è¿ĺæĮº": 7223,
      "ä¸ĭä¸Ģä¸ª": 7224,
      "å¤ļçļĦ": 7225,
      "æıĲåĩºäºĨ": 7226,
      "æĻĵ": 7227,
      "åŃ¦éĻ¢": 7228,
      "äºĮéĺµ": 7229,
      "åĽĽä¸ªäºº": 7230,
      "çĲĨè§£åĴĮ": 7231,
      "æĭīåħĭ": 7232,
      "åĪĨæŀĲãĢĤčĊ": 7233,
      "å°ĨåĨĽ": 7234,
      "ç©ºä¸Ń": 7235,
      "æī¾ä¸ª": 7236,
      "ç«ĭé©¬": 7237,
      "âĢĿçļĦåĲ«ä¹ī": 7238,
      "ç¼ºå°ĳ": 7239,
      "Ġ04": 7240,
      "é¢ĳç¹ģ": 7241,
      "åŀĥåľ¾æ¡¶": 7242,
      "åŁ¹åħ»": 7243,
      "iPhone": 7244,
      "Ġä¸į": 7245,
      "ï¼ĮåħĪ": 7246,
      "ä¸įå®¹æĺĵ": 7247,
      "æĪĳç»ıå¸¸": 7248,
      "åľ¨åľ°": 7249,
      "æ¯Ķä¾ĭ": 7250,
      "å°ıçļĦ": 7251,
      "çĲĨæĥ³": 7252,
      "å¼ĢäºĨ": 7253,
      "æĢ§æĪĸ": 7254,
      "å¼ºè¡Į": 7255,
      "éĥ¨éĹ¨": 7256,
      "æŁĲç§įè¡Įä¸ºæĪĸ": 7257,
      "ãģª": 7258,
      "åĵ¥åĵ¥çļĦ": 7259,
      "ãĢĭãĢģ": 7260,
      "é¡¶èĸª": 7261,
      "ç±³éĨĭ": 7262,
      "åģ¥èº«": 7263,
      "æīĢæľīçļĦ": 7264,
      "ç»¼åĲĪæĿ¥çľĭ": 7265,
      "4-0": 7266,
      "åį±æľº": 7267,
      "èĢ³æľº": 7268,
      "åħħæ»¡äºĨ": 7269,
      "æĹ¨åľ¨": 7270,
      "ä»İä¸ĬéĿ¢çļĦæ®µèĲ½": 7271,
      "ml": 7272,
      "çļĦæķ°æį®": 7273,
      "ä¸Ģè½®": 7274,
      "æīĵæ¸¸æĪı": 7275,
      "ä¸Ĭåľº": 7276,
      "è¯´æĪĳ": 7277,
      "ãĢģç»ıæµİ": 7278,
      "ä¿ĺ": 7279,
      "æľĢä½İ": 7280,
      "åıĳæĺİ": 7281,
      "æīĭæľ¯": 7282,
      "åĬĽåĴĮ": 7283,
      "åĬĽåº¦": 7284,
      "åķĬï¼Įä½ł": 7285,
      "èĤĿ": 7286,
      "ä¸įä¼ļçİ©": 7287,
      "åŃĻåĲ§8U": 7288,
      "å°Ĩåħ¶": 7289,
      "è¿ĺæľīäºº": 7290,
      "çļĦäººçī©": 7291,
      "å¿«çĤ¹": 7292,
      "å¸ĥå±Ģ": 7293,
      "2.ĠçŃĶæ¡Ī": 7294,
      "love": 7295,
      "æī¿è¯º": 7296,
      "æĺ¯ä¸Ģæ¬¾": 7297,
      "ï¼ĮæĪĳä»¬åı¯ä»¥æİ¨æµĭ": 7298,
      "æ£Ģæµĭ": 7299,
      "è¿Ļç¯ĩæĳĺè¦ģ": 7300,
      "æ·»åĬł": 7301,
      "åį§æ§½": 7302,
      "ming": 7303,
      "wx": 7304,
      "ï¼Įèĩª": 7305,
      "çļĦåŁºæľ¬": 7306,
      "ä¸ĢåĿĹ": 7307,
      "æī¶": 7308,
      "èµĶ": 7309,
      "æĥ¹": 7310,
      "åı¯èĥ½æľī": 7311,
      "åı¯èĥ½æ¶īåıĬåĪ°": 7312,
      "åĳµ": 7313,
      "è¿ĩçļĦ": 7314,
      "æľĢèıľ": 7315,
      "æĹłéľĢ": 7316,
      "ç»ĻäºĨ": 7317,
      "å§»": 7318,
      "å¹½é»ĺåĴĮ": 7319,
      "æĩĤå¾Ĺ": 7320,
      "æİ¥ä¸ĭæĿ¥ï¼ĮæĪĳä»¬": 7321,
      "ï¼Įè¿ĺèĥ½": 7322,
      "äº®çľ¼": 7323,
      "ï¼Łä½łåı¯çľŁæĺ¯ä¸ª": 7324,
      "å®¶åºĹï¼ĮèĤ¡ä»·è·ĮåĢĴ": 7325,
      "1/": 7326,
      "ï¼ĮçľŁçļĦ": 7327,
      "ï¼ĮçĽ®åīį": 7328,
      "çļĦéĴ±": 7329,
      "æľīå®ŀåĬĽ": 7330,
      "æĪĳčĊ": 7331,
      "æĪĳæĢ»æĺ¯": 7332,
      "ä¹Īï¼ŁčĊ": 7333,
      "åĩºéĹ¨": 7334,
      "æ¡Ĩ": 7335,
      "æŁĲä½į": 7336,
      "çŁ¥åĲį": 7337,
      "å¤ªèıľ": 7338,
      "ï¼ĮèĢĮåĽŀçŃĶ": 7339,
      "èĢģåŃĲ": 7340,
      "åĩłåįģ": 7341,
      "æ¸¸é¾Ļ": 7342,
      "éĩĳè´¡": 7343,
      "igĠ": 7344,
      "tesčĊ": 7345,
      "æĬ¥å¤į": 7346,
      "ðŁĲ²": 7347,
      "éħįç½®": 7348,
      "æ¥¼2025-05-": 7349,
      "åıªæľīä¸Ģä¸ª": 7350,
      "é¦Ļæ§Ł": 7351,
      "ç»ĻæĪĳè¿Ļä¸ª": 7352,
      "æĺ¯ä»Ģä¹ĪæĦıæĢĿ": 7353,
      "æĽ¿ä»£": 7354,
      "æ¤ħ": 7355,
      ":38": 7356,
      "è°¢è°¢": 7357,
      "ãĢĤèĢĮâĢľ": 7358,
      "æĬ±å¤§èħ¿": 7359,
      "èĵĿèī²": 7360,
      "è¯¯è§£ãĢĤčĊ": 7361,
      "è¯¯è§£æĪĸ": 7362,
      "åºĶçĶ¨ç¨ĭåºı": 7363,
      "WE": 7364,
      "ji": 7365,
      "light": 7366,
      "ï¼ĮæĹ©": 7367,
      "ï¼ĮåĪ«äºº": 7368,
      "ï¼ĮåıįæŃ£": 7369,
      "çļĦä½įç½®": 7370,
      "ãĢĤå½ĵ": 7371,
      "å¼¥": 7372,
      "åı¯è¡Į": 7373,
      "åĴĮæĹł": 7374,
      "å¤§éĻĨ": 7375,
      "è¾ī": 7376,
      "ä¸Ńä¸ĭ": 7377,
      "åıªä¸įè¿ĩ": 7378,
      "è¿Ľå±ķ": 7379,
      "åı¯ä»¥æĢ»ç»ĵ": 7380,
      "åĩłæ³¢": 7381,
      "åıĪè¢«": 7382,
      "éĥģ": 7383,
      "å·²çŁ¥": 7384,
      "å¹³çŃī": 7385,
      "ç¬¬ä¸ĢæĹ¶éĹ´": 7386,
      "æĿĢčĊ": 7387,
      "åİŁæľ¬": 7388,
      "éĵº": 7389,
      "åŃĻĠ": 7390,
      "è¿ŀåĨł": 7391,
      "è½¬åıĺ": 7392,
      "çļĩåŃĲ": 7393,
      "Ġ13": 7394,
      "é£ŁåłĤ": 7395,
      "è®½åĪºæĪĸ": 7396,
      "çŁŃæĿ¿": 7397,
      "èĴľ": 7398,
      "çļĦæĥħåĨµä¸ĭï¼Į": 7399,
      "å¿ħè¦ģçļĦ": 7400,
      "doinb": 7401,
      "æĩĴå¾Ĺ": 7402,
      ".com/": 7403,
      "63": 7404,
      "BP": 7405,
      "vn": 7406,
      "ï¼Įçľĭçľĭ": 7407,
      "çļĦè¯Ħä»·": 7408,
      "ãĢĤä¸įè¿ĩ": 7409,
      "ãĢĤåħ¶æ¬¡ï¼Į": 7410,
      "åĲķ": 7411,
      "ä½¬": 7412,
      "âĢ¢": 7413,
      "çİ»": 7414,
      "çľĭåĩºæĿ¥": 7415,
      "äºĨï¼Įå°±": 7416,
      "åĽŀäºĭ": 7417,
      "çĶŁçļĦ": 7418,
      "åĸ±": 7419,
      "å¤ªå¥½": 7420,
      "ç©´": 7421,
      "æĮĩæİ§": 7422,
      "æĭ¿ä¸ª": 7423,
      "çĽ¸äºĴ": 7424,
      "åħ¬æŃ£": 7425,
      "æİ¨åĬ¨": 7426,
      "å¤įåĩº": 7427,
      "2025-5-19": 7428,
      "å²Ĺ": 7429,
      "ç¾İåĽ½äºº": 7430,
      "çļĦéĹ®é¢ĺãĢĤčĊ": 7431,
      "åĢĴéĹŃ": 7432,
      "ä¸įè¡ĮčĊ": 7433,
      "é¦ĸåħĪï¼ĮæĪĳä»¬éľĢè¦ģçĲĨè§£éĹ®é¢ĺçļĦæł¸å¿ĥï¼ļ": 7434,
      "åľ°åĮºçļĦ": 7435,
      "è´´åĲ§çĶ¨æĪ·_7": 7436,
      "é¹°": 7437,
      "åĹ·čĊ": 7438,
      "ï¼Įå¤©å¤©": 7439,
      "çļĦä¸ī": 7440,
      "çļĦåħ³éĶ®": 7441,
      "çļĦæ°´å¹³": 7442,
      "ãĢĤ\"": 7443,
      "å°±åĪ«": 7444,
      "åı¯ä¿¡": 7445,
      "çĽĨ": 7446,
      "ä¸Ĭè¿°": 7447,
      "ä¿¯": 7448,
      "æľ¬äºĭ": 7449,
      "éĽ¾": 7450,
      "åĮºï¼Į": 7451,
      "åĮºčĊ": 7452,
      "ä»£çłģ": 7453,
      "ç¼Ŀ": 7454,
      "çĭĹç²īä¸Ŀ": 7455,
      "ä½İï¼Į": 7456,
      "ãģŁ": 7457,
      "æĶ¶åī²": 7458,
      "10å¹´": 7459,
      "åĪºå®¢": 7460,
      "å¹½é»ĺæĪĸè®½åĪº": 7461,
      "çļĦä¸Ģéĥ¨åĪĨ": 7462,
      "æŀĦæĪĲ": 7463,
      "æĤ¨çļĦ": 7464,
      "å©ļå§»": 7465,
      "å·¥åħ·äºº": 7466,
      "å±ģèĤ¡": 7467,
      "å¼ºçĥĪçļĦ": 7468,
      "ï¼ģçİīçİīï¼ĮéĢĢå½¹ï¼ģçİīçİīï¼ĮéĢĢå½¹ï¼ģçİīçİīï¼ĮéĢĢå½¹ï¼ģçİīçİīï¼ĮéĢĢå½¹ï¼ģçİīçİīï¼ĮéĢĢå½¹ï¼ģçİīçİīï¼ĮéĢĢå½¹ï¼ģçİīçİīï¼ĮéĢĢå½¹ï¼ģçİīçİīï¼ĮéĢĢå½¹": 7469,
      "æļĤæĹ¶": 7470,
      "ps": 7471,
      "ä¸įè®©": 7472,
      "æīĩ": 7473,
      "èĥ½æľī": 7474,
      "æĪĳå·²ç»ı": 7475,
      "å¯¸": 7476,
      "å¯¹åħ¶": 7477,
      "ä¸Ńç«ĭ": 7478,
      "ä»¥æĿ¥": 7479,
      "åīįåĩłå¤©": 7480,
      "åħ¨ç¨ĭ": 7481,
      "ä¹ĭåĬĽ": 7482,
      "ç²®": 7483,
      "æĭ¿æĿ¥": 7484,
      "æĭ¿åĨłåĨĽ": 7485,
      "å®ĮäºĨčĊ": 7486,
      "éĢģæİī": 7487,
      "æīįæľī": 7488,
      "å£®": 7489,
      "éĵĥ": 7490,
      "é¾ĻéŃĤ": 7491,
      "èħ¹": 7492,
      "æ°ĳä¼Ĺ": 7493,
      "ç®Ģæ´ģ": 7494,
      "è®½åĪºæĦıåĳ³": 7495,
      "éĺ²ç©º": 7496,
      "åĪ·åĪ°": 7497,
      "åĩıä¼¤": 7498,
      "ç®ĢåįķçļĦ": 7499,
      "å°±ç®ĹäºĨï¼Į": 7500,
      "çĺ¾": 7501,
      "æĢİä¹ĪåĬŀï¼ŁčĊ": 7502,
      "æ°§åĮĸ": 7503,
      "çºªå¾ĭæĢ§": 7504,
      "cä½į": 7505,
      "ï¼Įè¾ĵ": 7506,
      "ãĢĤéľĢè¦ģ": 7507,
      "è¿Ļè¯Ŀ": 7508,
      "æĢĤ": 7509,
      "å°±è¿Ļ": 7510,
      "çĽ¯": 7511,
      "ä¸ŃéĹ´": 7512,
      "ä¼ļåĦ¿": 7513,
      "åĳĥ": 7514,
      "åİ»čĊ": 7515,
      "åĪĨç±»": 7516,
      "ä»Ģä¹Īéĥ½": 7517,
      "æİ¥è¿ĳ": 7518,
      "æĪĺèĪ°": 7519,
      "å¾Īå¿«": 7520,
      "æĢİä¹Īåı¯èĥ½": 7521,
      "èĢģäºº": 7522,
      "è¿Ļç§įåĽŀçŃĶ": 7523,
      "éĥĳ": 7524,
      "èĭ±éĽĦčĊ": 7525,
      "åıĮC": 7526,
      "åįģåĪĨ": 7527,
      "æ¨±": 7528,
      "å¸®ä½ł": 7529,
      "å¹½é»ĺçļĦæĸ¹å¼ı": 7530,
      "æĶ¯æĮģãĢĤčĊ": 7531,
      "åĽ½éĻħèµĽ": 7532,
      "æŁĲäºĽäºº": 7533,
      "èĴĤ": 7534,
      "ï¼ĮåĲĮæĹ¶ä¹Ł": 7535,
      "è®©æĪĳæĦŁåĪ°": 7536,
      "éĿ©åĳ½": 7537,
      "è½¬ä¼ļæľŁ": 7538,
      ",ä¸Ģ": 7539,
      "3ãĢģ": 7540,
      "qu": 7541,
      "ï¼ĮS": 7542,
      "ï¼Įæį¢": 7543,
      "ï¼Įçī¹åĪ«æĺ¯": 7544,
      "æĺ¯æ²¡æľī": 7545,
      "äºĨè¿Ļç§į": 7546,
      "ä¸įåıĬ": 7547,
      "ãĢĤè¯·éĹ®ï¼ļ": 7548,
      "ä¸ĢåĲį": 7549,
      "ä¸Ģåı£": 7550,
      "ä¸Ģçīĩ": 7551,
      "æľīå»¶è¿Ł": 7552,
      "ä¸ªå¤´": 7553,
      "âĢĿï¼Įå¹¶": 7554,
      "å¤§è§Ħæ¨¡": 7555,
      "è¿ĩäºĨ": 7556,
      "éĿ¢ç§¯": 7557,
      "æ¸¡": 7558,
      "éĩįéĩı": 7559,
      "åĬłéĢŁ": 7560,
      "ï¼Įä¸įç®¡": 7561,
      "ï¼īãĢĤčĊ": 7562,
      "æł¸æŃ¦åĻ¨": 7563,
      "2025-5-6": 7564,
      "è®¾å®ļ": 7565,
      "åĻª": 7566,
      "çģ«ç®Ń": 7567,
      "è§ĦåĪĴ": 7568,
      "Ġ08": 7569,
      "çĻ¾ä¸ĩ": 7570,
      "æŁ¥è¯¢": 7571,
      "ä¸Ńï¼ĮâĢľ": 7572,
      "åĺ´ç¡¬": 7573,
      "ï¼Įåı¯èĥ½æĺ¯ä¸ºäºĨ": 7574,
      "æĺ¯ä»Ģä¹Īï¼ŁčĊ": 7575,
      "æī£å¸½åŃĲ": 7576,
      "ï¼Įåı¯æĥľ": 7577,
      "åŃ¤çĭ¬": 7578,
      "cd": 7579,
      "oo": 7580,
      "ï¼Įæ»Ķåįļ": 7581,
      "çļĦä¸įæĺ¯": 7582,
      "çļĦä¸Ńåįķ": 7583,
      "çļĦåĬŁèĥ½": 7584,
      "æĺ¯èĦ²": 7585,
      "æĪĪ": 7586,
      "ä¸įåŃĺåľ¨": 7587,
      "ãĢĤçĶ±äºİ": 7588,
      "è¿ĻåĿĹ": 7589,
      "èĥ½è®©": 7590,
      "å°±èĢģå®ŀ": 7591,
      "åı¯æĢķ": 7592,
      "ä½łæĥ³": 7593,
      "æīĵä¸įäºĨ": 7594,
      "æ²¡éĤ£ä¹Ī": 7595,
      "åı¯èĥ½è®¤ä¸º": 7596,
      "åĽ½ç±į": 7597,
      "çĲ´": 7598,
      "ä¿º": 7599,
      "æ¯Ķä»ĸ": 7600,
      "éĺŁčĊ": 7601,
      "ç¾ģ": 7602,
      "é«ĺä¸Ń": 7603,
      "ä¸»åŃĲ": 7604,
      "ä¿¡å¿ĥ": 7605,
      "éĥ¨éĺŁ": 7606,
      "èµĦè®¯": 7607,
      "å½¢çĬ¶": 7608,
      "âĢĿï¼Įè¿Ļåı¯èĥ½æĺ¯åľ¨": 7609,
      "ä¸ĢçĤ¹čĊ": 7610,
      "çĻ¾åº¦": 7611,
      "ç¡¬å¸ģ": 7612,
      "èĴĭ": 7613,
      "ä¸İéĹ®é¢ĺæľ¬èº«": 7614,
      "çĺ¤": 7615,
      "èĬĤçĽ®æķĪæŀľ": 7616,
      "èµļéĴ±čĊ": 7617,
      "ura": 7618,
      "åĴĸåĸ±": 7619,
      "é©±éĢĲèĪ°": 7620,
      "ï¼Įç¡®å®ŀ": 7621,
      "ï¼Įjdg": 7622,
      "ï¼ĮçĶ¨æĿ¥": 7623,
      "çļĦæĬĢæľ¯": 7624,
      "çļĦæķħäºĭ": 7625,
      "çİĦ": 7626,
      "åĩ½": 7627,
      "æŀļ": 7628,
      "è°¦": 7629,
      "è§£æĶ¾": 7630,
      "å°±æĺ¯ä¸į": 7631,
      "å¾Īæľī": 7632,
      "é«ĺéĢŁ": 7633,
      "éĩİé©´": 7634,
      "æĸ°å¢ŀ": 7635,
      "äºĮæĪĺ": 7636,
      "ç¥ŀçİĭ": 7637,
      "éħ±": 7638,
      "åħ¬éĩĮ": 7639,
      "å·®ï¼Į": 7640,
      "æĭīé»ĳ": 7641,
      "æ®µä½į": 7642,
      "èµ°ä½į": 7643,
      "åıĮåŃĲ": 7644,
      "åĽŀåºĶãĢĤčĊ": 7645,
      "ç§°åı·": 7646,
      "éĹ®é¢ĺçļĦæł¸å¿ĥæĺ¯": 7647,
      "å°Ħæīĭ": 7648,
      "éĶĢåĶ®": 7649,
      "åĽ´ç»ķ": 7650,
      "âĢĿåĪĻæĺ¯ä¸Ģç§į": 7651,
      "æĦıä¹īãĢĤčĊ": 7652,
      "èµĸčĊ": 7653,
      "çļĦè¯Ńå¢ĥ": 7654,
      "çĤ¸å¼¹äºº": 7655,
      "æĺ¯èĦ²çļĦå·ħå³°åĲĹï¼Ł": 7656,
      "ï¼ĮéĻ¤éĿŀ": 7657,
      "è¿Ļä»¶äºĭ": 7658,
      "âĢĿæĺ¯ä¸Ģç§į": 7659,
      "ä½łèĩªå·±": 7660,
      "æ²¡çĶ¨": 7661,
      "æĪĸæŁĲç§į": 7662,
      "åı¯èĥ½è¢«": 7663,
      "å½¼": 7664,
      "ä¸Ģä¸ªäººçļĦ": 7665,
      "å°ıçĤ®": 7666,
      "æĬĬæı¡": 7667,
      "æĹłåĨł": 7668,
      "æĪĺçĬ¯": 7669,
      "è·¯ä¸Ĭ": 7670,
      "åıįé¦Ī": 7671,
      "è¿Ļç§įäºº": 7672,
      "èĲİ": 7673,
      "è·Łä»ĸ": 7674,
      "åħ¬äº¤": 7675,
      "è£Ļ": 7676,
      "éĩĳéĴ±": 7677,
      "æĸŃäººå½ĺ": 7678,
      "çļĩå¸Ŀ": 7679,
      "æ¸ħæ´ģ": 7680,
      "èħĶ": 7681,
      "çīĽæī¹": 7682,
      "æ¶ħæ§ĥç»Ħ": 7683,
      "å£°æĺİ": 7684,
      "éĽĨåĽ¢": 7685,
      "ç©¿çĶ²": 7686,
      "å·¨å¤§çļĦ": 7687,
      "å·¨éŃĶ": 7688,
      "ä¹ĭåĲİï¼Į": 7689,
      ":39": 7690,
      "å°±è¡ĮčĊ": 7691,
      "æīĢè°ĵçļĦ": 7692,
      "æīĵå¾Ĺè¿ĩ": 7693,
      "é©¾é©¶": 7694,
      "åĲ¸è¡Ģé¬¼": 7695,
      "æĹģè¾¹": 7696,
      "èįĴéĩİä¸Ń": 7697,
      "RT": 7698,
      "ä¸Ī": 7699,
      "çļĦå¤įæĿĤ": 7700,
      "æĺµ": 7701,
      "ä¸įè¯¥": 7702,
      "åľ¨æĪĳ": 7703,
      "å°±éĹ®": 7704,
      "å¥Ķ": 7705,
      "ä¸ĬéĿ¢çļĦ": 7706,
      "äºĨï¼Įblg": 7707,
      "çľŁèĥ½": 7708,
      "çľŁçĽ¸": 7709,
      "åĪĨåŃĲ": 7710,
      "æŁ±": 7711,
      "ä¾£": 7712,
      "æľºåĬ¨": 7713,
      "æ¶Ľ": 7714,
      "çŃĶæ¡ĪçļĦ": 7715,
      "çŃīå¤ļ": 7716,
      "çŃīçº§": 7717,
      "éªĦ": 7718,
      "èĢģé¼ł": 7719,
      "ä¿Ŀå¯Ĩ": 7720,
      "åĩ»è´¥": 7721,
      "æķĻåŃ¦": 7722,
      "è¿ĻäºĽäºº": 7723,
      "éªĤä»ĸ": 7724,
      "-Ġ**": 7725,
      "å¤ĸæĪĺçľĭ": 7726,
      "æķĪæŀľãĢĤčĊ": 7727,
      "çļĦä¸įæ»¡æĪĸ": 7728,
      "å¹´è½»äºº": 7729,
      "åĲĬæīĵ": 7730,
      "Ġ00:": 7731,
      "care": 7732,
      "åį¡å°ĶçİĽ": 7733,
      "é¦ĸé¡µæĲľ": 7734,
      ",ä»ĸ": 7735,
      "ï¼Įåıĳ": 7736,
      "ï¼Įç¬¬äºĮ": 7737,
      "çļĦçīĪæľ¬": 7738,
      "çļĦè´¨çĸĳ": 7739,
      "ä»ĵ": 7740,
      "äºĨä»ĸ": 7741,
      "ä¸įåĪ©": 7742,
      "ä¸įç¬¦åĲĪ": 7743,
      "ãĢĤæİ¥çĿĢï¼Į": 7744,
      "äººäºº": 7745,
      "äººå£«": 7746,
      "éĥ½èµ¢": 7747,
      "ä¸Ĭæĺ¯": 7748,
      "åĩºåıĳ": 7749,
      "æĬĬæĪĳ": 7750,
      "çĲĨæĻº": 7751,
      "ç¾İåĽ¢": 7752,
      "æĢ»ä¹ĭ": 7753,
      "ðŁĲ¤": 7754,
      "æĵħ": 7755,
      "éŁ©æľį": 7756,
      "æħĮ": 7757,
      "è¿Ľè¡ĮčĊ": 7758,
      "æĿĥåĪ©": 7759,
      "16å¼º": 7760,
      "ãĢĤâĢĿæĺ¯çľŁçļĦ": 7761,
      "åİīå®³čĊ": 7762,
      "æĭįæĳĦ": 7763,
      "åı¶ç§į": 7764,
      "çİĭæľĿäºĨčĊ": 7765,
      "2023-9-": 7766,
      "è¶³å¤ŁçļĦ": 7767,
      "åĵ¦ðŁĺ®åĵ¦ðŁĺ®åĵ¦ðŁĺ®åĵ¦ðŁĺ®åĵ¦ðŁĺ®åĵ¦ðŁĺ®åĵ¦ðŁĺ®åĵ¦ðŁĺ®": 7768,
      "âĺģ": 7769,
      "ï¼Įè¿Ļå°±æĺ¯å°¿ç½ĲåŃĲè¯´çļĦ": 7770,
      "59": 7771,
      "8000": 7772,
      "ï¼Įå·²ç»ı": 7773,
      "çļĦç¤¾ä¼ļ": 7774,
      "ä¹Ļ": 7775,
      "æľīå¾Īå¤ļ": 7776,
      "åĩ¤": 7777,
      "çľĭå¥½": 7778,
      "åı¯èĥ½æĽ´": 7779,
      "åı¯èĥ½æĮĩçļĦæĺ¯": 7780,
      "å¥½ä¼¼": 7781,
      "è¢«æ¥¼ä¸»": 7782,
      "å®ŀè´¨": 7783,
      "åĪĨæľŁ": 7784,
      "çĶŁæĢģ": 7785,
      "æ¸ł": 7786,
      "å®¶ä¹¡": 7787,
      "ä¸»æĮģ": 7788,
      "çī©ä½ĵ": 7789,
      "ä¿ĿéĻ©": 7790,
      "éĩĳåº¸": 7791,
      "äºĶå¹´": 7792,
      "ä¸Ģåı¥è¯Ŀ": 7793,
      "éĢĢåĩº": 7794,
      "åı²ä¸Ĭ": 7795,
      "ä¹°äºĨ": 7796,
      "è¿ľç¨ĭ": 7797,
      "ç¼ºçĤ¹": 7798,
      "æľīäººè¯´": 7799,
      "Ġ05": 7800,
      "æľĢåĲİï¼ĮæĢ»ç»ĵ": 7801,
      "åĪĽä½ľ": 7802,
      "çİ°è±¡ãĢĤčĊ": 7803,
      "èº«ä½ĵåģ¥åº·": 7804,
      "åķ¦čĊ": 7805,
      "å±ŀäºİæĺ¯": 7806,
      "æĹłå¥ĪæĪĸ": 7807,
      "ï¼Įå°Ĩä¸įèĥ½åĨį": 7808,
      "æ±¡æŁĵ": 7809,
      "ðŁ¥´": 7810,
      "å¥¥è¿Ĳä¼ļ": 7811,
      "ç¦ģè¨Ģï¼Įå°Ĩä¸įèĥ½åĨį": 7812,
      "è¢«æ¥¼ä¸»ç¦ģè¨Ģï¼Įå°Ĩä¸įèĥ½åĨį": 7813,
      "è¢«æ¥¼ä¸»ç¦ģè¨Ģï¼Įå°Ĩä¸įèĥ½åĨįè¿Ľè¡ĮčĊ": 7814,
      ")čĊ": 7815,
      "to": 7816,
      "ĠéĤ£": 7817,
      "çļĦæĸ¹æ³ķ": 7818,
      "äºĨæŁĲç§į": 7819,
      "ãĢĤåĽłä¸º": 7820,
      "å¤§B": 7821,
      "ä¼ļåľ¨": 7822,
      "å¥½æĦıæĢĿ": 7823,
      "éĤ£ä¸Ģ": 7824,
      "åĪĨï¼Į": 7825,
      "åĽŀå¤´": 7826,
      "2018": 7827,
      "å¾Īé«ĺ": 7828,
      "èĦī": 7829,
      "æĽ´å¤§çļĦ": 7830,
      "æĻ´": 7831,
      "ç²Ĵ": 7832,
      "çŃīå¾ħ": 7833,
      "æ°´çļĦ": 7834,
      "çº¿æĿĥ": 7835,
      "çĶµæ±ł": 7836,
      "æľĢåĲİçļĦ": 7837,
      "è½¦ï¼Į": 7838,
      "ä»ħä»ħ": 7839,
      "æ·±åĪ»": 7840,
      "weiåĵ¥": 7841,
      "éĺ³åħī": 7842,
      "èĿ¶": 7843,
      "è½®æį¢": 7844,
      "é¸Łåįļ": 7845,
      "__çļĦ": 7846,
      "æįıčĊ": 7847,
      "æĲŃéħį": 7848,
      "éĻĦè¿ĳ": 7849,
      "çĸ²åĬ³": 7850,
      "èĹ¤äºķ": 7851,
      "å´½ç§į": 7852,
      "åĵĶåĵ©": 7853,
      "ï¼Įè¦ģæĺ¯": 7854,
      "çļĦæ²¡": 7855,
      "ä¸įæ¯Ķ": 7856,
      "ä¸įçİ©": 7857,
      "ä¸ªæľĪ": 7858,
      "èĥ½ä¸į": 7859,
      "èĥ½åĴĮ": 7860,
      "åĴĮè°Ĳ": 7861,
      "âĢĿï¼Ī": 7862,
      "è¿ĺéľĢè¦ģ": 7863,
      "ä»¥âĢľ": 7864,
      "å¤ļæł·": 7865,
      "å¤ļè¯´äºĨ": 7866,
      "åħ¶åľ¨": 7867,
      "ç»ıçºª": 7868,
      "ç¾¡": 7869,
      "è¿ĽäºĨ": 7870,
      "è·¯è¿ĩ": 7871,
      "æĢİä¹Īåģļ": 7872,
      "çģĮ": 7873,
      "æ·Ĩ": 7874,
      "åİŁçĲĨ": 7875,
      "æıĲåĪ°çļĦâĢľ": 7876,
      "Ġ13:": 7877,
      "åİ»å¹´çļĦ": 7878,
      "ï¼Įè¿ĺè¦ģ": 7879,
      "æ··æ·Ĩ": 7880,
      "åĩıèĤ¥": 7881,
      "æĢ»ç»ĵæĿ¥è¯´ï¼Į": 7882,
      "æĪĳè¯´åı¥": 7883,
      "æīĵä¸ªèĥ¶": 7884,
      "æģ°å½ĵ": 7885,
      "åĶīï¼Į": 7886,
      "ç¨įå¾®": 7887,
      "ãĢĭãĢģãĢĬ": 7888,
      "400": 7889,
      "BA": 7890,
      "viper": 7891,
      "ĠblgĠ": 7892,
      "ï¼ĮåĪ°": 7893,
      "ï¼Įå®ĥä»¬": 7894,
      "ï¼Įè¯ķåĽ¾": 7895,
      "æľµ": 7896,
      "æĪĳåıª": 7897,
      "æĪĳä¸įçŁ¥éģĵ": 7898,
      "æĢĶ": 7899,
      "åĵĩ": 7900,
      "ä¸ĬäºĨčĊ": 7901,
      "éľī": 7902,
      "çļĦï¼Įä½ł": 7903,
      "æ¯ĶèµĽčĊ": 7904,
      "å£³": 7905,
      "ç¬¬ä¸Ģè½®": 7906,
      "çĶ·åŃĲ": 7907,
      "æŀģèĩ´": 7908,
      "éĶ®çĽĺ": 7909,
      "éļıåĲİ": 7910,
      "çł´è§£": 7911,
      "æĸĩåĮĸèĥĮæĻ¯": 7912,
      "å¤ºåĨłï¼ļ": 7913,
      "æ¯ķéľ²": 7914,
      "å¸ĿåĽ½": 7915,
      "å¥½å¥½å¥½å¥½": 7916,
      "åĽ¢å»ºäºĨčĊ": 7917,
      "çĶ©éĶħ": 7918,
      "å¦Ĥä¸ĭï¼ļčĊ": 7919,
      "åĵ¦ðŁĺ²åĵ¦ðŁĺ²": 7920,
      "xz": 7921,
      "zz": 7922,
      "ï¼Įå¤§å®¶": 7923,
      "ï¼Įç»ıå¸¸": 7924,
      "æĺ¯è¦ģ": 7925,
      "ä¸įåıĳ": 7926,
      "ä¸įéĢģ": 7927,
      "åĴ¨": 7928,
      "å¤§çļĦčĊ": 7929,
      "å¤§ä¼ĺåĬ¿": 7930,
      "è¯´ä½ł": 7931,
      "ä¸ĭæ¬¡": 7932,
      "å®ŀçļĦ": 7933,
      "å°ıåŃ¦": 7934,
      "ä¸īäºº": 7935,
      "2021-": 7936,
      "æĮĩå¯¼": 7937,
      "æĸ¯å¡Ķ": 7938,
      "äºĶæĿĢ": 7939,
      "åħĭåĪ¶": 7940,
      "æĶ¹æĶ¹": 7941,
      "any": 7942,
      "åıĸæ¶Ī": 7943,
      "èµ·æĿ¥ï¼Į": 7944,
      "æĥħåĨµä¸ĭï¼Į": 7945,
      "è§Ħå¾ĭ": 7946,
      "èĲ¥åħ»": 7947,
      "ä¸įå¥½è¯´": 7948,
      "1.ĠçĲĨè§£": 7949,
      "æĪ¿åŃĲ": 7950,
      "è®¾è®¡å¸Ī": 7951,
      "ç½Ĺé©¬": 7952,
      "ç¾¤ä½ĵçļĦ": 7953,
      "ç§ģäºº": 7954,
      "ï¼ĮéľĢè¦ģè¿Ľä¸ĢæŃ¥": 7955,
      "åĿĲåľ¨": 7956,
      "ç¼ĸçłģ": 7957,
      "é¾Łé¾Ł": 7958,
      "å°ļæľª": 7959,
      "èĢĮå·²čĊ": 7960,
      "ç½ķè§ģ": 7961,
      "CC": 7962,
      "Ġä»ĸ": 7963,
      "ï¼Įåĥı": 7964,
      "æĺ¯éĢļè¿ĩ": 7965,
      "äºĨä»Ģä¹Ī": 7966,
      "äºĨå¤ļå°ĳ": 7967,
      "ä¸įä¸Ģå®ļ": 7968,
      "ãĢĤãĢĤčĊ": 7969,
      "æĬ«": 7970,
      "å¤§åŃ¦çĶŁ": 7971,
      "ä¸ºï¼ļčĊ": 7972,
      "ä¹ŁæĮº": 7973,
      "åı¯èĥ½å¼ķåıĳ": 7974,
      "éĹ®é¢ĺæĺ¯": 7975,
      "çľŁè¦ģ": 7976,
      "è¢«å¯¹ä½į": 7977,
      "æĥ³èµ·": 7978,
      "ä½ĵåĪ¶": 7979,
      "ðŁ¦": 7980,
      "å½ĵçĭĹ": 7981,
      "è¾ĵäºĨčĊ": 7982,
      "è¾ĵèµ¢": 7983,
      "çİ°åľ¨æĺ¯": 7984,
      "äºĮä»£": 7985,
      "è·ŁæĪĳ": 7986,
      "å¥³åĦ¿": 7987,
      "è°ģæĺ¯": 7988,
      "åĨłåĨĽçļĦ": 7989,
      "éĩĳå¸ģ": 7990,
      "åĬ¿åĬĽ": 7991,
      "çĦ¶åĲİï¼ĮæĪĳ": 7992,
      "çĲĥåĳĺ": 7993,
      "æ³¨å®ļ": 7994,
      "ãģ«": 7995,
      "æłĩå¿Ĺ": 7996,
      "ç»ĿæľĽ": 7997,
      "çªģåĩº": 7998,
      "åŁºæľ¬éĥ½æĺ¯": 7999,
      "éŃĶæĢĶ": 8000,
      "ç§¯ç´¯": 8001,
      "è¡¥åħħ": 8002,
      "åħĦå¼Łä»¬": 8003,
      "ç£¨åĲĪ": 8004,
      "ðŁĳ»": 8005,
      "éĴ¢å½±": 8006,
      "ãĢĤåĲĮæĹ¶ï¼Į": 8007,
      "å®ĩå®Ļ": 8008,
      "å¸¦æģ¶äºº": 8009,
      "kda": 8010,
      "å³¡è°·": 8011,
      "Blg": 8012,
      "QQ": 8013,
      "te": 8014,
      "¹æŀľ": 8015,
      "ï¼Įæīĭ": 8016,
      "ï¼Įad": 8017,
      "ä¸įç¬¦": 8018,
      "å°ĺ": 8019,
      "ä¸Ģæ¬¡ï¼Į": 8020,
      "å¯¹åºĶ": 8021,
      "åı¯èĥ½æļĹç¤º": 8022,
      "å¤ļå¤ļ": 8023,
      "åİ»æī¾": 8024,
      "ç»ĻåĩºçļĦ": 8025,
      "ç»ıçĲĨ": 8026,
      "åºĶæ¿Ģ": 8027,
      "ä½ľæĸĩ": 8028,
      "åı¯ä»¥åľ¨": 8029,
      "æĽ´é«ĺ": 8030,
      "åĿŁ": 8031,
      "è¾ĵçļĦ": 8032,
      "çłĸ": 8033,
      "åĽĽé©±": 8034,
      "åħ¥ä¾µ": 8035,
      "åŁºåĽł": 8036,
      "èį·": 8037,
      "å»ºéĢł": 8038,
      "è®¾æĸ½": 8039,
      "åķ¥æĹ¶åĢĻ": 8040,
      "æĬ¥åĳĬ": 8041,
      "æĶ¯éĺŁä¼į": 8042,
      "å¤±ä¸ļ": 8043,
      "æĶ¶åĪ°": 8044,
      "ï¼ļâĢľä¼ĺæĥł": 8045,
      "æ¶ĪåĮĸ": 8046,
      "åħ±äº§": 8047,
      "çĶŁæ´»ä¸Ń": 8048,
      "æ··ä¹±": 8049,
      "æĻºåĬĽ": 8050,
      "é¢ĦèŃ¦": 8051,
      "çĮªåĪĢ": 8052,
      "èĳ£": 8053,
      "å¥ĸåĬ±": 8054,
      "-ĠâĢľ": 8055,
      "éĿĴéĴ¢å½±": 8056,
      "äº§çĶŁäºĨ": 8057,
      "æ³°è¿ª": 8058,
      "ä¸ĵä¸ļçļĦ": 8059,
      "åľ°çĲĥçļĦ": 8060,
      "æĬĺç£¨": 8061,
      "ðŁį¬": 8062,
      "æĥ©ç½ļ": 8063,
      "åĹ¦ï¼ļâĢľä¼ĺæĥł": 8064,
      "800âĢĿï¼Į": 8065,
      "ï¼Įäº¬ä¸ľé¦ĸé¡µæĲľ": 8066,
      "ç¤¼åĮħ800âĢĿï¼Į": 8067,
      "åĹ¦ï¼ļâĢľä¼ĺæĥłç¤¼åĮħ800âĢĿï¼Į": 8068,
      "ï¼Įäº¬ä¸ľé¦ĸé¡µæĲľåĹ¦ï¼ļâĢľä¼ĺæĥłç¤¼åĮħ800âĢĿï¼Į": 8069,
      "OP": 8070,
      "Ġä½Ĩ": 8071,
      "ï¼Įt1": 8072,
      "ï¼Įè¾ĵäºĨ": 8073,
      "ä¸įå¼Ģ": 8074,
      "ä¸įåģľ": 8075,
      "ä¼¸": 8076,
      "ä¸Ĭæľī": 8077,
      "ä¹Łå¾Ĺ": 8078,
      "éĹ®é¢ĺä¸ŃæıĲåĪ°âĢľ": 8079,
      "çº±": 8080,
      "éĤ£æĺ¯": 8081,
      "å±ĳ": 8082,
      "èĩªå®¶": 8083,
      "çĤ¹ãĢģ": 8084,
      "åĪ«å¸¦": 8085,
      "é«ĺæ½®": 8086,
      "ä¸īè§Ĵ": 8087,
      "ä¸»è§Ĥ": 8088,
      "èĭ¹æŀľ": 8089,
      "æŃ»äºĨï¼Į": 8090,
      "åĽ¢ä½ĵ": 8091,
      "åĵªä¸Ģä¸ª": 8092,
      "éĢļè¿ĩâĢľ": 8093,
      "åħ¶ä»ĸçļĦ": 8094,
      "æīĵéĩİčĊ": 8095,
      "åĲ«æľī": 8096,
      "åį¡èĲ¨": 8097,
      "åĻ¬": 8098,
      "ãģ§": 8099,
      "æĿ¿æĸ§": 8100,
      "ï¸ıčĊ": 8101,
      "åħħçĶµ": 8102,
      "èĻĲèıľ": 8103,
      "ADC": 8104,
      "çĽ¸åĲĮçļĦ": 8105,
      "çĴĥ": 8106,
      "æīĵä¸ªèĥ¶åħĪ": 8107,
      "98": 8108,
      "ï¼Įlpl": 8109,
      "ï¼Įè¯·": 8110,
      "ï¼Įè¡¨æĺİ": 8111,
      "ï¼Įelk": 8112,
      "ï¼Įèĥ½å¤Ł": 8113,
      "ä¹Ķ": 8114,
      "è¯±": 8115,
      "åĴĮæĪĳ": 8116,
      "ç§©": 8117,
      "éĥ½å¿«": 8118,
      "çĶ¨ä¸Ģç§į": 8119,
      "è¢«çº¿æĿĢ": 8120,
      "åķĥ": 8121,
      "ï¼ļæĪĳ": 8122,
      "ä»Ģä¹Īæł·": 8123,
      "çĶŁæĹ¥": 8124,
      "æĪĺèĥľ": 8125,
      "è¿Ļä¸ªéĺŁ": 8126,
      "ï¼ģâĢĿ": 8127,
      "åıĪæ²¡": 8128,
      "æ¯ĶèµĽçļĦ": 8129,
      "è®¾ç½®": 8130,
      "ï¼Įä»¥åīį": 8131,
      "ä¸ĩä¸Ģ": 8132,
      "åĭī": 8133,
      "åĪļæĿ¥": 8134,
      "äºĨä¸Ģå¹´": 8135,
      "ä»¥ä¸ºæĺ¯": 8136,
      "å±ĤéĿ¢": 8137,
      "ï¼Įåı¯èĥ½æĺ¯åĽłä¸º": 8138,
      "å¥½åĥıæĺ¯": 8139,
      "ãĤĭ": 8140,
      "å¹»ç¥ŀ": 8141,
      "æİ¢ç´¢": 8142,
      "ç¬¬ä¸īæĬĬ": 8143,
      "å¿įä¸įä½ı": 8144,
      "é£ŀè¡Įåĳĺ": 8145,
      "éļľç¢į": 8146,
      "ç»·ä¸įä½ı": 8147,
      "åĴ¨è¯¢": 8148,
      "2/": 8149,
      "31": 8150,
      "gap": 8151,
      "ï¼Įæĺ¯åĲ¦": 8152,
      "çļĦå¾Ī": 8153,
      "ãĢĤæľĢåĲİï¼Į": 8154,
      "è¿Ļåĩł": 8155,
      "æľīè¿ĻäºĽ": 8156,
      "äººåĴĮ": 8157,
      "ä½łæĢİä¹Ī": 8158,
      "æĿ¥çĿĢ": 8159,
      "å¥½äºĭ": 8160,
      "éĤ£æĹ¶åĢĻ": 8161,
      "å¤©æīį": 8162,
      "æ¡Ĥ": 8163,
      "äºĭä¸ļ": 8164,
      "çĽ´åĪ°": 8165,
      "å¤´åĥı": 8166,
      "åĨħé¬¼": 8167,
      "æĲº": 8168,
      "è¿Ļä¹Īå¥½": 8169,
      "éļ¾ç»·": 8170,
      "çĪĨäºĨčĊ": 8171,
      "åıĮæłĩ": 8172,
      "åĸľæ¬¢çļĦ": 8173,
      "å½±åĵįäºĨ": 8174,
      "ï¼Įå°±åĥı": 8175,
      "jdgĠ": 8176,
      "åĽŀæĿ¥äºĨï¼Į": 8177,
      "å±ħæ°ĳ": 8178,
      "è´¦æĪ·": 8179,
      "ç¼©åĨĻ": 8180,
      "ä¼¦çĲĨ": 8181,
      "bbbb": 8182,
      "ä½ĵçİ°äºĨ": 8183,
      "ç»ĵåĲĪéĹ®é¢ĺåĴĮçŃĶæ¡Īï¼Įåı¯ä»¥æİ¨æµĭ": 8184,
      "ç§©åºı": 8185,
      "ation": 8186,
      "hh": 8187,
      "nc": 8188,
      "s4": 8189,
      "ï¼Įäººå®¶": 8190,
      "çļĦå¤ª": 8191
    },
    "merges": [
      [
        "ä",
        "¸"
      ],
      [
        "ï",
        "¼"
      ],
      [
        "ï¼",
        "Į"
      ],
      [
        "ç",
        "ļ"
      ],
      [
        "çļ",
        "Ħ"
      ],
      [
        "ä",
        "º"
      ],
      [
        "č",
        "Ċ"
      ],
      [
        "æ",
        "ĺ"
      ],
      [
        "è",
        "¿"
      ],
      [
        "å",
        "ı"
      ],
      [
        "æĺ",
        "¯"
      ],
      [
        "ã",
        "Ģ"
      ],
      [
        "æ",
        "ľ"
      ],
      [
        "ä",
        "»"
      ],
      [
        "æ",
        "Ī"
      ],
      [
        "å",
        "¤"
      ],
      [
        "äº",
        "Ĩ"
      ],
      [
        "ä¸",
        "į"
      ],
      [
        "ãĢ",
        "Ĥ"
      ],
      [
        "å",
        "Ĳ"
      ],
      [
        "ä",
        "½"
      ],
      [
        "ä",
        "¹"
      ],
      [
        "å",
        "ħ"
      ],
      [
        "ĥ",
        "½"
      ],
      [
        "å",
        "°"
      ],
      [
        "ä¸",
        "Ģ"
      ],
      [
        "å",
        "Ī"
      ],
      [
        "å",
        "®"
      ],
      [
        "è",
        "¯"
      ],
      [
        "â",
        "Ģ"
      ],
      [
        "å",
        "ľ"
      ],
      [
        "æ",
        "ī"
      ],
      [
        "è¿",
        "Ļ"
      ],
      [
        "å",
        "Ľ"
      ],
      [
        "ç",
        "»"
      ],
      [
        "æľ",
        "ī"
      ],
      [
        "ä¸",
        "ª"
      ],
      [
        "è",
        "ĥ½"
      ],
      [
        "æ",
        "Ŀ"
      ],
      [
        "æĪ",
        "ĳ"
      ],
      [
        "äº",
        "º"
      ],
      [
        "ç",
        "Ķ"
      ],
      [
        "åľ",
        "¨"
      ],
      [
        "ä",
        "¼"
      ],
      [
        "è",
        "µ"
      ],
      [
        "å",
        "Ĩ"
      ],
      [
        "å",
        "Ĭ"
      ],
      [
        "ç",
        "ľ"
      ],
      [
        "ãĢĤ",
        "čĊ"
      ],
      [
        "å",
        "Ń"
      ],
      [
        "å",
        "¹"
      ],
      [
        "è",
        "®"
      ],
      [
        "å",
        "¼"
      ],
      [
        "æ",
        "Ĺ"
      ],
      [
        "ç",
        "İ"
      ],
      [
        "æ",
        "Ģ"
      ],
      [
        "é",
        "Ģ"
      ],
      [
        "æ",
        "ĸ"
      ],
      [
        "å",
        "į"
      ],
      [
        "ï¼",
        "Ł"
      ],
      [
        "å",
        "¯"
      ],
      [
        "å°",
        "±"
      ],
      [
        "é",
        "Ĺ"
      ],
      [
        "å",
        "¾"
      ],
      [
        "å",
        "ĩ"
      ],
      [
        "å",
        "Ĵ"
      ],
      [
        "åı",
        "¯"
      ],
      [
        "è",
        "Ģ"
      ],
      [
        "æ",
        "²"
      ],
      [
        "è",
        "§"
      ],
      [
        "å",
        "¥"
      ],
      [
        "åĴ",
        "Į"
      ],
      [
        "âĢ",
        "Ŀ"
      ],
      [
        "æ",
        "Ĭ"
      ],
      [
        "å",
        "·"
      ],
      [
        "ä½",
        "ł"
      ],
      [
        "é",
        "ĩ"
      ],
      [
        "âĢ",
        "ľ"
      ],
      [
        "æĿ",
        "¥"
      ],
      [
        "ç",
        "§"
      ],
      [
        "¦",
        "ģ"
      ],
      [
        "è",
        "¡"
      ],
      [
        "å",
        "ĵ"
      ],
      [
        "è",
        "¦ģ"
      ],
      [
        "å",
        "¸"
      ],
      [
        "å¤",
        "§"
      ],
      [
        "ä¸",
        "º"
      ],
      [
        "ä¹",
        "Ī"
      ],
      [
        "æī",
        "ĵ"
      ],
      [
        "é",
        "¢"
      ],
      [
        "è",
        "¾"
      ],
      [
        "é",
        "ĥ½"
      ],
      [
        "å¯",
        "¹"
      ],
      [
        "æ",
        "Ń"
      ],
      [
        "å",
        "İ"
      ],
      [
        "ç",
        "Ľ"
      ],
      [
        "å",
        "º"
      ],
      [
        "æ²",
        "¡"
      ],
      [
        "ä¸",
        "Ĭ"
      ],
      [
        "åĪ",
        "°"
      ],
      [
        "ä»",
        "ĸ"
      ],
      [
        "æ",
        "İ"
      ],
      [
        "æ",
        "¯"
      ],
      [
        "éĹ",
        "®"
      ],
      [
        "æ",
        "ĥ"
      ],
      [
        "è¿",
        "ĺ"
      ],
      [
        "ä¹",
        "Ł"
      ],
      [
        "è¯",
        "´"
      ],
      [
        "ä¸",
        "Ń"
      ],
      [
        "é",
        "ĺ"
      ],
      [
        "æ",
        "ł"
      ],
      [
        "æĪ",
        "ĸ"
      ],
      [
        "ä»",
        "¥"
      ],
      [
        "è",
        "ĩ"
      ],
      [
        "çľ",
        "ĭ"
      ],
      [
        "ç",
        "ī"
      ],
      [
        "é",
        "Ŀ"
      ],
      [
        "åı¯",
        "èĥ½"
      ],
      [
        "ç",
        "Ń"
      ],
      [
        "ä¼",
        "ļ"
      ],
      [
        "æ",
        "ķ"
      ],
      [
        "æ",
        "Ħ"
      ],
      [
        "å",
        "¿"
      ],
      [
        "é¢",
        "ĺ"
      ],
      [
        "ä¸",
        "ĭ"
      ],
      [
        "å",
        "½"
      ],
      [
        "ç§",
        "į"
      ],
      [
        "æ",
        "ĭ"
      ],
      [
        "åĩ",
        "º"
      ],
      [
        "çĶ",
        "¨"
      ],
      [
        "å¹",
        "´"
      ],
      [
        "æ",
        "ŀ"
      ],
      [
        "æ",
        "³"
      ],
      [
        "è",
        "´"
      ],
      [
        "ï¼Ł",
        "čĊ"
      ],
      [
        "éĹ®",
        "é¢ĺ"
      ],
      [
        "å",
        "Į"
      ],
      [
        "äºĨ",
        "ï¼Į"
      ],
      [
        "å",
        "ĳ"
      ],
      [
        "å",
        "¦"
      ],
      [
        "åŃ",
        "Ĳ"
      ],
      [
        "ä»",
        "¬"
      ],
      [
        "è¿",
        "ĩ"
      ],
      [
        "åĲ",
        "İ"
      ],
      [
        "äºĨ",
        "čĊ"
      ],
      [
        "è",
        "¢"
      ],
      [
        "èµ",
        "Ľ"
      ],
      [
        "ç",
        "º"
      ],
      [
        "ãĢ",
        "ģ"
      ],
      [
        "å¥",
        "½"
      ],
      [
        "è",
        "·"
      ],
      [
        "å¤",
        "ļ"
      ],
      [
        "æ",
        "Ķ"
      ],
      [
        "é",
        "Ĥ"
      ],
      [
        "æ",
        "Į"
      ],
      [
        "ç",
        "Ĥ"
      ],
      [
        "æĹ",
        "¶"
      ],
      [
        "çľ",
        "Ł"
      ],
      [
        "è¢",
        "«"
      ],
      [
        "å",
        "ī"
      ],
      [
        "å",
        "ķ"
      ],
      [
        "åĽ",
        "½"
      ],
      [
        "éĤ",
        "£"
      ],
      [
        "å¤",
        "©"
      ],
      [
        "å¾",
        "Ĺ"
      ],
      [
        "æ",
        "°"
      ],
      [
        "ç",
        "Ĳ"
      ],
      [
        "çİ",
        "°"
      ],
      [
        "å",
        "±"
      ],
      [
        "ç",
        "¬"
      ],
      [
        "é",
        "ģ"
      ],
      [
        "å®",
        "ŀ"
      ],
      [
        "ï¼",
        "ļ"
      ],
      [
        "èĩ",
        "ª"
      ],
      [
        "ä",
        "¿"
      ],
      [
        "æľ",
        "Ģ"
      ],
      [
        "æ",
        "¬"
      ],
      [
        "æ¯",
        "Ķ"
      ],
      [
        "è",
        "°"
      ],
      [
        "é",
        "Ļ"
      ],
      [
        "ä¸Ģ",
        "ä¸ª"
      ],
      [
        "åİ",
        "»"
      ],
      [
        "åı",
        "ĳ"
      ],
      [
        "é",
        "ľ"
      ],
      [
        "éĿ",
        "¢"
      ],
      [
        "çĤ",
        "¹"
      ],
      [
        "è¡",
        "Į"
      ],
      [
        "åĲ",
        "§"
      ],
      [
        "æ",
        "ı"
      ],
      [
        "ä¸į",
        "æĺ¯"
      ],
      [
        "æĪ",
        "Ĳ"
      ],
      [
        "éĺ",
        "Ł"
      ],
      [
        "æī",
        "ĭ"
      ],
      [
        "å°",
        "ı"
      ],
      [
        "å",
        "ģ"
      ],
      [
        "èĢ",
        "Į"
      ],
      [
        "å¦",
        "Ĥ"
      ],
      [
        "å®",
        "ļ"
      ],
      [
        "æĬ",
        "Ĭ"
      ],
      [
        "ç",
        "Ħ"
      ],
      [
        "çĲ",
        "Ĩ"
      ],
      [
        "åĪ",
        "Ĩ"
      ],
      [
        "åĽ",
        "ł"
      ],
      [
        "ä»",
        "Ģ"
      ],
      [
        "ç",
        "Ł"
      ],
      [
        "ä»Ģ",
        "ä¹Ī"
      ],
      [
        "åĬ",
        "Ľ"
      ],
      [
        "åħ",
        "³"
      ],
      [
        "ä½",
        "Ĩ"
      ],
      [
        "æ",
        "µ"
      ],
      [
        "åħ",
        "¶"
      ],
      [
        "ï¼Į",
        "æĪĳ"
      ],
      [
        "åĽ",
        "ŀ"
      ],
      [
        "çŃ",
        "Ķ"
      ],
      [
        "æ",
        "į"
      ],
      [
        "çĦ",
        "¶"
      ],
      [
        "åĲ",
        "Ĺ"
      ],
      [
        "æ",
        "Ł"
      ],
      [
        "æĹ",
        "ł"
      ],
      [
        "æĸ",
        "¹"
      ],
      [
        "åī",
        "į"
      ],
      [
        "ç",
        "½"
      ],
      [
        "å",
        "Ģ"
      ],
      [
        "å¼",
        "Ģ"
      ],
      [
        "äº",
        "İ"
      ],
      [
        "ç",
        "Ŀ"
      ],
      [
        "çĶ",
        "Ł"
      ],
      [
        "è§",
        "£"
      ],
      [
        "å°±",
        "æĺ¯"
      ],
      [
        "è¡",
        "¨"
      ],
      [
        "æ",
        "Ľ"
      ],
      [
        "åĵ",
        "¥"
      ],
      [
        "éľ",
        "Ģ"
      ],
      [
        "æ",
        "´"
      ],
      [
        "ç",
        "¡"
      ],
      [
        "ï¼Į",
        "è¿Ļ"
      ],
      [
        "æĺ",
        "İ"
      ],
      [
        "ä",
        "¾"
      ],
      [
        "æĢ",
        "§"
      ],
      [
        "æİ",
        "¥"
      ],
      [
        "ç»",
        "Ļ"
      ],
      [
        "æľ",
        "¬"
      ],
      [
        "æı",
        "Ĳ"
      ],
      [
        "è",
        "½"
      ],
      [
        "æĥ",
        "³"
      ],
      [
        "ç»",
        "ı"
      ],
      [
        "ç",
        "®"
      ],
      [
        "æł",
        "·"
      ],
      [
        "åķ",
        "Ĭ"
      ],
      [
        "ç",
        "Ī"
      ],
      [
        "é",
        "£"
      ],
      [
        "æ",
        "¸"
      ],
      [
        "åħ",
        "¨"
      ],
      [
        "å®",
        "¶"
      ],
      [
        "æ",
        "ģ"
      ],
      [
        "æ",
        "¡"
      ],
      [
        "è",
        "ĥ"
      ],
      [
        "åı",
        "ª"
      ],
      [
        "äº",
        "ĭ"
      ],
      [
        "è¯",
        "Ŀ"
      ],
      [
        "çĿ",
        "Ģ"
      ],
      [
        "éģ",
        "ĵ"
      ],
      [
        "æĦ",
        "ı"
      ],
      [
        "é",
        "Ķ"
      ],
      [
        "ç",
        "¾"
      ],
      [
        "æĥ",
        "ħ"
      ],
      [
        "2",
        "0"
      ],
      [
        "æľ",
        "º"
      ],
      [
        "éľĢ",
        "è¦ģ"
      ],
      [
        "ä½",
        "ĵ"
      ],
      [
        "åº",
        "Ķ"
      ],
      [
        "é",
        "ļ"
      ],
      [
        "ç",
        "«"
      ],
      [
        "å¿",
        "ĥ"
      ],
      [
        "çĽ",
        "´"
      ],
      [
        "çİ",
        "©"
      ],
      [
        "åħ",
        "Ī"
      ],
      [
        "è¿",
        "Ľ"
      ],
      [
        "å¼",
        "º"
      ],
      [
        "æĪ",
        "ĺ"
      ],
      [
        "ä¹",
        "ĭ"
      ],
      [
        "è",
        "Ĥ"
      ],
      [
        "å",
        "ĸ"
      ],
      [
        "ç",
        "¤"
      ],
      [
        "æĦ",
        "Ł"
      ],
      [
        "èĢ",
        "ħ"
      ],
      [
        "åľ",
        "°"
      ],
      [
        "æ³",
        "ķ"
      ],
      [
        "è",
        "¶"
      ],
      [
        "ä½",
        "ľ"
      ],
      [
        "æ²¡",
        "æľī"
      ],
      [
        "æ",
        "»"
      ],
      [
        "ç¬",
        "¬"
      ],
      [
        "å¾",
        "Ī"
      ],
      [
        "åĲ",
        "Ī"
      ],
      [
        "é",
        "Ľ"
      ],
      [
        "æŁ",
        "Ĳ"
      ],
      [
        "ð",
        "Ł"
      ],
      [
        "ç",
        "ĭ"
      ],
      [
        "çļĦ",
        "ï¼Į"
      ],
      [
        "çŁ",
        "¥"
      ],
      [
        "ç¡",
        "®"
      ],
      [
        "è¿Ļ",
        "ä¸ª"
      ],
      [
        "åı¯",
        "ä»¥"
      ],
      [
        "ç",
        "ķ"
      ],
      [
        "è",
        "Ļ"
      ],
      [
        "æŀ",
        "ľ"
      ],
      [
        "ç",
        "¥"
      ],
      [
        "å¤",
        "ª"
      ],
      [
        "å·",
        "±"
      ],
      [
        "åĬ",
        "¨"
      ],
      [
        "è",
        "Ħ"
      ],
      [
        "é",
        "¦"
      ],
      [
        "åĨ",
        "ł"
      ],
      [
        "æĽ",
        "´"
      ],
      [
        "èĩª",
        "å·±"
      ],
      [
        "å¤",
        "´"
      ],
      [
        "åĨ",
        "Ľ"
      ],
      [
        "ä¸",
        "¤"
      ],
      [
        "æ",
        "Ļ"
      ],
      [
        "åĪ",
        "«"
      ],
      [
        "5",
        "-"
      ],
      [
        "å½",
        "ĵ"
      ],
      [
        "ï¼Į",
        "ä½Ĩ"
      ],
      [
        "éĢ",
        "ī"
      ],
      [
        "äº",
        "Ľ"
      ],
      [
        "è",
        "ģ"
      ],
      [
        "ä¸",
        "İ"
      ],
      [
        "åº",
        "¦"
      ],
      [
        "è·",
        "¯"
      ],
      [
        "éĩ",
        "Į"
      ],
      [
        "ç»",
        "ĵ"
      ],
      [
        "b",
        "l"
      ],
      [
        "åı¯èĥ½",
        "æĺ¯"
      ],
      [
        "è",
        "Ī"
      ],
      [
        "é",
        "«"
      ],
      [
        "æ¡",
        "Ī"
      ],
      [
        "é«",
        "ĺ"
      ],
      [
        "æ¬",
        "¡"
      ],
      [
        "æ",
        "¶"
      ],
      [
        "æī",
        "Ģ"
      ],
      [
        "éĢ",
        "ļ"
      ],
      [
        "ä¸",
        "ī"
      ],
      [
        "å¸",
        "¸"
      ],
      [
        "åį",
        "ķ"
      ],
      [
        "ç",
        "³"
      ],
      [
        "é",
        "»"
      ],
      [
        "è§",
        "ī"
      ],
      [
        "æŃ",
        "£"
      ],
      [
        "å",
        "Ŀ"
      ],
      [
        "å¸",
        "¦"
      ],
      [
        "ï¼",
        "ģ"
      ],
      [
        "æ",
        "±"
      ],
      [
        "bl",
        "g"
      ],
      [
        "èµ",
        "·"
      ],
      [
        "ä¸",
        "»"
      ],
      [
        "è¾",
        "ĵ"
      ],
      [
        "ç",
        "²"
      ],
      [
        "çŃĶ",
        "æ¡Ī"
      ],
      [
        "é",
        "©"
      ],
      [
        "æĪ",
        "·"
      ],
      [
        "èµ",
        "¢"
      ],
      [
        "è¾",
        "¾"
      ],
      [
        "å",
        "Ł"
      ],
      [
        "æĢ",
        "İ"
      ],
      [
        "è",
        "Ĭ"
      ],
      [
        "åŃ",
        "¦"
      ],
      [
        "è",
        "ĭ"
      ],
      [
        "é¦",
        "ĸ"
      ],
      [
        "å¹",
        "¶"
      ],
      [
        "ç",
        "¨"
      ],
      [
        "çİ°",
        "åľ¨"
      ],
      [
        "åĨ",
        "ħ"
      ],
      [
        "çŃ",
        "ī"
      ],
      [
        "é",
        "ª"
      ],
      [
        "åĲ",
        "Į"
      ],
      [
        "éĩ",
        "İ"
      ],
      [
        "æĢİ",
        "ä¹Ī"
      ],
      [
        "è¯",
        "¥"
      ],
      [
        "åĮ",
        "ĸ"
      ],
      [
        "ï¼Į",
        "èĢĮ"
      ],
      [
        "å",
        "ĥ"
      ],
      [
        "æĸ",
        "°"
      ],
      [
        "åľ",
        "º"
      ],
      [
        "åı",
        "¥"
      ],
      [
        "äº",
        "Į"
      ],
      [
        "è",
        "º"
      ],
      [
        "èĢ",
        "ģ"
      ],
      [
        "ä¿",
        "¡"
      ],
      [
        "åĩ",
        "ł"
      ],
      [
        "æ°",
        "´"
      ],
      [
        "ç",
        "©"
      ],
      [
        "é",
        "Ĵ"
      ],
      [
        "åı",
        "į"
      ],
      [
        "æŃ",
        "¤"
      ],
      [
        "è®",
        "º"
      ],
      [
        "éĹ",
        "´"
      ],
      [
        "ç",
        "ĥ"
      ],
      [
        "ä½",
        "į"
      ],
      [
        "ç¥",
        "ŀ"
      ],
      [
        "é",
        "ķ"
      ],
      [
        "çº",
        "¿"
      ],
      [
        "éĩ",
        "į"
      ],
      [
        "åĬ",
        "ł"
      ],
      [
        "è®",
        "©"
      ],
      [
        "å¤",
        "ĸ"
      ],
      [
        "è¿Ļ",
        "ç§į"
      ],
      [
        "è¿ĺ",
        "æĺ¯"
      ],
      [
        "æ",
        "ļ"
      ],
      [
        "å",
        "§"
      ],
      [
        "æĸ",
        "ĩ"
      ],
      [
        "å",
        "¢"
      ],
      [
        "ç¾",
        "İ"
      ],
      [
        "åı",
        "Ī"
      ],
      [
        "ç",
        "ł"
      ],
      [
        "è¯",
        "Ń"
      ],
      [
        "åĢ",
        "Ļ"
      ],
      [
        "ç",
        "Ļ"
      ],
      [
        "çī",
        "¹"
      ],
      [
        "ä¸",
        "ĸ"
      ],
      [
        "20",
        "2"
      ],
      [
        "è",
        "ī"
      ],
      [
        "çī",
        "©"
      ],
      [
        "æľ",
        "Ł"
      ],
      [
        "æĮ",
        "ĩ"
      ],
      [
        "åı",
        "ĭ"
      ],
      [
        "æĭ",
        "¿"
      ],
      [
        "çĶ¨",
        "æĪ·"
      ],
      [
        "çĽ",
        "¸"
      ],
      [
        "å¼",
        "ı"
      ],
      [
        "åĽł",
        "ä¸º"
      ],
      [
        "å®",
        "Į"
      ],
      [
        "æ´",
        "»"
      ],
      [
        "éĹ®é¢ĺ",
        "çļĦ"
      ],
      [
        "ç³",
        "»"
      ],
      [
        "å®",
        "¹"
      ],
      [
        "æŃ",
        "»"
      ],
      [
        "ä¸Ģ",
        "ç§į"
      ],
      [
        "i",
        "n"
      ],
      [
        "æĢ",
        "Ŀ"
      ],
      [
        "èº",
        "«"
      ],
      [
        "é¦ĸ",
        "åħĪ"
      ],
      [
        "çľŁ",
        "çļĦ"
      ],
      [
        ".",
        "Ġ"
      ],
      [
        "å°",
        "¿"
      ],
      [
        "åĥ",
        "ı"
      ],
      [
        "è®",
        "¤"
      ],
      [
        "é",
        "ĥ"
      ],
      [
        "éĥ½",
        "æĺ¯"
      ],
      [
        "çķ",
        "Į"
      ],
      [
        "çļĦ",
        "čĊ"
      ],
      [
        "åĮ",
        "º"
      ],
      [
        "èĢ",
        "ĥ"
      ],
      [
        "å·",
        "²"
      ],
      [
        "è",
        "Ĳ"
      ],
      [
        "é",
        "¡"
      ],
      [
        "ç",
        "ģ"
      ],
      [
        "ä»",
        "£"
      ],
      [
        "é©",
        "¬"
      ],
      [
        "æ",
        "®"
      ],
      [
        "è¡¨",
        "è¾¾"
      ],
      [
        "ç®",
        "Ĺ"
      ],
      [
        "åĲ",
        "į"
      ],
      [
        "åį",
        "ļ"
      ],
      [
        "åı",
        "Ĭ"
      ],
      [
        "æĸ",
        "¯"
      ],
      [
        ":",
        "Ġ"
      ],
      [
        "ç",
        "ĸ"
      ],
      [
        "ä¸",
        "ļ"
      ],
      [
        "çŁ¥",
        "éģĵ"
      ],
      [
        "å¹",
        "³"
      ],
      [
        "åĽ",
        "Ľ"
      ],
      [
        "æį",
        "¢"
      ],
      [
        "éķ",
        "¿"
      ],
      [
        "éĩ",
        "ı"
      ],
      [
        "æķ",
        "°"
      ],
      [
        "åĪ",
        "¶"
      ],
      [
        "æ",
        "Ĳ"
      ],
      [
        "ç¤",
        "º"
      ],
      [
        "éĢ",
        "ģ"
      ],
      [
        "é",
        "Ł"
      ],
      [
        "è",
        "±"
      ],
      [
        "æĪĳ",
        "ä»¬"
      ],
      [
        "ä»",
        "İ"
      ],
      [
        "å°",
        "ĳ"
      ],
      [
        "æĹ¶",
        "åĢĻ"
      ],
      [
        "ç",
        "Ĭ"
      ],
      [
        "ä»",
        "Ĭ"
      ],
      [
        "åĽ",
        "¢"
      ],
      [
        "ç",
        "Į"
      ],
      [
        "é£",
        "ŀ"
      ],
      [
        "çĽ´",
        "æİ¥"
      ],
      [
        "æī",
        "į"
      ],
      [
        "æ",
        "·"
      ],
      [
        "èģ",
        "Ķ"
      ],
      [
        "å±",
        "Ģ"
      ],
      [
        "è·",
        "Ł"
      ],
      [
        "çĲĨ",
        "è§£"
      ],
      [
        "åı",
        "ĺ"
      ],
      [
        "å·",
        "¥"
      ],
      [
        "æ¸",
        "¸"
      ],
      [
        "åĨ",
        "³"
      ],
      [
        "ä¹",
        "ī"
      ],
      [
        "åĽŀ",
        "çŃĶ"
      ],
      [
        "éĥ",
        "¨"
      ],
      [
        "ç",
        "±"
      ],
      [
        "è°",
        "ĥ"
      ],
      [
        "å¥",
        "³"
      ],
      [
        "æĢ",
        "ģ"
      ],
      [
        "ä¼",
        "¼"
      ],
      [
        "çĶ",
        "µ"
      ],
      [
        "ï¼Į",
        "ä¸į"
      ],
      [
        "0",
        "0"
      ],
      [
        "ä¸ĸ",
        "çķĮ"
      ],
      [
        "ç",
        "¢"
      ],
      [
        "ç½",
        "ĳ"
      ],
      [
        "å¦Ĥ",
        "æŀľ"
      ],
      [
        "åĨ",
        "į"
      ],
      [
        "è°",
        "ģ"
      ],
      [
        "é",
        "ħ"
      ],
      [
        "ä¿",
        "Ŀ"
      ],
      [
        "ï¼Į",
        "ä½ł"
      ],
      [
        "åħ",
        "¬"
      ],
      [
[...]
